{
  "version": "1.0",
  "truncation": null,
  "padding": null,
  "added_tokens": [
    {
      "id": 0,
      "content": "[PAD]",
      "single_word": false,
      "lstrip": false,
      "rstrip": false,
      "normalized": false,
      "special": true
    },
    {
      "id": 1,
      "content": "[UNK]",
      "single_word": false,
      "lstrip": false,
      "rstrip": false,
      "normalized": false,
      "special": true
    },
    {
      "id": 2,
      "content": "[CLS]",
      "single_word": false,
      "lstrip": false,
      "rstrip": false,
      "normalized": false,
      "special": true
    },
    {
      "id": 3,
      "content": "[SEP]",
      "single_word": false,
      "lstrip": false,
      "rstrip": false,
      "normalized": false,
      "special": true
    },
    {
      "id": 4,
      "content": "[MASK]",
      "single_word": false,
      "lstrip": false,
      "rstrip": false,
      "normalized": false,
      "special": true
    }
  ],
  "normalizer": {
    "type": "BertNormalizer",
    "clean_text": true,
    "handle_chinese_chars": true,
    "strip_accents": null,
    "lowercase": false
  },
  "pre_tokenizer": {
    "type": "BertPreTokenizer"
  },
  "post_processor": {
    "type": "TemplateProcessing",
    "single": [
      {
        "SpecialToken": {
          "id": "[CLS]",
          "type_id": 0
        }
      },
      {
        "Sequence": {
          "id": "A",
          "type_id": 0
        }
      },
      {
        "SpecialToken": {
          "id": "[SEP]",
          "type_id": 0
        }
      }
    ],
    "pair": [
      {
        "SpecialToken": {
          "id": "[CLS]",
          "type_id": 0
        }
      },
      {
        "Sequence": {
          "id": "A",
          "type_id": 0
        }
      },
      {
        "SpecialToken": {
          "id": "[SEP]",
          "type_id": 0
        }
      },
      {
        "Sequence": {
          "id": "B",
          "type_id": 1
        }
      },
      {
        "SpecialToken": {
          "id": "[SEP]",
          "type_id": 1
        }
      }
    ],
    "special_tokens": {
      "[CLS]": {
        "id": "[CLS]",
        "ids": [
          2
        ],
        "tokens": [
          "[CLS]"
        ]
      },
      "[SEP]": {
        "id": "[SEP]",
        "ids": [
          3
        ],
        "tokens": [
          "[SEP]"
        ]
      }
    }
  },
  "decoder": {
    "type": "WordPiece",
    "prefix": "##",
    "cleanup": true
  },
  "model": {
    "type": "WordPiece",
    "unk_token": "[UNK]",
    "continuing_subword_prefix": "##",
    "max_input_chars_per_word": 100,
    "vocab": {
      "[PAD]": 0,
      "[UNK]": 1,
      "[CLS]": 2,
      "[SEP]": 3,
      "[MASK]": 4,
      "!": 5,
      "\"": 6,
      "%": 7,
      "&": 8,
      "'": 9,
      "(": 10,
      ")": 11,
      ",": 12,
      "-": 13,
      ".": 14,
      "/": 15,
      "0": 16,
      "1": 17,
      "2": 18,
      "3": 19,
      "4": 20,
      "5": 21,
      "6": 22,
      "7": 23,
      "8": 24,
      "9": 25,
      ":": 26,
      "<": 27,
      "=": 28,
      ">": 29,
      "?": 30,
      "A": 31,
      "B": 32,
      "C": 33,
      "D": 34,
      "E": 35,
      "F": 36,
      "G": 37,
      "H": 38,
      "I": 39,
      "L": 40,
      "M": 41,
      "N": 42,
      "O": 43,
      "P": 44,
      "R": 45,
      "S": 46,
      "T": 47,
      "U": 48,
      "V": 49,
      "W": 50,
      "Y": 51,
      "[": 52,
      "\\": 53,
      "]": 54,
      "_": 55,
      "a": 56,
      "b": 57,
      "c": 58,
      "d": 59,
      "e": 60,
      "f": 61,
      "g": 62,
      "h": 63,
      "i": 64,
      "j": 65,
      "k": 66,
      "l": 67,
      "m": 68,
      "n": 69,
      "o": 70,
      "p": 71,
      "q": 72,
      "r": 73,
      "s": 74,
      "t": 75,
      "u": 76,
      "v": 77,
      "w": 78,
      "x": 79,
      "y": 80,
      "z": 81,
      "##3": 82,
      "##7": 83,
      "##8": 84,
      "##9": 85,
      "##6": 86,
      "##0": 87,
      "##a": 88,
      "##5": 89,
      "##c": 90,
      "##2": 91,
      "##f": 92,
      "##4": 93,
      "##d": 94,
      "##e": 95,
      "##b": 96,
      "##1": 97,
      "##A": 98,
      "##i": 99,
      "##y": 100,
      "##l": 101,
      "##h": 102,
      "##r": 103,
      "##o": 104,
      "##w": 105,
      "##n": 106,
      "##v": 107,
      "##t": 108,
      "##u": 109,
      "##p": 110,
      "##g": 111,
      "##s": 112,
      "##m": 113,
      "##k": 114,
      "##T": 115,
      "##x": 116,
      "##R": 117,
      "##I": 118,
      "##C": 119,
      "##L": 120,
      "##B": 121,
      "##N": 122,
      "##G": 123,
      "##E": 124,
      "##U": 125,
      "##P": 126,
      "##M": 127,
      "##F": 128,
      "##O": 129,
      "##S": 130,
      "##D": 131,
      "##q": 132,
      "##Y": 133,
      "##z": 134,
      "##01": 135,
      "no": 136,
      "05": 137,
      "##va": 138,
      "##er": 139,
      "nova": 140,
      "##2c": 141,
      "16": 142,
      "##ta": 143,
      "201": 144,
      "##e4": 145,
      "2017": 146,
      "##35": 147,
      "##db": 148,
      "##93": 149,
      "##a9": 150,
      "##ed": 151,
      "10": 152,
      "##3d": 153,
      "11": 154,
      "##te": 155,
      "##0c": 156,
      "##pu": 157,
      "##om": 158,
      "com": 159,
      "##pute": 160,
      "compute": 161,
      "13": 162,
      "##fa": 163,
      "##41": 164,
      "lo": 165,
      "##57": 166,
      "log": 167,
      "##a9e": 168,
      "IN": 169,
      "##FO": 170,
      "INFO": 171,
      "re": 172,
      "54": 173,
      "##ver": 174,
      "##pi": 175,
      "##e4c": 176,
      "##dba": 177,
      "##2c4": 178,
      "ser": 179,
      "##ed93": 180,
      "##db41": 181,
      "##e40c": 182,
      "##35e4c": 183,
      "54fa": 184,
      "##35a9e": 185,
      "##dbaed93": 186,
      "##2c4e40c": 187,
      "##db412c4e40c": 188,
      "##35e4c35a9e": 189,
      "54fadb412c4e40c": 190,
      "##dbaed9335e4c35a9e": 191,
      "54fadb412c4e40cdbaed9335e4c35a9e": 192,
      "server": 193,
      "req": 194,
      "##fb": 195,
      "##ce": 196,
      "##9c": 197,
      "##en": 198,
      "##sta": 199,
      "##5b": 200,
      "##d6": 201,
      "##a4": 202,
      "##im": 203,
      "##96": 204,
      "in": 205,
      "##nce": 206,
      "##stance": 207,
      "##aa": 208,
      "##00": 209,
      "##46": 210,
      "##d2": 211,
      "instance": 212,
      "08": 213,
      "53": 214,
      "##c2c": 215,
      "##3d3": 216,
      "api": 217,
      "##a401": 218,
      "##aa5b": 219,
      "##96d2": 220,
      "##fbd6": 221,
      "##9c3d": 222,
      "##2cc2c": 223,
      "##a99c3d": 224,
      "113d3": 225,
      "##a401fbd6": 226,
      "##aa5b96d2": 227,
      "##2cc2caa5b96d2": 228,
      "##a99c3da401fbd6": 229,
      "113d3a99c3da401fbd6": 230,
      "113d3a99c3da401fbd62cc2caa5b96d2": 231,
      "257": 232,
      "sta": 233,
      "55": 234,
      "31": 235,
      "HT": 236,
      "##us": 237,
      "##sg": 238,
      "wsg": 239,
      "##TP": 240,
      "HTTP": 241,
      "wsgi": 242,
      "##eta": 243,
      "stat": 244,
      "##ac": 245,
      "len": 246,
      "tim": 247,
      "status": 248,
      "time": 249,
      "##ET": 250,
      "##b0": 251,
      "##931": 252,
      "##il": 253,
      "200": 254,
      "##39": 255,
      "GET": 256,
      "2931": 257,
      "##rt": 258,
      "##irt": 259,
      "##b7": 260,
      "##ag": 261,
      "os": 262,
      "li": 263,
      "lib": 264,
      "v2": 265,
      "##api": 266,
      "osapi": 267,
      "##ec": 268,
      "25746": 269,
      "##b8": 270,
      "servers": 271,
      "##62": 272,
      "##08": 273,
      "deta": 274,
      "detail": 275,
      "##da": 276,
      "18": 277,
      "##91": 278,
      "47": 279,
      "##78": 280,
      "##54": 281,
      "##as": 282,
      "##4c": 283,
      "##18": 284,
      "##48": 285,
      "##68": 286,
      "##dc": 287,
      "00": 288,
      "##42": 289,
      "##37": 290,
      "04": 291,
      "im": 292,
      "imag": 293,
      "##27": 294,
      "##ase": 295,
      "##ng": 296,
      "base": 297,
      "58": 298,
      "##97": 299,
      "##e7": 300,
      "##he": 301,
      "##ing": 302,
      "##ar": 303,
      "virt": 304,
      "##virt": 305,
      "libvirt": 306,
      "ad": 307,
      "01": 308,
      "02": 309,
      "03": 310,
      "##eb7": 311,
      "instances": 312,
      "40": 313,
      "##57e": 314,
      "##ed5": 315,
      "##b09": 316,
      "##dc18": 317,
      "4778": 318,
      "b57e": 319,
      "5854": 320,
      "##eb7b8": 321,
      "2ed5": 322,
      "addc18": 323,
      "5854eb7b8": 324,
      "addc1839": 325,
      "5854eb7b8b09": 326,
      "##or": 327,
      "var": 328,
      "06": 329,
      "##a7": 330,
      "##868": 331,
      "##92": 332,
      "##27c": 333,
      "##ac0": 334,
      "##f0c": 335,
      "##bb0": 336,
      "a48": 337,
      "##ab": 338,
      "##3908": 339,
      "##ecac": 340,
      "##37da": 341,
      "##e742": 342,
      "##93b7": 343,
      "imagecac": 344,
      "imagecache": 345,
      "##6227c": 346,
      "##9c868": 347,
      "##91bb0": 348,
      "##ac0e742": 349,
      "##f0c37da": 350,
      "a489c868": 351,
      "##3908ac0e742": 352,
      "##93b76227c": 353,
      "##91bb03908ac0e742": 354,
      "##f0c37da93b76227c": 355,
      "a489c868f0c37da93b76227c": 356,
      "a489c868f0c37da93b76227c91bb03908ac0e742": 357,
      "meta": 358,
      "##71": 359,
      "##56": 360,
      "1893": 361,
      "##6c": 362,
      "##4d": 363,
      "##es": 364,
      "17": 365,
      "##88": 366,
      "##is": 367,
      "26": 368,
      "ma": 369,
      "##95": 370,
      "##05": 371,
      "us": 372,
      "##43": 373,
      "##e2": 374,
      "##94": 375,
      "##02": 376,
      "##lo": 377,
      "##58": 378,
      "man": 379,
      "manag": 380,
      "manager": 381,
      "##f1": 382,
      "##64": 383,
      "22": 384,
      "4b": 385,
      "20": 386,
      "##on": 387,
      "41": 388,
      "##le": 389,
      "##la": 390,
      "##ent": 391,
      "##ca": 392,
      "##d1": 393,
      "##90": 394,
      "##98": 395,
      "##de": 396,
      "##vent": 397,
      "##laim": 398,
      "42": 399,
      "##data": 400,
      "metadata": 401,
      "45": 402,
      "##ck": 403,
      "25": 404,
      "48": 405,
      "da": 406,
      "on": 407,
      "21": 408,
      "##31": 409,
      "fil": 410,
      "27": 411,
      "46": 412,
      "12": 413,
      "##38": 414,
      "data": 415,
      "claim": 416,
      "image": 417,
      "th": 418,
      "23": 419,
      "op": 420,
      "open": 421,
      "##stack": 422,
      "openstack": 423,
      "to": 424,
      "##61": 425,
      "##51": 426,
      "4fb": 427,
      "##ea": 428,
      "##5b4": 429,
      "##d71": 430,
      "##3fb": 431,
      "##4c5": 432,
      "##32": 433,
      "##if": 434,
      "claims": 435,
      "##73d": 436,
      "86c": 437,
      "##72": 438,
      "4fbb": 439,
      "4062": 440,
      "86c4": 441,
      "34c5": 442,
      "##e45b4": 443,
      "0673d": 444,
      "##3fbe45b4": 445,
      "40623fbe45b4": 446,
      "0673dd71": 447,
      "at": 448,
      "this": 449,
      "##ting": 450,
      "To": 451,
      "##07": 452,
      "1892": 453,
      "##f8": 454,
      "##52": 455,
      "44": 456,
      "43": 457,
      "##fc": 458,
      "15": 459,
      "##f2": 460,
      "##67": 461,
      "##e1": 462,
      "##ud": 463,
      "##608": 464,
      "##6b8": 465,
      "##60": 466,
      "##57f": 467,
      "##59": 468,
      "##e8": 469,
      "##3ac": 470,
      "##30": 471,
      "##50": 472,
      "##47": 473,
      "##d8": 474,
      "##f7": 475,
      "e97": 476,
      "##40": 477,
      "##4697": 478,
      "##56a7": 479,
      "##574c": 480,
      "##a9e88": 481,
      "##6b8a9e88": 482,
      "##57f56a7": 483,
      "##3ac574c": 484,
      "e974697": 485,
      "##6b8a9e8857f56a7": 486,
      "##3ac574c6b8a9e8857f56a7": 487,
      "e9746973ac574c6b8a9e8857f56a7": 488,
      "e9746973ac574c6b8a9e8857f56a7608": 489,
      "##99": 490,
      "3e": 491,
      "##3b": 492,
      "##wn": 493,
      "files": 494,
      "##loud": 495,
      "38": 496,
      "##e2d": 497,
      "51": 498,
      "28": 499,
      "##36": 500,
      "##3c": 501,
      "##95d": 502,
      "4c": 503,
      "##ur": 504,
      "de": 505,
      "##ti": 506,
      "##a8": 507,
      "the": 508,
      "32": 509,
      "##eb": 510,
      "sp": 511,
      "##94ab": 512,
      "##d64c": 513,
      "4b64": 514,
      "##052c": 515,
      "9e2d": 516,
      "3ea4": 517,
      "895d": 518,
      "04d64c": 519,
      "##4d94ab": 520,
      "3ea4052c": 521,
      "04d64c4d94ab": 522,
      "##ul": 523,
      "49": 524,
      "##a1": 525,
      "vc": 526,
      "vcpu": 527,
      "##f6": 528,
      "##ee": 529,
      "##f0": 530,
      "##d7": 531,
      "##em": 532,
      "2013": 533,
      "50": 534,
      "##33": 535,
      "##it": 536,
      "##b1": 537,
      "##21": 538,
      "##f4": 539,
      "##bb": 540,
      "##5c": 541,
      "30": 542,
      "##tal": 543,
      "used": 544,
      "dr": 545,
      "##iver": 546,
      "driver": 547,
      "##imit": 548,
      "Event": 549,
      "Lif": 550,
      "MB": 551,
      "VM": 552,
      "event": 553,
      "##cle": 554,
      "##ycle": 555,
      "##ecycle": 556,
      "Lifecycle": 557,
      "35": 558,
      "##na": 559,
      "f7": 560,
      "loca": 561,
      "local": 562,
      "24": 563,
      "##a2": 564,
      "37": 565,
      "14": 566,
      "##34": 567,
      "##fe": 568,
      "19": 569,
      "57": 570,
      "for": 571,
      "js": 572,
      "json": 573,
      "node": 574,
      "07": 575,
      "##9b": 576,
      "##446": 577,
      "##fd": 578,
      "##st": 579,
      "##f5": 580,
      "##66": 581,
      "dis": 582,
      "##ve": 583,
      "##021": 584,
      "disk": 585,
      "##22": 586,
      "##11": 587,
      "##fa1": 588,
      "##b07": 589,
      "##5d": 590,
      "res": 591,
      "##a7d": 592,
      "##f1d": 593,
      "##e0": 594,
      "##e6": 595,
      "52": 596,
      "09": 597,
      "sec": 598,
      "##our": 599,
      "resour": 600,
      "resource": 601,
      "##a6": 602,
      "36": 603,
      "##bc": 604,
      "ex": 605,
      "##b8d1": 606,
      "ch": 607,
      "##fa10c": 608,
      "##ds": 609,
      "##ok": 610,
      "##4d446": 611,
      "##43b07": 612,
      "##onds": 613,
      "Took": 614,
      "f7b8d1": 615,
      "##021fb": 616,
      "##a7d021fb": 617,
      "##f1d4d446": 618,
      "seconds": 619,
      "##fa10ca7d021fb": 620,
      "##43b07fa10ca7d021fb": 621,
      "f7b8d1f1d4d446": 622,
      "f7b8d1f1d4d44643b07fa10ca7d021fb": 623,
      "##a0": 624,
      "56": 625,
      "##awn": 626,
      "spawn": 627,
      "##b2": 628,
      "##end": 629,
      "##77": 630,
      "##th": 631,
      "##age": 632,
      "##cti": 633,
      "##king": 634,
      "##tor": 635,
      "oth": 636,
      "sh": 637,
      "stor": 638,
      "##des": 639,
      "nodes": 640,
      "##ecking": 641,
      "##aring": 642,
      "use": 643,
      "checking": 644,
      "other": 645,
      "sharing": 646,
      "storage": 647,
      "Acti": 648,
      "Active": 649,
      "##ff": 650,
      "##dd": 651,
      "34": 652,
      "vcpus": 653,
      "Total": 654,
      "##nal": 655,
      "##d0": 656,
      "##44": 657,
      "##10": 658,
      "##f3": 659,
      "la": 660,
      "##f9": 661,
      "##20": 662,
      "##test": 663,
      "latest": 664,
      "29": 665,
      "##a5": 666,
      "##28": 667,
      "##49": 668,
      "##c1": 669,
      "88": 670,
      "##c8": 671,
      "##cce": 672,
      "98": 673,
      "##70": 674,
      "##4b": 675,
      "##e5": 676,
      "33": 677,
      "59": 678,
      "##d5": 679,
      "39": 680,
      "##ful": 681,
      "##ucce": 682,
      "##ss": 683,
      "##uccess": 684,
      "##uccessful": 685,
      "cp": 686,
      "cloud": 687,
      "pg": 688,
      "slo": 689,
      "tc": 690,
      "uta": 691,
      "##lab": 692,
      "##wv": 693,
      "##m1": 694,
      "cloudlab": 695,
      "pg0": 696,
      "slowv": 697,
      "tcloud": 698,
      "utah": 699,
      "slowvm1": 700,
      "124": 701,
      "##ro": 702,
      "000": 703,
      "##45": 704,
      "##3a": 705,
      "##69": 706,
      "file": 707,
      "##ter": 708,
      "GB": 709,
      "PO": 710,
      "limit": 711,
      "mem": 712,
      "successful": 713,
      "##PU": 714,
      "##ST": 715,
      "##ory": 716,
      "events": 717,
      "exter": 718,
      "POST": 719,
      "memory": 720,
      "external": 721,
      "##74": 722,
      "##e9": 723,
      "##76": 724,
      "4f": 725,
      "4a": 726,
      "191": 727,
      "##12": 728,
      "##ad": 729,
      "##b5": 730,
      "##ly": 731,
      "##e3": 732,
      "##79": 733,
      "##cc": 734,
      "##ack": 735,
      "tr": 736,
      "##acker": 737,
      "tracker": 738,
      "##b6": 739,
      "##b9": 740,
      "92": 741,
      "##75": 742,
      "##af": 743,
      "4d": 744,
      "81": 745,
      "Rem": 746,
      "Remo": 747,
      "##a3": 748,
      "4e": 749,
      "b8": 750,
      "##d3": 751,
      "##06": 752,
      "##d9": 753,
      "a8": 754,
      "##nc": 755,
      "##55": 756,
      "##ae": 757,
      "sy": 758,
      "sync": 759,
      "##16": 760,
      "##c2": 761,
      "not": 762,
      "##09": 763,
      "In": 764,
      "##rea": 765,
      "Instance": 766,
      "##ice": 767,
      "##vice": 768,
      "##tion": 769,
      "91": 770,
      "##53": 771,
      "82": 772,
      "##b4": 773,
      "##d4": 774,
      "##04": 775,
      "404": 776,
      "##3f": 777,
      "##bf": 778,
      "##am": 779,
      "2578": 780,
      "##yp": 781,
      "hyp": 782,
      "##vis": 783,
      "##ervis": 784,
      "hypervis": 785,
      "hypervisor": 786,
      "9c": 787,
      "##est": 788,
      "25743": 789,
      "##et": 790,
      "78": 791,
      "##limit": 792,
      "defa": 793,
      "Crea": 794,
      "De": 795,
      "Res": 796,
      "VC": 797,
      "b1": 798,
      "dest": 799,
      "net": 800,
      "un": 801,
      "##ied": 802,
      "##wor": 803,
      "##um": 804,
      "##ecif": 805,
      "1759": 806,
      "del": 807,
      "specif": 808,
      "##ulting": 809,
      "##roy": 810,
      "successfully": 811,
      "##limited": 812,
      "defaulting": 813,
      "Creating": 814,
      "Dele": 815,
      "Resum": 816,
      "VCPU": 817,
      "destroy": 818,
      "networ": 819,
      "unlimited": 820,
      "specified": 821,
      "Resumed": 822,
      "network": 823,
      "##7c": 824,
      "##3e": 825,
      "tas": 826,
      "task": 827,
      "vend": 828,
      "vendor": 829,
      "##65": 830,
      "po": 831,
      "##wer": 832,
      "state": 833,
      "power": 834,
      "##uring": 835,
      "During": 836,
      "Sk": 837,
      "has": 838,
      "pend": 839,
      "##ip": 840,
      "Skip": 841,
      "pending": 842,
      "spawning": 843,
      "a2": 844,
      "641": 845,
      "b2": 846,
      "157": 847,
      "##df": 848,
      "##6b": 849,
      "##1c": 850,
      "##ef": 851,
      "##7b": 852,
      "967": 853,
      "68": 854,
      "80": 855,
      "158": 856,
      "##19": 857,
      "##73": 858,
      "##63": 859,
      "bc": 860,
      "##llo": 861,
      "64172": 862,
      "##lloca": 863,
      "##9e": 864,
      "95": 865,
      "8c": 866,
      "##14": 867,
      "##29": 868,
      "##be": 869,
      "96": 870,
      "##9d": 871,
      "##mi": 872,
      "##bd": 873,
      "##03": 874,
      "##26": 875,
      "##ted": 876,
      "ac": 877,
      "a7": 878,
      "##ou": 879,
      "##NG": 880,
      "WA": 881,
      "##RN": 882,
      "##ING": 883,
      "WARN": 884,
      "WARNING": 885,
      "a6": 886,
      "Un": 887,
      "or": 888,
      "sw": 889,
      "##ap": 890,
      "##ble": 891,
      "##own": 892,
      "##nown": 893,
      "##known": 894,
      "##vable": 895,
      "Removable": 896,
      "Unknown": 897,
      "swap": 898,
      "##5e": 899,
      "b0": 900,
      "1583": 901,
      "blo": 902,
      "##ppi": 903,
      "mappi": 904,
      "device": 905,
      "block": 906,
      "mapping": 907,
      "##0e": 908,
      "001": 909,
      "##6d": 910,
      "##c7": 911,
      "##6e": 912,
      "97": 913,
      "b7": 914,
      "##ba": 915,
      "##17": 916,
      "##15": 917,
      "1910": 918,
      "264": 919,
      "##9a": 920,
      "512": 921,
      "##b3": 922,
      "ab": 923,
      "256": 924,
      "##able": 925,
      "ph": 926,
      "ram": 927,
      "##6f": 928,
      "##ys": 929,
      "##GB": 930,
      "##MB": 931,
      "total": 932,
      "phys": 933,
      "262": 934,
      "a1": 935,
      "##9f": 936,
      "##4f": 937,
      "##4a": 938,
      "90": 939,
      "87": 940,
      "bb": 941,
      "##4e": 942,
      "962": 943,
      "##25": 944,
      "##81": 945,
      "211": 946,
      "202": 947,
      "##c5": 948,
      "##87": 949,
      "a0": 950,
      "##6a": 951,
      "204": 952,
      "957": 953,
      "##2a": 954,
      "268": 955,
      "99": 956,
      "9b": 957,
      "##13": 958,
      "a4": 959,
      "380": 960,
      "203": 961,
      "fr": 962,
      "b6": 963,
      "b5": 964,
      "aa": 965,
      "296": 966,
      "##0a": 967,
      "##80": 968,
      "##5a": 969,
      "733": 970,
      "86": 971,
      "##82": 972,
      "##7a": 973,
      "##5f": 974,
      "##24": 975,
      "##1b": 976,
      "dea": 977,
      "176": 978,
      "##0b": 979,
      "8e": 980,
      "190": 981,
      "##nd": 982,
      "8b": 983,
      "93": 984,
      "##0f": 985,
      "fou": 986,
      "found": 987,
      "94": 988,
      "f8": 989,
      "##0d": 990,
      "85": 991,
      "##7e": 992,
      "##cb": 993,
      "2012": 994,
      "##ption": 995,
      "##ception": 996,
      "2048": 997,
      "exception": 998,
      "St": 999,
      "##pp": 1000,
      "##rted": 1001,
      "No": 1002,
      "At": 1003,
      "Claim": 1004,
      "CPU": 1005,
      "DE": 1006,
      "Pa": 1007,
      "Sta": 1008,
      "Ter": 1009,
      "an": 1010,
      "bu": 1011,
      "of": 1012,
      "pl": 1013,
      "vif": 1014,
      "##opp": 1015,
      "##ug": 1016,
      "##ple": 1017,
      "##pting": 1018,
      "##ged": 1019,
      "##mpting": 1020,
      "##LET": 1021,
      "##tempting": 1022,
      "comple": 1023,
      "##used": 1024,
      "##ild": 1025,
      "thro": 1026,
      "##nating": 1027,
      "spawned": 1028,
      "Deleting": 1029,
      "Deletion": 1030,
      "destroyed": 1031,
      "##llocate": 1032,
      "##minating": 1033,
      "96258": 1034,
      "95746": 1035,
      "free": 1036,
      "deallocate": 1037,
      "Stopp": 1038,
      "Attempting": 1039,
      "DELET": 1040,
      "Paused": 1041,
      "Started": 1042,
      "Terminating": 1043,
      "any": 1044,
      "build": 1045,
      "plug": 1046,
      "complete": 1047,
      "thrown": 1048,
      "Stopped": 1049,
      "DELETE": 1050,
      "plugged": 1051,
      "##ving": 1052,
      "Removing": 1053,
      "8d": 1054,
      "##23": 1055,
      "9f": 1056,
      "##ost": 1057,
      "host": 1058,
      "bf": 1059,
      "##2b": 1060,
      "258": 1061,
      "ba": 1062,
      "ava": 1063,
      "avail": 1064,
      "##cf": 1065,
      "bd": 1066,
      "b9": 1067,
      "user": 1068,
      "89": 1069,
      "9a": 1070,
      "83": 1071,
      "8f": 1072,
      "1c": 1073,
      "##1d": 1074,
      "##89": 1075,
      "##cd": 1076,
      "84": 1077,
      "b4": 1078,
      "271": 1079,
      "d5": 1080,
      "c8": 1081,
      "##ch": 1082,
      "a3": 1083,
      "1891": 1084,
      "##1f": 1085,
      "f0": 1086,
      "##2d": 1087,
      "1708": 1088,
      "be": 1089,
      "af": 1090,
      "a5": 1091,
      "a9": 1092,
      "c2": 1093,
      "##c3": 1094,
      "##c6": 1095,
      "##c4": 1096,
      "328": 1097,
      "##2e": 1098,
      "71": 1099,
      "##c9": 1100,
      "##c0": 1101,
      "9d": 1102,
      "254": 1103,
      "ae": 1104,
      "##2f": 1105,
      "25783": 1106,
      "b3": 1107,
      "c6": 1108,
      "##7f": 1109,
      "1909": 1110,
      "9e": 1111,
      "service": 1112,
      "c7": 1113,
      "119": 1114,
      "25790": 1115,
      "6c": 1116,
      "1916": 1117,
      "72": 1118,
      "##1a": 1119,
      "e8": 1120,
      "25778": 1121,
      "259": 1122,
      "Com": 1123,
      "up": 1124,
      "upda": 1125,
      "Compute": 1126,
      "Aud": 1127,
      "Fi": 1128,
      "alloca": 1129,
      "nam": 1130,
      "pc": 1131,
      "sch": 1132,
      "vi": 1133,
      "##cor": 1134,
      "##ew": 1135,
      "##iting": 1136,
      "##edul": 1137,
      "recor": 1138,
      "25776": 1139,
      "stats": 1140,
      "usable": 1141,
      "15GB": 1142,
      "locally": 1143,
      "resources": 1144,
      "64172MB": 1145,
      "available": 1146,
      "updated": 1147,
      "Auditing": 1148,
      "Final": 1149,
      "allocated": 1150,
      "name": 1151,
      "pci": 1152,
      "schedul": 1153,
      "view": 1154,
      "record": 1155,
      "scheduler": 1156,
      "67": 1157,
      "70": 1158,
      "ec": 1159,
      "##86": 1160,
      "##8d": 1161,
      "e7": 1162,
      "c1": 1163,
      "61": 1164,
      "d8": 1165,
      "25791": 1166,
      "63": 1167,
      "25786": 1168,
      "266": 1169,
      "142": 1170,
      "3c": 1171,
      "cc": 1172,
      "##1e": 1173,
      "25775": 1174,
      "2c": 1175,
      "7c": 1176,
      "491": 1177,
      "25788": 1178,
      "8a": 1179,
      "25799": 1180,
      "497": 1181,
      "66": 1182,
      "77": 1183,
      "cb": 1184,
      "pla": 1185,
      "##ment": 1186,
      "##cement": 1187,
      "placement": 1188,
      "64": 1189,
      "d2": 1190,
      "2b": 1191,
      "5b": 1192,
      "25795": 1193,
      "401": 1194,
      "25777": 1195,
      "25779": 1196,
      "261": 1197,
      "dc": 1198,
      "5c": 1199,
      "fc": 1200,
      "25774": 1201,
      "4f8": 1202,
      "441": 1203,
      "4fc": 1204,
      "1874": 1205,
      "278": 1206,
      "f6": 1207,
      "25793": 1208,
      "60": 1209,
      "f1": 1210,
      "25784": 1211,
      "143": 1212,
      "435": 1213,
      "e0": 1214,
      "d1": 1215,
      "498": 1216,
      "ami": 1217,
      "49c": 1218,
      "418": 1219,
      "1f": 1220,
      "437": 1221,
      "##7d": 1222,
      "134": 1223,
      "76": 1224,
      "##8a": 1225,
      "0c": 1226,
      "0b": 1227,
      "e6": 1228,
      "1b": 1229,
      "4a4": 1230,
      "4e8": 1231,
      "462": 1232,
      "62": 1233,
      "d7": 1234,
      "1575": 1235,
      "438": 1236,
      "d0": 1237,
      "141": 1238,
      "4db": 1239,
      "442": 1240,
      "##85": 1241,
      "2560": 1242,
      "496": 1243,
      "##83": 1244,
      "eb": 1245,
      "##8b": 1246,
      "267": 1247,
      "4ed": 1248,
      "6b": 1249,
      "25797": 1250,
      "ee": 1251,
      "117": 1252,
      "d6": 1253,
      "##3bc": 1254,
      "4a9": 1255,
      "44c": 1256,
      "##8e": 1257,
      "Base": 1258,
      "you": 1259,
      "##ove": 1260,
      "##move": 1261,
      "remove": 1262,
      "too": 1263,
      "young": 1264,
      "448": 1265,
      "4e1": 1266,
      "4e4": 1267,
      "##320": 1268,
      "408": 1269,
      "f3": 1270,
      "##961": 1271,
      "248": 1272,
      "e2": 1273,
      "##8f": 1274,
      "20GB": 1275,
      "2560MB": 1276,
      "46c": 1277,
      "4d8": 1278,
      "427": 1279,
      "4fa": 1280,
      "265": 1281,
      "##940": 1282,
      "f2": 1283,
      "139": 1284,
      "##5df": 1285,
      "4d6": 1286,
      "4a1": 1287,
      "ff": 1288,
      "##3d1": 1289,
      "400": 1290,
      "458": 1291,
      "##8c": 1292,
      "4dc": 1293,
      "##84": 1294,
      "##960": 1295,
      "120": 1296,
      "65": 1297,
      "431": 1298,
      "e5": 1299,
      "##f1b": 1300,
      "439": 1301,
      "454": 1302,
      "127": 1303,
      "##780": 1304,
      "##370": 1305,
      "3b": 1306,
      "73": 1307,
      "##521": 1308,
      "##a47": 1309,
      "0f": 1310,
      "468": 1311,
      "140": 1312,
      "457": 1313,
      "##028": 1314,
      "145": 1315,
      "d4": 1316,
      "272": 1317,
      "144": 1318,
      "6d": 1319,
      "##5b1": 1320,
      "e9": 1321,
      "246": 1322,
      "d3": 1323,
      "##98a": 1324,
      "270": 1325,
      "4ac": 1326,
      "e4": 1327,
      "231": 1328,
      "446": 1329,
      "432": 1330,
      "7b": 1331,
      "##350": 1332,
      "443": 1333,
      "146": 1334,
      "7e": 1335,
      "488": 1336,
      "##932": 1337,
      "##5b8": 1338,
      "3A": 1339,
      "4d2": 1340,
      "118": 1341,
      "260": 1342,
      "##050": 1343,
      "##f25": 1344,
      "091": 1345,
      "3a": 1346,
      "c3": 1347,
      "ro": 1348,
      "##ot": 1349,
      "##0c5": 1350,
      "##000": 1351,
      "252": 1352,
      "root": 1353,
      "cd": 1354,
      "8b8": 1355,
      "##921": 1356,
      "##070": 1357,
      "1d": 1358,
      "4ce": 1359,
      "##928": 1360,
      "e3": 1361,
      "##080": 1362,
      "3d": 1363,
      "4b7": 1364,
      "##641": 1365,
      "2e": 1366,
      "##011": 1367,
      "138": 1368,
      "ef": 1369,
      "ed": 1370,
      "251": 1371,
      "##380": 1372,
      "896": 1373,
      "4ec": 1374,
      "456": 1375,
      "116": 1376,
      "##420": 1377,
      "##311": 1378,
      "0d": 1379,
      "##904": 1380,
      "##391": 1381,
      "##a86": 1382,
      "ca": 1383,
      "##b97": 1384,
      "##d22": 1385,
      "##390": 1386,
      "##540": 1387,
      "263": 1388,
      "##058": 1389,
      "74": 1390,
      "115": 1391,
      "##f17": 1392,
      "130": 1393,
      "273": 1394,
      "128": 1395,
      "fb": 1396,
      "861": 1397,
      "##560": 1398,
      "##369": 1399,
      "227": 1400,
      "0008": 1401,
      "247": 1402,
      "##542": 1403,
      "##ity": 1404,
      "##938": 1405,
      "##411": 1406,
      "##b08": 1407,
      "44d": 1408,
      "##919": 1409,
      "6e": 1410,
      "255": 1411,
      "4b8": 1412,
      "7f": 1413,
      "cf": 1414,
      "e1": 1415,
      "##a60": 1416,
      "##00e": 1417,
      "##970": 1418,
      "##949": 1419,
      "1915": 1420,
      "f9": 1421,
      "##621": 1422,
      "##980": 1423,
      "0a": 1424,
      "3f": 1425,
      "75": 1426,
      "##a8c": 1427,
      "25998": 1428,
      "db": 1429,
      "d16": 1430,
      "##529": 1431,
      "79": 1432,
      "ce": 1433,
      "##976": 1434,
      "253": 1435,
      "##310": 1436,
      "##600": 1437,
      "##f1c": 1438,
      "##887": 1439,
      "##218": 1440,
      "##418": 1441,
      "##920": 1442,
      "##438": 1443,
      "907": 1444,
      "##ts": 1445,
      "##580": 1446,
      "##3c1": 1447,
      "##f4a": 1448,
      "493": 1449,
      "##460": 1450,
      "##f87": 1451,
      "c0": 1452,
      "##958": 1453,
      "##950": 1454,
      "490": 1455,
      "d9": 1456,
      "##e46": 1457,
      "##392": 1458,
      "##dc5": 1459,
      "##644": 1460,
      "69": 1461,
      "845": 1462,
      "f5": 1463,
      "277": 1464,
      "##f9d": 1465,
      "192": 1466,
      "4de": 1467,
      "##aa2": 1468,
      "##429": 1469,
      "0007": 1470,
      "288": 1471,
      "c5": 1472,
      "114": 1473,
      "137": 1474,
      "##abc": 1475,
      "##f28": 1476,
      "151": 1477,
      "##351": 1478,
      "##918": 1479,
      "276": 1480,
      "##075": 1481,
      "178": 1482,
      "911": 1483,
      "##a00": 1484,
      "147": 1485,
      "##b3b": 1486,
      "##010": 1487,
      "##db2": 1488,
      "##571": 1489,
      "##081": 1490,
      "##f10": 1491,
      "##36d": 1492,
      "368": 1493,
      "4e7": 1494,
      "##019": 1495,
      "275": 1496,
      "1e": 1497,
      "##361": 1498,
      "##910": 1499,
      "2f": 1500,
      "##009": 1501,
      "##62e": 1502,
      "1873": 1503,
      "##180": 1504,
      "##481": 1505,
      "269": 1506,
      "##952": 1507,
      "##951": 1508,
      "##d0b": 1509,
      "4d1": 1510,
      "958": 1511,
      "##410": 1512,
      "##d60": 1513,
      "##082": 1514,
      "868": 1515,
      "##dc1": 1516,
      "##719": 1517,
      "##581": 1518,
      "##609": 1519,
      "194": 1520,
      "##680": 1521,
      "##387": 1522,
      "##209": 1523,
      "7d": 1524,
      "##930": 1525,
      "##620": 1526,
      "##4cd": 1527,
      "##eb1": 1528,
      "##5dd": 1529,
      "4a2": 1530,
      "906": 1531,
      "##ce9": 1532,
      "##968": 1533,
      "##781": 1534,
      "##fc4": 1535,
      "2d": 1536,
      "242": 1537,
      "5a": 1538,
      "##3e1": 1539,
      "##2c7": 1540,
      "##358": 1541,
      "##051": 1542,
      "##619": 1543,
      "##5d4": 1544,
      "##98aee": 1545,
      "239": 1546,
      "fd": 1547,
      "##352": 1548,
      "##381": 1549,
      "45b": 1550,
      "##018": 1551,
      "##510": 1552,
      "##f2d": 1553,
      "237": 1554,
      "941": 1555,
      "b4d": 1556,
      "c4": 1557,
      "##91c": 1558,
      "##959": 1559,
      "##f44": 1560,
      "148": 1561,
      "dd": 1562,
      "##326": 1563,
      "154": 1564,
      "##2cb": 1565,
      "##788": 1566,
      "129": 1567,
      "##999": 1568,
      "##f6b": 1569,
      "##a69": 1570,
      "df": 1571,
      "ea": 1572,
      "##2c2": 1573,
      "##359": 1574,
      "##431": 1575,
      "##610": 1576,
      "##979": 1577,
      "##97c": 1578,
      "##f14": 1579,
      "##909": 1580,
      "150": 1581,
      "385": 1582,
      "492": 1583,
      "##edc": 1584,
      "##0cf": 1585,
      "##514": 1586,
      "093": 1587,
      "096": 1588,
      "098": 1589,
      "354": 1590,
      "4b0": 1591,
      "##570": 1592,
      "##6c0": 1593,
      "##720": 1594,
      "338": 1595,
      "4a7": 1596,
      "##5b9": 1597,
      "##270": 1598,
      "##561": 1599,
      "##05e": 1600,
      "##589": 1601,
      "##e10": 1602,
      "198": 1603,
      "352": 1604,
      "##3d4": 1605,
      "##ee5": 1606,
      "##5c3": 1607,
      "##0c5e2": 1608,
      "934": 1609,
      "##f68": 1610,
      "##e4cb97": 1611,
      "##488": 1612,
      "##07c": 1613,
      "##fe98aee": 1614,
      "##a47fe98aee": 1615,
      "##a600c5e2": 1616,
      "##00ee4cb97": 1617,
      "d16a600c5e2": 1618,
      "##a47fe98aee00ee4cb97": 1619,
      "d16a600c5e2a47fe98aee00ee4cb97": 1620,
      "d16a600c5e2a47fe98aee00ee4cb9743": 1621,
      "1a": 1622,
      "5f": 1623,
      "6f": 1624,
      "7a": 1625,
      "##aa7": 1626,
      "##399": 1627,
      "##371": 1628,
      "274": 1629,
      "##60b": 1630,
      "281": 1631,
      "##3cd": 1632,
      "##a8a": 1633,
      "f4": 1634,
      "##785": 1635,
      "##271": 1636,
      "##6c1": 1637,
      "##981": 1638,
      "##319": 1639,
      "##ea8": 1640,
      "##470": 1641,
      "##a89": 1642,
      "##f4e": 1643,
      "235": 1644,
      "218": 1645,
      "113": 1646,
      "##aa1": 1647,
      "##acd": 1648,
      "250": 1649,
      "##612": 1650,
      "494": 1651,
      "901": 1652,
      "zon": 1653,
      "##ility": 1654,
      "##92d": 1655,
      "##ability": 1656,
      "##ea6": 1657,
      "##a0d": 1658,
      "availability": 1659,
      "zone": 1660,
      "101": 1661,
      "241": 1662,
      "4f0": 1663,
      "997": 1664,
      "921": 1665,
      "##760": 1666,
      "##e4a": 1667,
      "##3d9": 1668,
      "##acc": 1669,
      "##088": 1670,
      "##989": 1671,
      "4eb": 1672,
      "bf8": 1673,
      "##d61": 1674,
      "##397": 1675,
      "##485": 1676,
      "##d1a": 1677,
      "##312": 1678,
      "##31e": 1679,
      "##b17": 1680,
      "951": 1681,
      "##3d2": 1682,
      "##f11": 1683,
      "197": 1684,
      "243": 1685,
      "##d27": 1686,
      "##ac4": 1687,
      "##ad9": 1688,
      "##596": 1689,
      "##ed3": 1690,
      "##e87": 1691,
      "##36f": 1692,
      "0e": 1693,
      "238": 1694,
      "4da": 1695,
      "6a": 1696,
      "822": 1697,
      "##ec1": 1698,
      "##548": 1699,
      "##569": 1700,
      "##e20": 1701,
      "##ca1": 1702,
      "##520": 1703,
      "##309": 1704,
      "##f7e": 1705,
      "##9bf": 1706,
      "##e06": 1707,
      "361": 1708,
      "##fb1": 1709,
      "##a4b": 1710,
      "##ab4": 1711,
      "##645": 1712,
      "##079": 1713,
      "##fcd": 1714,
      "##d7d": 1715,
      "928": 1716,
      "##ce1": 1717,
      "##917": 1718,
      "##880": 1719,
      "##430": 1720,
      "##fd9": 1721,
      "##e0f": 1722,
      "195": 1723,
      "##fb6": 1724,
      "##461": 1725,
      "##181": 1726,
      "##406": 1727,
      "##f5f": 1728,
      "40c": 1729,
      "922": 1730,
      "##2cc": 1731,
      "##ac8": 1732,
      "##436": 1733,
      "228": 1734,
      "##679": 1735,
      "149": 1736,
      "852": 1737,
      "##355": 1738,
      "##35c": 1739,
      "##edf": 1740,
      "##020": 1741,
      "##ca0": 1742,
      "##d06": 1743,
      "5e": 1744,
      "801": 1745,
      "821": 1746,
      "##00f": 1747,
      "##dab": 1748,
      "##029": 1749,
      "##ea1": 1750,
      "##329": 1751,
      "##f8b": 1752,
      "##a84": 1753,
      "##93b": 1754,
      "##fbf": 1755,
      "##328": 1756,
      "##670": 1757,
      "##a17": 1758,
      "##f55": 1759,
      "4e9": 1760,
      "##e4e": 1761,
      "136": 1762,
      "##fac": 1763,
      "##fad": 1764,
      "##cec": 1765,
      "##5b5": 1766,
      "##54b": 1767,
      "##710": 1768,
      "##e1c": 1769,
      "249": 1770,
      "193": 1771,
      "196": 1772,
      "938": 1773,
      "##dbc": 1774,
      "##468": 1775,
      "##428": 1776,
      "##971": 1777,
      "##6cf": 1778,
      "##e82": 1779,
      "##409": 1780,
      "##ee0": 1781,
      "4d7": 1782,
      "##ede": 1783,
      "##fa8": 1784,
      "##b0b": 1785,
      "##912": 1786,
      "##27b": 1787,
      "##e8f": 1788,
      "##a2d": 1789,
      "##d55": 1790,
      "878": 1791,
      "fa": 1792,
      "167": 1793,
      "##a95": 1794,
      "##469": 1795,
      "##421": 1796,
      "##974": 1797,
      "378": 1798,
      "990": 1799,
      "912": 1800,
      "##93e": 1801,
      "##008": 1802,
      "##ac7": 1803,
      "##ec4": 1804,
      "188": 1805,
      "230": 1806,
      "##a16": 1807,
      "##e65": 1808,
      "##204": 1809,
      "092": 1810,
      "##2c9": 1811,
      "##2cd": 1812,
      "##ed8": 1813,
      "##467": 1814,
      "##e7b": 1815,
      "##024": 1816,
      "##f7b": 1817,
      "##b14": 1818,
      "##fbc": 1819,
      "##004": 1820,
      "##628": 1821,
      "##94b": 1822,
      "221": 1823,
      "##fdf": 1824,
      "##b4e": 1825,
      "171": 1826,
      "301": 1827,
      "810": 1828,
      "a5c": 1829,
      "##939": 1830,
      "##0ce": 1831,
      "##579": 1832,
      "##d23": 1833,
      "##e7c": 1834,
      "##02b": 1835,
      "##d1b": 1836,
      "##617": 1837,
      "##511": 1838,
      "##fe6": 1839,
      "991": 1840,
      "ba7": 1841,
      "fe": 1842,
      "##412": 1843,
      "##ec7": 1844,
      "##97f": 1845,
      "##e71": 1846,
      "021": 1847,
      "##947": 1848,
      "##640": 1849,
      "##f20": 1850,
      "##d80": 1851,
      "282": 1852,
      "##a12": 1853,
      "##f6d": 1854,
      "##f4b": 1855,
      "758": 1856,
      "988": 1857,
      "162": 1858,
      "##dbe": 1859,
      "##0c4": 1860,
      "##415": 1861,
      "##ce0": 1862,
      "##ecd": 1863,
      "##480": 1864,
      "002": 1865,
      "226": 1866,
      "##324": 1867,
      "##f2b": 1868,
      "##e85": 1869,
      "##e8e": 1870,
      "##30d": 1871,
      "##36e": 1872,
      "##e0b": 1873,
      "135": 1874,
      "c62": 1875,
      "##2c8": 1876,
      "##d2f": 1877,
      "182": 1878,
      "586": 1879,
      "##715": 1880,
      "##567": 1881,
      "##881": 1882,
      "##43e": 1883,
      "##f13": 1884,
      "##fe5": 1885,
      "308": 1886,
      "327": 1887,
      "390": 1888,
      "972": 1889,
      "##591": 1890,
      "##9c4": 1891,
      "##969": 1892,
      "##681": 1893,
      "123": 1894,
      "##f7c": 1895,
      "##e6f": 1896,
      "##a3e": 1897,
      "866": 1898,
      "812": 1899,
      "##2c3": 1900,
      "##934": 1901,
      "##fb4": 1902,
      "##cee": 1903,
      "##5b2": 1904,
      "##398": 1905,
      "##62b": 1906,
      "185": 1907,
      "##482": 1908,
      "##688": 1909,
      "##379": 1910,
      "##272": 1911,
      "##56c": 1912,
      "##052": 1913,
      "##f1f": 1914,
      "##ca2": 1915,
      "##de0": 1916,
      "232": 1917,
      "245": 1918,
      "##444": 1919,
      "##e3f": 1920,
      "4aa": 1921,
      "4a6": 1922,
      "604": 1923,
      "bdc": 1924,
      "165": 1925,
      "112": 1926,
      "##46d": 1927,
      "##922": 1928,
      "##56f": 1929,
      "##983": 1930,
      "ab7": 1931,
      "##dbf": 1932,
      "##936": 1933,
      "##9c1": 1934,
      "186": 1935,
      "181": 1936,
      "##982": 1937,
      "##07f": 1938,
      "##f7a": 1939,
      "##40a": 1940,
      "326": 1941,
      "##f49": 1942,
      "##bb6": 1943,
      "##ddd": 1944,
      "621": 1945,
      "947": 1946,
      "c9": 1947,
      "##013": 1948,
      "##d65": 1949,
      "##dc3": 1950,
      "##422": 1951,
      "##d11": 1952,
      "##d0e": 1953,
      "4f6": 1954,
      "##3d5": 1955,
      "##d66": 1956,
      "##967": 1957,
      "##da0": 1958,
      "##564": 1959,
      "##f16": 1960,
      "225": 1961,
      "097": 1962,
      "071": 1963,
      "291": 1964,
      "##5bc": 1965,
      "##daf": 1966,
      "##189": 1967,
      "##427": 1968,
      "##425": 1969,
      "##055": 1970,
      "##d10": 1971,
      "##728": 1972,
      "##fc8": 1973,
      "##f2a": 1974,
      "##509": 1975,
      "##3cc": 1976,
      "##a11": 1977,
      "ip": 1978,
      "##e08": 1979,
      "##e56": 1980,
      "##v4": 1981,
      "##me": 1982,
      "##e4d": 1983,
      "##db6": 1984,
      "##3dd": 1985,
      "110": 1986,
      "##a40": 1987,
      "##b86": 1988,
      "##625": 1989,
      "##489": 1990,
      "##686": 1991,
      "##a7c": 1992,
      "##929": 1993,
      "##649": 1994,
      "##ca8": 1995,
      "##90d": 1996,
      "##name": 1997,
      "hostname": 1998,
      "ipv4": 1999,
      "877": 2000,
      "##414": 2001,
      "##007": 2002,
      "##084": 2003,
      "##91f": 2004,
      "##787": 2005,
      "##549": 2006,
      "##54e": 2007,
      "##a76": 2008,
      "##ab1": 2009,
      "224": 2010,
      "##32a": 2011,
      "##a8f": 2012,
      "a46": 2013,
      "##4c6": 2014,
      "##a06": 2015,
      "2a": 2016,
      "857": 2017,
      "998": 2018,
      "a41": 2019,
      "a37": 2020,
      "##ffa": 2021,
      "##id": 2022,
      "##35d": 2023,
      "##0c2": 2024,
      "##ce7": 2025,
      "##5b0": 2026,
      "##d2e": 2027,
      "25740": 2028,
      "##ecb": 2029,
      "##a75": 2030,
      "##95f": 2031,
      "##e22": 2032,
      "220": 2033,
      "233": 2034,
      "##f76": 2035,
      "##f74": 2036,
      "##366": 2037,
      "##3c7": 2038,
      "##b13": 2039,
      "560": 2040,
      "b18": 2041,
      "b22": 2042,
      "##fb7": 2043,
      "##fb8": 2044,
      "##9c7": 2045,
      "187": 2046,
      "##4cb": 2047,
      "##71f": 2048,
      "##f2e": 2049,
      "283": 2050,
      "##f0f": 2051,
      "##d74": 2052,
      "0009": 2053,
      "042": 2054,
      "208": 2055,
      "837": 2056,
      "##e42": 2057,
      "##a9c": 2058,
      "106": 2059,
      "##faf": 2060,
      "##972": 2061,
      "222": 2062,
      "##d15": 2063,
      "##de1": 2064,
      "##382": 2065,
      "##729": 2066,
      "##d8b": 2067,
      "##f7f": 2068,
      "388": 2069,
      "870": 2070,
      "Re": 2071,
      "##2c0": 2072,
      "##db4": 2073,
      "##fb5": 2074,
      "##d69": 2075,
      "##d6b": 2076,
      "##a48": 2077,
      "##a4c": 2078,
      "##002": 2079,
      "##dad": 2080,
      "##789": 2081,
      "##687": 2082,
      "##689": 2083,
      "##276": 2084,
      "179": 2085,
      "##f12": 2086,
      "##907": 2087,
      "##985": 2088,
      "##385": 2089,
      "##611": 2090,
      "280": 2091,
      "##d70": 2092,
      "##345": 2093,
      "330": 2094,
      "871": 2095,
      "966": 2096,
      "##2c5": 2097,
      "##a91": 2098,
      "##da1": 2099,
      "##6cb": 2100,
      "##05c": 2101,
      "##e26": 2102,
      "##f84": 2103,
      "##f2f": 2104,
      "##a8e": 2105,
      "##f03": 2106,
      "##d0f": 2107,
      "##10f": 2108,
      "240": 2109,
      "811": 2110,
      "The": 2111,
      "b4b": 2112,
      "caa": 2113,
      "crea": 2114,
      "did": 2115,
      "its": 2116,
      "##tch": 2117,
      "##Lis": 2118,
      "##357": 2119,
      "189": 2120,
      "##544": 2121,
      "##4cc": 2122,
      "##4c1": 2123,
      "##dc9": 2124,
      "match": 2125,
      "##026": 2126,
      "216": 2127,
      "##ea0": 2128,
      "##f75": 2129,
      "##34f": 2130,
      "##fd0": 2131,
      "##fff": 2132,
      "##d5e": 2133,
      "##69e": 2134,
      "##cc6": 2135,
      "InstanceLis": 2136,
      "created": 2137,
      "InstanceList": 2138,
      "342": 2139,
      "5d": 2140,
      "93b": 2141,
      "b6b": 2142,
      "##a94": 2143,
      "##3d8": 2144,
      "##fbb": 2145,
      "##9c0": 2146,
      "##b05": 2147,
      "##39b": 2148,
      "184": 2149,
      "##911": 2150,
      "##48c": 2151,
      "##279": 2152,
      "##e76": 2153,
      "##925": 2154,
      "121": 2155,
      "##ebe": 2156,
      "##b11": 2157,
      "##a24": 2158,
      "##129": 2159,
      "095": 2160,
      "298": 2161,
      "3bc": 2162,
      "567": 2163,
      "828": 2164,
      "##014": 2165,
      "##93f": 2166,
      "##ce6": 2167,
      "##a4f": 2168,
      "##d25": 2169,
      "##acb": 2170,
      "##b81": 2171,
      "016": 2172,
      "##a7b": 2173,
      "##944": 2174,
      "126": 2175,
      "##322": 2176,
      "##f79": 2177,
      "##ebb": 2178,
      "##b1b": 2179,
      "##111": 2180,
      "565": 2181,
      "0GB": 2182,
      "id": 2183,
      "##adc": 2184,
      "##3da": 2185,
      "##419": 2186,
      "##9c8": 2187,
      "##464": 2188,
      "##b83": 2189,
      "##624": 2190,
      "##68d": 2191,
      "##abb": 2192,
      "##6c8": 2193,
      "172": 2194,
      "##de8": 2195,
      "217": 2196,
      "279": 2197,
      "##386": 2198,
      "##e1b": 2199,
      "##bbb": 2200,
      "##4b6": 2201,
      "##b9f": 2202,
      "512MB": 2203,
      "0b1": 2204,
      "372": 2205,
      "347": 2206,
      "571": 2207,
      "bf1": 2208,
      "##96e": 2209,
      "##08a": 2210,
      "##dcf": 2211,
      "##e77": 2212,
      "##4d3": 2213,
      "##059": 2214,
      "##512": 2215,
      "##f21": 2216,
      "322": 2217,
      "324": 2218,
      "355": 2219,
      "346": 2220,
      "356": 2221,
      "995": 2222,
      "bd8": 2223,
      "161": 2224,
      "##354": 2225,
      "132": 2226,
      "##545": 2227,
      "##682": 2228,
      "##37b": 2229,
      "234": 2230,
      "##51e": 2231,
      "##07a": 2232,
      "##50f": 2233,
      "##3b2": 2234,
      "##a20": 2235,
      "##e69": 2236,
      "754": 2237,
      "716": 2238,
      "b33": 2239,
      "##db9": 2240,
      "##db1": 2241,
      "##a4a": 2242,
      "553": 2243,
      "##da5": 2244,
      "471": 2245,
      "010": 2246,
      "##38c": 2247,
      "##606": 2248,
      "382": 2249,
      "##fe3": 2250,
      "##f9a": 2251,
      "##280": 2252,
      "0006": 2253,
      "##76a": 2254,
      "290": 2255,
      "##01e": 2256,
      "##a43": 2257,
      "##d2b": 2258,
      "180": 2259,
      "##275": 2260,
      "122": 2261,
      "##389": 2262,
      "365": 2263,
      "##3ae": 2264,
      "742": 2265,
      "931": 2266,
      "920": 2267,
      "##5ad": 2268,
      "##fe1": 2269,
      "##aa6": 2270,
      "##00a": 2271,
      "##92f": 2272,
      "177": 2273,
      "##95e": 2274,
      "##61c": 2275,
      "##614": 2276,
      "##72a": 2277,
      "##a28": 2278,
      "094": 2279,
      "4e2": 2280,
      "##017": 2281,
      "##2ce": 2282,
      "##2c1": 2283,
      "##e41": 2284,
      "100": 2285,
      "##d26": 2286,
      "##ac2": 2287,
      "##b79": 2288,
      "##187": 2289,
      "##377": 2290,
      "##a71": 2291,
      "417": 2292,
      "##721": 2293,
      "##528": 2294,
      "##f29": 2295,
      "##99e": 2296,
      "321": 2297,
      "##f3a": 2298,
      "##4b4": 2299,
      "541": 2300,
      "168": 2301,
      "##35b": 2302,
      "##937": 2303,
      "##a97": 2304,
      "##aaf": 2305,
      "##321": 2306,
      "##404": 2307,
      "386": 2308,
      "##220": 2309,
      "156": 2310,
      "396": 2311,
      "596": 2312,
      "678": 2313,
      "637": 2314,
      "721": 2315,
      "898": 2316,
      "875": 2317,
      "952": 2318,
      "977": 2319,
      "##0c3": 2320,
      "##0c0": 2321,
      "##0c1": 2322,
      "542": 2323,
      "##fbe": 2324,
      "##9ca": 2325,
      "##5b7": 2326,
      "##46f": 2327,
      "##ec5": 2328,
      "##089": 2329,
      "##372": 2330,
      "##94f": 2331,
      "##d14": 2332,
      "236": 2333,
      "##517": 2334,
      "##72f": 2335,
      "##603": 2336,
      "325": 2337,
      "##fd3": 2338,
      "##5d0": 2339,
      "##b29": 2340,
      "367": 2341,
      "697": 2342,
      "778": 2343,
      "767": 2344,
      "858": 2345,
      "8c1": 2346,
      "##f52": 2347,
      "##353": 2348,
      "##576": 2349,
      "##ceb": 2350,
      "##395": 2351,
      "##d19": 2352,
      "##38b": 2353,
      "##f26": 2354,
      "##d77": 2355,
      "377": 2356,
      "622": 2357,
      "766": 2358,
      "933": 2359,
      "949": 2360,
      "##012": 2361,
      "133": 2362,
      "556": 2363,
      "##b78": 2364,
      "##e79": 2365,
      "##e7e": 2366,
      "##59f": 2367,
      "##e8a": 2368,
      "##fe0": 2369,
      "152": 2370,
      "566": 2371,
      "##590": 2372,
      "##e49": 2373,
      "##ed7": 2374,
      "##fbd": 2375,
      "##ec8": 2376,
      "##626": 2377,
      "##62f": 2378,
      "183": 2379,
      "##316": 2380,
      "##f83": 2381,
      "##fcc": 2382,
      "##e84": 2383,
      "##30b": 2384,
      "381": 2385,
      "##3c6": 2386,
      "##a15": 2387,
      "575": 2388,
      "##e0a": 2389,
      "##449": 2390,
      "917": 2391,
      "205": 2392,
      "642": 2393,
      "798": 2394,
      "163": 2395,
      "##db3": 2396,
      "##ed1": 2397,
      "##5be": 2398,
      "##a42": 2399,
      "317": 2400,
      "##b87": 2401,
      "##08d": 2402,
      "##711": 2403,
      "##56b": 2404,
      "173": 2405,
      "##647": 2406,
      "##51c": 2407,
      "##076": 2408,
      "##eba": 2409,
      "##ee3": 2410,
      "##ee9": 2411,
      "##eee": 2412,
      "##f3f": 2413,
      "##c8e": 2414,
      "612": 2415,
      "790": 2416,
      "942": 2417,
      "##a9a": 2418,
      "##fa6": 2419,
      "##fa2": 2420,
      "##574": 2421,
      "##9cb": 2422,
      "##582": 2423,
      "209": 2424,
      "##fc7": 2425,
      "153": 2426,
      "##f23": 2427,
      "329": 2428,
      "##ff9": 2429,
      "##a55": 2430,
      "##a5e": 2431,
      "##cc9": 2432,
      "##c29": 2433,
      "297": 2434,
      "371": 2435,
      "500": 2436,
      "848": 2437,
      "975": 2438,
      "a1c": 2439,
      "##57c": 2440,
      "##572": 2441,
      "##5ba": 2442,
      "##a44": 2443,
      "##aa0": 2444,
      "##629": 2445,
      "##ab6": 2446,
      "##aba": 2447,
      "170": 2448,
      "##023": 2449,
      "##64b": 2450,
      "##ea2": 2451,
      "##72e": 2452,
      "##e81": 2453,
      "##c14": 2454,
      "348": 2455,
      "561": 2456,
      "735": 2457,
      "b48": 2458,
      "##vation": 2459,
      "##ervation": 2460,
      "##db8": 2461,
      "##db5": 2462,
      "##a9f": 2463,
      "##3de": 2464,
      "##417": 2465,
      "##573": 2466,
      "##ce8": 2467,
      "##962": 2468,
      "##b0f": 2469,
      "##eca": 2470,
      "##786": 2471,
      "##4cf": 2472,
      "##42b": 2473,
      "##022": 2474,
      "##02f": 2475,
      "##d16": 2476,
      "214": 2477,
      "##07e": 2478,
      "##fc0": 2479,
      "##211": 2480,
      "##222": 2481,
      "reservation": 2482,
      "526": 2483,
      "43d1": 2484,
      "853": 2485,
      "164": 2486,
      "##aac": 2487,
      "##b71": 2488,
      "##086": 2489,
      "##4c4": 2490,
      "##923": 2491,
      "##abe": 2492,
      "229": 2493,
      "##073": 2494,
      "##077": 2495,
      "##fc9": 2496,
      "##217": 2497,
      "244": 2498,
      "376": 2499,
      "##e6d": 2500,
      "369": 2501,
      "from": 2502,
      "090": 2503,
      "4e5": 2504,
      "847": 2505,
      "806": 2506,
      "##394": 2507,
      "##274": 2508,
      "##e72": 2509,
      "##924": 2510,
      "##433": 2511,
      "215": 2512,
      "##616": 2513,
      "##32f": 2514,
      "##e17": 2515,
      "##304": 2516,
      "##d8c": 2517,
      "##f04": 2518,
      "##a2b": 2519,
      "##9b6": 2520,
      "##229": 2521,
      "##22a": 2522,
      "682": 2523,
      "629": 2524,
      "840": 2525,
      "##a90": 2526,
      "##5bb": 2527,
      "##d6a": 2528,
      "088": 2529,
      "##b70": 2530,
      "##78e": 2531,
      "##182": 2532,
      "014": 2533,
      "061": 2534,
      "##6cd": 2535,
      "175": 2536,
      "##519": 2537,
      "##e19": 2538,
      "##599": 2539,
      "##504": 2540,
      "##bbf": 2541,
      "373": 2542,
      "##669": 2543,
      "##e09": 2544,
      "##e04": 2545,
      "##bc0": 2546,
      "578": 2547,
      "572": 2548,
      "628": 2549,
      "700": 2550,
      "976": 2551,
      "##e40": 2552,
      "##fb0": 2553,
      "##d28": 2554,
      "551": 2555,
      "##ac6": 2556,
      "##18c": 2557,
      "##92b": 2558,
      "##4d7": 2559,
      "##95c": 2560,
      "##43a": 2561,
      "##e2e": 2562,
      "##f86": 2563,
      "##f8e": 2564,
      "447": 2565,
      "##fcf": 2566,
      "##303": 2567,
      "##d76": 2568,
      "##a6b": 2569,
      "##b5a": 2570,
      "##b9e": 2571,
      "357": 2572,
      "615": 2573,
      "831": 2574,
      "9c8": 2575,
      "##b46": 2576,
      "##9cc": 2577,
      "##a46": 2578,
      "##4c2": 2579,
      "##e7d": 2580,
      "##56d": 2581,
      "##56e": 2582,
      "##eae": 2583,
      "##e12": 2584,
      "##3bd": 2585,
      "##3c8": 2586,
      "##eb5": 2587,
      "##eb2": 2588,
      "##5c8": 2589,
      "##349": 2590,
      "569": 2591,
      "##ff3": 2592,
      "##09e": 2593,
      "0010": 2594,
      "358": 2595,
      "602": 2596,
      "614": 2597,
      "87c": 2598,
      "ab8": 2599,
      "##fd8": 2600,
      "160": 2601,
      "##e44": 2602,
      "##fa7": 2603,
      "##aaa": 2604,
      "082": 2605,
      "##b03": 2606,
      "##05d": 2607,
      "223": 2608,
      "206": 2609,
      "##903": 2610,
      "##38f": 2611,
      "159": 2612,
      "##477": 2613,
      "335": 2614,
      "362": 2615,
      "4ca": 2616,
      "521": 2617,
      "5c1": 2618,
      "##faa": 2619,
      "##57a": 2620,
      "##462": 2621,
      "##68f": 2622,
      "407": 2623,
      "##6cc": 2624,
      "174": 2625,
      "##95a": 2626,
      "##053": 2627,
      "##e21": 2628,
      "##e15": 2629,
      "##59a": 2630,
      "##a81": 2631,
      "375": 2632,
      "374": 2633,
      "##d53": 2634,
      "341": 2635,
      "619": 2636,
      "770": 2637,
      "713": 2638,
      "827": 2639,
      "84b": 2640,
      "bc1": 2641,
      "c28": 2642,
      "##ed9": 2643,
      "##d24": 2644,
      "##d1d": 2645,
      "##726": 2646,
      "##40b": 2647,
      "##a0e": 2648,
      "##b20": 2649,
      "072": 2650,
      "305": 2651,
      "4dd": 2652,
      "946": 2653,
      "950": 2654,
      "##d42": 2655,
      "##2cf": 2656,
      "##9c9": 2657,
      "318": 2658,
      "##085": 2659,
      "##08e": 2660,
      "##da6": 2661,
      "##da2": 2662,
      "##54f": 2663,
      "##e70": 2664,
      "##71d": 2665,
      "##05a": 2666,
      "##e25": 2667,
      "##d1f": 2668,
      "##deb": 2669,
      "##eb9": 2670,
      "##fe9": 2671,
      "##b2d": 2672,
      "1572": 2673,
      "761": 2674,
      "706": 2675,
      "851": 2676,
      "9d8": 2677,
      "##2ca": 2678,
      "131": 2679,
      "##b0a": 2680,
      "##08c": 2681,
      "4707": 2682,
      "##977": 2683,
      "##f1e": 2684,
      "212": 2685,
      "##a80": 2686,
      "##f65": 2687,
      "370": 2688,
      "##f3e": 2689,
      "##65a": 2690,
      "2626": 2691,
      "4415": 2692,
      "350": 2693,
      "333": 2694,
      "677": 2695,
      "888": 2696,
      "836": 2697,
      "940": 2698,
      "970": 2699,
      "Successful": 2700,
      "b35": 2701,
      "fde": 2702,
      "##ll": 2703,
      "##01b": 2704,
      "166": 2705,
      "##db7": 2706,
      "##dbb": 2707,
      "##93c": 2708,
      "##ed6": 2709,
      "##fa4": 2710,
      "##39f": 2711,
      "##b8b": 2712,
      "474e": 2713,
      "##783": 2714,
      "##18e": 2715,
      "##dc7": 2716,
      "##27d": 2717,
      "##97a": 2718,
      "##a7e": 2719,
      "##d12": 2720,
      "210": 2721,
      "##f24": 2722,
      "389": 2723,
      "379": 2724,
      "##9b9": 2725,
      "##fd5": 2726,
      "##a0f": 2727,
      "884": 2728,
      "##69a": 2729,
      "synced": 2730,
      "Successfully": 2731,
      "008": 2732,
      "391": 2733,
      "351": 2734,
      "all": 2735,
      "##f88": 2736,
      "##93a": 2737,
      "##a9d": 2738,
      "108": 2739,
      "##3dc": 2740,
      "##0cc": 2741,
      "##087": 2742,
      "##4c7": 2743,
      "##4c0": 2744,
      "##a79": 2745,
      "##432": 2746,
      "207": 2747,
      "469e": 2748,
      "##325": 2749,
      "##32d": 2750,
      "##677": 2751,
      "##473": 2752,
      "387": 2753,
      "384": 2754,
      "286": 2755,
      "##3c2": 2756,
      "##eb3": 2757,
      "##d7c": 2758,
      "##210": 2759,
      "##5cb": 2760,
      "##9b5": 2761,
      "##69d": 2762,
      "##e9d": 2763,
      "018": 2764,
      "502": 2765,
      "609": 2766,
      "793": 2767,
      "7b7": 2768,
      "737": 2769,
      "996": 2770,
      "937": 2771,
      "Tr": 2772,
      "ca8": 2773,
      "e88": 2774,
      "##an": 2775,
      "169": 2776,
      "##fa5": 2777,
      "##fb9": 2778,
      "##aab": 2779,
      "##463": 2780,
      "##466": 2781,
      "086": 2782,
      "539": 2783,
      "##ac1": 2784,
      "##627": 2785,
      "##54c": 2786,
      "##188": 2787,
      "581": 2788,
      "##926": 2789,
      "##566": 2790,
      "##05f": 2791,
      "414": 2792,
      "##524": 2793,
      "##e1e": 2794,
      "285": 2795,
      "284": 2796,
      "##a2f": 2797,
      "##a09": 2798,
      "349": 2799,
      "4ff8": 2800,
      "##cc3": 2801,
      "##d4a": 2802,
      "2B": 2803,
      "366": 2804,
      "522": 2805,
      "660": 2806,
      "649": 2807,
      "710": 2808,
      "948": 2809,
      "ac1": 2810,
      "si": 2811,
      "ten": 2812,
      "##3fc": 2813,
      "##ang": 2814,
      "##ue": 2815,
      "053": 2816,
      "16T": 2817,
      "##e4b": 2818,
      "##d62": 2819,
      "##d21": 2820,
      "##ac9": 2821,
      "##b04": 2822,
      "472": 2823,
      "##277": 2824,
      "##92a": 2825,
      "##02e": 2826,
      "##58d": 2827,
      "##58b": 2828,
      "##987": 2829,
      "##98c": 2830,
      "##59b": 2831,
      "##e86": 2832,
      "##30a": 2833,
      "##47c": 2834,
      "##ebc": 2835,
      "##f6e": 2836,
      "chang": 2837,
      "3A00": 2838,
      "True": 2839,
      "##ants": 2840,
      "2B00": 2841,
      "since": 2842,
      "tenants": 2843,
      "changes": 2844,
      "199": 2845,
      "562": 2846,
      "960": 2847,
      "b11": 2848,
      "dfb": 2849,
      "##f58": 2850,
      "##a98": 2851,
      "109": 2852,
      "##578": 2853,
      "##9c6": 2854,
      "##d64": 2855,
      "534": 2856,
      "##b82": 2857,
      "##78b": 2858,
      "##6c7": 2859,
      "##98d": 2860,
      "45d3": 2861,
      "463": 2862,
      "440": 2863,
      "##d81": 2864,
      "##3b3": 2865,
      "##365": 2866,
      "##3c9": 2867,
      "##3c4": 2868,
      "##a83": 2869,
      "##f0d": 2870,
      "##a26": 2871,
      "##34b": 2872,
      "##f5e": 2873,
      "##e6a": 2874,
      "##d9e": 2875,
      "4ac3": 2876,
      "302": 2877,
      "360": 2878,
      "672": 2879,
      "9ec": 2880,
      "955": 2881,
      "953": 2882,
      "ac8": 2883,
      "b12": 2884,
      "##e43": 2885,
      "##ed4": 2886,
      "##3d6": 2887,
      "##5b6": 2888,
      "##aa3": 2889,
      "558": 2890,
      "313": 2891,
      "315": 2892,
      "##91a": 2893,
      "##54a": 2894,
      "006": 2895,
      "##975": 2896,
      "##a70": 2897,
      "##ab2": 2898,
      "##6c3": 2899,
      "##4d8": 2900,
      "2611": 2901,
      "##de3": 2902,
      "425": 2903,
      "219": 2904,
      "##f80": 2905,
      "##e14": 2906,
      "320": 2907,
      "##a65": 2908,
      "##b5e": 2909,
      "##b9a": 2910,
      "##d3e": 2911,
      "686": 2912,
      "49cc": 2913,
      "2bb": 2914,
      "332": 2915,
      "334": 2916,
      "757": 2917,
      "862": 2918,
      "944": 2919,
      "bc8": 2920,
      "##ce3": 2921,
      "310": 2922,
      "##da3": 2923,
      "##dae": 2924,
      "##784": 2925,
      "##4c8": 2926,
      "012": 2927,
      "##6c2": 2928,
      "##4d9": 2929,
      "##64e": 2930,
      "45c7": 2931,
      "125": 2932,
      "##51b": 2933,
      "##ea5": 2934,
      "##f82": 2935,
      "##506": 2936,
      "287": 2937,
      "323": 2938,
      "##d7b": 2939,
      "##fdd": 2940,
      "##5d5": 2941,
      "##a6a": 2942,
      "##a6d": 2943,
      "##a0a": 2944,
      "##a3f": 2945,
      "2a1": 2946,
      "505": 2947,
      "646": 2948,
      "658": 2949,
      "954": 2950,
      "910": 2951,
      "dd6": 2952,
      "d7c": 2953,
      "055": 2954,
      "##a9b": 2955,
      "##edd": 2956,
      "478": 2957,
      "##782": 2958,
      "##dcc": 2959,
      "402": 2960,
      "##884": 2961,
      "##4300": 2962,
      "48d9": 2963,
      "##383": 2964,
      "##f8c": 2965,
      "430": 2966,
      "##479": 2967,
      "289": 2968,
      "##3c0": 2969,
      "##eb6": 2970,
      "##f63": 2971,
      "##f06": 2972,
      "##5c2": 2973,
      "889": 2974,
      "##e5a": 2975,
      "813": 2976,
      "46cc": 2977,
      "397": 2978,
      "398": 2979,
      "535": 2980,
      "608": 2981,
      "651": 2982,
      "741": 2983,
      "818": 2984,
      "993": 2985,
      "ed6": 2986,
      "##2c6": 2987,
      "##e47": 2988,
      "##a99": 2989,
      "103": 2990,
      "##fa3": 2991,
      "##577": 2992,
      "##ce5": 2993,
      "##d6f": 2994,
      "007": 2995,
      "588": 2996,
      "582": 2997,
      "##e29": 2998,
      "421b": 2999,
      "##eaf": 3000,
      "##522": 3001,
      "155": 3002,
      "##59d": 3003,
      "##50a": 3004,
      "##a10": 3005,
      "##a1c8": 3006,
      "##bc2": 3007,
      "##c1d": 3008,
      "##3ad": 3009,
      "##cc2": 3010,
      "829": 3011,
      "046": 3012,
      "627": 3013,
      "605": 3014,
      "607": 3015,
      "611": 3016,
      "792": 3017,
      "867": 3018,
      "849": 3019,
      "af5": 3020,
      "##e48": 3021,
      "##3d0": 3022,
      "##41d": 3023,
      "547": 3024,
      "##d67": 3025,
      "##d6d": 3026,
      "##d29": 3027,
      "089": 3028,
      "##b72": 3029,
      "##b8c": 3030,
      "477": 3031,
      "##dc8": 3032,
      "##e7f": 3033,
      "##f15": 3034,
      "426": 3035,
      "##31a": 3036,
      "##31d": 3037,
      "##d8a": 3038,
      "510": 3039,
      "##bb2": 3040,
      "345": 3041,
      "d530": 3042,
      "4e9a": 3043,
      "0dc": 3044,
      "0f7": 3045,
      "5ab": 3046,
      "751": 3047,
      "703": 3048,
      "890": 3049,
      "102": 3050,
      "##5bd": 3051,
      "##da8": 3052,
      "##78f": 3053,
      "##54d": 3054,
      "##4d1": 3055,
      "##88c": 3056,
      "##43c": 3057,
      "##02d": 3058,
      "##587": 3059,
      "##64f": 3060,
      "##de5": 3061,
      "453": 3062,
      "##61b": 3063,
      "##323": 3064,
      "##e89": 3065,
      "##99b": 3066,
      "517": 3067,
      "##665": 3068,
      "##e0d": 3069,
      "929": 3070,
      "785": 3071,
      "a29": 3072,
      "4ed3": 3073,
      "1a5": 3074,
      "394": 3075,
      "331": 3076,
      "842": 3077,
      "8bc": 3078,
      "##3d7": 3079,
      "##fa7b": 3080,
      "##fba": 3081,
      "##d63": 3082,
      "##d20": 3083,
      "##b8f": 3084,
      "##622": 3085,
      "##37e": 3086,
      "##e7c1": 3087,
      "413": 3088,
      "410": 3089,
      "412": 3090,
      "##61e": 3091,
      "##50e": 3092,
      "##3b6": 3093,
      "de5": 3094,
      "##f0a": 3095,
      "309": 3096,
      "##a25": 3097,
      "##fef": 3098,
      "##11b": 3099,
      "##779": 3100,
      "88c": 3101,
      "981": 3102,
      "##e5f": 3103,
      "4e58": 3104,
      "684": 3105,
      "681": 3106,
      "292": 3107,
      "508": 3108,
      "507": 3109,
      "659": 3110,
      "764": 3111,
      "738": 3112,
      "808": 3113,
      "994": 3114,
      "b70": 3115,
      "##0cb": 3116,
      "546": 3117,
      "##d6c": 3118,
      "##d6e": 3119,
      "##966": 3120,
      "##00b": 3121,
      "319": 3122,
      "311": 3123,
      "##91b": 3124,
      "049": 3125,
      "409": 3126,
      "##a74": 3127,
      "##e2a": 3128,
      "4bfb": 3129,
      "##ca6": 3130,
      "##61d": 3131,
      "##07b": 3132,
      "##f70": 3133,
      "##f66": 3134,
      "##bb3": 3135,
      "##5cd": 3136,
      "577": 3137,
      "##b26": 3138,
      "##c89": 3139,
      "4a3d": 3140,
      "1a4": 3141,
      "598": 3142,
      "654": 3143,
      "665": 3144,
      "854": 3145,
      "d6c": 3146,
      "eb6": 3147,
      "##0c6": 3148,
      "##41e": 3149,
      "549": 3150,
      "##fb2": 3151,
      "##96a0": 3152,
      "083": 3153,
      "087": 3154,
      "537": 3155,
      "552": 3156,
      "316": 3157,
      "##376": 3158,
      "409b": 3159,
      "##a7f": 3160,
      "##d1e": 3161,
      "45fb": 3162,
      "##e1a": 3163,
      "##3cf": 3164,
      "##a14": 3165,
      "##f45": 3166,
      "353": 3167,
      "##e63": 3168,
      "4d3b": 3169,
      "45bb": 3170,
      "630": 3171,
      "633": 3172,
      "655": 3173,
      "895": 3174,
      "869": 3175,
      "874": 3176,
      "879": 3177,
      "b21": 3178,
      "b77": 3179,
      "b7c": 3180,
      "##0ca": 3181,
      "##aad": 3182,
      "##b02": 3183,
      "##b75": 3184,
      "##ec6": 3185,
      "##b80": 3186,
      "47f1": 3187,
      "47bf": 3188,
      "##37c": 3189,
      "405": 3190,
      "##92e": 3191,
      "##71c": 3192,
      "##888": 3193,
      "##94a": 3194,
      "4b2a": 3195,
      "424": 3196,
      "213": 3197,
      "##f8f": 3198,
      "##fc3": 3199,
      "##fc2": 3200,
      "##fcd1": 3201,
      "##47f": 3202,
      "##3b1": 3203,
      "383": 3204,
      "4c37": 3205,
      "##ebf": 3206,
      "##f0b": 3207,
      "306": 3208,
      "##9b2": 3209,
      "885": 3210,
      "4e00": 3211,
      "041": 3212,
      "1c8": 3213,
      "518": 3214,
      "601": 3215,
      "657": 3216,
      "722": 3217,
      "838": 3218,
      "939": 3219,
      "545": 3220,
      "##ce2": 3221,
      "##aae": 3222,
      "##465": 3223,
      "##623": 3224,
      "##48a": 3225,
      "033": 3226,
      "##6c9": 3227,
      "##e28": 3228,
      "428": 3229,
      "429": 3230,
      "48b2": 3231,
      "##ead": 3232,
      "433": 3233,
      "##fca7": 3234,
      "##e80": 3235,
      "##5c7": 3236,
      "573": 3237,
      "##fd4": 3238,
      "##117": 3239,
      "##bc8": 3240,
      "4ffd": 3241,
      "##d9f": 3242,
      "497a": 3243,
      "44cd": 3244,
      "408a": 3245,
      "293": 3246,
      "4d0b": 3247,
      "691": 3248,
      "618": 3249,
      "648": 3250,
      "695": 3251,
      "661": 3252,
      "634": 3253,
      "794": 3254,
      "715": 3255,
      "802": 3256,
      "807": 3257,
      "844": 3258,
      "809": 3259,
      "##e4f": 3260,
      "##db0": 3261,
      "##57b": 3262,
      "##96f": 3263,
      "##005": 3264,
      "##b73": 3265,
      "##b88": 3266,
      "038": 3267,
      "40d3": 3268,
      "##9227": 3269,
      "##ab97": 3270,
      "##563": 3271,
      "##5643": 3272,
      "##585": 3273,
      "##58f": 3274,
      "##f1a": 3275,
      "##64a": 3276,
      "421": 3277,
      "##72b": 3278,
      "449": 3279,
      "##676": 3280,
      "##476": 3281,
      "##d86": 3282,
      "##3bb": 3283,
      "##a8d": 3284,
      "##d7e": 3285,
      "##b1c": 3286,
      "##5d3": 3287,
      "##dd5": 3288,
      "4a9c": 3289,
      "393": 3290,
      "339": 3291,
      "337": 3292,
      "364": 3293,
      "5c8": 3294,
      "662": 3295,
      "692": 3296,
      "638": 3297,
      "640": 3298,
      "670": 3299,
      "626": 3300,
      "718": 3301,
      "777": 3302,
      "918": 3303,
      "968": 3304,
      "905": 3305,
      "930": 3306,
      "##ed2": 3307,
      "111": 3308,
      "554": 3309,
      "##b8d": 3310,
      "##916": 3311,
      "##e24": 3312,
      "4111": 3313,
      "4145": 3314,
      "##60d": 3315,
      "##d8e": 3316,
      "##f77": 3317,
      "4c7a": 3318,
      "32a": 3319,
      "##f6f": 3320,
      "##b15": 3321,
      "##5cf": 3322,
      "303": 3323,
      "563": 3324,
      "##c84": 3325,
      "980": 3326,
      "00078": 3327,
      "a7ec": 3328,
      "b0bb": 3329,
      "a9e7": 3330,
      "392": 3331,
      "591": 3332,
      "527": 3333,
      "647": 3334,
      "653": 3335,
      "69e": 3336,
      "613": 3337,
      "6ee0": 3338,
      "705": 3339,
      "745": 3340,
      "833": 3341,
      "873": 3342,
      "935": 3343,
      "978": 3344,
      "999": 3345,
      "be7": 3346,
      "bbe": 3347,
      "b075": 3348,
      "##a18": 3349,
      "##db14": 3350,
      "##a92": 3351,
      "##5b3": 3352,
      "##ec9": 3353,
      "##08b": 3354,
      "##da7e": 3355,
      "##dc6": 3356,
      "##426": 3357,
      "##97d": 3358,
      "031": 3359,
      "416": 3360,
      "41f3": 3361,
      "420": 3362,
      "##525": 3363,
      "434": 3364,
      "##f22": 3365,
      "##60a": 3366,
      "##f7d": 3367,
      "##3b9": 3368,
      "##3b4": 3369,
      "513": 3370,
      "##a1b": 3371,
      "##3388": 3372,
      "##bb5": 3373,
      "570": 3374,
      "##66b": 3375,
      "##e03": 3376,
      "##a532": 3377,
      "##49a": 3378,
      "9247": 3379,
      "##d3f": 3380,
      "95ed": 3381,
      "0011": 3382,
      "620": 3383,
      "676": 3384,
      "603": 3385,
      "617": 3386,
      "625": 3387,
      "797": 3388,
      "795": 3389,
      "747": 3390,
      "753": 3391,
      "841": 3392,
      "894": 3393,
      "850": 3394,
      "820": 3395,
      "9b9f": 3396,
      "b51": 3397,
      "##016": 3398,
      "##015": 3399,
      "054": 3400,
      "##2c2b": 3401,
      "##fa0": 3402,
      "##9c5": 3403,
      "314": 3404,
      "##91e": 3405,
      "##4ca": 3406,
      "##dcb": 3407,
      "403": 3408,
      "##712": 3409,
      "##6caa": 3410,
      "26bb": 3411,
      "##caf": 3412,
      "##986": 3413,
      "##def": 3414,
      "489": 3415,
      "482": 3416,
      "##314": 3417,
      "##61a": 3418,
      "43f0": 3419,
      "##675": 3420,
      "516": 3421,
      "##36a": 3422,
      "##d7f": 3423,
      "574": 3424,
      "##ad3": 3425,
      "781": 3426,
      "##cbe1": 3427,
      "afd7": 3428,
      "4019": 3429,
      "0b60": 3430,
      "2f87": 3431,
      "495": 3432,
      "632": 3433,
      "652": 3434,
      "650": 3435,
      "636": 3436,
      "669": 3437,
      "616": 3438,
      "739": 3439,
      "768": 3440,
      "729": 3441,
      "855": 3442,
      "aa1": 3443,
      "##3df": 3444,
      "##9c2": 3445,
      "##d68": 3446,
      "559": 3447,
      "550": 3448,
      "##ec2": 3449,
      "472f": 3450,
      "##486": 3451,
      "##dc4": 3452,
      "##42a": 3453,
      "##27a": 3454,
      "##a77": 3455,
      "419": 3456,
      "415": 3457,
      "411": 3458,
      "416d": 3459,
      "##ca3": 3460,
      "##90f": 3461,
      "422": 3462,
      "450": 3463,
      "466": 3464,
      "465": 3465,
      "##f81": 3466,
      "445": 3467,
      "##3ba": 3468,
      "##a87": 3469,
      "##ee6": 3470,
      "509": 3471,
      "##5c4": 3472,
      "##5c1": 3473,
      "##9ba": 3474,
      "##f5a": 3475,
      "##e6e": 3476,
      "##770": 3477,
      "344": 3478,
      "886": 3479,
      "##ccf9": 3480,
      "##b6e": 3481,
      "##af3c": 3482,
      "826": 3483,
      "##b4a": 3484,
      "b0f6": 3485,
      "bb95": 3486,
      "##780eb": 3487,
      "##b3b6": 3488,
      "694": 3489,
      "772": 3490,
      "709": 3491,
      "835": 3492,
      "839": 3493,
      "a70": 3494,
      "b06": 3495,
      "##41a": 3496,
      "548": 3497,
      "##a4d": 3498,
      "##b7f": 3499,
      "##18b": 3500,
      "##273": 3501,
      "##ab9": 3502,
      "##ab5": 3503,
      "##4d4": 3504,
      "##e2f": 3505,
      "##e2b": 3506,
      "450e": 3507,
      "##52f": 3508,
      "##52b": 3509,
      "##fc5": 3510,
      "##67b": 3511,
      "##e8b": 3512,
      "##b16": 3513,
      "##215": 3514,
      "##bbc": 3515,
      "##344": 3516,
      "##a63": 3517,
      "363": 3518,
      "##bcc": 3519,
      "##b28": 3520,
      "##ddf": 3521,
      "989": 3522,
      "00088": 3523,
      "##cc5": 3524,
      "##c2f": 3525,
      "782": 3526,
      "##36d48": 3527,
      "068": 3528,
      "395": 3529,
      "343": 3530,
      "359": 3531,
      "592": 3532,
      "635": 3533,
      "671": 3534,
      "610": 3535,
      "702": 3536,
      "769": 3537,
      "774": 3538,
      "893": 3539,
      "9e1": 3540,
      "945": 3541,
      "b68": 3542,
      "d37": 3543,
      "##a67": 3544,
      "107": 3545,
      "##96c": 3546,
      "##00d": 3547,
      "085": 3548,
      "533": 3549,
      "312": 3550,
      "##b8e": 3551,
      "473": 3552,
      "##42f": 3553,
      "025": 3554,
      "##584": 3555,
      "46db": 3556,
      "##32b": 3557,
      "##725": 3558,
      "##59e": 3559,
      "##e83": 3560,
      "##286": 3561,
      "##e3e": 3562,
      "##cc4": 3563,
      "##b65": 3564,
      "925": 3565,
      "2548": 3566,
      "4914": 3567,
      "0a4": 3568,
      "300": 3569,
      "501": 3570,
      "762": 3571,
      "897": 3572,
      "830": 3573,
      "057": 3574,
      "##a96": 3575,
      "105": 3576,
      "##0cd": 3577,
      "##5bf": 3578,
      "4719": 3579,
      "044": 3580,
      "585": 3581,
      "066": 3582,
      "##6ca": 3583,
      "##889": 3584,
      "##02a": 3585,
      "##67a": 3586,
      "##d89": 3587,
      "##d82": 3588,
      "##d84": 3589,
      "514": 3590,
      "##a82": 3591,
      "##333": 3592,
      "579": 3593,
      "##110": 3594,
      "##774": 3595,
      "986": 3596,
      "982": 3597,
      "##45e": 3598,
      "##e9e": 3599,
      "##76b": 3600,
      "4f38": 3601,
      "817": 3602,
      "078": 3603,
      "0de": 3604,
      "307": 3605,
      "594": 3606,
      "666": 3607,
      "891": 3608,
      "876": 3609,
      "8918": 3610,
      "908": 3611,
      "936": 3612,
      "a39": 3613,
      "b47": 3614,
      "b10": 3615,
      "ef6": 3616,
      "##ic": 3617,
      "##aa8": 3618,
      "##003": 3619,
      "538": 3620,
      "530": 3621,
      "##62d": 3622,
      "580": 3623,
      "069": 3624,
      "##abf": 3625,
      "##565": 3626,
      "##88a": 3627,
      "423": 3628,
      "##38d": 3629,
      "##722": 3630,
      "##52e": 3631,
      "##fc6": 3632,
      "##fc1": 3633,
      "##d85": 3634,
      "##3c3": 3635,
      "##eef": 3636,
      "506": 3637,
      "##b10": 3638,
      "##f4f": 3639,
      "##bba": 3640,
      "##5cc": 3641,
      "1908": 3642,
      "##22d": 3643,
      "##116": 3644,
      "##e55": 3645,
      "##79d": 3646,
      "##75e": 3647,
      "814": 3648,
      "##165": 3649,
      "914": 3650,
      "3ec": 3651,
      "688": 3652,
      "606": 3653,
      "748": 3654,
      "732": 3655,
      "865": 3656,
      "c01": 3657,
      "cec": 3658,
      "d2c": 3659,
      "ec8": 3660,
      "e81": 3661,
      "##458": 3662,
      "104": 3663,
      "##9cf": 3664,
      "##b76": 3665,
      "##b7a": 3666,
      "032": 3667,
      "406": 3668,
      "##434": 3669,
      "41c3": 3670,
      "##cae": 3671,
      "455": 3672,
      "##38e": 3673,
      "4444": 3674,
      "##3be": 3675,
      "515": 3676,
      "##33a": 3677,
      "##219": 3678,
      "524": 3679,
      "##a03": 3680,
      "##a5f": 3681,
      "985": 3682,
      "##3af": 3683,
      "4a6c": 3684,
      "##b5f": 3685,
      "336": 3686,
      "593": 3687,
      "564": 3688,
      "693": 3689,
      "698": 3690,
      "667": 3691,
      "644": 3692,
      "673": 3693,
      "799": 3694,
      "749": 3695,
      "726": 3696,
      "717": 3697,
      "724": 3698,
      "846": 3699,
      "971": 3700,
      "916": 3701,
      "e57": 3702,
      "f5b": 3703,
      "##330": 3704,
      "##e57": 3705,
      "##01c": 3706,
      "##dbd": 3707,
      "##fab": 3708,
      "##964": 3709,
      "##96b": 3710,
      "##ac5": 3711,
      "##4c3": 3712,
      "##dc0": 3713,
      "##dc2": 3714,
      "589": 3715,
      "030": 3716,
      "2651": 3717,
      "42f7": 3718,
      "45f1": 3719,
      "44f4": 3720,
      "436": 3721,
      "##e11": 3722,
      "4c52": 3723,
      "##b12": 3724,
      "##bb4": 3725,
      "##5c9": 3726,
      "##5c5": 3727,
      "304": 3728,
      "520": 3729,
      "881": 3730,
      "4f6c": 3731,
      "4ace": 3732,
      "##d4f": 3733,
      "aa37": 3734,
      "037": 3735,
      "1c1": 3736,
      "499": 3737,
      "557": 3738,
      "597": 3739,
      "668": 3740,
      "746": 3741,
      "771": 3742,
      "7a2": 3743,
      "734": 3744,
      "711": 3745,
      "719": 3746,
      "714": 3747,
      "725": 3748,
      "832": 3749,
      "834": 3750,
      "804": 3751,
      "974": 3752,
      "c77": 3753,
      "052": 3754,
      "##356": 3755,
      "##ed0": 3756,
      "##0c8": 3757,
      "##0c9": 3758,
      "470": 3759,
      "4721": 3760,
      "##543": 3761,
      "584": 3762,
      "##4d0": 3763,
      "##4d5": 3764,
      "##945": 3765,
      "4154": 3766,
      "##90b": 3767,
      "481": 3768,
      "469": 3769,
      "##fcb": 3770,
      "##e1f": 3771,
      "##30e": 3772,
      "##f73": 3773,
      "073": 3774,
      "077": 3775,
      "079": 3776,
      "##9bc": 3777,
      "##f5d": 3778,
      "##228": 3779,
      "528": 3780,
      "##d09": 3781,
      "##d0d": 3782,
      "##109": 3783,
      "##c82": 3784,
      "00091": 3785,
      "##763": 3786,
      "##b53": 3787,
      "926": 3788,
      "##c2b": 3789,
      "913": 3790,
      "825": 3791,
      "786": 3792,
      "4db4": 3793,
      "4ed2": 3794,
      "4d21": 3795,
      "4da7": 3796,
      "035": 3797,
      "048": 3798,
      "0a7": 3799,
      "340": 3800,
      "4f1b": 3801,
      "5b7": 3802,
      "568": 3803,
      "674": 3804,
      "779": 3805,
      "872": 3806,
      "961": 3807,
      "909": 3808,
      "a4b": 3809,
      "f44": 3810,
      "##01f": 3811,
      "543": 3812,
      "##006": 3813,
      "##b7c": 3814,
      "##b84": 3815,
      "##da7": 3816,
      "##424": 3817,
      "040": 3818,
      "013": 3819,
      "017": 3820,
      "403a": 3821,
      "##ca5": 3822,
      "##d13": 3823,
      "##51d": 3824,
      "##f85": 3825,
      "444": 3826,
      "##40d": 3827,
      "4c36": 3828,
      "576": 3829,
      "##9be": 3830,
      "##5d9": 3831,
      "##b2b": 3832,
      "##d04": 3833,
      "##a5a": 3834,
      "##d5a": 3835,
      "819": 3836,
      "787": 3837,
      "683": 3838,
      "685": 3839,
      "4a12": 3840,
      "039": 3841,
      "062": 3842,
      "595": 3843,
      "631": 3844,
      "63b": 3845,
      "624": 3846,
      "752": 3847,
      "750": 3848,
      "728": 3849,
      "765": 3850,
      "973": 3851,
      "cac": 3852,
      "de2": 3853,
      "d21": 3854,
      "e60": 3855,
      "##eda": 3856,
      "##a45": 3857,
      "##96d": 3858,
      "084": 3859,
      "475": 3860,
      "##186": 3861,
      "045": 3862,
      "065": 3863,
      "4b58": 3864,
      "4142": 3865,
      "467": 3866,
      "43e4": 3867,
      "##3cb": 3868,
      "4cd3": 3869,
      "##a1a": 3870,
      "##a1c": 3871,
      "##bb9": 3872,
      "##34a": 3873,
      "882": 3874,
      "##79e": 3875,
      "4da9": 3876,
      "##7bd": 3877,
      "680": 3878,
      "4971": 3879,
      "498b": 3880,
      "4377": 3881,
      "4b89": 3882,
      "4a2e": 3883,
      "3f7": 3884,
      "599": 3885,
      "664": 3886,
      "699": 3887,
      "712": 3888,
      "775": 3889,
      "900": 3890,
      "902": 3891,
      "904": 3892,
      "bda0": 3893,
      "gro": 3894,
      "##52c": 3895,
      "##up": 3896,
      "##01a": 3897,
      "059": 3898,
      "##41b": 3899,
      "##a49": 3900,
      "005": 3901,
      "587": 3902,
      "034": 3903,
      "064": 3904,
      "##a73": 3905,
      "##a72": 3906,
      "##71e": 3907,
      "##f19": 3908,
      "416f": 3909,
      "##de9": 3910,
      "42ac": 3911,
      "486": 3912,
      "489c": 3913,
      "##317": 3914,
      "##30d3": 3915,
      "##urity": 3916,
      "##a85": 3917,
      "##d7a": 3918,
      "##21c": 3919,
      "074": 3920,
      "security": 3921,
      "##dd4": 3922,
      "##10e": 3923,
      "##f9f": 3924,
      "##d5d1": 3925,
      "##455": 3926,
      "815": 3927,
      "##14a": 3928,
      "4fc1": 3929,
      "439e": 3930,
      "b4b3": 3931,
      "group": 3932,
      "groups": 3933,
      "299": 3934,
      "590": 3935,
      "600": 3936,
      "663": 3937,
      "708": 3938,
      "788": 3939,
      "707": 3940,
      "776": 3941,
      "773": 3942,
      "856": 3943,
      "cc2": 3944,
      "dd8": 3945,
      "f88": 3946,
      "050": 3947,
      "##933c": 3948,
      "##fae": 3949,
      "081": 3950,
      "##b06": 3951,
      "##39e": 3952,
      "##b85": 3953,
      "##915": 3954,
      "473e": 3955,
      "471d": 3956,
      "##487": 3957,
      "047": 3958,
      "583": 3959,
      "026": 3960,
      "40ee": 3961,
      "067": 3962,
      "##4310": 3963,
      "##d17": 3964,
      "426a": 3965,
      "##384": 3966,
      "43ca": 3967,
      "##306": 3968,
      "##30f": 3969,
      "511": 3970,
      "504": 3971,
      "##bbe": 3972,
      "529": 3973,
      "525": 3974,
      "##f9e": 3975,
      "880": 3976,
      "##3a3": 3977,
      "4f71": 3978,
      "4d58": 3979,
      "4e57": 3980,
      "919": 3981,
      "789": 3982,
      "4dcd": 3983,
      "44d8": 3984,
      "427c": 3985,
      "791": 3986,
      "727": 3987,
      "720": 3988,
      "7e5": 3989,
      "7d9": 3990,
      "77c": 3991,
      "723": 3992,
      "927": 3993,
      "959": 3994,
      "a12": 3995,
      "eb7": 3996,
      "##cfb": 3997,
      "##0181": 3998,
      "058": 3999,
      "056": 4000,
      "##933": 4001,
      "##96a": 4002,
      "##39a": 4003,
      "##ecf": 4004,
      "476": 4005,
      "474": 4006,
      "##68c": 4007,
      "2637": 4008,
      "##025": 4009,
      "##586": 4010,
      "##589b": 4011,
      "463c": 4012,
      "##615": 4013,
      "##ea3": 4014,
      "##52d": 4015,
      "43f1": 4016,
      "503": 4017,
      "##334": 4018,
      "##b1e": 4019,
      "076": 4020,
      "##289": 4021,
      "##281": 4022,
      "##c12": 4023,
      "##4b5": 4024,
      "923": 4025,
      "8179": 4026,
      "##553": 4027,
      "##65f": 4028,
      "b9f8": 4029,
      "4420": 4030,
      "b226": 4031,
      "294": 4032,
      "2b2": 4033,
      "399": 4034,
      "45b4": 4035,
      "4644": 4036,
      "61c": 4037,
      "701": 4038,
      "730": 4039,
      "943": 4040,
      "9d7": 4041,
      "97b": 4042,
      "a64": 4043,
      "bbc": 4044,
      "d98": 4045,
      "##e5d": 4046,
      "##b27": 4047,
      "051": 4048,
      "##3560": 4049,
      "##0c7": 4050,
      "540": 4051,
      "555": 4052,
      "##b7b": 4053,
      "##4cf8": 4054,
      "##184": 4055,
      "##dca": 4056,
      "003": 4057,
      "##37a": 4058,
      "022": 4059,
      "024": 4060,
      "##4dd": 4061,
      "##4de": 4062,
      "4b98": 4063,
      "411e": 4064,
      "422a": 4065,
      "451b": 4066,
      "2598": 4067,
      "483": 4068,
      "487": 4069,
      "4861": 4070,
      "##f8d": 4071,
      "4304": 4072,
      "##674": 4073,
      "##ebd": 4074,
      "30f": 4075,
      "##223": 4076,
      "##a04": 4077,
      "##49f": 4078,
      "984": 4079,
      "##b6d": 4080,
      "78e": 4081,
      "687": 4082,
      "689": 4083,
      "44c7": 4084,
      "4e13": 4085,
      "4d86": 4086,
      "400a": 4087,
      "4dc2": 4088,
      "431f": 4089,
      "4f6a": 4090,
      "099": 4091,
      "690": 4092,
      "736": 4093,
      "892": 4094,
      "864": 4095,
      "9ea6": 4096,
      "bb08": 4097,
      "b71d": 4098,
      "c9c": 4099,
      "##ad2": 4100,
      "##35f": 4101,
      "##41c": 4102,
      "##aa5": 4103,
      "532": 4104,
      "531": 4105,
      "##ac3": 4106,
      "##b0d": 4107,
      "4759": 4108,
      "##78a": 4109,
      "##37f": 4110,
      "043": 4111,
      "##e73": 4112,
      "##953": 4113,
      "##f1c5": 4114,
      "4bc4": 4115,
      "41d2": 4116,
      "##98b": 4117,
      "##31c": 4118,
      "4fb2": 4119,
      "##32e": 4120,
      "44be": 4121,
      "##67c": 4122,
      "##67ed": 4123,
      "##e8c": 4124,
      "##f69": 4125,
      "##f6a": 4126,
      "##eeaa": 4127,
      "##21e": 4128,
      "##f53": 4129,
      "##66e8": 4130,
      "##bcfb": 4131,
      "##a0b": 4132,
      "##776": 4133,
      "##20a": 4134,
      "##a53": 4135,
      "##4be": 4136,
      "##e5e": 4137,
      "ab56": 4138,
      "ab67": 4139,
      "a4e2": 4140,
      "d5fa": 4141,
      "4d6a": 4142,
      "696": 4143,
      "679": 4144,
      "675": 4145,
      "6c2": 4146,
      "7bc": 4147,
      "763": 4148,
      "800": 4149,
      "899": 4150,
      "863": 4151,
      "992": 4152,
      "956": 4153,
      "a21": 4154,
      "ba8c": 4155,
      "ba2d": 4156,
      "c0c": 4157,
      "e07": 4158,
      "e16": 4159,
      "f3d": 4160,
      "##a3c": 4161,
      "##dd8": 4162,
      "##416": 4163,
      "##cef": 4164,
      "##5bab": 4165,
      "##a4e": 4166,
      "080": 4167,
      "##acf": 4168,
      "##b74": 4169,
      "##083": 4170,
      "##913": 4171,
      "4711": 4172,
      "##37ab": 4173,
      "images": 4174,
      "028": 4175,
      "##abd": 4176,
      "##88d": 4177,
      "##88d8": 4178,
      "##9531": 4179,
      "##43b": 4180,
      "4bbf": 4181,
      "4118": 4182,
      "41b4": 4183,
      "42b9": 4184,
      "480": 4185,
      "489a": 4186,
      "##38a": 4187,
      "##515": 4188,
      "##724": 4189,
      "4307": 4190,
      "##e16": 4191,
      "##5943": 4192,
      "##3bf": 4193,
      "519": 4194,
      "##3c54": 4195,
      "##a8b": 4196,
      "##b19": 4197,
      "##b1f": 4198,
      "##a2e": 4199,
      "070": 4200,
      "##9bd2": 4201,
      "##c1c": 4202,
      "##b6f": 4203,
      "816": 4204,
      "##b4f": 4205,
      "9c7": 4206,
      "783": 4207,
      "a2d5": 4208,
      "0012": 4209,
      "abe4": 4210,
      "abd8": 4211,
      "2624": 4212,
      "2719": 4213,
      "4f89": 4214,
      "4184": 4215,
      "4d8a": 4216,
      "4a1f": 4217,
      "4d29": 4218,
      "4b77": 4219,
      "8222": 4220,
      "4e2d": 4221,
      "756": 4222,
      "805": 4223,
      "860": 4224,
      "89d": 4225,
      "8acd": 4226,
      "8f9a": 4227,
      "903": 4228,
      "9d2e": 4229,
      "af1c": 4230,
      "be1": 4231,
      "b204": 4232,
      "c12": 4233,
      "d96": 4234,
      "dec": 4235,
      "e11": 4236,
      "ecc": 4237,
      "f29": 4238,
      "##35a1": 4239,
      "##9c11": 4240,
      "##d2d": 4241,
      "##d2b1": 4242,
      "##b7e": 4243,
      "47b5": 4244,
      "##78c": 4245,
      "##78d": 4246,
      "##7831": 4247,
      "##68b": 4248,
      "##42d": 4249,
      "##374": 4250,
      "##37d": 4251,
      "##973": 4252,
      "015": 4253,
      "063": 4254,
      "##5893": 4255,
      "##583a": 4256,
      "4bfa": 4257,
      "4157": 4258,
      "##d1c": 4259,
      "##9027": 4260,
      "##98f": 4261,
      "4554": 4262,
      "485": 4263,
      "4814": 4264,
      "461": 4265,
      "##38e6": 4266,
      "##38bf": 4267,
      "##516": 4268,
      "##07cd": 4269,
      "##f2f1": 4270,
      "##3b23": 4271,
      "4cc5": 4272,
      "##a1d": 4273,
      "##ee27": 4274,
      "##bbb2": 4275,
      "##a29": 4276,
      "##9b3": 4277,
      "##9b36": 4278,
      "##9bad": 4279,
      "##119": 4280,
      "##11a": 4281,
      "##20e": 4282,
      "98b0": 4283,
      "00093": 4284,
      "4f46": 4285,
      "4f27": 4286,
      "b8ee": 4287,
      "##d9a": 4288,
      "823": 4289,
      "82fc": 4290,
      "9c4a": 4291,
      "9905": 4292,
      "9b38": 4293,
      "a448": 4294,
      "b5dc": 4295,
      "##0ae7": 4296,
      "8e3c": 4297,
      "4fc5": 4298,
      "4fcf": 4299,
      "4e85": 4300,
      "4966": 4301,
      "042e": 4302,
      "0d1": 4303,
      "1931": 4304,
      "295": 4305,
      "2d9e": 4306,
      "4b08": 4307,
      "796": 4308,
      "743": 4309,
      "731": 4310,
      "755": 4311,
      "836d": 4312,
      "8ca2": 4313,
      "a868": 4314,
      "a52": 4315,
      "c71": 4316,
      "d57": 4317,
      "e46": 4318,
      "eec1": 4319,
      "fc2": 4320,
      "##e45": 4321,
      "##db0a": 4322,
      "##93d": 4323,
      "544": 4324,
      "##aaa9": 4325,
      "25751": 4326,
      "##b89": 4327,
      "##5493": 4328,
      "004": 4329,
      "023": 4330,
      "2672": 4331,
      "2612": 4332,
      "4bde": 4333,
      "41bb": 4334,
      "##ca31": 4335,
      "42df": 4336,
      "484": 4337,
      "48a3": 4338,
      "4fbf": 4339,
      "##074": 4340,
      "##522c": 4341,
      "4300": 4342,
      "##36a1": 4343,
      "49f2": 4344,
      "##5c0": 4345,
      "373c": 4346,
      "5767": 4347,
      "##fd0e": 4348,
      "##666": 4349,
      "##b2a": 4350,
      "##f3b8": 4351,
      "987": 4352,
      "00096": 4353,
      "##afe4": 4354,
      "4e94": 4355,
      "##d4e": 4356,
      "780": 4357,
      "784": 4358,
      "##6eed": 4359,
      "a408": 4360,
      "##80d": 4361,
      "f8a": 4362,
      "d5d8": 4363,
      "60f8": 4364,
      "4485": 4365,
      "4fac": 4366,
      "44dd": 4367,
      "f9d2": 4368,
      "4e9e": 4369,
      "1c8f": 4370,
      "1ec": 4371,
      "2a4": 4372,
      "3e46": 4373,
      "5e1": 4374,
      "6f9": 4375,
      "740": 4376,
      "843": 4377,
      "93d": 4378,
      "964": 4379,
      "ae0": 4380,
      "a5b5": 4381,
      "a784": 4382,
      "b61": 4383,
      "b44": 4384,
      "de7": 4385,
      "d07": 4386,
      "e12": 4387,
      "e13": 4388,
      "f87": 4389,
      "##9371": 4390,
      "115e": 4391,
      "##9c3": 4392,
      "##d60a": 4393,
      "##b0e": 4394,
      "47c": 4395,
      "475c": 4396,
      "##7800": 4397,
      "##dc59": 4398,
      "##f174": 4399,
      "41a5": 4400,
      "##ca18": 4401,
      "452": 4402,
      "451": 4403,
      "45d6": 4404,
      "487b": 4405,
      "48c5": 4406,
      "460": 4407,
      "##611c": 4408,
      "##51f": 4409,
      "44b6": 4410,
      "4346": 4411,
      "##36b": 4412,
      "4c82": 4413,
      "##eb4": 4414,
      "49e6": 4415,
      "##34bf": 4416,
      "##9bd": 4417,
      "887": 4418,
      "##c8d6": 4419,
      "##4b9": 4420,
      "##d5f": 4421,
      "##d551": 4422,
      "00072": 4423,
      "##74e": 4424,
      "4a39": 4425,
      "9239": 4426,
      "##a3a6": 4427,
      "##063": 4428,
      "##d9d": 4429,
      "80fd": 4430,
      "8c35": 4431,
      "##14e": 4432,
      "##c5f": 4433,
      "##82b": 4434,
      "94eb": 4435,
      "8d50": 4436,
      "9aee": 4437,
      "be18": 4438,
      "e6b7": 4439,
      "4e80": 4440,
      "4423": 4441,
      "4395": 4442,
      "4683": 4443,
      "4680": 4444,
      "4577": 4445,
      "8610": 4446,
      "##f6d02": 4447,
      "##e2551": 4448,
      "0a1": 4449,
      "1e1": 4450,
      "4a0d": 4451,
      "4fff": 4452,
      "5f2": 4453,
      "759": 4454,
      "8cc": 4455,
      "9f0": 4456,
      "9e0": 4457,
      "969": 4458,
      "979": 4459,
      "97c": 4460,
      "965": 4461,
      "a88": 4462,
      "bf7": 4463,
      "b56f": 4464,
      "c35": 4465,
      "c98": 4466,
      "cb2": 4467,
      "d28": 4468,
      "e3b": 4469,
      "fd6": 4470,
      "##e96": 4471,
      "##bd7": 4472,
      "##41f": 4473,
      "##4670": 4474,
      "##547": 4475,
      "##4c9": 4476,
      "##71b": 4477,
      "##6c6": 4478,
      "##955": 4479,
      "4b12": 4480,
      "4179": 4481,
      "4103": 4482,
      "##de6": 4483,
      "4264": 4484,
      "42ff": 4485,
      "42d0": 4486,
      "48b5": 4487,
      "481d": 4488,
      "46dc": 4489,
      "4651": 4490,
      "46eb": 4491,
      "460f": 4492,
      "##3299": 4493,
      "44e7": 4494,
      "43aa": 4495,
      "43e3": 4496,
      "##67e": 4497,
      "##503": 4498,
      "##40f": 4499,
      "4c05": 4500,
      "4c14": 4501,
      "4c6a": 4502,
      "4998": 4503,
      "##bbd": 4504,
      "##a22": 4505,
      "##e6b": 4506,
      "##c87": 4507,
      "##12a": 4508,
      "##b6b": 4509,
      "4e62": 4510,
      "4ef1": 4511,
      "bd41": 4512,
      "4f8c": 4513,
      "435d": 4514,
      "462a": 4515,
      "4389": 4516,
      "4edc": 4517,
      "4e4f": 4518,
      "4d6b": 4519,
      "906b": 4520,
      "0c1": 4521,
      "2e7": 4522,
      "3ca": 4523,
      "3c5": 4524,
      "4320": 4525,
      "5fa": 4526,
      "656": 4527,
      "623": 4528,
      "8ed": 4529,
      "90c": 4530,
      "9438": 4531,
      "aed": 4532,
      "b65": 4533,
      "cdc": 4534,
      "e42": 4535,
      "e10": 4536,
      "##9cd": 4537,
      "##96e4": 4538,
      "##0009": 4539,
      "##46c": 4540,
      "##d2a": 4541,
      "##6251": 4542,
      "##914": 4543,
      "4714": 4544,
      "4703": 4545,
      "##7890": 4546,
      "##2718": 4547,
      "029": 4548,
      "##9268": 4549,
      "##4df": 4550,
      "##6440": 4551,
      "4be7": 4552,
      "4be0": 4553,
      "4bd0": 4554,
      "4bb6": 4555,
      "41f6": 4556,
      "4115": 4557,
      "##90e": 4558,
      "4201": 4559,
      "45ce": 4560,
      "48ef": 4561,
      "481f": 4562,
      "482f": 4563,
      "4698": 4564,
      "##eae7": 4565,
      "##ead8": 4566,
      "##72d": 4567,
      "44e8": 4568,
      "4447": 4569,
      "44eb": 4570,
      "4476": 4571,
      "43e2": 4572,
      "43b3": 4573,
      "430f": 4574,
      "##e828": 4575,
      "##d80b": 4576,
      "49ce": 4577,
      "4905": 4578,
      "49dd": 4579,
      "##d79": 4580,
      "##216": 4581,
      "##6690": 4582,
      "##b2f": 4583,
      "##49d": 4584,
      "983": 4585,
      "4f31": 4586,
      "4fd7": 4587,
      "4e07": 4588,
      "a87": 4589,
      "##aef": 4590,
      "824": 4591,
      "a0bb": 4592,
      "4910": 4593,
      "4f81": 4594,
      "49c1": 4595,
      "4d83": 4596,
      "458e": 4597,
      "4467": 4598,
      "0da": 4599,
      "0cc": 4600,
      "3e4": 4601,
      "4a9e": 4602,
      "4959": 4603,
      "4d06": 4604,
      "643": 4605,
      "645": 4606,
      "7db": 4607,
      "9d6b": 4608,
      "a4f": 4609,
      "a719": 4610,
      "aa84": 4611,
      "b93": 4612,
      "b28": 4613,
      "c60": 4614,
      "dd1": 4615,
      "d31": 4616,
      "ddd": 4617,
      "f02": 4618,
      "fcc": 4619,
      "##c61": 4620,
      "##cb1": 4621,
      "##c9b": 4622,
      "##01d": 4623,
      "##9321": 4624,
      "##5782": 4625,
      "##fb3": 4626,
      "##963": 4627,
      "##9600": 4628,
      "##4688": 4629,
      "##08f": 4630,
      "473d": 4631,
      "47f0": 4632,
      "4704": 4633,
      "009": 4634,
      "##4211": 4635,
      "011": 4636,
      "4031": 4637,
      "40f9": 4638,
      "40b9": 4639,
      "060": 4640,
      "##ab3": 4641,
      "##7191": 4642,
      "4ba4": 4643,
      "4b37": 4644,
      "4b59": 4645,
      "4be8": 4646,
      "4b24": 4647,
      "4197": 4648,
      "##dee": 4649,
      "4266": 4650,
      "4210": 4651,
      "42ad": 4652,
      "4204": 4653,
      "4219": 4654,
      "45a4": 4655,
      "45aa": 4656,
      "4519": 4657,
      "4853": 4658,
      "460c": 4659,
      "469c": 4660,
      "461f": 4661,
      "##51a": 4662,
      "##723": 4663,
      "44a8": 4664,
      "43a0": 4665,
      "4363": 4666,
      "4ca9": 4667,
      "4caa": 4668,
      "4c88": 4669,
      "4c10": 4670,
      "4c74": 4671,
      "##9b4": 4672,
      "##6651": 4673,
      "##6660": 4674,
      "523": 4675,
      "##bc3": 4676,
      "##bc7": 4677,
      "4ff4": 4678,
      "1912": 4679,
      "##12e": 4680,
      "##cc0": 4681,
      "92f9": 4682,
      "81a2": 4683,
      "4ef8": 4684,
      "##163": 4685,
      "9120": 4686,
      "##3ef": 4687,
      "803": 4688,
      "##29f": 4689,
      "b0a0": 4690,
      "4db5": 4691,
      "4e4b": 4692,
      "4a16": 4693,
      "4008": 4694,
      "3A58": 4695,
      "4b78": 4696,
      "4ecc": 4697,
      "4a7b": 4698,
      "4f09": 4699,
      "a5c2": 4700,
      "1db": 4701,
      "1e2": 4702,
      "1e0": 4703,
      "4bb0": 4704,
      "4a89": 4705,
      "4e09": 4706,
      "5f7": 4707,
      "6d6": 4708,
      "6ab": 4709,
      "6dd": 4710,
      "7dc": 4711,
      "932": 4712,
      "ae7": 4713,
      "a22": 4714,
      "a04": 4715,
      "a3d4": 4716,
      "aed3": 4717,
      "bd0f": 4718,
      "c93": 4719,
      "c94": 4720,
      "c72": 4721,
      "c44": 4722,
      "eac": 4723,
      "ea7": 4724,
      "e72": 4725,
      "fla": 4726,
      "##fdb": 4727,
      "##de2": 4728,
      "##e58": 4729,
      "##efd": 4730,
      "##vor": 4731,
      "16b": 4732,
      "##ed07": 4733,
      "13c2": 4734,
      "536": 4735,
      "47a": 4736,
      "##185": 4737,
      "##684": 4738,
      "##97e": 4739,
      "020": 4740,
      "40ab": 4741,
      "4034": 4742,
      "##0291": 4743,
      "4b47": 4744,
      "4b29": 4745,
      "4105": 4746,
      "##98e9": 4747,
      "426b": 4748,
      "429e": 4749,
      "42be": 4750,
      "42bd": 4751,
      "4590": 4752,
      "4534": 4753,
      "4525": 4754,
      "455f": 4755,
      "4838": 4756,
      "4840": 4757,
      "48b1": 4758,
      "486e": 4759,
      "487f": 4760,
      "##3118": 4761,
      "##3179": 4762,
      "465b": 4763,
      "46ee": 4764,
      "46d9": 4765,
      "4619": 4766,
      "4663": 4767,
      "467a": 4768,
      "##ea36": 4769,
      "##07d2": 4770,
      "44a9": 4771,
      "43ed": 4772,
      "4c20": 4773,
      "4c1c": 4774,
      "4991": 4775,
      "494c": 4776,
      "4988": 4777,
      "4943": 4778,
      "##33e": 4779,
      "##e637": 4780,
      "09e7": 4781,
      "##b24": 4782,
      "##d0a": 4783,
      "##e5d1": 4784,
      "00081": 4785,
      "4f3d": 4786,
      "4f32": 4787,
      "4f59": 4788,
      "4f99": 4789,
      "4f34": 4790,
      "4a62": 4791,
      "4a5d": 4792,
      "##ccd": 4793,
      "##b6a": 4794,
      "4dd2": 4795,
      "4dec": 4796,
      "4d30": 4797,
      "##c24": 4798,
      "##3e39": 4799,
      "##6bd3": 4800,
      "8756": 4801,
      "##87e": 4802,
      "83a7": 4803,
      "b498": 4804,
      "4010": 4805,
      "4353": 4806,
      "498a": 4807,
      "418b": 4808,
      "4a4d": 4809,
      "462e": 4810,
      "4a9a": 4811,
      "4a9b": 4812,
      "448c": 4813,
      "4e1f": 4814,
      "4e4a": 4815,
      "4dc8": 4816,
      "4314": 4817,
      "4324": 4818,
      "3A11": 4819,
      "4a65": 4820,
      "4e5e": 4821,
      "flavor": 4822,
      "flavors": 4823,
      "0c2": 4824,
      "3aa": 4825,
      "3f2": 4826,
      "495d": 4827,
      "4b07": 4828,
      "4aa2": 4829,
      "4abc": 4830,
      "4e69": 4831,
      "5f4": 4832,
      "6b9": 4833,
      "60a": 4834,
      "7e7": 4835,
      "963": 4836,
      "a01": 4837,
      "ae1": 4838,
      "a7c": 4839,
      "b0c": 4840,
      "bf63": 4841,
      "c92": 4842,
      "c59": 4843,
      "d58": 4844,
      "d7b": 4845,
      "f47": 4846,
      "f15": 4847,
      "##6780": 4848,
      "##f35": 4849,
      "##be0": 4850,
      "##a9f8": 4851,
      "##a920": 4852,
      "##9ca0": 4853,
      "##9639": 4854,
      "##aca": 4855,
      "##b068": 4856,
      "##62a": 4857,
      "1866": 4858,
      "##9152": 4859,
      "4750": 4860,
      "473b": 4861,
      "4710": 4862,
      "4776": 4863,
      "019": 4864,
      "403b": 4865,
      "40e9": 4866,
      "409f": 4867,
      "a48d": 4868,
      "##6c4": 4869,
      "##6c4cd": 4870,
      "##434b": 4871,
      "##94e": 4872,
      "##5800": 4873,
      "4b94": 4874,
      "4b3a": 4875,
      "41b": 4876,
      "41ab": 4877,
      "41d8": 4878,
      "4140": 4879,
      "41a6": 4880,
      "##984": 4881,
      "4205": 4882,
      "45fc": 4883,
      "45f0": 4884,
      "45e5": 4885,
      "4553": 4886,
      "2596": 4887,
      "4893": 4888,
      "48b0": 4889,
      "4891": 4890,
      "2150": 4891,
      "4668": 4892,
      "46fc": 4893,
      "467e": 4894,
      "##612c": 4895,
      "##ea53": 4896,
      "44a": 4897,
      "4393": 4898,
      "43ea": 4899,
      "43ad": 4900,
      "##f241": 4901,
      "##e8d": 4902,
      "##e8ed": 4903,
      "##47d": 4904,
      "##3660": 4905,
      "4cda": 4906,
      "4ca7": 4907,
      "4cde": 4908,
      "4cf6": 4909,
      "4cc1": 4910,
      "4c16": 4911,
      "4cd4": 4912,
      "49ec": 4913,
      "49b2": 4914,
      "##f054": 4915,
      "##f03f": 4916,
      "##d75": 4917,
      "##333d": 4918,
      "##bba4": 4919,
      "##a2a": 4920,
      "##a295": 4921,
      "##9b42": 4922,
      "##a668": 4923,
      "##bc5": 4924,
      "##b23": 4925,
      "34b": 4926,
      "##d0ac": 4927,
      "##c85": 4928,
      "984a": 4929,
      "4f4d": 4930,
      "4fde": 4931,
      "4a56": 4932,
      "4ade": 4933,
      "4af0": 4934,
      "##ad4": 4935,
      "4dfc": 4936,
      "4eed": 4937,
      "4e08": 4938,
      "4e6c": 4939,
      "9c66": 4940,
      "b1be": 4941,
      "##1cb": 4942,
      "8cdf": 4943,
      "b0d": 4944,
      "a4f6": 4945,
      "##0f95": 4946,
      "89f6": 4947,
      "8f36": 4948,
      "b4ae": 4949,
      "aeb8": 4950,
      "6c6d": 4951,
      "ec6e": 4952,
      "4970": 4953,
      "401d": 4954,
      "4fc7": 4955,
      "498e": 4956,
      "4183": 4957,
      "4dbf": 4958,
      "44c9": 4959,
      "4487": 4960,
      "4589": 4961,
      "4549": 4962,
      "4436": 4963,
      "2ef9": 4964,
      "4dea": 4965,
      "a41c": 4966,
      "23d": 4967,
      "2d2": 4968,
      "3da": 4969,
      "4f55": 4970,
      "4f23": 4971,
      "4ea2": 4972,
      "63d": 4973,
      "6f0": 4974,
      "6c4": 4975,
      "7d7": 4976,
      "8029": 4977,
      "9a4": 4978,
      "9c1": 4979,
      "9947": 4980,
      "a31": 4981,
      "aeb": 4982,
      "a11": 4983,
      "a77": 4984,
      "a02b": 4985,
      "bb0": 4986,
      "bec": 4987,
      "b084": 4988,
      "cf9": 4989,
      "c406": 4990,
      "ded": 4991,
      "d90": 4992,
      "d0b": 4993,
      "d69e": 4994,
      "e3d": 4995,
      "ef3": 4996,
      "e25": 4997,
      "f27": 4998,
      "fbe": 4999,
      "f6d": 5000,
      "##fe7": 5001,
      "##f50": 5002,
      "##e5c": 5003,
      "##e625": 5004,
      "##unc": 5005,
      "##2cd8": 5006,
      "##edf2": 5007,
      "##ed8d": 5008,
      "##0cc7": 5009,
      "##5b4c": 5010,
      "inde": 5011,
      "##ec0": 5012,
      "##b877": 5013,
      "##91d": 5014,
      "47b1": 5015,
      "470e": 5016,
      "4725": 5017,
      "472a": 5018,
      "475f": 5019,
      "471a": 5020,
      "##183": 5021,
      "##48d": 5022,
      "00b": 5023,
      "##373": 5024,
      "ad4a": 5025,
      "40ed": 5026,
      "4095": 5027,
      "4058": 5028,
      "40bb": 5029,
      "##9231": 5030,
      "##0591": 5031,
      "##43cc": 5032,
      "##583": 5033,
      "##6449": 5034,
      "41e2": 5035,
      "4153": 5036,
      "417c": 5037,
      "41ef": 5038,
      "416a": 5039,
      "##cadf": 5040,
      "##98e": 5041,
      "42e0": 5042,
      "426f": 5043,
      "420b": 5044,
      "4594": 5045,
      "2541": 5046,
      "4831": 5047,
      "4646": 5048,
      "463b": 5049,
      "4610": 5050,
      "##38ab": 5051,
      "##526": 5052,
      "44fe": 5053,
      "44bf": 5054,
      "444f": 5055,
      "447f": 5056,
      "433b": 5057,
      "43fe": 5058,
      "436d": 5059,
      "##e1d": 5060,
      "##d8d": 5061,
      "##d802": 5062,
      "##d83b": 5063,
      "4cf8": 5064,
      "4c3b": 5065,
      "4c4b": 5066,
      "4cbf": 5067,
      "4ccf": 5068,
      "32fb": 5069,
      "##ebc8": 5070,
      "##f6ab": 5071,
      "##fdd8": 5072,
      "##445": 5073,
      "##4435": 5074,
      "launc": 5075,
      "##282": 5076,
      "9800": 5077,
      "##709": 5078,
      "##e9f": 5079,
      "4f94": 5080,
      "4f61": 5081,
      "4ab0": 5082,
      "924": 5083,
      "##af88": 5084,
      "4d97": 5085,
      "4de7": 5086,
      "4efc": 5087,
      "a834": 5088,
      "9177": 5089,
      "829b": 5090,
      "##0499": 5091,
      "##3f47": 5092,
      "##7c0": 5093,
      "b266": 5094,
      "##7bfc4": 5095,
      "bc57": 5096,
      "ac58": 5097,
      "9b3e": 5098,
      "##7a27": 5099,
      "8bfc": 5100,
      "8ded": 5101,
      "bd48": 5102,
      "9af0": 5103,
      "4f83": 5104,
      "4fcd": 5105,
      "4a45": 5106,
      "4a42": 5107,
      "4425": 5108,
      "4967": 5109,
      "d6e2": 5110,
      "4fa3": 5111,
      "4548": 5112,
      "4433": 5113,
      "456a": 5114,
      "4945": 5115,
      "ba70": 5116,
      "4a63": 5117,
      "b333": 5118,
      "bc1b": 5119,
      "4dd9": 5120,
      "index": 5121,
      "launch": 5122,
      "1a8": 5123,
      "2b7": 5124,
      "2c3": 5125,
      "464": 5126,
      "4d71": 5127,
      "4a86": 5128,
      "4fe6": 5129,
      "5eb": 5130,
      "639": 5131,
      "6b8": 5132,
      "7b0": 5133,
      "8ce": 5134,
      "859": 5135,
      "8f7": 5136,
      "8db2": 5137,
      "90cf": 5138,
      "9715": 5139,
      "9936": 5140,
      "95d0": 5141,
      "a931": 5142,
      "a33": 5143,
      "a729": 5144,
      "a34b": 5145,
      "b32a": 5146,
      "b606": 5147,
      "b92f": 5148,
      "b647": 5149,
      "cde": 5150,
      "da4": 5151,
      "d64": 5152,
      "d69": 5153,
      "ec7": 5154,
      "f01": 5155,
      "f97": 5156,
      "fc6": 5157,
      "##a27": 5158,
      "##efa": 5159,
      "##bf6": 5160,
      "##01b1": 5161,
      "16d": 5162,
      "##e470": 5163,
      "##93fc": 5164,
      "##a9f6": 5165,
      "##edfc": 5166,
      "##4118": 5167,
      "##9c78": 5168,
      "##d652": 5169,
      "##965": 5170,
      "##aae8": 5171,
      "479": 5172,
      "47dc": 5173,
      "4764": 5174,
      "47d7": 5175,
      "##54fa": 5176,
      "##42e": 5177,
      "##4281": 5178,
      "##3754": 5179,
      "##97a0f": 5180,
      "adf0": 5181,
      "##8680": 5182,
      "##887b": 5183,
      "2648": 5184,
      "2677": 5185,
      "##9537": 5186,
      "##5802": 5187,
      "##f155": 5188,
      "4baa": 5189,
      "4bcf": 5190,
      "4156": 5191,
      "414d": 5192,
      "4120": 5193,
      "41c2": 5194,
      "419d": 5195,
      "414f": 5196,
      "##906": 5197,
      "48da": 5198,
      "48dd": 5199,
      "48c8": 5200,
      "48ae": 5201,
      "4863": 5202,
      "##3108": 5203,
      "4608": 5204,
      "4648": 5205,
      "4656": 5206,
      "4690": 5207,
      "46e6": 5208,
      "4670": 5209,
      "23c": 5210,
      "##513": 5211,
      "##5104": 5212,
      "##f8a": 5213,
      "44ff": 5214,
      "440e": 5215,
      "43e7": 5216,
      "434d": 5217,
      "434e": 5218,
      "##fcdc": 5219,
      "##3039": 5220,
      "##4768": 5221,
      "##f798": 5222,
      "##f7b2": 5223,
      "##99e1": 5224,
      "4c1": 5225,
      "4cf1": 5226,
      "4cba": 5227,
      "##a817": 5228,
      "49d2": 5229,
      "4994": 5230,
      "49bb": 5231,
      "##f6e4": 5232,
      "##212": 5233,
      "075": 5234,
      "##663": 5235,
      "##6650": 5236,
      "##a6e": 5237,
      "##b25": 5238,
      "883": 5239,
      "##d592": 5240,
      "00082": 5241,
      "4ae0": 5242,
      "4eea": 5243,
      "b855": 5244,
      "a86": 5245,
      "915": 5246,
      "##0450": 5247,
      "9cf0": 5248,
      "b149": 5249,
      "##6be": 5250,
      "bc54": 5251,
      "bc6c": 5252,
      "8c30": 5253,
      "8c21": 5254,
      "b068": 5255,
      "b0a7": 5256,
      "9bda": 5257,
      "a4bc": 5258,
      "8e5d": 5259,
      "9f68": 5260,
      "b9a3": 5261,
      "c8e": 5262,
      "a5a4": 5263,
      "9d97": 5264,
      "8ab7": 5265,
      "49c8": 5266,
      "44c6": 5267,
      "4e1b": 5268,
      "4e11": 5269,
      "4080": 5270,
      "##5df50": 5271,
      "443c": 5272,
      "3682": 5273,
      "b4d7": 5274,
      "8217": 5275,
      "991e": 5276,
      "87cd": 5277,
      "027": 5278,
      "4fd": 5279,
      "4ea1": 5280,
      "5ff": 5281,
      "62a": 5282,
      "7a9": 5283,
      "7e2": 5284,
      "8d71": 5285,
      "8980": 5286,
      "8d0b": 5287,
      "8581": 5288,
      "9be": 5289,
      "93cd": 5290,
      "9edf": 5291,
      "9444": 5292,
      "99c9": 5293,
      "af4": 5294,
      "ae6": 5295,
      "abd": 5296,
      "a952": 5297,
      "a209": 5298,
      "aad9": 5299,
      "a409": 5300,
      "a42a": 5301,
      "bc2c": 5302,
      "b59": 5303,
      "b925": 5304,
      "b95e": 5305,
      "b5be": 5306,
      "c4d": 5307,
      "df3": 5308,
      "d4cc": 5309,
      "edb": 5310,
      "e30": 5311,
      "e76": 5312,
      "eba": 5313,
      "fec": 5314,
      "##3fe": 5315,
      "##af1": 5316,
      "##e97": 5317,
      "##e452": 5318,
      "##e45c": 5319,
      "##e48a": 5320,
      "##3509": 5321,
      "##db08": 5322,
      "##db67": 5323,
      "##a9a9": 5324,
      "##a902": 5325,
      "##fa67": 5326,
      "##41b1": 5327,
      "##577b": 5328,
      "##cea": 5329,
      "##9ca4": 5330,
      "##9c3e": 5331,
      "##0003": 5332,
      "5368": 5333,
      "##3946": 5334,
      "##b7d": 5335,
      "##ec68": 5336,
      "##0887": 5337,
      "1858": 5338,
      "##913e": 5339,
      "47d6": 5340,
      "4766": 5341,
      "479d": 5342,
      "478f": 5343,
      "##5476": 5344,
      "##4c97": 5345,
      "##4c1c": 5346,
      "##18310": 5347,
      "##4828": 5348,
      "##dcd": 5349,
      "##dc7c": 5350,
      "##273d": 5351,
      "##e75": 5352,
      "01c": 5353,
      "4026": 5354,
      "##714": 5355,
      "##56b9": 5356,
      "##6c97": 5357,
      "##6cd8": 5358,
      "##4d10": 5359,
      "##886": 5360,
      "##88fd": 5361,
      "2618": 5362,
      "2642": 5363,
      "2606": 5364,
      "##95e3": 5365,
      "##e2f2": 5366,
      "##58b8": 5367,
      "##64b7": 5368,
      "##6495": 5369,
      "##6407": 5370,
      "4b40": 5371,
      "4ba2": 5372,
      "411c": 5373,
      "41c4": 5374,
      "##d110": 5375,
      "##de50": 5376,
      "##debb": 5377,
      "4249": 5378,
      "42e3": 5379,
      "4282": 5380,
      "455b": 5381,
      "45dc": 5382,
      "2537": 5383,
      "2138": 5384,
      "4633": 5385,
      "46a0": 5386,
      "##07e9": 5387,
      "##0703": 5388,
      "##f838": 5389,
      "##f861": 5390,
      "##f8f0": 5391,
      "##f877": 5392,
      "449c": 5393,
      "##f2f5": 5394,
      "##67d5": 5395,
      "##e855": 5396,
      "##50a6": 5397,
      "##d87": 5398,
      "##f752": 5399,
      "##403": 5400,
      "##99ae": 5401,
      "##3bb9": 5402,
      "4cf5": 5403,
      "4c0e": 5404,
      "4c8b": 5405,
      "321b": 5406,
      "4978": 5407,
      "##a13": 5408,
      "##f66c": 5409,
      "##eea4": 5410,
      "##ee88": 5411,
      "##f0e": 5412,
      "##f031": 5413,
      "##d76c": 5414,
      "##2139": 5415,
      "##f472": 5416,
      "##f4bc": 5417,
      "##9b68": 5418,
      "##e0e": 5419,
      "##e0fa": 5420,
      "##a6a8": 5421,
      "##bcf": 5422,
      "##bc61": 5423,
      "##bc1c": 5424,
      "##b230": 5425,
      "##dd9": 5426,
      "##44b": 5427,
      "##f393": 5428,
      "2943": 5429,
      "##4992": 5430,
      "881c": 5431,
      "##4bd": 5432,
      "00092": 5433,
      "00077": 5434,
      "##74a": 5435,
      "4a00": 5436,
      "4ab7": 5437,
      "4a52": 5438,
      "4ae1": 5439,
      "##1241": 5440,
      "##e318": 5441,
      "##b63": 5442,
      "##b696": 5443,
      "92f6": 5444,
      "92a6": 5445,
      "4df0": 5446,
      "b83c": 5447,
      "b8ff": 5448,
      "a80": 5449,
      "a899": 5450,
      "a85a": 5451,
      "8247": 5452,
      "82be": 5453,
      "b199": 5454,
      "b235": 5455,
      "b2ac": 5456,
      "b26c": 5457,
      "8096": 5458,
      "bcb3": 5459,
      "96ac": 5460,
      "96a8": 5461,
      "a738": 5462,
      "a7c1": 5463,
      "##5ef7": 5464,
      "b030": 5465,
      "9764": 5466,
      "9747": 5467,
      "b7ee": 5468,
      "a174": 5469,
      "8741": 5470,
      "bb5b": 5471,
      "a096": 5472,
      "9bdb": 5473,
      "a4f4": 5474,
      "b6bb": 5475,
      "93e4": 5476,
      "9361": 5477,
      "badc": 5478,
      "89f8": 5479,
      "8ffe": 5480,
      "1c4": 5481,
      "84ce": 5482,
      "a3aa": 5483,
      "a305": 5484,
      "##c942": 5485,
      "aef5": 5486,
      "4f87": 5487,
      "49cb": 5488,
      "4a44": 5489,
      "4a94": 5490,
      "4e45": 5491,
      "6ddb": 5492,
      "488f": 5493,
      "8b8b": 5494,
      "4ce9": 5495,
      "896b": 5496,
      "4ecf": 5497,
      "493c": 5498,
      "4dee": 5499,
      "911c": 5500,
      "385881": 5501,
      "bf82": 5502,
      "4d79": 5503,
      "16797a0f": 5504,
      "a41e": 5505,
      "b22b": 5506,
      "##48c35d": 5507,
      "bf1a": 5508,
      "bd87": 5509,
      "a1c3": 5510,
      "ac8d": 5511,
      "bc86": 5512,
      "38588148c35d": 5513,
      "1a1": 5514,
      "12cb": 5515,
      "2d5": 5516,
      "2be": 5517,
      "4c2c": 5518,
      "4eee": 5519,
      "5903": 5520,
      "64f": 5521,
      "760": 5522,
      "704": 5523,
      "76a": 5524,
      "7a71": 5525,
      "84c5": 5526,
      "8ff": 5527,
      "8aa2": 5528,
      "897c": 5529,
      "82cc": 5530,
      "891f": 5531,
      "8e49": 5532,
      "8c8e": 5533,
      "8433": 5534,
      "9e4c": 5535,
      "9aa1": 5536,
      "9ab4": 5537,
      "9fbb": 5538,
      "9fd5": 5539,
      "ad6": 5540,
      "a961": 5541,
      "af44": 5542,
      "a43e": 5543,
      "adb4": 5544,
      "a59f": 5545,
      "aa0e": 5546,
      "a975": 5547,
      "a79e": 5548,
      "b73d": 5549,
      "be8": 5550,
      "b3ac": 5551,
      "bb07": 5552,
      "b5b1": 5553,
      "b542": 5554,
      "bd0b": 5555,
      "b5d4": 5556,
      "b381": 5557,
      "b91c": 5558,
      "b548": 5559,
      "b2c8": 5560,
      "b62b": 5561,
      "bbb6": 5562,
      "bd10": 5563,
      "b6c8": 5564,
      "b51e": 5565,
      "b9b9": 5566,
      "c3d3": 5567,
      "ca6": 5568,
      "d77": 5569,
      "dec5": 5570,
      "eab": 5571,
      "##c58": 5572,
      "##01b4": 5573,
      "##2c90": 5574,
      "##e4b5": 5575,
      "##e487": 5576,
      "##e42b": 5577,
      "##db52": 5578,
      "##9367": 5579,
      "##93c1": 5580,
      "##a971": 5581,
      "##a982": 5582,
      "##3d51": 5583,
      "##0cde": 5584,
      "13f2": 5585,
      "##fa38": 5586,
      "##413": 5587,
      "##575": 5588,
      "##d654": 5589,
      "##a452": 5590,
      "##9687": 5591,
      "##aaab": 5592,
      "##00aa": 5593,
      "##0048": 5594,
      "##466c": 5595,
      "5396": 5596,
      "3150": 5597,
      "##b705": 5598,
      "##ec3": 5599,
      "##b8a": 5600,
      "##b847": 5601,
      "##b8d4": 5602,
      "##0846": 5603,
      "##dab8": 5604,
      "##da28": 5605,
      "##9193": 5606,
      "474d": 5607,
      "4747": 5608,
      "47b2": 5609,
      "##7832": 5610,
      "##4898": 5611,
      "##48fc": 5612,
      "##48cd": 5613,
      "##48c9": 5614,
      "##683": 5615,
      "##37e4": 5616,
      "##37aa": 5617,
      "##3732": 5618,
      "##3726": 5619,
      "04a": 5620,
      "##27f": 5621,
      "##e75a": 5622,
      "addc": 5623,
      "ad1f": 5624,
      "036": 5625,
      "0334": 5626,
      "40a3": 5627,
      "409d": 5628,
      "402e": 5629,
      "##a7a": 5630,
      "##a72b": 5631,
      "##924c": 5632,
      "##924b": 5633,
      "##6c20": 5634,
      "##882": 5635,
      "2646": 5636,
      "2631": 5637,
      "2661": 5638,
      "##953d": 5639,
      "##05ca": 5640,
      "##051d": 5641,
      "41dd": 5642,
      "4109": 5643,
      "##d1c8": 5644,
      "##90a": 5645,
      "##90b8": 5646,
      "##98cb": 5647,
      "4298": 5648,
      "42ae": 5649,
      "45d5": 5650,
      "4516": 5651,
      "453e": 5652,
      "4854": 5653,
      "4802": 5654,
      "48bd": 5655,
      "##317c": 5656,
      "2722": 5657,
      "##6154": 5658,
      "##6118": 5659,
      "##51cd": 5660,
      "##ea28": 5661,
      "##f89": 5662,
      "##fc77": 5663,
      "##f2ec": 5664,
      "##673": 5665,
      "##473f": 5666,
      "##d89f": 5667,
      "##3b5c": 5668,
      "##3657": 5669,
      "##3c5": 5670,
      "##a8ec": 5671,
      "##a171": 5672,
      "##a160": 5673,
      "##f6d6": 5674,
      "##f650": 5675,
      "##ee2c": 5676,
      "##d7d6": 5677,
      "##d7b1": 5678,
      "##f4b0": 5679,
      "##f44c": 5680,
      "##f4fe": 5681,
      "##bb44": 5682,
      "##5c5f": 5683,
      "##34b7": 5684,
      "1956": 5685,
      "##9b21": 5686,
      "##f5da": 5687,
      "##66fa": 5688,
      "##a6fa": 5689,
      "##a634": 5690,
      "##a6b2": 5691,
      "##bc4": 5692,
      "##bc1": 5693,
      "##dd0": 5694,
      "##d035": 5695,
      "##f3f2": 5696,
      "##20f7": 5697,
      "##c1b1": 5698,
      "8841": 5699,
      "88d6": 5700,
      "88d8": 5701,
      "88b1": 5702,
      "9841": 5703,
      "989d": 5704,
      "##703b": 5705,
      "##e53": 5706,
      "##d5e6": 5707,
      "00068": 5708,
      "##3ae3": 5709,
      "4f62": 5710,
      "4a67": 5711,
      "4a34": 5712,
      "##adf": 5713,
      "92e2": 5714,
      "9299": 5715,
      "4d93": 5716,
      "4d91": 5717,
      "81f4": 5718,
      "4ea7": 5719,
      "b862": 5720,
      "b8fc": 5721,
      "b860": 5722,
      "a845": 5723,
      "9199": 5724,
      "8243": 5725,
      "8259": 5726,
      "##d400": 5727,
      "9cfa": 5728,
      "9c04": 5729,
      "b135": 5730,
      "b1d2": 5731,
      "a2ae": 5732,
      "b233": 5733,
      "b23a": 5734,
      "##ef57": 5735,
      "##7b3": 5736,
      "8035": 5737,
      "8067": 5738,
      "803e": 5739,
      "bc67": 5740,
      "95d6": 5741,
      "9505": 5742,
      "9590": 5743,
      "9507": 5744,
      "95f7": 5745,
      "9659": 5746,
      "ac45": 5747,
      "a692": 5748,
      "a63e": 5749,
      "##0ef0": 5750,
      "b791": 5751,
      "b792": 5752,
      "2628": 5753,
      "9032": 5754,
      "90f7": 5755,
      "9040": 5756,
      "9049": 5757,
      "962e": 5758,
      "a048": 5759,
      "9573": 5760,
      "9bfb": 5761,
      "b6a2": 5762,
      "b5e4": 5763,
      "b536": 5764,
      "aafc": 5765,
      "aaeb": 5766,
      "86b6": 5767,
      "##7a07": 5768,
      "8e18": 5769,
      "9336": 5770,
      "93a6": 5771,
      "94fe": 5772,
      "8dac": 5773,
      "8d72": 5774,
      "8dd7": 5775,
      "bab7": 5776,
      "8908": 5777,
      "9ae2": 5778,
      "8332": 5779,
      "83e3": 5780,
      "8443": 5781,
      "84bb": 5782,
      "af99": 5783,
      "af3b": 5784,
      "9e02": 5785,
      "9e34": 5786,
      "5b30": 5787,
      "fc45": 5788,
      "d199": 5789,
      "1f6c": 5790,
      "1f4d": 5791,
      "0cb2": 5792,
      "4e8a": 5793,
      "4db7": 5794,
      "ee61": 5795,
      "4275": 5796,
      "4545": 5797,
      "4ac4": 5798,
      "cdf3": 5799,
      "##6410": 5800,
      "0d05": 5801,
      "b4de": 5802,
      "4b06": 5803,
      "4f0e": 5804,
      "878a": 5805,
      "870b": 5806,
      "933e": 5807,
      "##5bbae": 5808,
      "ac19": 5809,
      "b703": 5810,
      "04c": 5811,
      "0e87": 5812,
      "04c6": 5813,
      "1928": 5814,
      "1dbc": 5815,
      "1a65": 5816,
      "2a24": 5817,
      "2bc2": 5818,
      "3cd": 5819,
      "507f": 5820,
      "5d1e": 5821,
      "6a8": 5822,
      "6d3": 5823,
      "65e": 5824,
      "6c5": 5825,
      "6209": 5826,
      "6ce9": 5827,
      "73fb": 5828,
      "70e": 5829,
      "7521": 5830,
      "7418": 5831,
      "707c": 5832,
      "7111": 5833,
      "7ec8": 5834,
      "8a0d": 5835,
      "8d69": 5836,
      "876a": 5837,
      "8603": 5838,
      "8d1f": 5839,
      "8ce3": 5840,
      "905e": 5841,
      "99bf": 5842,
      "9e06": 5843,
      "9dc3": 5844,
      "9d66": 5845,
      "9564": 5846,
      "94c1": 5847,
      "9a5e": 5848,
      "9e7f": 5849,
      "ae2d": 5850,
      "ae3": 5851,
      "a940": 5852,
      "a5df": 5853,
      "a921": 5854,
      "a070": 5855,
      "a369": 5856,
      "af6b": 5857,
      "a0cf": 5858,
      "ae7b": 5859,
      "a3d5": 5860,
      "a5bc": 5861,
      "a38f": 5862,
      "a69d": 5863,
      "a665": 5864,
      "a75e": 5865,
      "b66": 5866,
      "b320": 5867,
      "b932": 5868,
      "bf87": 5869,
      "bdc1": 5870,
      "b5c3": 5871,
      "bca1": 5872,
      "b329": 5873,
      "be82": 5874,
      "bec4": 5875,
      "ba48": 5876,
      "b3ae": 5877,
      "be0a": 5878,
      "bb20": 5879,
      "b88a": 5880,
      "c009": 5881,
      "c0c2": 5882,
      "c316": 5883,
      "d446": 5884,
      "d909": 5885,
      "d3d2": 5886,
      "d686": 5887,
      "dfb5": 5888,
      "ed22": 5889,
      "ed23": 5890,
      "f40": 5891,
      "f69": 5892,
      "faf": 5893,
      "f979": 5894,
      "f406": 5895,
      "fcee": 5896,
      "f425": 5897,
      "feae": 5898,
      "f05f": 5899,
      "##054": 5900,
      "##2e7": 5901,
      "##f46": 5902,
      "##e35b": 5903,
      "##0143": 5904,
      "05fc": 5905,
      "##2c96": 5906,
      "##2c32": 5907,
      "##2cc0": 5908,
      "##2c1a": 5909,
      "##e43d": 5910,
      "##359a": 5911,
      "##db54": 5912,
      "##a978": 5913,
      "##a9d4": 5914,
      "1116": 5915,
      "##fa88": 5916,
      "##facd": 5917,
      "545b": 5918,
      "##2c46": 5919,
      "##fb8f": 5920,
      "##9cc6": 5921,
      "##5bdf": 5922,
      "##a47e": 5923,
      "##00d0": 5924,
      "##0044": 5925,
      "##00788": 5926,
      "##00482": 5927,
      "##469a": 5928,
      "08fe": 5929,
      "5559": 5930,
      "310f": 5931,
      "##aca4": 5932,
      "##ac8e": 5933,
      "##b75c": 5934,
      "##b7ff": 5935,
      "##eccf": 5936,
      "##0838": 5937,
      "##08c2": 5938,
      "##9187": 5939,
      "470a": 5940,
      "##548c": 5941,
      "##1894": 5942,
      "##1898": 5943,
      "##4863": 5944,
      "##375": 5945,
      "##373a": 5946,
      "##379e": 5947,
      "##37c7": 5948,
      "##e766": 5949,
      "ad1": 5950,
      "adfc": 5951,
      "ad17": 5952,
      "ad9f": 5953,
      "0193": 5954,
      "02f5": 5955,
      "032a": 5956,
      "4039": 5957,
      "4021": 5958,
      "##a7eb": 5959,
      "##a714": 5960,
      "##f0cb": 5961,
      "##ab93": 5962,
      "##abeb": 5963,
      "##7145": 5964,
      "##569d": 5965,
      "##6c5": 5966,
      "##4d07": 5967,
      "2662": 5968,
      "2691": 5969,
      "2607": 5970,
      "26540": 5971,
      "##05e5": 5972,
      "##4364": 5973,
      "##43be": 5974,
      "##e23": 5975,
      "##e20c": 5976,
      "##9477": 5977,
      "##58a": 5978,
      "##581b": 5979,
      "##f12c": 5980,
      "##f178": 5981,
      "##f1e8": 5982,
      "##64a5": 5983,
      "##64b5": 5984,
      "##cae1": 5985,
      "##ca86": 5986,
      "##d19f": 5987,
      "##90b1": 5988,
      "##90df": 5989,
      "##9833": 5990,
      "##98b9": 5991,
      "##deb4": 5992,
      "4593": 5993,
      "45ec": 5994,
      "455d": 5995,
      "459a": 5996,
      "4899": 5997,
      "2105": 5998,
      "2176": 5999,
      "##31b": 6000,
      "27c14": 6001,
      "4639": 6002,
      "46dd": 6003,
      "1287": 6004,
      "##38e5": 6005,
      "##613": 6006,
      "##61d6": 6007,
      "##51ea": 6008,
      "4fb6": 6009,
      "4fb4": 6010,
      "##ea26": 6011,
      "##ea1f": 6012,
      "##7208": 6013,
      "##72a0": 6014,
      "##f84c": 6015,
      "##f825": 6016,
      "44fb": 6017,
      "444d": 6018,
      "44bd": 6019,
      "43ac": 6020,
      "##fc22": 6021,
      "##f2e2": 6022,
      "##f28a": 6023,
      "##67f": 6024,
      "##676b": 6025,
      "##e13": 6026,
      "##e132": 6027,
      "##60f6": 6028,
      "##60600": 6029,
      "##e8c2": 6030,
      "##30bd": 6031,
      "##50b": 6032,
      "##504c": 6033,
      "##475c": 6034,
      "##d835": 6035,
      "##d8c8": 6036,
      "##f7c8": 6037,
      "##f79e": 6038,
      "##404c": 6039,
      "##99f": 6040,
      "##3b5": 6041,
      "##3b4d": 6042,
      "##3bf9": 6043,
      "28b": 6044,
      "##36b1": 6045,
      "##3cc5": 6046,
      "4c76": 6047,
      "##ebad": 6048,
      "##f6f1": 6049,
      "5060": 6050,
      "##b146": 6051,
      "##21b2": 6052,
      "##f49b": 6053,
      "##bbd7": 6054,
      "##bb9d": 6055,
      "##bbcf": 6056,
      "##a2d6": 6057,
      "##a237": 6058,
      "##a2e2": 6059,
      "3799": 6060,
      "1498": 6061,
      "19b4": 6062,
      "##fded": 6063,
      "##f5d1": 6064,
      "##f5a5": 6065,
      "##66b5": 6066,
      "##5d4f": 6067,
      "##e078": 6068,
      "09de": 6069,
      "##a6eb": 6070,
      "56f": 6071,
      "##ff96": 6072,
      "##dd95": 6073,
      "##d094": 6074,
      "##f9de": 6075,
      "##f9f2": 6076,
      "##f9e5": 6077,
      "88b0": 6078,
      "8848": 6079,
      "880e": 6080,
      "9842": 6081,
      "986c": 6082,
      "##e55b": 6083,
      "00087": 6084,
      "##692c": 6085,
      "4fe8": 6086,
      "4afe": 6087,
      "##125c": 6088,
      "##12e7d": 6089,
      "##cc58": 6090,
      "9235": 6091,
      "9232": 6092,
      "92f0": 6093,
      "4dd7": 6094,
      "81da": 6095,
      "8133": 6096,
      "b8b5": 6097,
      "a82c": 6098,
      "a8d6": 6099,
      "a8d8": 6100,
      "a82a": 6101,
      "##555": 6102,
      "##aefd": 6103,
      "##09f": 6104,
      "91fb": 6105,
      "91e0": 6106,
      "##d4b8": 6107,
      "##04999": 6108,
      "9c11": 6109,
      "9c5d": 6110,
      "9c6a": 6111,
      "78f7": 6112,
      "b118": 6113,
      "b150": 6114,
      "b136": 6115,
      "b17a": 6116,
      "##7c600": 6117,
      "a2db": 6118,
      "a2f6": 6119,
      "b227": 6120,
      "##dff4": 6121,
      "##6bd": 6122,
      "##6b49": 6123,
      "##1c6f": 6124,
      "9675": 6125,
      "80aa": 6126,
      "80de": 6127,
      "803f": 6128,
      "1585": 6129,
      "bc5e": 6130,
      "bc9a": 6131,
      "##9ea4": 6132,
      "952c": 6133,
      "9596": 6134,
      "95ac": 6135,
      "8c46": 6136,
      "8c31": 6137,
      "8cc1": 6138,
      "96fb": 6139,
      "##26f": 6140,
      "ac18": 6141,
      "ac20": 6142,
      "ac0d": 6143,
      "a799": 6144,
      "a7fe": 6145,
      "a7c2": 6146,
      "a6fa": 6147,
      "a6e2": 6148,
      "a6d1": 6149,
      "b041": 6150,
      "b0ea": 6151,
      "##6eea": 6152,
      "b730": 6153,
      "b7cc": 6154,
      "##15e2": 6155,
      "##b3ed": 6156,
      "a171": 6157,
      "a1b3": 6158,
      "9071": 6159,
      "90de": 6160,
      "bbf0": 6161,
      "##25a1": 6162,
      "2688": 6163,
      "994c": 6164,
      "99a7": 6165,
      "99f3": 6166,
      "a458": 6167,
      "b6ed": 6168,
      "b654": 6169,
      "b6d1": 6170,
      "b5fc": 6171,
      "aafe": 6172,
      "aaf5": 6173,
      "86fb": 6174,
      "##0b94": 6175,
      "8e37": 6176,
      "8e58": 6177,
      "8ef5": 6178,
      "8b96": 6179,
      "93f4": 6180,
      "94f2": 6181,
      "8546": 6182,
      "8505": 6183,
      "85f8": 6184,
      "bafe": 6185,
      "b9fa": 6186,
      "b9aa": 6187,
      "b9f0": 6188,
      "89f5": 6189,
      "9ada": 6190,
      "9ade": 6191,
      "8f41": 6192,
      "a364": 6193,
      "a3ff": 6194,
      "f03b": 6195,
      "be05": 6196,
      "##2ef5": 6197,
      "9dec": 6198,
      "b300": 6199,
      "##7fd1": 6200,
      "9ef0": 6201,
      "67dd": 6202,
      "ec50": 6203,
      "61de": 6204,
      "cb9b": 6205,
      "cba5": 6206,
      "441f": 6207,
      "e038": 6208,
      "1be4": 6209,
      "eb4d": 6210,
      "6b57": 6211,
      "ee94": 6212,
      "427b": 6213,
      "d4e6": 6214,
      "6d3b": 6215,
      "c305": 6216,
      "8b83": 6217,
      "8b89": 6218,
      "1d00": 6219,
      "e36c": 6220,
      "3dd2": 6221,
      "ed39": 6222,
      "ed51": 6223,
      "##41170": 6224,
      "7f4c": 6225,
      "##2186": 6226,
      "c037": 6227,
      "845f": 6228,
      "f53b": 6229,
      "c5f3": 6230,
      "911d": 6231,
      "##3611": 6232,
      "7d72": 6233,
      "934f": 6234,
      "901c": 6235,
      "997b": 6236,
      "951b": 6237,
      "852b": 6238,
      "ba77": 6239,
      "9884": 6240,
      "866d": 6241,
      "bdcc": 6242,
      "ab75": 6243,
      "8773": 6244,
      "a465": 6245,
      "966f": 6246,
      "##4b69c": 6247,
      "5717": 6248,
      "9953": 6249,
      "920b": 6250,
      "875e": 6251,
      "952d": 6252,
      "8c1c": 6253,
      "949e": 6254,
      "##b87e2": 6255,
      "b487": 6256,
      "853f": 6257,
      "840d": 6258,
      "9765": 6259,
      "831b": 6260,
      "a4b3": 6261,
      "0370": 6262,
      "0a69": 6263,
      "0ec4": 6264,
      "0e0b": 6265,
      "0f1f": 6266,
      "0d2b": 6267,
      "1c2c": 6268,
      "1350": 6269,
      "1976": 6270,
      "1d61": 6271,
      "1fb8": 6272,
      "1dc9": 6273,
      "13da": 6274,
      "1ce8": 6275,
      "1a26": 6276,
      "1c2f": 6277,
      "1c5f": 6278,
      "25b8": 6279,
      "2ce9": 6280,
      "362e": 6281,
      "3ea8": 6282,
      "3b17": 6283,
      "3645": 6284,
      "3ca0": 6285,
      "3ddd": 6286,
      "3d25": 6287,
      "3b79": 6288,
      "3a81": 6289,
      "3deb": 6290,
      "3a7e": 6291,
      "5eb1": 6292,
      "5fbf": 6293,
      "5fbc": 6294,
      "5ca2": 6295,
      "5a15": 6296,
      "5b9e": 6297,
      "5d1d": 6298,
      "6d22": 6299,
      "6976": 6300,
      "66c0": 6301,
      "6f7c": 6302,
      "6eba": 6303,
      "6e43": 6304,
      "6a3f": 6305,
      "6cc5": 6306,
      "727c": 6307,
      "744": 6308,
      "736f": 6309,
      "7e7c": 6310,
      "72c0": 6311,
      "7a8e": 6312,
      "70c1": 6313,
      "7c1d": 6314,
      "8f1b": 6315,
      "8d60": 6316,
      "8514": 6317,
      "8679": 6318,
      "8d23": 6319,
      "8e4d": 6320,
      "8a7c": 6321,
      "895f": 6322,
      "8a9c": 6323,
      "8fe3": 6324,
      "8aaf": 6325,
      "8fb0": 6326,
      "8da2": 6327,
      "8cae": 6328,
      "96b8": 6329,
      "93cc": 6330,
      "9e42": 6331,
      "900a": 6332,
      "95b7": 6333,
      "9bc0": 6334,
      "a446": 6335,
      "a919": 6336,
      "a949": 6337,
      "aaa2": 6338,
      "a788": 6339,
      "a97c": 6340,
      "aa89": 6341,
      "acee": 6342,
      "aa4a": 6343,
      "aed1": 6344,
      "a504": 6345,
      "a09e": 6346,
      "afaa": 6347,
      "a61b": 6348,
      "a165": 6349,
      "b5b4": 6350,
      "bf17": 6351,
      "bf1c": 6352,
      "b2cb": 6353,
      "bac4": 6354,
      "bcec": 6355,
      "be65": 6356,
      "becd": 6357,
      "b76a": 6358,
      "b5ba": 6359,
      "b42b": 6360,
      "b073": 6361,
      "b5c8": 6362,
      "b053": 6363,
      "bb9a": 6364,
      "b97d": 6365,
      "c4e": 6366,
      "c3d1": 6367,
      "c075": 6368,
      "c781": 6369,
      "cd1a": 6370,
      "cdb9": 6371,
      "cb6e": 6372,
      "dfd": 6373,
      "d981": 6374,
      "dce1": 6375,
      "d912": 6376,
      "df75": 6377,
      "d616": 6378,
      "d5d5": 6379,
      "d3cf": 6380,
      "e467": 6381,
      "ee3f": 6382,
      "e37b": 6383,
      "ffa": 6384,
      "fe9": 6385,
      "fb9": 6386,
      "f621": 6387,
      "f619": 6388,
      "f31e": 6389,
      "ffac": 6390,
      "fc8e": 6391,
      "fb03": 6392,
      "##8b1": 6393,
      "##6a7d": 6394,
      "##a05e": 6395,
      "##d40a": 6396,
      "##e93e": 6397,
      "051f": 6398,
      "058b": 6399,
      "##2c11a": 6400,
      "16f2": 6401,
      "##e493": 6402,
      "##e474": 6403,
      "##e45ad": 6404,
      "##35f8": 6405,
      "##93f5": 6406,
      "##a9d5": 6407,
      "##ed33": 6408,
      "10ed": 6409,
      "##3d66": 6410,
      "##3d4f": 6411,
      "##0c20": 6412,
      "##face0": 6413,
      "##57a0": 6414,
      "5431": 6415,
      "##dbad": 6416,
      "##fb23": 6417,
      "##fbe46": 6418,
      "##ce6e": 6419,
      "##ce05e": 6420,
      "##9c62": 6421,
      "##d66f": 6422,
      "##a441": 6423,
      "##9697": 6424,
      "##96af": 6425,
      "##96cf": 6426,
      "##9685": 6427,
      "##aa01": 6428,
      "##aa26": 6429,
      "##46b5": 6430,
      "##d2446": 6431,
      "##d249": 6432,
      "08c7": 6433,
      "##c2cd": 6434,
      "31d8": 6435,
      "3185": 6436,
      "##ac93": 6437,
      "##ac9c6": 6438,
      "##39f5": 6439,
      "##b76d": 6440,
      "##ecd1": 6441,
      "##ec3f": 6442,
      "##ec51b": 6443,
      "##b81c": 6444,
      "##62ef": 6445,
      "##da32f": 6446,
      "184e": 6447,
      "##91d6": 6448,
      "##9136": 6449,
      "##786c": 6450,
      "##54ac": 6451,
      "##5448": 6452,
      "##54f9d": 6453,
      "##483f": 6454,
      "##68f24": 6455,
      "##dc94": 6456,
      "0058": 6457,
      "0077": 6458,
      "0059a": 6459,
      "009c3e": 6460,
      "##4226": 6461,
      "##37a8": 6462,
      "##37a3": 6463,
      "0405": 6464,
      "04a1": 6465,
      "##e74": 6466,
      "##e769a": 6467,
      "ad47": 6468,
      "0108": 6469,
      "0245": 6470,
      "0322": 6471,
      "##57eb3": 6472,
      "##a7436": 6473,
      "##a75782": 6474,
      "##9226": 6475,
      "##926f": 6476,
      "##71dd": 6477,
      "##7122a": 6478,
      "##567a": 6479,
      "##4d9d": 6480,
      "##4d8e": 6481,
      "170c": 6482,
      "##88ac": 6483,
      "2635": 6484,
      "2608": 6485,
      "26d1": 6486,
      "2632": 6487,
      "26a6": 6488,
      "##0536": 6489,
      "##e235": 6490,
      "##e29c": 6491,
      "##e2af": 6492,
      "##949b": 6493,
      "##0206": 6494,
      "4bd8": 6495,
      "4bc2": 6496,
      "4b13": 6497,
      "41fd": 6498,
      "##ca8d": 6499,
      "##d1d0": 6500,
      "##909e": 6501,
      "##98eb": 6502,
      "##dea70": 6503,
      "480c": 6504,
      "dad6": 6505,
      "da6d": 6506,
      "da5a": 6507,
      "212c": 6508,
      "##31fc": 6509,
      "##386c": 6510,
      "##38a5": 6511,
      "##383e": 6512,
      "##384e": 6513,
      "##51d65": 6514,
      "##ea54": 6515,
      "##ea3bd": 6516,
      "##d710": 6517,
      "##3fbe56": 6518,
      "##32e8": 6519,
      "##32f7": 6520,
      "##724b": 6521,
      "##075e": 6522,
      "##074e": 6523,
      "##f850": 6524,
      "##f83a": 6525,
      "##52a": 6526,
      "##52928": 6527,
      "434f": 6528,
      "##e17b": 6529,
      "##e129": 6530,
      "##e1bd": 6531,
      "##e1f5f": 6532,
      "##60e": 6533,
      "##e817": 6534,
      "##50d": 6535,
      "##50d1": 6536,
      "##d8c7": 6537,
      "##f7e6": 6538,
      "##f7412": 6539,
      "##400c": 6540,
      "3e78": 6541,
      "##e2d00788": 6542,
      "5175": 6543,
      "##36485": 6544,
      "##3c15": 6545,
      "4c9c": 6546,
      "##a813": 6547,
      "32b2": 6548,
      "##eb67": 6549,
      "##ebff": 6550,
      "##ebc0": 6551,
      "##ebdab": 6552,
      "##a157": 6553,
      "##a1c3": 6554,
      "##ee9e": 6555,
      "5042": 6556,
      "##334a": 6557,
      "##214": 6558,
      "##f495": 6559,
      "##bbdba": 6560,
      "##bbfb": 6561,
      "3507": 6562,
      "f7d8": 6563,
      "f7d4": 6564,
      "24f8": 6565,
      "3718": 6566,
      "37b5": 6567,
      "37719": 6568,
      "14f25": 6569,
      "##34eb": 6570,
      "##3490d": 6571,
      "57ca": 6572,
      "##9bc4": 6573,
      "##44661": 6574,
      "##fd5dd": 6575,
      "##f596": 6576,
      "##f5ff": 6577,
      "##e0d1": 6578,
      "09051": 6579,
      "##a6fb": 6580,
      "##bce4": 6581,
      "##a03a": 6582,
      "##a0a8c": 6583,
      "56b5": 6584,
      "##b202": 6585,
      "##b2f8": 6586,
      "##77b4": 6587,
      "##ff9537": 6588,
      "##dd3a": 6589,
      "##ddfb6": 6590,
      "##d03": 6591,
      "##44eb": 6592,
      "##4445": 6593,
      "##10a5": 6594,
      "##f3e5d1": 6595,
      "##c121": 6596,
      "8860": 6597,
      "88f0": 6598,
      "881b": 6599,
      "982c": 6600,
      "9822": 6601,
      "98f3": 6602,
      "9879": 6603,
      "98e97": 6604,
      "##e53a": 6605,
      "##e555": 6606,
      "##d5fbe": 6607,
      "39ac": 6608,
      "39dd": 6609,
      "00094": 6610,
      "00098": 6611,
      "##4546": 6612,
      "##45e7": 6613,
      "##e9d3": 6614,
      "##e9eb1": 6615,
      "##b52c": 6616,
      "##e331": 6617,
      "##cc7": 6618,
      "92ec": 6619,
      "9252": 6620,
      "929f": 6621,
      "925a": 6622,
      "##afa9": 6623,
      "81d8": 6624,
      "8176": 6625,
      "b8b7": 6626,
      "b808": 6627,
      "b8a5": 6628,
      "b8d3": 6629,
      "##d3f6": 6630,
      "##065b": 6631,
      "a8ce": 6632,
      "a8ef": 6633,
      "a81e": 6634,
      "##ae6c": 6635,
      "##16a": 6636,
      "##53f7c": 6637,
      "##b401": 6638,
      "9cb7": 6639,
      "9cfe": 6640,
      "9c9d": 6641,
      "78ca": 6642,
      "b13": 6643,
      "a29c": 6644,
      "a2ad": 6645,
      "b2a9": 6646,
      "b23f": 6647,
      "b2e855": 6648,
      "##7b35": 6649,
      "##7b6c9": 6650,
      "80dd": 6651,
      "80d4": 6652,
      "##73ce": 6653,
      "bc96": 6654,
      "bcbb": 6655,
      "953b": 6656,
      "8ce4": 6657,
      "9656": 6658,
      "9602": 6659,
      "9664": 6660,
      "963c": 6661,
      "##bd36": 6662,
      "##2697": 6663,
      "ac77": 6664,
      "acc8": 6665,
      "ac026": 6666,
      "a70c": 6667,
      "a635": 6668,
      "a6af": 6669,
      "97e5": 6670,
      "97b9": 6671,
      "b73c": 6672,
      "ab9c": 6673,
      "a164": 6674,
      "a1bc": 6675,
      "a13a": 6676,
      "8754": 6677,
      "87c2": 6678,
      "bb57": 6679,
      "bbda": 6680,
      "bbf8": 6681,
      "bb44": 6682,
      "a0da": 6683,
      "a092": 6684,
      "##6ae9": 6685,
      "9b61": 6686,
      "a496": 6687,
      "a472": 6688,
      "b546": 6689,
      "b5d1": 6690,
      "b5e9": 6691,
      "##0a58": 6692,
      "8e35": 6693,
      "9457": 6694,
      "8558": 6695,
      "8550": 6696,
      "8dd2": 6697,
      "9f64": 6698,
      "bfdb": 6699,
      "bf2c90": 6700,
      "ba88": 6701,
      "##cfec": 6702,
      "b995": 6703,
      "8393": 6704,
      "83ed": 6705,
      "8f57": 6706,
      "1c01": 6707,
      "##89fc": 6708,
      "##89e85": 6709,
      "8402": 6710,
      "d532": 6711,
      "c890": 6712,
      "a335": 6713,
      "f099": 6714,
      "f033": 6715,
      "be9c": 6716,
      "be60": 6717,
      "a5a9": 6718,
      "a5ec": 6719,
      "a988": 6720,
      "a92c9": 6721,
      "c2d6": 6722,
      "c24b69c": 6723,
      "##c618": 6724,
      "##2e18": 6725,
      "71de": 6726,
      "7144": 6727,
      "9dfa": 6728,
      "9d40": 6729,
      "9d99": 6730,
      "ae3a": 6731,
      "b36c": 6732,
      "c6e3": 6733,
      "c768": 6734,
      "c75d": 6735,
      "7242": 6736,
      "72b5": 6737,
      "e897": 6738,
      "7036": 6739,
      "70b6": 6740,
      "704546": 6741,
      "ec46": 6742,
      "c147": 6743,
      "6159": 6744,
      "d8c1": 6745,
      "63b7": 6746,
      "3cb9": 6747,
      "2c67": 6748,
      "2c5c": 6749,
      "7cf2": 6750,
      "7c47": 6751,
      "66b5": 6752,
      "7705": 6753,
      "cbf4": 6754,
      "cbe5": 6755,
      "2b22": 6756,
      "2b5d": 6757,
      "5b50": 6758,
      "5c54": 6759,
      "fc46": 6760,
      "4f8e": 6761,
      "f6dc": 6762,
      "f605": 6763,
      "e0d9": 6764,
      "e04c2": 6765,
      "d142": 6766,
      "1f60": 6767,
      "7630": 6768,
      "0bda": 6769,
      "e643": 6770,
      "4e8c": 6771,
      "6201": 6772,
      "d7f5": 6773,
      "d0a7": 6774,
      "d6b7": 6775,
      "f348": 6776,
      "f3011": 6777,
      "##9612c": 6778,
      "46c7c600": 6779,
      "ff52": 6780,
      "65e3": 6781,
      "3b52": 6782,
      "d4a0": 6783,
      "e943be": 6784,
      "d346": 6785,
      "##98ad0e": 6786,
      "7ba1": 6787,
      "7ef1": 6788,
      "091c": 6789,
      "c3fc": 6790,
      "1d58": 6791,
      "e346": 6792,
      "eff7": 6793,
      "ef3fbe56": 6794,
      "8966": 6795,
      "861e": 6796,
      "##36908": 6797,
      "6e51": 6798,
      "cf60": 6799,
      "cf887b": 6800,
      "3fde50": 6801,
      "cef0": 6802,
      "ce5cd": 6803,
      "##218c61": 6804,
      "907a": 6805,
      "d99c": 6806,
      "9116": 6807,
      "##a00f": 6808,
      "##b3bd": 6809,
      "1e50": 6810,
      "4d1f": 6811,
      "958c": 6812,
      "958e": 6813,
      "19454f9d": 6814,
      "##38795": 6815,
      "9065": 6816,
      "##3e1c": 6817,
      "##61901": 6818,
      "941a982": 6819,
      "b4df": 6820,
      "b4d1": 6821,
      "##909a4": 6822,
      "338d": 6823,
      "3528": 6824,
      "352a": 6825,
      "1a41": 6826,
      "5fe470": 6827,
      "28175": 6828,
      "bf8c82": 6829,
      "##d279b": 6830,
      "##e8736908": 6831,
      "##ca161": 6832,
      "##fb159": 6833,
      "928b": 6834,
      "##fd956": 6835,
      "##f555d": 6836,
      "9383": 6837,
      "912f": 6838,
      "##ed832": 6839,
      "##0040c": 6840,
      "##9474c": 6841,
      "##ce03c": 6842,
      "c6289e85": 6843,
      "812d": 6844,
      "##46d31": 6845,
      "##d0e88": 6846,
      "4f69": 6847,
      "##a117b": 6848,
      "##e566": 6849,
      "a37a": 6850,
      "##d74da5": 6851,
      "##d8b9c": 6852,
      "##90732": 6853,
      "##fd035": 6854,
      "342dea70": 6855,
      "93b1": 6856,
      "3bc5": 6857,
      "567b": 6858,
      "##abb3d": 6859,
      "##e775476": 6860,
      "b33f": 6861,
      "29036": 6862,
      "9317": 6863,
      "766a": 6864,
      "975a": 6865,
      "##57c45": 6866,
      "5c1f": 6867,
      "##6cc4670": 6868,
      "84b9": 6869,
      "2626e8736908": 6870,
      "##01bff9537": 6871,
      "960e": 6872,
      "b114": 6873,
      "9ec26": 6874,
      "##506f4": 6875,
      "de5fd5dd": 6876,
      "##476f3": 6877,
      "32a6cc4670": 6878,
      "69e54": 6879,
      "b06b": 6880,
      "b103": 6881,
      "##33ae3": 6882,
      "de201bff9537": 6883,
      "427cc1b1": 6884,
      "e115": 6885,
      "5f2d279b": 6886,
      "4b37218c61": 6887,
      "6d638795": 6888,
      "ae70887": 6889,
      "4decc942": 6890,
      "0c27832": 6891,
      "e3da75782": 6892,
      "00be775476": 6893,
      "##38ab4768": 6894,
      "##0499e8": 6895,
      "##a81700": 6896,
      "aad9ee2c": 6897,
      "##577ba48": 6898,
      "2be57eb3": 6899,
      "1f4d4300": 6900,
      "ee612186": 6901,
      "04c65943": 6902,
      "1dbcdff4": 6903,
      "7521581b": 6904,
      "ed23ee27": 6905,
      "##38e50c": 6906,
      "7f4c38ab4768": 6907,
      "6a3f0703": 6908,
      "d616e48a": 6909,
      "051fe2d00788": 6910,
      "009c3e98ad0e": 6911,
      "3771905a": 6912,
      "14f255b9": 6913,
      "98e9712a": 6914,
      "b2e855d74da5": 6915,
      "ac026b4a": 6916,
      "a92c9ce1": 6917,
      "c24b69cda32f": 6918,
      "f30113de": 6919,
      "e943be94": 6920,
      "cf887b38e50c": 6921,
      "3fde50f3e5d1": 6922,
      "ce5cd577ba48": 6923,
      "19454f9d08c2": 6924,
      "941a98268f24": 6925,
      "5fe470a81700": 6926,
      "bf8c824d": 6927,
      "342dea704c1c": 6928,
      "de5fd5ddf5da": 6929,
      "32a6cc4670ae": 6930,
      "427cc1b12ef5": 6931,
      "4b37218c6196": 6932,
      "ae70887fd956": 6933,
      "0c27832a7436": 6934,
      "e3da7578262e": 6935,
      "00be775476f1": 6936,
      "2be57eb33299": 6937,
      "0a86": 6938,
      "0390": 6939,
      "0ce9": 6940,
      "0e10": 6941,
      "0a8a": 6942,
      "0d80": 6943,
      "0e6f": 6944,
      "0686": 6945,
      "0ab1": 6946,
      "0e79": 6947,
      "0eb5": 6948,
      "1a17": 6949,
      "1db6": 6950,
      "1dcf": 6951,
      "1ac2": 6952,
      "1e8a": 6953,
      "1780eb": 6954,
      "2e8": 6955,
      "2c1": 6956,
      "26c0": 6957,
      "2abe": 6958,
      "2cc3": 6959,
      "2a6d": 6960,
      "2ed07": 6961,
      "2ebc8": 6962,
      "3028": 6963,
      "3938": 6964,
      "3d60": 6965,
      "307c": 6966,
      "3a4b": 6967,
      "3b0b": 6968,
      "3a75": 6969,
      "3da5": 6970,
      "3a97": 6971,
      "3fa7": 6972,
      "5f1b": 6973,
      "560b": 6974,
      "562b": 6975,
      "5daf": 6976,
      "52ce": 6977,
      "5ac9": 6978,
      "5db14": 6979,
      "6370": 6980,
      "6de0": 6981,
      "6d8b": 6982,
      "650f": 6983,
      "6fbe": 6984,
      "6dae": 6985,
      "6d89": 6986,
      "64cf8": 6987,
      "6e2551": 6988,
      "7868": 6989,
      "7fd9": 6990,
      "7a16": 6991,
      "7ce0": 6992,
      "710f": 6993,
      "7a63": 6994,
      "8ee5": 6995,
      "8b17": 6996,
      "8ea1": 6997,
      "832a": 6998,
      "89c0": 6999,
      "8ee9": 7000,
      "84cf": 7001,
      "8e828": 7002,
      "95d4": 7003,
      "9612": 7004,
      "930d": 7005,
      "9dbf": 7006,
      "909e": 7007,
      "99b5": 7008,
      "af4a": 7009,
      "adc5": 7010,
      "a610": 7011,
      "a612": 7012,
      "a62b": 7013,
      "a084": 7014,
      "aa8f": 7015,
      "a111": 7016,
      "a07a": 7017,
      "a725": 7018,
      "a9bd2": 7019,
      "a5ef7": 7020,
      "bad": 7021,
      "bf4a": 7022,
      "b209": 7023,
      "b968": 7024,
      "be10": 7025,
      "b9bf": 7026,
      "bf20": 7027,
      "b625": 7028,
      "b4cb": 7029,
      "b3da": 7030,
      "b00a": 7031,
      "bfbd": 7032,
      "bea36": 7033,
      "c3bc": 7034,
      "cf1b": 7035,
      "c680": 7036,
      "c4cd": 7037,
      "c785": 7038,
      "cfdf": 7039,
      "cdbe": 7040,
      "ca3e": 7041,
      "cca8": 7042,
      "cecb": 7043,
      "cd5e": 7044,
      "cff3": 7045,
      "c30a": 7046,
      "ca99": 7047,
      "c11b": 7048,
      "cb73": 7049,
      "c88d8": 7050,
      "c0009": 7051,
      "cc2cd": 7052,
      "d931": 7053,
      "ded5": 7054,
      "d5e": 7055,
      "d921": 7056,
      "ddc1": 7057,
      "dacc": 7058,
      "ded3": 7059,
      "d54b": 7060,
      "d6cf": 7061,
      "d0c4": 7062,
      "d425": 7063,
      "dab1": 7064,
      "df76": 7065,
      "db83": 7066,
      "df06": 7067,
      "dd3f": 7068,
      "d116": 7069,
      "d14a": 7070,
      "d20e": 7071,
      "d0ae7": 7072,
      "d80d": 7073,
      "e369": 7074,
      "e3cd": 7075,
      "eb14": 7076,
      "eb05": 7077,
      "ea43": 7078,
      "e353": 7079,
      "ee15": 7080,
      "ed7f": 7081,
      "e0040c": 7082,
      "f5a": 7083,
      "f918": 7084,
      "f2cd": 7085,
      "fdaf": 7086,
      "f3c6": 7087,
      "fe6d": 7088,
      "f56e": 7089,
      "f65a": 7090,
      "febf": 7091,
      "fcbe1": 7092,
      "f0ef0": 7093,
      "fabb3d": 7094,
      "pu": 7095,
      "##302d": 7096,
      "##693b": 7097,
      "##0e8": 7098,
      "##5ea26": 7099,
      "##ff7b": 7100,
      "##eebb": 7101,
      "##bl": 7102,
      "##0178e": 7103,
      "0579": 7104,
      "##2cb13": 7105,
      "##2ceca": 7106,
      "1652e": 7107,
      "16cfb": 7108,
      "##e4544": 7109,
      "##35f29": 7110,
      "##db4c5": 7111,
      "##db222": 7112,
      "##dbcc2": 7113,
      "##db9227": 7114,
      "##db6ae9": 7115,
      "##93ae": 7116,
      "##934a": 7117,
      "##93e89": 7118,
      "##a9fc4": 7119,
      "##ed12e": 7120,
      "109e": 7121,
      "##3dda": 7122,
      "##3d7b35": 7123,
      "1147": 7124,
      "112e18": 7125,
      "##0cce": 7126,
      "##0c92d": 7127,
      "##0c37e": 7128,
      "##0ce55b": 7129,
      "##0cb76d": 7130,
      "1349": 7131,
      "13f52": 7132,
      "13e93e": 7133,
      "##fa27b": 7134,
      "##fa93e": 7135,
      "##fa2c1": 7136,
      "##fa4d4": 7137,
      "##fa35a1": 7138,
      "##41a89": 7139,
      "##41adc": 7140,
      "##41d62": 7141,
      "##41b3b6": 7142,
      "5421": 7143,
      "##2c4583a": 7144,
      "##ed93a0a8c": 7145,
      "##fb5df": 7146,
      "##fb204": 7147,
      "##fba24": 7148,
      "##ce2c7": 7149,
      "##9c40b": 7150,
      "##5bd69": 7151,
      "##5b52f": 7152,
      "##d631": 7153,
      "##d6473": 7154,
      "##a4a47": 7155,
      "##a4b8b": 7156,
      "##a4a668": 7157,
      "##96b0f": 7158,
      "##aaca0": 7159,
      "##aa10f": 7160,
      "##aaa20": 7161,
      "##aa08d": 7162,
      "##00215": 7163,
      "##00466c": 7164,
      "##466b": 7165,
      "##469685": 7166,
      "##d2d400": 7167,
      "08485": 7168,
      "53e5": 7169,
      "53adc": 7170,
      "##3d3355": 7171,
      "257ff7b": 7172,
      "55f8": 7173,
      "55f2": 7174,
      "5583": 7175,
      "55ec51b": 7176,
      "31eebb": 7177,
      "##ac644": 7178,
      "##b0d3": 7179,
      "##b0e0f": 7180,
      "##b0726": 7181,
      "##9315": 7182,
      "##b7ee": 7183,
      "##b76b": 7184,
      "##b7204": 7185,
      "##b7f7c8": 7186,
      "##ec7b": 7187,
      "##ecd4a": 7188,
      "##b8b88": 7189,
      "##62958": 7190,
      "##62fb6": 7191,
      "##62129": 7192,
      "##6238bf": 7193,
      "##62d2d400": 7194,
      "##08b80": 7195,
      "##daee5": 7196,
      "##da35c": 7197,
      "##dae69": 7198,
      "18bf": 7199,
      "##91676": 7200,
      "47f4b": 7201,
      "4757a": 7202,
      "##78a5": 7203,
      "##78275": 7204,
      "##7899e": 7205,
      "##7895c": 7206,
      "##78a10": 7207,
      "##548e": 7208,
      "##54e85": 7209,
      "##54c29": 7210,
      "##54f1c5": 7211,
      "##54a9f8": 7212,
      "##4c17": 7213,
      "##4cda7e": 7214,
      "##4c02a": 7215,
      "##4c0846": 7216,
      "##48529": 7217,
      "##48a00": 7218,
      "##48a71": 7219,
      "##48f86": 7220,
      "##68b7": 7221,
      "##685dd": 7222,
      "##68d7d": 7223,
      "##68bc0": 7224,
      "##680499e8": 7225,
      "##dcb4": 7226,
      "##dc90d": 7227,
      "##dc587": 7228,
      "002a": 7229,
      "00385": 7230,
      "00a09": 7231,
      "##424b": 7232,
      "##4205ca": 7233,
      "##373d4": 7234,
      "##37a8a": 7235,
      "##3736f": 7236,
      "##37ce7": 7237,
      "##37fa4": 7238,
      "##3720a": 7239,
      "##37163": 7240,
      "049b": 7241,
      "04d7d6": 7242,
      "##27ba": 7243,
      "58b8c": 7244,
      "##97d6": 7245,
      "##97d3": 7246,
      "##974a": 7247,
      "##97a9a": 7248,
      "##9778b": 7249,
      "##97611c": 7250,
      "##e7a": 7251,
      "##e7e2e": 7252,
      "##e747f": 7253,
      "##e7e132": 7254,
      "ad470": 7255,
      "ad54b": 7256,
      "016e": 7257,
      "0263": 7258,
      "02fdb": 7259,
      "02efd": 7260,
      "031c6f": 7261,
      "03ce6e": 7262,
      "##eb7d3": 7263,
      "##eb7ec7": 7264,
      "##eb7a20": 7265,
      "406e": 7266,
      "40aa0": 7267,
      "##dc1847": 7268,
      "##a74c": 7269,
      "##a72d": 7270,
      "##a77f": 7271,
      "##a7117": 7272,
      "##a737a8a": 7273,
      "##868ef": 7274,
      "##86825a1": 7275,
      "##92345": 7276,
      "##92e566": 7277,
      "##27ca3c": 7278,
      "##ac06780": 7279,
      "##bb0fa": 7280,
      "##ab614": 7281,
      "##714b": 7282,
      "##71e19": 7283,
      "##71f65": 7284,
      "##56989": 7285,
      "##56f9de": 7286,
      "##6c600": 7287,
      "##6cd19": 7288,
      "##4d35f8": 7289,
      "172b": 7290,
      "##88a3": 7291,
      "##88ea8": 7292,
      "2654": 7293,
      "2671": 7294,
      "2647c": 7295,
      "##9562d": 7296,
      "##05524": 7297,
      "##e29f": 7298,
      "##94db2": 7299,
      "##945b5": 7300,
      "##944d10": 7301,
      "##58c": 7302,
      "##58600": 7303,
      "##58760": 7304,
      "##58f29": 7305,
      "##58ed8d": 7306,
      "##f1b5": 7307,
      "##f1db2": 7308,
      "##f11cb": 7309,
      "##f1fa88": 7310,
      "##64aa1": 7311,
      "##64e76": 7312,
      "223388": 7313,
      "4bb8": 7314,
      "4bcb1": 7315,
      "207a": 7316,
      "200c37e": 7317,
      "416b": 7318,
      "4172a": 7319,
      "##ca028": 7320,
      "##ca542": 7321,
      "##d11241": 7322,
      "##9043a": 7323,
      "##90477": 7324,
      "##9027d": 7325,
      "##90a7f": 7326,
      "##9800f": 7327,
      "##98404": 7328,
      "##98d5e6": 7329,
      "##de0d": 7330,
      "##de82b": 7331,
      "##de6bd3": 7332,
      "42e96": 7333,
      "459": 7334,
      "453ae3": 7335,
      "2591": 7336,
      "25f68": 7337,
      "4810e": 7338,
      "da30b": 7339,
      "da3b23": 7340,
      "da125c": 7341,
      "2130d": 7342,
      "##31ac06780": 7343,
      "1253": 7344,
      "12f241": 7345,
      "124863": 7346,
      "232d": 7347,
      "233c2": 7348,
      "23fe7": 7349,
      "23ee88": 7350,
      "##6175": 7351,
      "##51352": 7352,
      "##51e10": 7353,
      "##51e04": 7354,
      "##ea0d": 7355,
      "##eaea0": 7356,
      "##5b408": 7357,
      "##5b47191": 7358,
      "##5b47208": 7359,
      "##d71bd7": 7360,
      "##325d": 7361,
      "##726a": 7362,
      "##722a": 7363,
      "##07d": 7364,
      "##07383": 7365,
      "##07b1c": 7366,
      "##075d3": 7367,
      "##f8485": 7368,
      "##f8edf2": 7369,
      "##f8a47e": 7370,
      "##f8373a": 7371,
      "##52949": 7372,
      "##fc87e": 7373,
      "1534bf": 7374,
      "15e43d": 7375,
      "##f2983": 7376,
      "##f2dad": 7377,
      "##f24d07": 7378,
      "##67011": 7379,
      "##67b17": 7380,
      "##e1f7a": 7381,
      "##e14d3": 7382,
      "##e1522c": 7383,
      "##608d6": 7384,
      "##608d5fbe": 7385,
      "##6b893": 7386,
      "##6b8efa": 7387,
      "##60d2": 7388,
      "##57fe1": 7389,
      "##57f07f": 7390,
      "##57f3fc": 7391,
      "##e8620": 7392,
      "##3ac51e04": 7393,
      "##30f2e": 7394,
      "##30f5d1": 7395,
      "##50415": 7396,
      "##50bb3": 7397,
      "##47576": 7398,
      "##479b6": 7399,
      "##47b3bd": 7400,
      "##d8dba": 7401,
      "##d83dd": 7402,
      "##f7db": 7403,
      "##f70e": 7404,
      "##f7392": 7405,
      "##f779d": 7406,
      "##f738e": 7407,
      "##f74c17": 7408,
      "e97c5": 7409,
      "##40e": 7410,
      "##40acd": 7411,
      "##99fc7": 7412,
      "3e35": 7413,
      "3e6c": 7414,
      "3ef7": 7415,
      "##3b979": 7416,
      "##3b596": 7417,
      "##3b51e": 7418,
      "##3b4b4": 7419,
      "##3bee9e": 7420,
      "38f9": 7421,
      "38aa08d": 7422,
      "51ec": 7423,
      "514f": 7424,
      "51d42": 7425,
      "519600": 7426,
      "51dc94": 7427,
      "513ac51e04": 7428,
      "280e": 7429,
      "28f5f": 7430,
      "##36d5d1": 7431,
      "##3cddd": 7432,
      "##3cf877": 7433,
      "##3cbc61": 7434,
      "##3cfb204": 7435,
      "4c420": 7436,
      "4c05d": 7437,
      "de62f": 7438,
      "deb46": 7439,
      "##a863": 7440,
      "##a87a07": 7441,
      "##a8722a": 7442,
      "32d7": 7443,
      "##a1db": 7444,
      "##a12c96": 7445,
      "##f6904": 7446,
      "##f6f8b": 7447,
      "##f6f650": 7448,
      "##f6379e": 7449,
      "##f094b": 7450,
      "##f0ebb": 7451,
      "##d7acc": 7452,
      "##d7cec": 7453,
      "##d7c89": 7454,
      "##d7f4bc": 7455,
      "##d7b230": 7456,
      "50da3": 7457,
      "50d0ac": 7458,
      "505b4c": 7459,
      "50d66f": 7460,
      "##33ea": 7461,
      "##330ce": 7462,
      "##b12c9": 7463,
      "##b1fa2c1": 7464,
      "##214c": 7465,
      "##210181": 7466,
      "##216407": 7467,
      "##f4f25": 7468,
      "##bbf83a": 7469,
      "##5c89": 7470,
      "##5ca44": 7471,
      "##5c22a": 7472,
      "##5c779": 7473,
      "35f3": 7474,
      "f7590": 7475,
      "f7c9b": 7476,
      "f7e5c": 7477,
      "##a23": 7478,
      "##a2596": 7479,
      "37dc9": 7480,
      "##343d8": 7481,
      "##fe589": 7482,
      "57c0": 7483,
      "57785": 7484,
      "57a2d": 7485,
      "07ff": 7486,
      "07560": 7487,
      "07e8f": 7488,
      "##9bcb": 7489,
      "##9bb705": 7490,
      "##44631": 7491,
      "##fd880": 7492,
      "##fdf4b0": 7493,
      "##f550": 7494,
      "##f5542": 7495,
      "##f5fad": 7496,
      "##f5f2f1": 7497,
      "##f5aaa9": 7498,
      "##f53611": 7499,
      "##66e6": 7500,
      "##66f838": 7501,
      "##02168": 7502,
      "##226b49": 7503,
      "##110cc7": 7504,
      "##fa1458": 7505,
      "##5de21": 7506,
      "##5da9d5": 7507,
      "##f1d4b": 7508,
      "##e09187": 7509,
      "##e6fc": 7510,
      "##e671f": 7511,
      "##e661a": 7512,
      "##e6db08": 7513,
      "522cf": 7514,
      "09ee3": 7515,
      "09b7ff": 7516,
      "##a6f": 7517,
      "36b5": 7518,
      "36fe1": 7519,
      "##bccc6": 7520,
      "##a067011": 7521,
      "566c": 7522,
      "##ff359": 7523,
      "##ff9227": 7524,
      "##ff9612c": 7525,
      "##ddf11": 7526,
      "##dd596": 7527,
      "##ddd63": 7528,
      "##dd33ae3": 7529,
      "##dd424b": 7530,
      "34f50": 7531,
      "##44a902": 7532,
      "##10dab": 7533,
      "##10d592": 7534,
      "##f32c2": 7535,
      "##f393b": 7536,
      "##f318c": 7537,
      "##f9a86": 7538,
      "##f9f596": 7539,
      "##20f1b5": 7540,
      "29b7": 7541,
      "29f25": 7542,
      "29d7b230": 7543,
      "##a5a00": 7544,
      "##28ca028": 7545,
      "##c1967": 7546,
      "##c152c": 7547,
      "##c1ca8d": 7548,
      "##c1ae6c": 7549,
      "88b6": 7550,
      "8875": 7551,
      "8824": 7552,
      "8846d": 7553,
      "885cb": 7554,
      "##c8567": 7555,
      "9852": 7556,
      "980e": 7557,
      "98e42": 7558,
      "9857f3fc": 7559,
      "##704": 7560,
      "##706cd": 7561,
      "##706495": 7562,
      "##4ba": 7563,
      "##4bf2b": 7564,
      "##4bcae1": 7565,
      "##e5464": 7566,
      "##e5a6b2": 7567,
      "33b08": 7568,
      "33db54": 7569,
      "33eb7a20": 7570,
      "##d5529": 7571,
      "##d5e6f": 7572,
      "39fb": 7573,
      "394364": 7574,
      "##45ee": 7575,
      "##3a3f": 7576,
      "##3a5b47191": 7577,
      "4a62e": 7578,
      "4af58": 7579,
      "##12b29": 7580,
      "##ad50": 7581,
      "##addb9": 7582,
      "##b53b5c": 7583,
      "##e3623": 7584,
      "##e3868ef": 7585,
      "##79d80": 7586,
      "##cc42f": 7587,
      "##b66c": 7588,
      "##b62c7": 7589,
      "##b9960": 7590,
      "92e": 7591,
      "9202": 7592,
      "##af00": 7593,
      "##afe1f5f": 7594,
      "4d9c11": 7595,
      "813bc": 7596,
      "8107e9": 7597,
      "##a30c4": 7598,
      "##a3b86": 7599,
      "##a3a2b": 7600,
      "4ef68": 7601,
      "b8aa": 7602,
      "b8f0": 7603,
      "b8692c": 7604,
      "##d3473f": 7605,
      "##d3f178": 7606,
      "##06f": 7607,
      "##d9f84": 7608,
      "a8ad2": 7609,
      "##55fd0e": 7610,
      "##ae02f": 7611,
      "##16d55": 7612,
      "##c2544": 7613,
      "91910": 7614,
      "##53274": 7615,
      "8218": 7616,
      "829d": 7617,
      "82b3b6": 7618,
      "82e58": 7619,
      "##b405c": 7620,
      "##b451ea": 7621,
      "##0472": 7622,
      "##042c2": 7623,
      "##3fce6": 7624,
      "##3f3d51": 7625,
      "##3f64e76": 7626,
      "##bf64b": 7627,
      "##bf42b": 7628,
      "9cbb": 7629,
      "9cacc": 7630,
      "9c3b9": 7631,
      "9c7831": 7632,
      "7874": 7633,
      "78e8f": 7634,
      "786440": 7635,
      "78dc1847": 7636,
      "b100": 7637,
      "b1bc": 7638,
      "b171f": 7639,
      "b1f825": 7640,
      "##3e3c1": 7641,
      "##65521": 7642,
      "a208": 7643,
      "a24b6": 7644,
      "6416e": 7645,
      "6412cb13": 7646,
      "b263": 7647,
      "b2f49": 7648,
      "b2fd8": 7649,
      "b2be0": 7650,
      "b23fe": 7651,
      "1574": 7652,
      "##dfce": 7653,
      "##dfecb": 7654,
      "##1c54": 7655,
      "686cf": 7656,
      "68229": 7657,
      "80d6": 7658,
      "804c": 7659,
      "8099e1": 7660,
      "##731898": 7661,
      "##73ab93": 7662,
      "bc77b4": 7663,
      "##9efa6": 7664,
      "955d": 7665,
      "95f3": 7666,
      "95fc77": 7667,
      "95a171": 7668,
      "8c49a": 7669,
      "##1471f": 7670,
      "##bef6d02": 7671,
      "96abc": 7672,
      "96ffa": 7673,
      "##9d50f": 7674,
      "##9dff9612c": 7675,
      "##bd0ce": 7676,
      "acbe": 7677,
      "a764": 7678,
      "a64c": 7679,
      "a63b": 7680,
      "a6f24d07": 7681,
      "##0e9315": 7682,
      "00101": 7683,
      "##6dd19f": 7684,
      "##c7d": 7685,
      "##c730": 7686,
      "##c7f88": 7687,
      "##6e070": 7688,
      "##6ef7e": 7689,
      "97fc": 7690,
      "97e14": 7691,
      "976251": 7692,
      "b7b72": 7693,
      "b7ea53": 7694,
      "##ba6c4cd": 7695,
      "##1502": 7696,
      "##9ab0b": 7697,
      "512b": 7698,
      "512b4e": 7699,
      "abca": 7700,
      "abd9": 7701,
      "256d42": 7702,
      "a134": 7703,
      "90af88": 7704,
      "87f2": 7705,
      "962a920": 7706,
      "211719": 7707,
      "211617": 7708,
      "##87fcd": 7709,
      "##87728": 7710,
      "##6a37": 7711,
      "204f0f": 7712,
      "268c84": 7713,
      "99e7": 7714,
      "99d5": 7715,
      "99a157": 7716,
      "9b427": 7717,
      "##13e84": 7718,
      "##13475c": 7719,
      "a49c": 7720,
      "b661e": 7721,
      "b562e": 7722,
      "aa5d": 7723,
      "aa3c4": 7724,
      "aa61d6": 7725,
      "aa67b17": 7726,
      "##7ab86": 7727,
      "##5f999": 7728,
      "##1b5b408": 7729,
      "8e5dd": 7730,
      "8be1522c": 7731,
      "93000": 7732,
      "9308a": 7733,
      "f8d6": 7734,
      "f84e": 7735,
      "f8f1c": 7736,
      "f8b4e": 7737,
      "f8f2e2": 7738,
      "##0d93fc": 7739,
      "##0dde0d": 7740,
      "853a": 7741,
      "##cb4c5": 7742,
      "9f6118": 7743,
      "bf4d9": 7744,
      "bfde6bd3": 7745,
      "##2b01": 7746,
      "ba41": 7747,
      "ba687": 7748,
      "9ab8": 7749,
      "836caa": 7750,
      "8f58b8": 7751,
      "1c34f": 7752,
      "1cb83": 7753,
      "1cd84": 7754,
      "1c47b3bd": 7755,
      "##89d55": 7756,
      "b4ff": 7757,
      "b4017": 7758,
      "d5f6": 7759,
      "d5589": 7760,
      "d5d11": 7761,
      "d50003": 7762,
      "d5ea28": 7763,
      "c833": 7764,
      "c8fcdc": 7765,
      "c895e3": 7766,
      "a3e5": 7767,
      "f0a2": 7768,
      "f0f2d": 7769,
      "f054d": 7770,
      "f00143": 7771,
      "f07145": 7772,
      "##2de71": 7773,
      "be3a": 7774,
      "a957": 7775,
      "c2af": 7776,
      "c2514": 7777,
      "c2d5e": 7778,
      "c2e12": 7779,
      "c2ed9": 7780,
      "##c4952": 7781,
      "##2eb0b": 7782,
      "##2e7899e": 7783,
      "716ca": 7784,
      "71db222": 7785,
      "71bbf83a": 7786,
      "##c9ac1": 7787,
      "aeed7": 7788,
      "b3f054": 7789,
      "c6f4": 7790,
      "c634": 7791,
      "c6bf": 7792,
      "c6320": 7793,
      "c6352": 7794,
      "c6dab": 7795,
      "c7b0": 7796,
      "c794": 7797,
      "c7d82": 7798,
      "6cdc": 7799,
      "6cd76": 7800,
      "72df": 7801,
      "72be": 7802,
      "729193": 7803,
      "e8cc6": 7804,
      "e8ecd1": 7805,
      "67f798": 7806,
      "67e17b": 7807,
      "673cbc61": 7808,
      "7001b4": 7809,
      "7037aa": 7810,
      "ec5643": 7811,
      "ecb81c": 7812,
      "##8d932": 7813,
      "##8d9ca": 7814,
      "##8ddef": 7815,
      "##8df472": 7816,
      "##8d38a5": 7817,
      "e7a3e": 7818,
      "e756d": 7819,
      "e70291": 7820,
      "e7a87a07": 7821,
      "c1d8": 7822,
      "c1f0": 7823,
      "61e4d": 7824,
      "61a6a8": 7825,
      "639c": 7826,
      "6318": 7827,
      "6331": 7828,
      "63a0d": 7829,
      "6318e": 7830,
      "266076": 7831,
      "266e7e2e": 7832,
      "3c0c": 7833,
      "3c5893": 7834,
      "3c36a1": 7835,
      "3cf84c": 7836,
      "cc9c": 7837,
      "cc968": 7838,
      "7c48": 7839,
      "7cb5": 7840,
      "7c9f": 7841,
      "491776": 7842,
      "491d2446": 7843,
      "8a39": 7844,
      "77d14": 7845,
      "cb5b": 7846,
      "cb50": 7847,
      "649ca0": 7848,
      "64bba4": 7849,
      "6458ed8d": 7850,
      "d2f1": 7851,
      "d2fe5": 7852,
      "d2b8e": 7853,
      "d26238bf": 7854,
      "2b0c": 7855,
      "2bf2": 7856,
      "5bce": 7857,
      "5b3c1": 7858,
      "5baae8": 7859,
      "5ba978": 7860,
      "dc57": 7861,
      "dcdc": 7862,
      "dc9531": 7863,
      "dc063": 7864,
      "5cbcc": 7865,
      "5c00466c": 7866,
      "fcdb": 7867,
      "f6fcd1": 7868,
      "f60044": 7869,
      "f636b1": 7870,
      "60bf": 7871,
      "604205ca": 7872,
      "f1a7eb": 7873,
      "f1a6fb": 7874,
      "e0aa": 7875,
      "e0a067011": 7876,
      "49c21c": 7877,
      "1f99": 7878,
      "1fdc5": 7879,
      "7656": 7880,
      "76fba24": 7881,
      "0c00aa": 7882,
      "0c32f7": 7883,
      "0be6": 7884,
      "0ba160": 7885,
      "e630f5d1": 7886,
      "1b3b": 7887,
      "1b36f": 7888,
      "4a4aaca0": 7889,
      "4627": 7890,
      "62304": 7891,
      "d7a55": 7892,
      "d73f3d51": 7893,
      "d0f2": 7894,
      "d0463": 7895,
      "d0e09187": 7896,
      "ebd8e": 7897,
      "6bab": 7898,
      "ee3b2": 7899,
      "ee5c5f": 7900,
      "ee386c": 7901,
      "11772a": 7902,
      "d6f26": 7903,
      "##3bc45": 7904,
      "##3bc3e": 7905,
      "##3bc60600": 7906,
      "4a9d": 7907,
      "f3e318": 7908,
      "##9616c0": 7909,
      "e293": 7910,
      "e2bb9d": 7911,
      "e244a902": 7912,
      "4fae9d": 7913,
      "4fa4118": 7914,
      "##940b2": 7915,
      "f2e0fa": 7916,
      "f2f9f596": 7917,
      "##5dfda": 7918,
      "##5df32": 7919,
      "##5df726a": 7920,
      "ffdbe": 7921,
      "fffdd8": 7922,
      "##3d1e75a": 7923,
      "##3d1b62c7": 7924,
      "##84a43": 7925,
      "65d7": 7926,
      "1275": 7927,
      "127e769a": 7928,
      "3bdc587": 7929,
      "73326": 7930,
      "73e637": 7931,
      "73e817": 7932,
      "73f6379e": 7933,
      "##521028": 7934,
      "0f88c": 7935,
      "0f3cf877": 7936,
      "##02892": 7937,
      "d4ad9": 7938,
      "6d5d": 7939,
      "6df031": 7940,
      "##5b1aa": 7941,
      "##5b1055": 7942,
      "e9b1": 7943,
      "e99cc": 7944,
      "d3ca": 7945,
      "d3f9": 7946,
      "d30ce55b": 7947,
      "e401": 7948,
      "e4e7": 7949,
      "e43d1e75a": 7950,
      "231b7204": 7951,
      "7b2c2b": 7952,
      "7e5b2": 7953,
      "##5b859d": 7954,
      "##5b8706495": 7955,
      "4d20cc": 7956,
      "118a1c3": 7957,
      "##05042": 7958,
      "091edc": 7959,
      "3a5da9d5": 7960,
      "3ae671f": 7961,
      "3a3bc60600": 7962,
      "c3e9": 7963,
      "c3e7b": 7964,
      "cd545": 7965,
      "cd926f": 7966,
      "cd56f9de": 7967,
      "8b8de2": 7968,
      "1d5df726a": 7969,
      "e307": 7970,
      "##080bb": 7971,
      "3d579": 7972,
      "3de747f": 7973,
      "##641a1": 7974,
      "##64177": 7975,
      "##6413e1": 7976,
      "##641ead8": 7977,
      "2e676b": 7978,
      "2e60f6": 7979,
      "ef31a": 7980,
      "ed34": 7981,
      "89604999": 7982,
      "##42061901": 7983,
      "0de2": 7984,
      "##904ea54": 7985,
      "##a86983": 7986,
      "cae7": 7987,
      "ca088": 7988,
      "ca2139": 7989,
      "##d22a7": 7990,
      "##390f6ab": 7991,
      "7437a8": 7992,
      "##f17609": 7993,
      "##f17b0726": 7994,
      "273aaa20": 7995,
      "128d7acc": 7996,
      "12810dab": 7997,
      "fb3c1": 7998,
      "##542da7e": 7999,
      "##9384c": 8000,
      "##41190477": 8001,
      "##919f4": 8002,
      "##919a2": 8003,
      "##919a95": 8004,
      "6e3d4": 8005,
      "cfd7f4bc": 8006,
      "f9d6": 8007,
      "3f58": 8008,
      "75ab": 8009,
      "75e9": 8010,
      "##a8c317c": 8011,
      "db35": 8012,
      "d165ca44": 8013,
      "##52900482": 8014,
      "79df": 8015,
      "##887d8": 8016,
      "##8873b": 8017,
      "##218e35b": 8018,
      "##21862129": 8019,
      "##438a0": 8020,
      "907b7f7c8": 8021,
      "90705042": 8022,
      "490f": 8023,
      "d90cce": 8024,
      "##e46ac4": 8025,
      "##dc594": 8026,
      "69ad": 8027,
      "845591": 8028,
      "8452c11a": 8029,
      "192ebe": 8030,
      "##4299371": 8031,
      "288ce05e": 8032,
      "##abc110cc7": 8033,
      "151330ce": 8034,
      "##35168b7": 8035,
      "178dc594": 8036,
      "##a004b": 8037,
      "##081dc59": 8038,
      "##f10d3473f": 8039,
      "##36d50": 8040,
      "368ddf11": 8041,
      "##019d8c": 8042,
      "##36150bb3": 8043,
      "2f30bd": 8044,
      "##48139": 8045,
      "4d1bf6": 8046,
      "##d60d2f": 8047,
      "##082af": 8048,
      "868ab97": 8049,
      "868a05e": 8050,
      "##dc1debb": 8051,
      "##609b7": 8052,
      "7d0838": 8053,
      "##eb1677": 8054,
      "906d6473": 8055,
      "2d074e": 8056,
      "##3e13f": 8057,
      "##5d4fb159": 8058,
      "239afe1f5f": 8059,
      "fd720": 8060,
      "941a": 8061,
      "c458": 8062,
      "##91c47": 8063,
      "ddf850": 8064,
      "##326b0": 8065,
      "##32668d7d": 8066,
      "154dd8": 8067,
      "##f6bd4b8": 8068,
      "##a69fb4": 8069,
      "3855bdf": 8070,
      "##0cf38": 8071,
      "##514a16": 8072,
      "354c58": 8073,
      "4b0a8c317c": 8074,
      "338a4a47": 8075,
      "##5b99c62": 8076,
      "##5c3a2": 8077,
      "934b": 8078,
      "6feb": 8079,
      "6feeaa": 8080,
      "7ae0f": 8081,
      "##399da": 8082,
      "##60ba5": 8083,
      "f443": 8084,
      "##27197f": 8085,
      "##6c13179": 8086,
      "##acd02168": 8087,
      "901c4952": 8088,
      "1014cb": 8089,
      "##760e5d": 8090,
      "##3d9daee5": 8091,
      "4ebf6f8b": 8092,
      "##d61ec4": 8093,
      "##d61a237": 8094,
      "##d1a67a": 8095,
      "##312f2": 8096,
      "##31ef7": 8097,
      "9519027d": 8098,
      "##d2735f29": 8099,
      "0e90732": 8100,
      "##54842": 8101,
      "##9bff6d6": 8102,
      "##e06913e": 8103,
      "##a4b59": 8104,
      "##917273d": 8105,
      "##2cc93": 8106,
      "##ac8a40": 8107,
      "##679f76": 8108,
      "##35505": 8109,
      "##ca0ab": 8110,
      "5e67ed": 8111,
      "801c8567": 8112,
      "##f8be6": 8113,
      "##a84bc": 8114,
      "##e1c6e": 8115,
      "##428ccf9": 8116,
      "##edee1f7a": 8117,
      "##fa8e3f": 8118,
      "##27bb13": 8119,
      "fa521028": 8120,
      "167aefd": 8121,
      "##97497": 8122,
      "##974ea": 8123,
      "3780dde0d": 8124,
      "990b": 8125,
      "##ac75c2": 8126,
      "##a16ebff": 8127,
      "##e65fe": 8128,
      "##ed8eb67": 8129,
      "##024b1": 8130,
      "##b1457f07f": 8131,
      "##00493": 8132,
      "##fdf05": 8133,
      "##b4e3c3": 8134,
      "301b": 8135,
      "a5cc": 8136,
      "##0ce36d48": 8137,
      "##d1bce": 8138,
      "##fe6eb1677": 8139,
      "ba7a46": 8140,
      "##ec7eb": 8141,
      "02172f": 8142,
      "0212c1a": 8143,
      "##a12bb6": 8144,
      "758d": 8145,
      "7583e13f": 8146,
      "##324f8": 8147,
      "##324ee": 8148,
      "##36e309": 8149,
      "##e0b42": 8150,
      "c626154": 8151,
      "c62f4f25": 8152,
      "##2c84b": 8153,
      "##d2ff7": 8154,
      "586ef57": 8155,
      "58693ae": 8156,
      "##715a5": 8157,
      "390715a5": 8158,
      "##5919f": 8159,
      "##a3ef6e4": 8160,
      "##934d6": 8161,
      "##444af": 8162,
      "604e65fe": 8163,
      "bdcd8b9c": 8164,
      "11256989": 8165,
      "##56ffc87e": 8166,
      "ab7f": 8167,
      "##dbf35": 8168,
      "##9c15d": 8169,
      "621b52c": 8170,
      "947b": 8171,
      "##dc3db": 8172,
      "##3d5eb7ec7": 8173,
      "##d66e6fc": 8174,
      "0717": 8175,
      "071d": 8176,
      "291fe589": 8177,
      "##d106650": 8178,
      "##fc8a0a": 8179,
      "##f2a3946": 8180,
      "##a1174e": 8181,
      "##e08b75": 8182,
      "##e08c2544": 8183,
      "110414": 8184,
      "##a40387": 8185,
      "##ca8d6": 8186,
      "##91fdc": 8187,
      "##787c1": 8188,
      "##54e58": 8189,
      "##54e0c92d": 8190,
      "##a76ae": 8191,
      "a462e7": 8192,
      "##4c69226": 8193,
      "##a06a0": 8194,
      "8578": 8195,
      "##ffa47": 8196,
      "##a75a3": 8197,
      "##366a28": 8198,
      "##3c79b42": 8199,
      "560783": 8200,
      "b18b1457f07f": 8201,
      "b189c15d": 8202,
      "283476f3": 8203,
      "106f861": 8204,
      "##d15de": 8205,
      "##fb5333d": 8206,
      "##687d8a": 8207,
      "##689ff96": 8208,
      "##34554fa": 8209,
      "87179d80": 8210,
      "##a9122": 8211,
      "##6cba0": 8212,
      "##6cba4a": 8213,
      "##f8491": 8214,
      "##f034c": 8215,
      "##f03f1e8": 8216,
      "##10fde": 8217,
      "b4b6cba0": 8218,
      "caa3039": 8219,
      "caa5ea26": 8220,
      "caa8d932": 8221,
      "##34f924b": 8222,
      "b6bec68": 8223,
      "b6bdd424b": 8224,
      "##a9441170": 8225,
      "##3d8f7e6": 8226,
      "##b050206": 8227,
      "##48c9a": 8228,
      "##b11c8": 8229,
      "##b11323": 8230,
      "##129d7c89": 8231,
      "29812b29": 8232,
      "3bc3fc": 8233,
      "3bc37163": 8234,
      "##014da": 8235,
      "##93fe4": 8236,
      "##ce6b5a": 8237,
      "##a4f36a": 8238,
      "##b81da": 8239,
      "01648529": 8240,
      "016e3623": 8241,
      "##a7b3bc": 8242,
      "##a7bdb52": 8243,
      "565ac9c6": 8244,
      "##624a84bc": 8245,
      "##68d02b": 8246,
      "##68dac644": 8247,
      "17288ea8": 8248,
      "##de84bcae1": 8249,
      "0b1ebc0": 8250,
      "0b1e0b42": 8251,
      "bf16651": 8252,
      "bf157c45": 8253,
      "##96e36d50": 8254,
      "##08a210181": 8255,
      "##4d38873b": 8256,
      "3555c779": 8257,
      "bd8e": 8258,
      "754a06a0": 8259,
      "7169bc4": 8260,
      "##db10c20": 8261,
      "5536b893": 8262,
      "471abeb": 8263,
      "4713d7b35": 8264,
      "01090df": 8265,
      "36508a210181": 8266,
      "742ab614": 8267,
      "##5add2": 8268,
      "##5adf8be6": 8269,
      "##fe12a": 8270,
      "##92fca8d6": 8271,
      "##95eec6": 8272,
      "##61cf6": 8273,
      "##2ce5bab": 8274,
      "##ac299": 8275,
      "##187de3": 8276,
      "##377a6": 8277,
      "417b050206": 8278,
      "##4b49bad": 8279,
      "541bccc6": 8280,
      "596f0ebb": 8281,
      "##0c3a9a9": 8282,
      "5423f47": 8283,
      "69771f65": 8284,
      "778a": 8285,
      "7679bb705": 8286,
      "##f525": 8287,
      "##cebe9": 8288,
      "##38b34": 8289,
      "556d89f": 8290,
      "##5906": 8291,
      "##f833b": 8292,
      "##fcc47": 8293,
      "##e84e40": 8294,
      "575469a": 8295,
      "917d8c8": 8296,
      "642a18": 8297,
      "798bbd7": 8298,
      "##08d54": 8299,
      "##56be1": 8300,
      "##51cbf": 8301,
      "##ee339": 8302,
      "##f3f99": 8303,
      "61264177": 8304,
      "7905b8706495": 8305,
      "##9cbfc": 8306,
      "##ff927": 8307,
      "##cc94c4": 8308,
      "50098c": 8309,
      "848addb9": 8310,
      "##023e6": 8311,
      "##72ea4": 8312,
      "7353d8f7e6": 8313,
      "b4850e": 8314,
      "##b7152": 8315,
      "##073f3": 8316,
      "##fc935505": 8317,
      "##21798": 8318,
      "##e17a2d6": 8319,
      "68292345": 8320,
      "##a90a5": 8321,
      "01471e19": 8322,
      "0612cc93": 8323,
      "##bbf91fdc": 8324,
      "572a12c96": 8325,
      "62820f1b5": 8326,
      "70054e58": 8327,
      "5513f64e76": 8328,
      "4479562d": 8329,
      "##b4649": 8330,
      "##eb2f6": 8331,
      "4cadb4c5": 8332,
      "5c1693b": 8333,
      "407ddd63": 8334,
      "##95ace": 8335,
      "6195b6": 8336,
      "7709778b": 8337,
      "c28a": 8338,
      "c28f": 8339,
      "072ee339": 8340,
      "##08598": 8341,
      "##fe998": 8342,
      "76162958": 8343,
      "9d895ace": 8344,
      "##b0a36e309": 8345,
      "##08cd9f84": 8346,
      "2626b146": 8347,
      "836b": 8348,
      "940d61ec4": 8349,
      "fdeea3bd": 8350,
      "fde27bb13": 8351,
      "##dbb22d": 8352,
      "##93cf5542": 8353,
      "##97af74c17": 8354,
      "88497a9a": 8355,
      "00887728": 8356,
      "##93a548e": 8357,
      "##4c0a15": 8358,
      "##32d54f1c5": 8359,
      "##eb3a5": 8360,
      "7b7db67": 8361,
      "ca89d50f": 8362,
      "e88f35": 8363,
      "e88dc90d": 8364,
      "53988a3": 8365,
      "##627ea": 8366,
      "##e1e3b4d": 8367,
      "053a4b8b": 8368,
      "4724898": 8369,
      "##58bd80b": 8370,
      "##59ba6": 8371,
      "dfb7fd1": 8372,
      "##6c748": 8373,
      "##98d36485": 8374,
      "46308598": 8375,
      "6723dda": 8376,
      "b12f5f2f1": 8377,
      "006fca7": 8378,
      "##b5ef393b": 8379,
      "##d3e6c": 8380,
      "2bbbbb2": 8381,
      "##4c85d": 8382,
      "012438a0": 8383,
      "2a13ad": 8384,
      "2a113e84": 8385,
      "dd678a10": 8386,
      "dd687fcd": 8387,
      "d7c944d10": 8388,
      "055e45c": 8389,
      "##eddf4a": 8390,
      "##f8c0e9315": 8391,
      "8890cf38": 8392,
      "53512e7d": 8393,
      "ed638e6": 8394,
      "ed6706cd": 8395,
      "007ddfb6": 8396,
      "588c1967": 8397,
      "##a1c8c": 8398,
      "##a1c8fd880": 8399,
      "af5f7392": 8400,
      "af534554fa": 8401,
      "##31d5c": 8402,
      "0dc6eed": 8403,
      "0f753274": 8404,
      "0f7bef6d02": 8405,
      "5abfe6eb1677": 8406,
      "5abf034c": 8407,
      "##43cbd": 8408,
      "##de53a": 8409,
      "929934d6": 8410,
      "a29de82b": 8411,
      "a29ec7eb": 8412,
      "1a5ca542": 8413,
      "1a557fe1": 8414,
      "##e7c1d835": 8415,
      "##e7c1da35c": 8416,
      "de5343d8": 8417,
      "88cf8c0e9315": 8418,
      "684f393": 8419,
      "764b9960": 8420,
      "##e2af6": 8421,
      "##61d45e7": 8422,
      "##07b01": 8423,
      "##c89bb": 8424,
      "1a4e14d3": 8425,
      "d6c65521": 8426,
      "eb66c600": 8427,
      "eb6e7c1da35c": 8428,
      "##41ea4b59": 8429,
      "##96a0a5": 8430,
      "##96a05bbae": 8431,
      "083627ea": 8432,
      "b7cf7412": 8433,
      "##aad08e": 8434,
      "47f1934a": 8435,
      "47bf93cf5542": 8436,
      "4b2ab87e2": 8437,
      "##fcd12a": 8438,
      "##4659c40b": 8439,
      "64839f5": 8440,
      "##db0ac8a40": 8441,
      "##96f71": 8442,
      "##5643a004b": 8443,
      "##585a4": 8444,
      "##dd5a9": 8445,
      "5c858bd80b": 8446,
      "##b8d4c02a": 8447,
      "4c7ab76b": 8448,
      "32ae661a": 8449,
      "##5cf94": 8450,
      "98040acd": 8451,
      "b0bbdc7c": 8452,
      "69e08b80": 8453,
      "6ee0e2f2": 8454,
      "be793e89": 8455,
      "bbe8680": 8456,
      "bbe9cbfc": 8457,
      "##5b3a532": 8458,
      "##a1b5d": 8459,
      "##a5329efa6": 8460,
      "747a3a6": 8461,
      "b5116d55": 8462,
      "26bb55fd0e": 8463,
      "##cbe137ce7": 8464,
      "0b6043cc": 8465,
      "2f87019d8c": 8466,
      "aa1f6904": 8467,
      "9e1a1c8fd880": 8468,
      "b68a7bdb52": 8469,
      "d3747576": 8470,
      "2548bbcf": 8471,
      "491478a5": 8472,
      "0a49bcb": 8473,
      "##774f738e": 8474,
      "##76beb6": 8475,
      "0dee6db08": 8476,
      "a394bf2b": 8477,
      "ef6eb2f6": 8478,
      "##bbaf318c": 8479,
      "3ec9bff6d6": 8480,
      "c01a3b86": 8481,
      "cec97d3": 8482,
      "d2cea1f": 8483,
      "ec8eaea0": 8484,
      "e816c748": 8485,
      "e573c79b42": 8486,
      "f5b082af": 8487,
      "1c19ab0b": 8488,
      "7a2ed832": 8489,
      "##30eff": 8490,
      "##763187de3": 8491,
      "0a7bd0ce": 8492,
      "5b7641a1": 8493,
      "f445bd69": 8494,
      "##51dfa": 8495,
      "63b917273d": 8496,
      "d21a1c8c": 8497,
      "e603bc3e": 8498,
      "3f7024b1": 8499,
      "##30d307": 8500,
      "cc2b4649": 8501,
      "dd8b6d": 8502,
      "f8848a71": 8503,
      "7e5db0ac8a40": 8504,
      "7d9a9fc4": 8505,
      "eb74de": 8506,
      "##4b5e5a6b2": 8507,
      "##65f41d62": 8508,
      "2b2bf42b": 8509,
      "45b45c22a": 8510,
      "9d797611c": 8511,
      "97b51cbf": 8512,
      "d98fa93e": 8513,
      "##356066fa": 8514,
      "30f37fa4": 8515,
      "4d86e7c1d835": 8516,
      "bb08af3c": 8517,
      "c9c5f999": 8518,
      "##66e846": 8519,
      "6c2ebdab": 8520,
      "7bccebe9": 8521,
      "c0cf833b": 8522,
      "e0751d65": 8523,
      "e1660ba5": 8524,
      "##37ab1c54": 8525,
      "##3c545cf94": 8526,
      "9c7f8485": 8527,
      "a2d5fc8a0a": 8528,
      "8f9aedee1f7a": 8529,
      "b204e53a": 8530,
      "c12f5fad": 8531,
      "d96a117b": 8532,
      "dec763187de3": 8533,
      "ecc7bfc4": 8534,
      "f2948fc": 8535,
      "##902710a5": 8536,
      "##07cd88": 8537,
      "##9b36e45ad": 8538,
      "99059474c": 8539,
      "8e3c129d7c89": 8540,
      "0d130f2e": 8541,
      "2d9eb8d4c02a": 8542,
      "a529384c": 8543,
      "c71c9ac1": 8544,
      "d5758760": 8545,
      "e46de53a": 8546,
      "fc29477": 8547,
      "##db0adb14": 8548,
      "373c933c": 8549,
      "576741ea4b59": 8550,
      "##f3b86e": 8551,
      "f8ad1bce": 8552,
      "d5d8b401": 8553,
      "f9d298d36485": 8554,
      "1c8ffc22": 8555,
      "1ec0450": 8556,
      "2a4b1fa2c1": 8557,
      "5e1bbdba": 8558,
      "6f9e06913e": 8559,
      "93ddd596": 8560,
      "ae04c97": 8561,
      "b61dbf35": 8562,
      "de7b0a36e309": 8563,
      "d07c152c": 8564,
      "e12e5464": 8565,
      "e13373d4": 8566,
      "f8707b01": 8567,
      "47c52949": 8568,
      "##ca183726": 8569,
      "49e6902710a5": 8570,
      "9239b12c9": 8571,
      "0a1ffa47": 8572,
      "8cc9b36e45ad": 8573,
      "9f0f1d4b": 8574,
      "9e0d71bd7": 8575,
      "bf79dff9612c": 8576,
      "c35399da": 8577,
      "c98924c": 8578,
      "cb241a89": 8579,
      "e3bc89bb": 8580,
      "fd6ed93a0a8c": 8581,
      "4ef146b5": 8582,
      "2e7377a6": 8583,
      "3ca326b0": 8584,
      "3c53657": 8585,
      "43204226": 8586,
      "5fa21798": 8587,
      "8eddd95": 8588,
      "90cabc110cc7": 8589,
      "b65a2596": 8590,
      "cdc685dd": 8591,
      "e10d110": 8592,
      "##2718760": 8593,
      "##9268f13": 8594,
      "a8705524": 8595,
      "0daf1db2": 8596,
      "0cc99ae": 8597,
      "3e451e10": 8598,
      "7dbd5529": 8599,
      "a71901b1": 8600,
      "b93b53b5c": 8601,
      "c60940b2": 8602,
      "dd148c9a": 8603,
      "d31d11241": 8604,
      "ddd4b49bad": 8605,
      "fcc68bc0": 8606,
      "##93211a": 8607,
      "##468871": 8608,
      "##4211fe12a": 8609,
      "##66603c": 8610,
      "1912fd035": 8611,
      "1dbfa4d4": 8612,
      "1e0945b5": 8613,
      "5f718310": 8614,
      "6abb81da": 8615,
      "6dd3736f": 8616,
      "7dc3b596": 8617,
      "a04f1fa88": 8618,
      "c93d3f178": 8619,
      "c942c4583a": 8620,
      "eac84a43": 8621,
      "ea7216407": 8622,
      "e7207383": 8623,
      "16bca0ab": 8624,
      "47a6b8efa": 8625,
      "40ab53f7c": 8626,
      "##98e94d8e": 8627,
      "465bb2f8": 8628,
      "##07d22eb0b": 8629,
      "09e74992": 8630,
      "4a62ec3f": 8631,
      "3aaf03f1e8": 8632,
      "3f2bf64b": 8633,
      "4e6996cf": 8634,
      "5f4dc1debb": 8635,
      "6b997af74c17": 8636,
      "60ae8ed": 8637,
      "7e7cc42f": 8638,
      "ae1b0e0f": 8639,
      "b0c8d38a5": 8640,
      "c92fa1458": 8641,
      "c59d83b": 8642,
      "d58c121": 8643,
      "d7bff9227": 8644,
      "f47db6ae9": 8645,
      "f15aca4": 8646,
      "##b068c7f88": 8647,
      "18666cba4a": 8648,
      "41b4b5e5a6b2": 8649,
      "##612cce03c": 8650,
      "44a612cce03c": 8651,
      "43ada9d4": 8652,
      "##a29530eff": 8653,
      "##c85944": 8654,
      "4f4d7b6c9": 8655,
      "b0d312f2": 8656,
      "ec6e78275": 8657,
      "23d8df472": 8658,
      "2d23d5eb7ec7": 8659,
      "3da542da7e": 8660,
      "63d444af": 8661,
      "6f048a00": 8662,
      "6c4b068c7f88": 8663,
      "7d7469685": 8664,
      "9a4787c1": 8665,
      "aebf3f99": 8666,
      "bb09697": 8667,
      "b08496e36d50": 8668,
      "cf9a29530eff": 8669,
      "c406dfecb": 8670,
      "d90e08b75": 8671,
      "d0b9043a": 8672,
      "ef3fdf05": 8673,
      "e25887d8": 8674,
      "f27ae02f": 8675,
      "fbe31ac06780": 8676,
      "f6df6f650": 8677,
      "##2cd87a27": 8678,
      "##b87748cd": 8679,
      "##9231ab97": 8680,
      "##4435c8d6": 8681,
      "829b36150bb3": 8682,
      "ac58d7b1": 8683,
      "8bfcfb23": 8684,
      "ba70f17b0726": 8685,
      "1a85643a004b": 8686,
      "2c393f5": 8687,
      "5eba813": 8688,
      "6b83490d": 8689,
      "7b06cd19": 8690,
      "8ce3c545cf94": 8691,
      "8f7dc3db": 8692,
      "a931e625": 8693,
      "a334c0846": 8694,
      "a34be452": 8695,
      "cdea30c4": 8696,
      "da48d9ca": 8697,
      "d64f094b": 8698,
      "d69eb3a5": 8699,
      "f01a5329efa6": 8700,
      "f9790a7f": 8701,
      "fc6f2983": 8702,
      "16df10d3473f": 8703,
      "##edfcfbf": 8704,
      "##4281395": 8705,
      "##37540b94": 8706,
      "adf0afa9": 8707,
      "##580299": 8708,
      "##f7b2aba": 8709,
      "4c1e9eb1": 8710,
      "a86919a2": 8711,
      "b06894db2": 8712,
      "c8e324ee": 8713,
      "4fd98b9": 8714,
      "62a5b3a532": 8715,
      "7a910fde": 8716,
      "7e2a3a2b": 8717,
      "8581214c": 8718,
      "9be07d22eb0b": 8719,
      "af499fc7": 8720,
      "ae6a12bb6": 8721,
      "abdfb5333d": 8722,
      "b59f779d": 8723,
      "c4dd0e88": 8724,
      "df32ce5bab": 8725,
      "e30db10c20": 8726,
      "e766c20": 8727,
      "ebad094": 8728,
      "fecdd5a9": 8729,
      "##fa67e766": 8730,
      "##41b19c": 8731,
      "##9ca489fc": 8732,
      "1858d551": 8733,
      "##48281502": 8734,
      "01c7122a": 8735,
      "40260cde": 8736,
      "##64b7f28a": 8737,
      "2138fa7b": 8738,
      "##f8f038": 8739,
      "##f2f5d14": 8740,
      "##f7526e": 8741,
      "##d76c1f": 8742,
      "92f66a37": 8743,
      "b8ff50d1": 8744,
      "a80a69fb4": 8745,
      "96acfa67e766": 8746,
      "b0306410": 8747,
      "a096fa7b": 8748,
      "1c4023e6": 8749,
      "84ce51cd": 8750,
      "a3aaa863": 8751,
      "12cb2c32": 8752,
      "2d541adc": 8753,
      "590337540b94": 8754,
      "64f59ba6": 8755,
      "76ae84e40": 8756,
      "8ff3fce6": 8757,
      "897c98e94d8e": 8758,
      "82cc48281502": 8759,
      "ad66ef7e": 8760,
      "b73df6f1": 8761,
      "be84445": 8762,
      "b5d4786c": 8763,
      "b62b548c": 8764,
      "b9b9a9441170": 8765,
      "ca63a5b47191": 8766,
      "eab56be1": 8767,
      "##e4b53cd": 8768,
      "##aaab311": 8769,
      "##0048e6": 8770,
      "##da2869d": 8771,
      "0334acd02168": 8772,
      "##d1c86eea": 8773,
      "##a8eca5": 8774,
      "##f44c3732": 8775,
      "##bb44e26": 8776,
      "b233dbb22d": 8777,
      "b23afa35a1": 8778,
      "bc6766e6": 8779,
      "95053c15": 8780,
      "9032b87748cd": 8781,
      "86b65adf8be6": 8782,
      "fc45506f4": 8783,
      "0cb25b859d": 8784,
      "4275366a28": 8785,
      "cdf33108": 8786,
      "0d05e0d1": 8787,
      "04ccbe137ce7": 8788,
      "1a6588fd": 8789,
      "3cdde84bcae1": 8790,
      "6d3fa8e3f": 8791,
      "65e00215": 8792,
      "70e95eec6": 8793,
      "707c4300": 8794,
      "7ec86dd19f": 8795,
      "8ce3e487": 8796,
      "905e05e5": 8797,
      "ae2d703b": 8798,
      "ae3a1b5d": 8799,
      "ae7b3cddd": 8800,
      "d4465d4fb159": 8801,
      "d6863d1b62c7": 8802,
      "f409800f": 8803,
      "f69e1c6e": 8804,
      "faf974ea": 8805,
      "fcee949b": 8806,
      "feaef5a5": 8807,
      "05fc479b6": 8808,
      "##facdfb7": 8809,
      "545bf525": 8810,
      "##2c4691c": 8811,
      "310f680499e8": 8812,
      "##ac8e96e4": 8813,
      "ad1e2af6": 8814,
      "##f0cb580": 8815,
      "##569d3d66": 8816,
      "##90b177": 8817,
      "##deb4d631": 8818,
      "27c14f0cb580": 8819,
      "##e8c2909e": 8820,
      "##504c65": 8821,
      "##f79eac4": 8822,
      "28b4211fe12a": 8823,
      "5060e08c2544": 8824,
      "##f49b2cc0": 8825,
      "##66b5f7db": 8826,
      "56fd22a7": 8827,
      "##f9e5e2": 8828,
      "##cc58a12": 8829,
      "81da3bf9": 8830,
      "9c6a624a84bc": 8831,
      "b136ad50": 8832,
      "b227fdf4b0": 8833,
      "##9ea40e": 8834,
      "95960536": 8835,
      "##15e2940": 8836,
      "90de6690": 8837,
      "bbf045ee": 8838,
      "99a7ccf9": 8839,
      "a458c730": 8840,
      "b9faa634": 8841,
      "67ddf4fe": 8842,
      "ec50359a": 8843,
      "6b57bbaf318c": 8844,
      "6d3be9d3": 8845,
      "8b833660": 8846,
      "f53b6449": 8847,
      "5717ac8e96e4": 8848,
      "920b37c7": 8849,
      "853fd2735f29": 8850,
      "13509ca489fc": 8851,
      "1dc9a86983": 8852,
      "1ce84659c40b": 8853,
      "1c2f4d38873b": 8854,
      "3d25a72d": 8855,
      "5eb14435c8d6": 8856,
      "5fbc00d0": 8857,
      "5d1df174": 8858,
      "6d22bbf91fdc": 8859,
      "66c09367": 8860,
      "6f7c42061901": 8861,
      "6eba334a": 8862,
      "727c302d": 8863,
      "736f98d5e6": 8864,
      "7e7c52928": 8865,
      "72c0567a": 8866,
      "70c1714b": 8867,
      "895fd60d2f": 8868,
      "900a52900482": 8869,
      "a949d1d0": 8870,
      "aed1bc1c": 8871,
      "a5042cd87a27": 8872,
      "bcec10d592": 8873,
      "becdd249": 8874,
      "c4e609b7": 8875,
      "c3d166b5f7db": 8876,
      "c075ca86": 8877,
      "cb6e34b7": 8878,
      "dfd96a05bbae": 8879,
      "d981a03a": 8880,
      "df75e129": 8881,
      "e37bd8c7": 8882,
      "fe9ecd4a": 8883,
      "fb9fb5df": 8884,
      "f62173ce": 8885,
      "fc8e27197f": 8886,
      "16f241190477": 8887,
      "10edca183726": 8888,
      "##57a0272": 8889,
      "543167d5": 8890,
      "##fbe46aa": 8891,
      "##aa019c78": 8892,
      "##aa26d4": 8893,
      "3185051d": 8894,
      "0059a61d45e7": 8895,
      "04050d93fc": 8896,
      "04a120f7": 8897,
      "01083cc5": 8898,
      "##71dd3c0": 8899,
      "##e29cf4": 8900,
      "##383eedf": 8901,
      "##32e8fb4": 8902,
      "5175f8edf2": 8903,
      "32b208cd9f84": 8904,
      "3507b696": 8905,
      "37b5f17609": 8906,
      "09051cc58a12": 8907,
      "##e555aa6": 8908,
      "b13f2dad": 8909,
      "963c356066fa": 8910,
      "bb44d652": 8911,
      "945721862129": 8912,
      "bf2c9073ab93": 8913,
      "##cfec03": 8914,
      "a3353d9daee5": 8915,
      "c2d6fb8f": 8916,
      "7242731898": 8917,
      "72b55906": 8918,
      "704546b4e3c3": 8919,
      "63b7774f738e": 8920,
      "7cf2b5ef393b": 8921,
      "66b5a6eb": 8922,
      "2b2265f41d62": 8923,
      "5b50569d3d66": 8924,
      "e04c251352": 8925,
      "d14227ca3c": 8926,
      "d7f554e0c92d": 8927,
      "d6b7bd36": 8928,
      "3b52deb4d631": 8929,
      "d346db0adb14": 8930,
      "##3e1cf74": 8931,
      "##909a4361": 8932,
      "35283118": 8933,
      "28175f2d": 8934,
      "##f555d319": 8935,
      "##46d3137b": 8936,
      "29036d106650": 8937,
      "9ec26e4544": 8938,
      "69e54386": 8939,
      "e11532668d7d": 8940,
      "0a864310": 8941,
      "0e1064b7f28a": 8942,
      "0e6f46d3137b": 8943,
      "0686f44c3732": 8944,
      "0ab15104": 8945,
      "0eb5f495": 8946,
      "1db6909a4361": 8947,
      "1780eba4": 8948,
      "26c092fca8d6": 8949,
      "2ed07a8a": 8950,
      "2ebc8390f6ab": 8951,
      "3938c618": 8952,
      "3d60b405c": 8953,
      "3a4bafe4": 8954,
      "3a75e46ac4": 8955,
      "562b21b2": 8956,
      "5daff555d319": 8957,
      "52ce96af": 8958,
      "5db14024": 8959,
      "637068dac644": 8960,
      "6de066f838": 8961,
      "6d8bec7b": 8962,
      "6fbefc935505": 8963,
      "64cf84281395": 8964,
      "6e2551687d8a": 8965,
      "7868b7ee": 8966,
      "7a16f155": 8967,
      "7ce062d2d400": 8968,
      "8ea137ab1c54": 8969,
      "8e828dd33ae3": 8970,
      "909ee1bd": 8971,
      "adc5ac93": 8972,
      "a9bd2ec1": 8973,
      "a5ef7c14": 8974,
      "badf2a3946": 8975,
      "b625aa019c78": 8976,
      "bea36641ead8": 8977,
      "c4cd404c": 8978,
      "cfdf56ffc87e": 8979,
      "cca8f32c2": 8980,
      "cd5e91d6": 8981,
      "c30a5800": 8982,
      "ca9954a9f8": 8983,
      "c88d8f83": 8984,
      "c0009e555aa6": 8985,
      "cc2cd397": 8986,
      "ded5a00f": 8987,
      "d5e3d3355": 8988,
      "d9210ce36d48": 8989,
      "dacc6175": 8990,
      "d0c4724b": 8991,
      "d425d1c86eea": 8992,
      "df06a714": 8993,
      "dd3f60d2": 8994,
      "d116384e": 8995,
      "d14ae42b": 8996,
      "d20ef49b2cc0": 8997,
      "d0ae7ea6": 8998,
      "e36998cb": 8999,
      "eb05e235": 9000,
      "ea432c2b": 9001,
      "ed7f608d5fbe": 9002,
      "e0040c9616c0": 9003,
      "f5a32d54f1c5": 9004,
      "f9183e3c1": 9005,
      "f3c698eb": 9006,
      "fcbe1e8620": 9007,
      "f0ef03e1cf74": 9008,
      "fabb3dc85944": 9009,
      "publ": 9010,
      "05799231ab97": 9011,
      "1652ee4a": 9012,
      "16cfba7117": 9013,
      "##dbcc2e4": 9014,
      "112e18db": 9015,
      "13f52dbcc2e4": 9016,
      "13e93e3d": 9017,
      "##fa27b64": 9018,
      "##ce2c7ae": 9019,
      "##aa10fe4": 9020,
      "##466b33": 9021,
      "0848507e": 9022,
      "53adc15e2940": 9023,
      "257ff7b91676": 9024,
      "55f2fa38": 9025,
      "55ec51bf8491": 9026,
      "31eebbfd": 9027,
      "##b8b883f": 9028,
      "##dae69f1": 9029,
      "47f4b46f": 9030,
      "4757a54f": 9031,
      "002afded": 9032,
      "00385da2869d": 9033,
      "00a09545": 9034,
      "##3720af0": 9035,
      "04d7d641b3b6": 9036,
      "58b8c07c": 9037,
      "ad470d60": 9038,
      "ad54bed8eb67": 9039,
      "02fdb1b5b408": 9040,
      "02efdf3e": 9041,
      "031c6fce6b5a": 9042,
      "03ce6eab": 9043,
      "40aa0e3868ef": 9044,
      "172be8c2909e": 9045,
      "2647c28ca028": 9046,
      "##586007": 9047,
      "223388226b49": 9048,
      "4bcb14299371": 9049,
      "207a34eb": 9050,
      "200c37e5b52f": 9051,
      "4172a56c": 9052,
      "42e9697f": 9053,
      "453ae3eb": 9054,
      "25f68218e35b": 9055,
      "4810ee41": 9056,
      "da30bdae69f1": 9057,
      "da3b23f5aaa9": 9058,
      "da125ccc94c4": 9059,
      "2130d2c3": 9060,
      "12f241d1a67a": 9061,
      "124863e7e132": 9062,
      "232de29f": 9063,
      "233c2aac": 9064,
      "23fe7624": 9065,
      "23ee881d": 9066,
      "##07b1cdb": 9067,
      "##075d3f0": 9068,
      "1534bff7": 9069,
      "15e43d93211a": 9070,
      "##f70e5c4": 9071,
      "e97c5383eedf": 9072,
      "##3b4b4f4": 9073,
      "38aa08df11cb": 9074,
      "51d42f70e5c4": 9075,
      "51960092e566": 9076,
      "51dc94b8": 9077,
      "513ac51e0452": 9078,
      "28f5f3b4b4f4": 9079,
      "4c4203720af0": 9080,
      "4c05d52b": 9081,
      "de62f081dc59": 9082,
      "deb46f9d": 9083,
      "##d7cec27": 9084,
      "50da338c": 9085,
      "50d0acb11323": 9086,
      "505b4ca8722a": 9087,
      "50d66f33": 9088,
      "f7590b27": 9089,
      "f7c9bad9": 9090,
      "f7e5c428ccf9": 9091,
      "37dc95b47208": 9092,
      "57785923": 9093,
      "57a2daa10fe4": 9094,
      "07560d15": 9095,
      "07e8ff79eac4": 9096,
      "522cf3d9": 9097,
      "09ee3689ff96": 9098,
      "09b7ff78": 9099,
      "36fe12e7899e": 9100,
      "##ff35997": 9101,
      "34f50fbe46aa": 9102,
      "##f9a86ac": 9103,
      "29f25a6a": 9104,
      "8846d4cc": 9105,
      "885cb94b": 9106,
      "98e42a17": 9107,
      "33b08e17a2d6": 9108,
      "33db54c5": 9109,
      "394364f7526e": 9110,
      "4a62e86825a1": 9111,
      "4af58f7b2aba": 9112,
      "4d9c11504c65": 9113,
      "813bc217": 9114,
      "8107e9f3b86e": 9115,
      "4ef686c1": 9116,
      "b8692c919a95": 9117,
      "a8ad2a737a8a": 9118,
      "91910d61a237": 9119,
      "82b3b6466b33": 9120,
      "82e58058": 9121,
      "9cacc976": 9122,
      "9c3b9fa27b64": 9123,
      "9c783114": 9124,
      "78644035": 9125,
      "b171f9268f13": 9126,
      "b1f825db9227": 9127,
      "a24b63cfb204": 9128,
      "6416ee7c": 9129,
      "6412cb13e474": 9130,
      "b2f49ce2c7ae": 9131,
      "b2fd8e1e3b4d": 9132,
      "b2be00c3a9a9": 9133,
      "b23fe887": 9134,
      "686cf99b": 9135,
      "68229bb44e26": 9136,
      "8099e1c1ca8d": 9137,
      "bc77b4f53611": 9138,
      "95fc77cf": 9139,
      "95a171fe": 9140,
      "8c49a574": 9141,
      "96abccce": 9142,
      "96ffa93a548e": 9143,
      "a6f24d07ca31": 9144,
      "97e145b99c62": 9145,
      "976251d5": 9146,
      "b7b7257a0272": 9147,
      "b7ea53a1174e": 9148,
      "512b4ee29cf4": 9149,
      "256d4271": 9150,
      "90af885d": 9151,
      "962a9206e070": 9152,
      "21171941b19c": 9153,
      "211617aa26d4": 9154,
      "204f0fde": 9155,
      "268c84514a16": 9156,
      "99a157468871": 9157,
      "9b427380": 9158,
      "b661e958": 9159,
      "b562ef10": 9160,
      "aa3c44d7": 9161,
      "aa61d6e4": 9162,
      "aa67b17d83dd": 9163,
      "8e5ddd6f": 9164,
      "93000edfcfbf": 9165,
      "9308a34f924b": 9166,
      "f8f1cf17": 9167,
      "f8b4e617": 9168,
      "f8f2e2b3": 9169,
      "9f6118679f76": 9170,
      "bf4d95b9": 9171,
      "ba687acb": 9172,
      "836caab5": 9173,
      "8f58b868d02b": 9174,
      "1c34f72f": 9175,
      "1cb83facdfb7": 9176,
      "1cd84b8b883f": 9177,
      "b4017faf": 9178,
      "d5589a8e": 9179,
      "d5d11311": 9180,
      "d5000396": 9181,
      "d5ea280cb76d": 9182,
      "c8fcdc5b": 9183,
      "c895e3a5": 9184,
      "f0f2d4c69226": 9185,
      "f054df2d": 9186,
      "f0014365": 9187,
      "f0714595": 9188,
      "c251471dd3c0": 9189,
      "c2d5e9c4": 9190,
      "c2e12d7cec27": 9191,
      "c2ed90c0": 9192,
      "716caf9a86ac": 9193,
      "71db2222ceca": 9194,
      "71bbf83ae078": 9195,
      "aeed740a": 9196,
      "b3f0545e": 9197,
      "c63205b0": 9198,
      "c6352ba6c4cd": 9199,
      "c6dab644": 9200,
      "c7d82581": 9201,
      "6cd76e8f": 9202,
      "729193b451ea": 9203,
      "e8cc658d": 9204,
      "e8ecd119": 9205,
      "67f7981d": 9206,
      "67e17b30d307": 9207,
      "673cbc61a2e2": 9208,
      "7001b407cd88": 9209,
      "7037aa6c": 9210,
      "ec564347": 9211,
      "ecb81c5b": 9212,
      "e7a3e6c13179": 9213,
      "e756d932": 9214,
      "e7029131": 9215,
      "e7a87a07065b": 9216,
      "61e4de4e": 9217,
      "61a6a85e": 9218,
      "63a0d960": 9219,
      "6318e32e8fb4": 9220,
      "2660764cda7e": 9221,
      "266e7e2e9833": 9222,
      "3c589374": 9223,
      "3c36a177": 9224,
      "3cf84c7e": 9225,
      "cc968e63": 9226,
      "491776eddf4a": 9227,
      "77d14e4b53cd": 9228,
      "649ca06413e1": 9229,
      "64bba490b177": 9230,
      "d2fe5d1b": 9231,
      "d2b8e614": 9232,
      "5b3c1075d3f0": 9233,
      "5baae84f": 9234,
      "5ba97876beb6": 9235,
      "dc9531d8": 9236,
      "dc0632c4691c": 9237,
      "5cbcc35168b7": 9238,
      "f6fcd196a0a5": 9239,
      "f60044a8eca5": 9240,
      "f636b13f": 9241,
      "f1a7eb97": 9242,
      "f1a6fbfcd12a": 9243,
      "e0a067011b79": 9244,
      "49c21c36": 9245,
      "1fdc5ff35997": 9246,
      "76fba24ed12e": 9247,
      "0c00aa0a": 9248,
      "0c32f7760e5d": 9249,
      "0ba1606d": 9250,
      "1b36ff6bd4b8": 9251,
      "4a4aaca0a72b": 9252,
      "62304aa1": 9253,
      "d7a553d2": 9254,
      "d73f3d51dfce": 9255,
      "d0463ab4": 9256,
      "ebd8ea95": 9257,
      "ee3b2904ea54": 9258,
      "ee5c5fce": 9259,
      "ee386c8c": 9260,
      "11772af8f038": 9261,
      "d6f2630d": 9262,
      "f3e31806": 9263,
      "e2bb9daad08e": 9264,
      "4fae9d94": 9265,
      "4fa41183bc45": 9266,
      "f2e0fa0f": 9267,
      "ffdbe2718760": 9268,
      "fffdd89ea40e": 9269,
      "3bdc58754e85": 9270,
      "73326a3ef6e4": 9271,
      "73e637e2": 9272,
      "73e81766603c": 9273,
      "0f88cf2f5d14": 9274,
      "d4ad9354": 9275,
      "6df03198": 9276,
      "e99cc320": 9277,
      "e43d1e75afbc": 9278,
      "7b2c2b50": 9279,
      "7e5b2dc3": 9280,
      "4d20cc66e846": 9281,
      "118a1c33b51e": 9282,
      "091edc0048e6": 9283,
      "3ae671f50415": 9284,
      "3a3bc606006f": 9285,
      "c3e7b38c": 9286,
      "cd545aaab311": 9287,
      "cd926f99": 9288,
      "cd56f9de0a58": 9289,
      "8b8de2a7": 9290,
      "1d5df726afe5": 9291,
      "3d579467": 9292,
      "3de747fca161": 9293,
      "2e676ba40387": 9294,
      "2e60f6f8373a": 9295,
      "ef31a56c": 9296,
      "ca088276": 9297,
      "ca2139bb": 9298,
      "7437a827": 9299,
      "273aaa20bcfb": 9300,
      "128d7accb66c": 9301,
      "fb3c1a16ebff": 9302,
      "6e3d407b1cdb": 9303,
      "cfd7f4bc2697": 9304,
      "d165ca44f66c": 9305,
      "907b7f7c8f25": 9306,
      "d90ccecfec03": 9307,
      "84559170": 9308,
      "192ebea7b3bc": 9309,
      "2f30bd4c0a15": 9310,
      "4d1bf636d5d1": 9311,
      "868ab9751dfa": 9312,
      "868a05e54842": 9313,
      "7d083813475c": 9314,
      "2d074e580299": 9315,
      "239afe1f5ff8": 9316,
      "fd720bbb": 9317,
      "ddf850e3": 9318,
      "154dd8e4": 9319,
      "3855bdf2c84b": 9320,
      "354c58d0": 9321,
      "4b0a8c317cff": 9322,
      "6feeaa8f": 9323,
      "7ae0fd66e6fc": 9324,
      "901c4952075e": 9325,
      "1014cb64": 9326,
      "0e90732073f3": 9327,
      "5e67edd1": 9328,
      "801c8567d2b1": 9329,
      "fa521028325d": 9330,
      "167aefdd15de": 9331,
      "3780dde0dac0": 9332,
      "ba7a4605": 9333,
      "02172fd76c1f": 9334,
      "0212c1a54c29": 9335,
      "c6261548ddef": 9336,
      "586ef57eb7d3": 9337,
      "58693ae5b1aa": 9338,
      "621b52c5c3a2": 9339,
      "110414f9e5e2": 9340,
      "a462e705": 9341,
      "560783a4f36a": 9342,
      "106f8617895c": 9343,
      "87179d8062ef": 9344,
      "caa3039d2ff7": 9345,
      "b6bec68b7152": 9346,
      "b6bdd424b56d": 9347,
      "3bc3fcf8a47e": 9348,
      "0b1ebc048f86": 9349,
      "bf16651bb0fa": 9350,
[...]
