{
  "version": "1.0",
  "truncation": null,
  "padding": null,
  "added_tokens": [
    {
      "id": 0,
      "content": "[PAD]",
      "single_word": false,
      "lstrip": false,
      "rstrip": false,
      "normalized": false,
      "special": true
    },
    {
      "id": 1,
      "content": "[UNK]",
      "single_word": false,
      "lstrip": false,
      "rstrip": false,
      "normalized": false,
      "special": true
    },
    {
      "id": 2,
      "content": "[CLS]",
      "single_word": false,
      "lstrip": false,
      "rstrip": false,
      "normalized": false,
      "special": true
    },
    {
      "id": 3,
      "content": "[SEP]",
      "single_word": false,
      "lstrip": false,
      "rstrip": false,
      "normalized": false,
      "special": true
    },
    {
      "id": 4,
      "content": "[MASK]",
      "single_word": false,
      "lstrip": false,
      "rstrip": false,
      "normalized": false,
      "special": true
    }
  ],
  "normalizer": {
    "type": "BertNormalizer",
    "clean_text": true,
    "handle_chinese_chars": true,
    "strip_accents": null,
    "lowercase": false
  },
  "pre_tokenizer": {
    "type": "BertPreTokenizer"
  },
  "post_processor": {
    "type": "TemplateProcessing",
    "single": [
      {
        "SpecialToken": {
          "id": "[CLS]",
          "type_id": 0
        }
      },
      {
        "Sequence": {
          "id": "A",
          "type_id": 0
        }
      },
      {
        "SpecialToken": {
          "id": "[SEP]",
          "type_id": 0
        }
      }
    ],
    "pair": [
      {
        "SpecialToken": {
          "id": "[CLS]",
          "type_id": 0
        }
      },
      {
        "Sequence": {
          "id": "A",
          "type_id": 0
        }
      },
      {
        "SpecialToken": {
          "id": "[SEP]",
          "type_id": 0
        }
      },
      {
        "Sequence": {
          "id": "B",
          "type_id": 1
        }
      },
      {
        "SpecialToken": {
          "id": "[SEP]",
          "type_id": 1
        }
      }
    ],
    "special_tokens": {
      "[CLS]": {
        "id": "[CLS]",
        "ids": [
          2
        ],
        "tokens": [
          "[CLS]"
        ]
      },
      "[SEP]": {
        "id": "[SEP]",
        "ids": [
          3
        ],
        "tokens": [
          "[SEP]"
        ]
      }
    }
  },
  "decoder": {
    "type": "WordPiece",
    "prefix": "##",
    "cleanup": true
  },
  "model": {
    "type": "WordPiece",
    "unk_token": "[UNK]",
    "continuing_subword_prefix": "##",
    "max_input_chars_per_word": 100,
    "vocab": {
      "[PAD]": 0,
      "[UNK]": 1,
      "[CLS]": 2,
      "[SEP]": 3,
      "[MASK]": 4,
      "\"": 5,
      "%": 6,
      "&": 7,
      "'": 8,
      "(": 9,
      ")": 10,
      ",": 11,
      "-": 12,
      ".": 13,
      "/": 14,
      "0": 15,
      "1": 16,
      "2": 17,
      "3": 18,
      "4": 19,
      "5": 20,
      "6": 21,
      "7": 22,
      "8": 23,
      "9": 24,
      ":": 25,
      "=": 26,
      "?": 27,
      "A": 28,
      "B": 29,
      "C": 30,
      "D": 31,
      "E": 32,
      "F": 33,
      "G": 34,
      "H": 35,
      "I": 36,
      "L": 37,
      "M": 38,
      "N": 39,
      "O": 40,
      "P": 41,
      "R": 42,
      "S": 43,
      "T": 44,
      "U": 45,
      "V": 46,
      "W": 47,
      "[": 48,
      "]": 49,
      "_": 50,
      "a": 51,
      "b": 52,
      "c": 53,
      "d": 54,
      "e": 55,
      "f": 56,
      "g": 57,
      "h": 58,
      "i": 59,
      "j": 60,
      "k": 61,
      "l": 62,
      "m": 63,
      "n": 64,
      "o": 65,
      "p": 66,
      "q": 67,
      "r": 68,
      "s": 69,
      "t": 70,
      "u": 71,
      "v": 72,
      "w": 73,
      "x": 74,
      "y": 75,
      "z": 76,
      "##5": 77,
      "##4": 78,
      "##6": 79,
      "##b": 80,
      "##f": 81,
      "##0": 82,
      "##1": 83,
      "##9": 84,
      "##a": 85,
      "##8": 86,
      "##2": 87,
      "##7": 88,
      "##e": 89,
      "##c": 90,
      "##3": 91,
      "##d": 92,
      "##n": 93,
      "##l": 94,
      "##i": 95,
      "##m": 96,
      "##t": 97,
      "##g": 98,
      "##h": 99,
      "##o": 100,
      "##s": 101,
      "##v": 102,
      "##r": 103,
      "##p": 104,
      "##u": 105,
      "##G": 106,
      "##B": 107,
      "##w": 108,
      "##y": 109,
      "##k": 110,
      "##A": 111,
      "##R": 112,
      "##N": 113,
      "##I": 114,
      "##x": 115,
      "##L": 116,
      "##T": 117,
      "##M": 118,
      "##z": 119,
      "##O": 120,
      "##S": 121,
      "##P": 122,
      "##C": 123,
      "##U": 124,
      "##F": 125,
      "##E": 126,
      "##q": 127,
      "##01": 128,
      "no": 129,
      "##er": 130,
      "##va": 131,
      "##2c": 132,
      "nova": 133,
      "05": 134,
      "##ta": 135,
      "201": 136,
      "16": 137,
      "##e4": 138,
      "##35": 139,
      "2017": 140,
      "##93": 141,
      "##db": 142,
      "##a9": 143,
      "##ed": 144,
      "11": 145,
      "10": 146,
      "##3d": 147,
      "##te": 148,
      "##0c": 149,
      "##pu": 150,
      "00": 151,
      "13": 152,
      "##om": 153,
      "com": 154,
      "##pute": 155,
      "compute": 156,
      "##41": 157,
      "##fa": 158,
      "lo": 159,
      "##57": 160,
      "##a9e": 161,
      "log": 162,
      "IN": 163,
      "##FO": 164,
      "INFO": 165,
      "re": 166,
      "##ver": 167,
      "##pi": 168,
      "54": 169,
      "##2c4": 170,
      "##e4c": 171,
      "##dba": 172,
      "##9335": 173,
      "##e40c": 174,
      "##35a9e": 175,
      "##db41": 176,
      "##ed9335": 177,
      "##fadb41": 178,
      "54fadb41": 179,
      "##2c4e40c": 180,
      "##e4c35a9e": 181,
      "##dbaed9335": 182,
      "54fadb412c4e40c": 183,
      "##dbaed9335e4c35a9e": 184,
      "54fadb412c4e40cdbaed9335e4c35a9e": 185,
      "ser": 186,
      "server": 187,
      "req": 188,
      "##fb": 189,
      "##ce": 190,
      "##9c": 191,
      "##en": 192,
      "##sta": 193,
      "##5b": 194,
      "##a4": 195,
      "##96": 196,
      "##d6": 197,
      "##im": 198,
      "in": 199,
      "08": 200,
      "##nce": 201,
      "##stance": 202,
      "##d2": 203,
      "##00": 204,
      "##aa": 205,
      "##46": 206,
      "instance": 207,
      "53": 208,
      "##3a9": 209,
      "##c2c": 210,
      "api": 211,
      "##01fb": 212,
      "##2cc2c": 213,
      "113d": 214,
      "##3da4": 215,
      "##9c3da4": 216,
      "##5b96": 217,
      "##d62cc2c": 218,
      "##aa5b96": 219,
      "##3a99c3da4": 220,
      "##01fbd62cc2c": 221,
      "113d3a99c3da4": 222,
      "##aa5b96d2": 223,
      "##01fbd62cc2caa5b96d2": 224,
      "113d3a99c3da401fbd62cc2caa5b96d2": 225,
      "257": 226,
      "sta": 227,
      "55": 228,
      "31": 229,
      "##us": 230,
      "HT": 231,
      "ws": 232,
      "##gi": 233,
      "##TP": 234,
      "HTTP": 235,
      "wsgi": 236,
      "stat": 237,
      "##eta": 238,
      "len": 239,
      "tim": 240,
      "status": 241,
      "time": 242,
      "##ac": 243,
      "##39": 244,
      "##ET": 245,
      "##931": 246,
      "##b0": 247,
      "##il": 248,
      "200": 249,
      "2931": 250,
      "GET": 251,
      "##rt": 252,
      "##b7": 253,
      "##irt": 254,
      "##ag": 255,
      "os": 256,
      "li": 257,
      "lib": 258,
      "##ec": 259,
      "##62": 260,
      "v2": 261,
      "##api": 262,
      "osapi": 263,
      "25746": 264,
      "servers": 265,
      "##b8": 266,
      "deta": 267,
      "detail": 268,
      "##91": 269,
      "18": 270,
      "##54": 271,
      "##4c": 272,
      "##da": 273,
      "##08": 274,
      "##78": 275,
      "##48": 276,
      "##as": 277,
      "##dc": 278,
      "##74": 279,
      "##18": 280,
      "47": 281,
      "##27": 282,
      "##68": 283,
      "im": 284,
      "imag": 285,
      "##ng": 286,
      "##ase": 287,
      "1893": 288,
      "base": 289,
      "##0e": 290,
      "##ing": 291,
      "##he": 292,
      "##ar": 293,
      "##37": 294,
      "58": 295,
      "virt": 296,
      "##97": 297,
      "##virt": 298,
      "libvirt": 299,
      "##dc18": 300,
      "ad": 301,
      "##a7": 302,
      "##b09": 303,
      "instances": 304,
      "##eb7": 305,
      "##ed5": 306,
      "b57": 307,
      "2ed5": 308,
      "##b8b09": 309,
      "##54eb7": 310,
      "4778": 311,
      "5854eb7": 312,
      "##dc1839": 313,
      "addc1839": 314,
      "b57e": 315,
      "5854eb7b8b09": 316,
      "##or": 317,
      "var": 318,
      "a48": 319,
      "##71": 320,
      "06": 321,
      "04": 322,
      "##ab": 323,
      "##9c8": 324,
      "##64": 325,
      "##68f": 326,
      "##88": 327,
      "##742": 328,
      "##bb0": 329,
      "##c91": 330,
      "##3908": 331,
      "##93b7": 332,
      "##0c37": 333,
      "##ecac": 334,
      "##ac0e": 335,
      "##6227": 336,
      "##da93b7": 337,
      "imagecac": 338,
      "a489c8": 339,
      "##68f0c37": 340,
      "##bb03908": 341,
      "##c91bb03908": 342,
      "##ac0e742": 343,
      "##6227c91bb03908": 344,
      "##da93b76227c91bb03908": 345,
      "imagecache": 346,
      "a489c868f0c37": 347,
      "##da93b76227c91bb03908ac0e742": 348,
      "a489c868f0c37da93b76227c91bb03908ac0e742": 349,
      "40": 350,
      "meta": 351,
      "12": 352,
      "##56": 353,
      "17": 354,
      "21": 355,
      "##is": 356,
      "##4d": 357,
      "##es": 358,
      "ma": 359,
      "##43": 360,
      "us": 361,
      "##05": 362,
      "##d1": 363,
      "##f1": 364,
      "##c4": 365,
      "##lo": 366,
      "##nag": 367,
      "manag": 368,
      "manager": 369,
      "##95": 370,
      "##2d": 371,
      "4b": 372,
      "##21": 373,
      "##ea": 374,
      "##98": 375,
      "##ca": 376,
      "41": 377,
      "##36": 378,
      "01": 379,
      "##on": 380,
      "26": 381,
      "##le": 382,
      "##94": 383,
      "##3b": 384,
      "##ent": 385,
      "##38": 386,
      "##la": 387,
      "##f8": 388,
      "##fe": 389,
      "25": 390,
      "##vent": 391,
      "09": 392,
      "07": 393,
      "##ck": 394,
      "14": 395,
      "##laim": 396,
      "20": 397,
      "on": 398,
      "##data": 399,
      "metadata": 400,
      "##51": 401,
      "##de": 402,
      "86": 403,
      "fil": 404,
      "03": 405,
      "48": 406,
      "da": 407,
      "claim": 408,
      "##e7": 409,
      "data": 410,
      "op": 411,
      "##58": 412,
      "##ensta": 413,
      "opensta": 414,
      "openstack": 415,
      "th": 416,
      "##f4": 417,
      "image": 418,
      "##99": 419,
      "##e8": 420,
      "##fbb": 421,
      "42": 422,
      "##52": 423,
      "to": 424,
      "##07": 425,
      "##d8": 426,
      "##if": 427,
      "##3fb": 428,
      "##4c5": 429,
      "##4c6": 430,
      "##66": 431,
      "##04": 432,
      "##33": 433,
      "##3ac": 434,
      "claims": 435,
      "##11": 436,
      "##d71": 437,
      "067": 438,
      "##e45b": 439,
      "34c5": 440,
      "4fbb": 441,
      "##3dd71": 442,
      "##623fb": 443,
      "40623fb": 444,
      "86c4": 445,
      "0673dd71": 446,
      "##e45b4": 447,
      "40623fbe45b4": 448,
      "To": 449,
      "at": 450,
      "##ea4": 451,
      "##ting": 452,
      "this": 453,
      "02": 454,
      "##06": 455,
      "##9b": 456,
      "##47": 457,
      "##82": 458,
      "##92": 459,
      "##32": 460,
      "##ud": 461,
      "##31": 462,
      "##a76": 463,
      "27": 464,
      "##59": 465,
      "9e": 466,
      "##f7": 467,
      "##f56": 468,
      "##e1": 469,
      "e97": 470,
      "##bc": 471,
      "##wn": 472,
      "##loud": 473,
      "45": 474,
      "##f2": 475,
      "##d0": 476,
      "##574c6": 477,
      "##57f56": 478,
      "##a9e88": 479,
      "##4697": 480,
      "##b8a9e88": 481,
      "##3ac574c6": 482,
      "##a7608": 483,
      "e974697": 484,
      "##57f56a7608": 485,
      "##b8a9e8857f56a7608": 486,
      "##3ac574c6b8a9e8857f56a7608": 487,
      "e9746973ac574c6b8a9e8857f56a7608": 488,
      "4c": 489,
      "##ur": 490,
      "files": 491,
      "##fc": 492,
      "895": 493,
      "the": 494,
      "##4d94": 495,
      "3ea4": 496,
      "##5a": 497,
      "##d64c": 498,
      "04d64c": 499,
      "##052c": 500,
      "4b64": 501,
      "9e2d": 502,
      "895d": 503,
      "##4d94ab": 504,
      "3ea4052c": 505,
      "04d64c4d94ab": 506,
      "sp": 507,
      "##26": 508,
      "##ti": 509,
      "##bb": 510,
      "vc": 511,
      "##ul": 512,
      "vcpu": 513,
      "f7": 514,
      "2013": 515,
      "##f5": 516,
      "de": 517,
      "##a8": 518,
      "##76": 519,
      "##cc": 520,
      "##em": 521,
      "51": 522,
      "##02": 523,
      "##67": 524,
      "##it": 525,
      "15": 526,
      "##d4": 527,
      "##eb": 528,
      "Event": 529,
      "Lif": 530,
      "VM": 531,
      "##fd": 532,
      "##cle": 533,
      "##ycle": 534,
      "##ecycle": 535,
      "Lifecycle": 536,
      "event": 537,
      "##90": 538,
      "##tal": 539,
      "used": 540,
      "37": 541,
      "dr": 542,
      "##iver": 543,
      "driver": 544,
      "##na": 545,
      "MB": 546,
      "##69": 547,
      "##e2": 548,
      "##imit": 549,
      "93": 550,
      "##f6": 551,
      "##a5": 552,
      "##cb": 553,
      "loca": 554,
      "##b07": 555,
      "local": 556,
      "46": 557,
      "js": 558,
      "##30": 559,
      "json": 560,
      "for": 561,
      "##a1": 562,
      "##c6": 563,
      "node": 564,
      "##6b": 565,
      "92": 566,
      "dis": 567,
      "res": 568,
      "disk": 569,
      "##5c": 570,
      "##f9": 571,
      "##ee": 572,
      "##ve": 573,
      "##24": 574,
      "##our": 575,
      "resour": 576,
      "resource": 577,
      "##446": 578,
      "##61": 579,
      "sec": 580,
      "##72": 581,
      "##34": 582,
      "##d5": 583,
      "##d4d": 584,
      "##fa1": 585,
      "4f": 586,
      "##awn": 587,
      "##end": 588,
      "spawn": 589,
      "ex": 590,
      "##b1": 591,
      "##a0": 592,
      "##ds": 593,
      "##ok": 594,
      "##0ca7": 595,
      "##b8d1": 596,
      "##43b07": 597,
      "##f1d4d": 598,
      "##21fb": 599,
      "##onds": 600,
      "Took": 601,
      "##d021fb": 602,
      "f7b8d1": 603,
      "##44643b07": 604,
      "seconds": 605,
      "##fa10ca7": 606,
      "##f1d4d44643b07": 607,
      "f7b8d1f1d4d44643b07": 608,
      "##fa10ca7d021fb": 609,
      "f7b8d1f1d4d44643b07fa10ca7d021fb": 610,
      "##3f": 611,
      "##st": 612,
      "ch": 613,
      "##28": 614,
      "##age": 615,
      "29": 616,
      "Ac": 617,
      "ot": 618,
      "st": 619,
      "sh": 620,
      "##ae": 621,
      "##des": 622,
      "##her": 623,
      "##king": 624,
      "nodes": 625,
      "##ecking": 626,
      "##aring": 627,
      "##orage": 628,
      "use": 629,
      "##tive": 630,
      "checking": 631,
      "Active": 632,
      "other": 633,
      "storage": 634,
      "sharing": 635,
      "vcpus": 636,
      "##14": 637,
      "##nal": 638,
      "98": 639,
      "ba": 640,
      "##5d": 641,
      "##0b": 642,
      "Total": 643,
      "38": 644,
      "44": 645,
      "191": 646,
      "##bd": 647,
      "28": 648,
      "49": 649,
      "##3c": 650,
      "63": 651,
      "78": 652,
      "b5": 653,
      "##50": 654,
      "##b2": 655,
      "b6": 656,
      "##79": 657,
      "##df": 658,
      "30": 659,
      "##44": 660,
      "##cce": 661,
      "22": 662,
      "cp": 663,
      "cloud": 664,
      "pg": 665,
      "slo": 666,
      "tc": 667,
      "uta": 668,
      "##lab": 669,
      "##m1": 670,
      "##vm1": 671,
      "##wvm1": 672,
      "cloudlab": 673,
      "pg0": 674,
      "slowvm1": 675,
      "tcloud": 676,
      "utah": 677,
      "124": 678,
      "la": 679,
      "##ful": 680,
      "##ss": 681,
      "##ucce": 682,
      "##ssful": 683,
      "##uccessful": 684,
      "##20": 685,
      "##ro": 686,
      "successful": 687,
      "##ter": 688,
      "##test": 689,
      "events": 690,
      "exter": 691,
      "latest": 692,
      "external": 693,
      "454": 694,
      "PO": 695,
      "##ST": 696,
      "POST": 697,
      "35": 698,
      "4e": 699,
      "91": 700,
      "GB": 701,
      "limit": 702,
      "mem": 703,
      "##PU": 704,
      "##62e": 705,
      "##ory": 706,
      "memory": 707,
      "24": 708,
      "##d9": 709,
      "##ly": 710,
      "19": 711,
      "39": 712,
      "43": 713,
      "57": 714,
      "tr": 715,
      "##86": 716,
      "##c8": 717,
      "##ker": 718,
      "##acker": 719,
      "file": 720,
      "tracker": 721,
      "94": 722,
      "b7": 723,
      "cb": 724,
      "85": 725,
      "##2f": 726,
      "##ef": 727,
      "88": 728,
      "96": 729,
      "4d": 730,
      "##7b": 731,
      "##f0": 732,
      "##nc": 733,
      "50": 734,
      "##c1": 735,
      "84": 736,
      "Rem": 737,
      "ae": 738,
      "sy": 739,
      "##5e": 740,
      "##c7": 741,
      "Remo": 742,
      "sync": 743,
      "49c": 744,
      "##60": 745,
      "##c5": 746,
      "95": 747,
      "9b": 748,
      "In": 749,
      "##19": 750,
      "##2a": 751,
      "##77": 752,
      "##e9": 753,
      "Instance": 754,
      "##rea": 755,
      "##fe1": 756,
      "d6": 757,
      "not": 758,
      "1910": 759,
      "##1d": 760,
      "b3": 761,
      "##am": 762,
      "##29": 763,
      "404": 764,
      "##tion": 765,
      "93b": 766,
      "Res": 767,
      "hy": 768,
      "po": 769,
      "vend": 770,
      "##4b": 771,
      "##med": 772,
      "##vis": 773,
      "##per": 774,
      "##umed": 775,
      "##wer": 776,
      "##960": 777,
      "25743": 778,
      "state": 779,
      "successfully": 780,
      "Resumed": 781,
      "hyper": 782,
      "power": 783,
      "vendor": 784,
      "##visor": 785,
      "hypervisor": 786,
      "23": 787,
      "432": 788,
      "Crea": 789,
      "Dur": 790,
      "Sk": 791,
      "des": 792,
      "has": 793,
      "ne": 794,
      "pend": 795,
      "tas": 796,
      "##16": 797,
      "##ip": 798,
      "##tw": 799,
      "##tro": 800,
      "##ork": 801,
      "##76a": 802,
      "spawning": 803,
      "Creating": 804,
      "During": 805,
      "Skip": 806,
      "destro": 807,
      "netw": 808,
      "pending": 809,
      "task": 810,
      "destroy": 811,
      "network": 812,
      "127": 813,
      "80": 814,
      "De": 815,
      "VC": 816,
      "bd": 817,
      "un": 818,
      "##40": 819,
      "##3e": 820,
      "##limit": 821,
      "##ied": 822,
      "##ice": 823,
      "##vice": 824,
      "##faul": 825,
      "##ecd": 826,
      "##ecif": 827,
      "1759": 828,
      "specif": 829,
      "del": 830,
      "defaul": 831,
      "Dele": 832,
      "VCPU": 833,
      "unlimit": 834,
      "specified": 835,
      "defaulting": 836,
      "unlimited": 837,
      "##a6": 838,
      "157": 839,
      "33": 840,
      "##9e": 841,
      "##ad": 842,
      "##917": 843,
      "32": 844,
      "##362": 845,
      "264": 846,
      "4a": 847,
      "7c": 848,
      "8b": 849,
      "967": 850,
      "f0": 851,
      "59": 852,
      "641": 853,
      "81": 854,
      "##55": 855,
      "172": 856,
      "49cc": 857,
      "239": 858,
      "45b": 859,
      "443": 860,
      "56": 861,
      "a41": 862,
      "ff": 863,
      "##03": 864,
      "##17": 865,
      "##llo": 866,
      "##914": 867,
      "##9b6": 868,
      "64172": 869,
      "##lloca": 870,
      "97": 871,
      "933": 872,
      "b1": 873,
      "##d7": 874,
      "##ted": 875,
      "##ec1": 876,
      "##da7": 877,
      "##f14": 878,
      "##049": 879,
      "##042": 880,
      "3a": 881,
      "436": 882,
      "4fe": 883,
      "d96": 884,
      "##b5d": 885,
      "##2e": 886,
      "##32d": 887,
      "##d35": 888,
      "##mi": 889,
      "##a9d": 890,
      "##fbf": 891,
      "##d27": 892,
      "##000": 893,
      "##b87": 894,
      "##647": 895,
      "##ea8": 896,
      "##69a": 897,
      "34": 898,
      "4aa": 899,
      "8d1": 900,
      "988": 901,
      "##6f": 902,
      "##a3": 903,
      "##a62": 904,
      "##c66": 905,
      "##aa1": 906,
      "##ea2": 907,
      "##3b4": 908,
      "##38e": 909,
      "##f8c": 910,
      "##51e": 911,
      "##e7c": 912,
      "##e89": 913,
      "##11b": 914,
      "074": 915,
      "158": 916,
      "3ca": 917,
      "3cb": 918,
      "61": 919,
      "b8": 920,
      "be7": 921,
      "##fc4": 922,
      "##ff8": 923,
      "##900": 924,
      "##9dc": 925,
      "##a51": 926,
      "##a11": 927,
      "##2b": 928,
      "##75": 929,
      "##774": 930,
      "##3a1": 931,
      "##54b": 932,
      "##dcc": 933,
      "##a7c": 934,
      "##a757": 935,
      "##71f": 936,
      "##d1a": 937,
      "##f4a": 938,
      "##824d": 939,
      "##a84": 940,
      "4433": 941,
      "a41e": 942,
      "001": 943,
      "4d2": 944,
      "44c6": 945,
      "4ea2": 946,
      "70c": 947,
      "7e7c": 948,
      "WA": 949,
      "bf8c": 950,
      "c59": 951,
      "e3d": 952,
      "##6cb": 953,
      "##09": 954,
      "##171": 955,
      "##9f": 956,
      "##e6": 957,
      "##ou": 958,
      "##RN": 959,
      "##NG": 960,
      "##ING": 961,
      "##edfc": 962,
      "##ac7": 963,
      "1866": 964,
      "##54f1": 965,
      "##273d": 966,
      "##f10": 967,
      "##f87": 968,
      "##f4f2": 969,
      "##d83b": 970,
      "##8262e": 971,
      "##cc3": 972,
      "##0b6": 973,
      "853f": 974,
      "f099": 975,
      "45bb": 976,
      "3ca0": 977,
      "##a7578262e": 978,
      "WARN": 979,
      "bf8c824d": 980,
      "e3da7578262e": 981,
      "WARNING": 982,
      "2f87": 983,
      "2cc3": 984,
      "36": 985,
      "4914": 986,
      "4da7": 987,
      "63b": 988,
      "70b6": 989,
      "9c6": 990,
      "9049": 991,
      "Un": 992,
      "a1": 993,
      "af5": 994,
      "b76a": 995,
      "b647": 996,
      "bdcc": 997,
      "bf4a": 998,
      "c62": 999,
      "c98": 1000,
      "c11b": 1001,
      "eec1": 1002,
      "f5a": 1003,
      "fecd": 1004,
      "or": 1005,
      "ph": 1006,
      "ram": 1007,
      "sw": 1008,
      "##4a84": 1009,
      "##ble": 1010,
      "##9ea4": 1011,
      "##ap": 1012,
      "##afe1": 1013,
      "##79b6": 1014,
      "##d960": 1015,
      "##no": 1016,
      "##GB": 1017,
      "##ys": 1018,
      "##kno": 1019,
      "##MB": 1020,
      "##015c": 1021,
      "##vable": 1022,
      "##2c9dc": 1023,
      "05fc4": 1024,
      "##35f2": 1025,
      "##93e89": 1026,
      "##0cc66": 1027,
      "##a4a51": 1028,
      "##9605": 1029,
      "##392": 1030,
      "##39b1": 1031,
      "##b7bd": 1032,
      "##b7774": 1033,
      "##4c64": 1034,
      "##78a5": 1035,
      "##dc1847": 1036,
      "049b": 1037,
      "##able": 1038,
      "##abcc": 1039,
      "##88ea8": 1040,
      "##c42f": 1041,
      "4b2a": 1042,
      "##cadf": 1043,
      "41f6": 1044,
      "0193": 1045,
      "##f8f1": 1046,
      "48ae": 1047,
      "##e769a": 1048,
      "##e846": 1049,
      "4298": 1050,
      "total": 1051,
      "##d89ea4": 1052,
      "##0452": 1053,
      "##3ac51e": 1054,
      "##924c64": 1055,
      "##f738e": 1056,
      "##f7392": 1057,
      "4c88": 1058,
      "4c82": 1059,
      "f7d4": 1060,
      "##f5ff8": 1061,
      "512": 1062,
      "513ac51e": 1063,
      "##fdd89ea4": 1064,
      "##e23b4": 1065,
      "9336": 1066,
      "93000": 1067,
      "9235": 1068,
      "9239b1": 1069,
      "##d5a9": 1070,
      "4f0e": 1071,
      "4f99": 1072,
      "##a0d960": 1073,
      "2943": 1074,
      "##1471f": 1075,
      "982c": 1076,
      "ba2d": 1077,
      "63b7774": 1078,
      "63a0d960": 1079,
      "78dc1847": 1080,
      "b5e4": 1081,
      "b562e": 1082,
      "b6d1": 1083,
      "b606": 1084,
      "4549": 1085,
      "4548": 1086,
      "4e07": 1087,
      "94fe": 1088,
      "b7ee": 1089,
      "cbf4": 1090,
      "8848": 1091,
      "96abcc": 1092,
      "4d91": 1093,
      "ae3a1": 1094,
      "Removable": 1095,
      "959605": 1096,
      "d6b7bd": 1097,
      "b300": 1098,
      "93b1": 1099,
      "432042": 1100,
      "127e769a": 1101,
      "804c": 1102,
      "##917273d": 1103,
      "17288ea8": 1104,
      "239afe1": 1105,
      "fffdd89ea4": 1106,
      "933e": 1107,
      "4363": 1108,
      "4fe6": 1109,
      "d96a11": 1110,
      "##32d54f1": 1111,
      "##d2735f2": 1112,
      "##b87e23b4": 1113,
      "8d1f": 1114,
      "9884": 1115,
      "##a624a84": 1116,
      "1583": 1117,
      "3cb9": 1118,
      "be793e89": 1119,
      "4d20cc66": 1120,
      "70c171": 1121,
      "7e7cc42f": 1122,
      "c59d83b": 1123,
      "##6cba4a51": 1124,
      "##edfcfbf": 1125,
      "18666cba4a51": 1126,
      "##f4f25": 1127,
      "853fd2735f2": 1128,
      "491478a5": 1129,
      "63b917273d": 1130,
      "9c6a624a84": 1131,
      "Unkno": 1132,
      "af5f7392": 1133,
      "c62f4f25": 1134,
      "c98924c64": 1135,
      "f5a32d54f1": 1136,
      "fecdd5a9": 1137,
      "phys": 1138,
      "swap": 1139,
      "##79b6a7c": 1140,
      "##2c9dcf": 1141,
      "05fc479b6a7c": 1142,
      "4b2ab87e23b4": 1143,
      "513ac51e0452": 1144,
      "93000edfcfbf": 1145,
      "9239b12c9dcf": 1146,
      "63b7774f738e": 1147,
      "b562ef10": 1148,
      "96abccce": 1149,
      "ae3a1b5d": 1150,
      "95960536": 1151,
      "d6b7bd36": 1152,
      "43204226": 1153,
      "239afe1f5ff8": 1154,
      "fffdd89ea40e": 1155,
      "d96a117b": 1156,
      "4d20cc66e846": 1157,
      "70c1714b": 1158,
      "c59d83b1471f": 1159,
      "853fd2735f29": 1160,
      "491478a5cadf": 1161,
      "63b917273d1d": 1162,
      "9c6a624a84bc": 1163,
      "Unknown": 1164,
      "c98924c64aa1": 1165,
      "f5a32d54f1c5": 1166,
      "2d1a": 1167,
      "52": 1168,
      "a015c": 1169,
      "d54b": 1170,
      "##ff": 1171,
      "##4824": 1172,
      "a48d": 1173,
      "4156": 1174,
      "ba6b": 1175,
      "##44eb": 1176,
      "84bb": 1177,
      "7c4824": 1178,
      "##d35f8f1": 1179,
      "4aa2": 1180,
      "074d35f8f1": 1181,
      "##ac7a9d": 1182,
      "a015cf14": 1183,
      "d54b44eb": 1184,
      "7c4824ac7a9d": 1185,
      "074d35f8f12c": 1186,
      "##af": 1187,
      "##22": 1188,
      "blo": 1189,
      "fa": 1190,
      "##70": 1191,
      "##ppi": 1192,
      "mappi": 1193,
      "202": 1194,
      "203": 1195,
      "##58f": 1196,
      "device": 1197,
      "block": 1198,
      "mapping": 1199,
      "8e": 1200,
      "957": 1201,
      "962": 1202,
      "##12": 1203,
      "##94c": 1204,
      "##25": 1205,
      "204": 1206,
      "296": 1207,
      "4e1": 1208,
      "87": 1209,
      "##6d": 1210,
      "##10": 1211,
      "##1c": 1212,
      "##e0": 1213,
      "1916": 1214,
      "268": 1215,
      "256": 1216,
      "733": 1217,
      "b0": 1218,
      "fr": 1219,
      "##e88": 1220,
      "##0600": 1221,
      "380": 1222,
      "bd52": 1223,
      "a6": 1224,
      "##53": 1225,
      "##42": 1226,
      "##b9": 1227,
      "##ba": 1228,
      "##73": 1229,
      "##c9": 1230,
      "##d3": 1231,
      "##nd": 1232,
      "000": 1233,
      "##74ea": 1234,
      "211": 1235,
      "##3bc6": 1236,
      "93f4": 1237,
      "##f974ea": 1238,
      "cba5": 1239,
      "3a3bc6": 1240,
      "faf974ea": 1241,
      "4e1b": 1242,
      "##06006f": 1243,
      "3a3bc606006f": 1244,
      "135": 1245,
      "4e8": 1246,
      "DE": 1247,
      "Pa": 1248,
      "Sta": 1249,
      "Ter": 1250,
      "bu": 1251,
      "fou": 1252,
      "pl": 1253,
      "vif": 1254,
      "##23": 1255,
      "##gg": 1256,
      "##ugg": 1257,
      "##LET": 1258,
      "2012": 1259,
      "##350": 1260,
      "139": 1261,
      "132": 1262,
      "25776": 1263,
      "##used": 1264,
      "##ild": 1265,
      "##rted": 1266,
      "##d1d": 1267,
      "258": 1268,
      "##nating": 1269,
      "spawned": 1270,
      "destroyed": 1271,
      "##minating": 1272,
      "DELET": 1273,
      "Paused": 1274,
      "Started": 1275,
      "Terminating": 1276,
      "build": 1277,
      "found": 1278,
      "plugg": 1279,
      "DELETE": 1280,
      "plugged": 1281,
      "141": 1282,
      "68": 1283,
      "8f": 1284,
      "90": 1285,
      "At": 1286,
      "Claim": 1287,
      "CPU": 1288,
      "No": 1289,
      "St": 1290,
      "an": 1291,
      "dea": 1292,
      "of": 1293,
      "##49": 1294,
      "##63": 1295,
      "##be": 1296,
      "##a2": 1297,
      "##mp": 1298,
      "##op": 1299,
      "##ving": 1300,
      "##ped": 1301,
      "##ple": 1302,
      "##ption": 1303,
      "##temp": 1304,
      "comple": 1305,
      "##ception": 1306,
      "25799": 1307,
      "##0564": 1308,
      "2048": 1309,
      "thro": 1310,
      "##fd7": 1311,
      "exception": 1312,
      "Removing": 1313,
      "Deleting": 1314,
      "Deletion": 1315,
      "##llocate": 1316,
      "95746": 1317,
      "96258": 1318,
      "free": 1319,
      "Attemp": 1320,
      "Stop": 1321,
      "any": 1322,
      "deallocate": 1323,
      "complete": 1324,
      "thrown": 1325,
      "Attempting": 1326,
      "Stopped": 1327,
      "1e88": 1328,
      "262": 1329,
      "a7": 1330,
      "b900": 1331,
      "fe1": 1332,
      "ho": 1333,
      "##65": 1334,
      "##b5": 1335,
      "##f3": 1336,
      "2578": 1337,
      "409b": 1338,
      "129": 1339,
      "176": 1340,
      "user": 1341,
      "##b294c": 1342,
      "##79d": 1343,
      "b8cc": 1344,
      "1e88b294c": 1345,
      "b9000564": 1346,
      "fe1a": 1347,
      "host": 1348,
      "1e88b294cd1d": 1349,
      "60": 1350,
      "ava": 1351,
      "be": 1352,
      "##501": 1353,
      "##ebc": 1354,
      "##ch": 1355,
      "##dd": 1356,
      "134": 1357,
      "##460": 1358,
      "1874": 1359,
      "##785": 1360,
      "1708": 1361,
      "429": 1362,
      "avail": 1363,
      "0b": 1364,
      "435": 1365,
      "427": 1366,
      "e6": 1367,
      "##4e": 1368,
      "##b4": 1369,
      "##fce": 1370,
      "##80": 1371,
      "##c2": 1372,
      "##c3": 1373,
      "##3a": 1374,
      "25778": 1375,
      "25788": 1376,
      "416b": 1377,
      "##d40": 1378,
      "271": 1379,
      "4e4": 1380,
      "9d": 1381,
      "aa": 1382,
      "b2": 1383,
      "##b6": 1384,
      "##e5": 1385,
      "138": 1386,
      "142": 1387,
      "3b": 1388,
      "328": 1389,
      "40e": 1390,
      "4c4": 1391,
      "9c": 1392,
      "968": 1393,
      "afb": 1394,
      "a07": 1395,
      "ca": 1396,
      "##9e8": 1397,
      "##89": 1398,
      "##739": 1399,
      "137": 1400,
      "##969": 1401,
      "140": 1402,
      "##929": 1403,
      "143": 1404,
      "526": 1405,
      "811": 1406,
      "9bb": 1407,
      "Aud": 1408,
      "Com": 1409,
      "Fi": 1410,
      "af": 1411,
      "a98": 1412,
      "alloca": 1413,
      "b4": 1414,
      "bb": 1415,
      "b41": 1416,
      "nam": 1417,
      "pc": 1418,
      "up": 1419,
      "vi": 1420,
      "##5f": 1421,
      "##f57": 1422,
      "##15": 1423,
      "##793": 1424,
      "##ew": 1425,
      "##cor": 1426,
      "##d57": 1427,
      "##iting": 1428,
      "119": 1429,
      "004": 1430,
      "0008": 1431,
      "recor": 1432,
      "service": 1433,
      "stats": 1434,
      "##dated": 1435,
      "##371": 1436,
      "123": 1437,
      "usable": 1438,
      "266": 1439,
      "##333": 1440,
      "##bb6": 1441,
      "15GB": 1442,
      "locally": 1443,
      "resources": 1444,
      "##b16": 1445,
      "##c8f": 1446,
      "64172MB": 1447,
      "available": 1448,
      "Auditing": 1449,
      "Compute": 1450,
      "Final": 1451,
      "allocated": 1452,
      "name": 1453,
      "pci": 1454,
      "updated": 1455,
      "view": 1456,
      "record": 1457,
      "441": 1458,
      "868": 1459,
      "95a": 1460,
      "ace": 1461,
      "b56": 1462,
      "bde": 1463,
      "b31": 1464,
      "c8": 1465,
      "d4": 1466,
      "d82": 1467,
      "sch": 1468,
      "##45": 1469,
      "##6c": 1470,
      "##654": 1471,
      "##0d": 1472,
      "##81": 1473,
      "##218": 1474,
      "##d2c": 1475,
      "##938": 1476,
      "##edul": 1477,
      "136": 1478,
      "130": 1479,
      "133": 1480,
      "##577": 1481,
      "##d26": 1482,
      "##d21": 1483,
      "25793": 1484,
      "25790": 1485,
      "##4c4": 1486,
      "##a7d": 1487,
      "126": 1488,
      "##ea6": 1489,
      "##eaf": 1490,
      "##384": 1491,
      "259": 1492,
      "##dee": 1493,
      "##e81": 1494,
      "##d86": 1495,
      "##eff": 1496,
      "##e9d": 1497,
      "25783": 1498,
      "schedul": 1499,
      "scheduler": 1500,
      "2d6": 1501,
      "274": 1502,
      "2fc": 1503,
      "4a4": 1504,
      "814": 1505,
      "9dee": 1506,
      "a9": 1507,
      "a8": 1508,
      "a2": 1509,
      "ac": 1510,
      "d38": 1511,
      "df6": 1512,
      "eae": 1513,
      "##6c8": 1514,
      "##1b": 1515,
      "##a02": 1516,
      "25786": 1517,
      "25777": 1518,
      "3169": 1519,
      "4719": 1520,
      "##a79": 1521,
      "##ab6": 1522,
      "41f0": 1523,
      "267": 1524,
      "48fa": 1525,
      "##e70": 1526,
      "##e72": 1527,
      "4241": 1528,
      "##475d": 1529,
      "4535": 1530,
      "##a148": 1531,
      "##24bc": 1532,
      "49e1": 1533,
      "b7a3": 1534,
      "##2b48": 1535,
      "bde8": 1536,
      "1a148": 1537,
      "254": 1538,
      "3f1": 1539,
      "3d26": 1540,
      "421": 1541,
      "4eb": 1542,
      "5c8f": 1543,
      "6a76": 1544,
      "6f9": 1545,
      "676a": 1546,
      "6e72": 1547,
      "7eff": 1548,
      "72b48": 1549,
      "8a": 1550,
      "8c": 1551,
      "83": 1552,
      "8e81": 1553,
      "99": 1554,
      "9a": 1555,
      "9c7": 1556,
      "9ea6": 1557,
      "a5": 1558,
      "a68f": 1559,
      "ami": 1560,
      "bfbb": 1561,
      "beb": 1562,
      "b4c4": 1563,
      "c5": 1564,
      "d2": 1565,
      "dbb6": 1566,
      "dab6": 1567,
      "f362": 1568,
      "##0f": 1569,
      "##0b0": 1570,
      "##8eaf": 1571,
      "##cd": 1572,
      "##2c501": 1573,
      "##93c1": 1574,
      "##a9785": 1575,
      "1162": 1576,
      "0007": 1577,
      "##fab16": 1578,
      "##57dc": 1579,
      "##57bc": 1580,
      "##fbad": 1581,
      "##9cdb": 1582,
      "##9c5b": 1583,
      "##d247": 1584,
      "##aab7": 1585,
      "25797": 1586,
      "25795": 1587,
      "5526": 1588,
      "##ac654": 1589,
      "##3905": 1590,
      "##b058f": 1591,
      "##b7d9": 1592,
      "##ec218": 1593,
      "##910": 1594,
      "##9116": 1595,
      "189116": 1596,
      "##4cd9": 1597,
      "##085d": 1598,
      "##dc5a": 1599,
      "##18475d": 1600,
      "##0ea8": 1601,
      "##9717": 1602,
      "049e": 1603,
      "##abae": 1604,
      "##561": 1605,
      "##4dd5": 1606,
      "4b32": 1607,
      "4b4dd5": 1608,
      "##986b": 1609,
      "##cafa": 1610,
      "416d": 1611,
      "414e": 1612,
      "##365e": 1613,
      "01d57": 1614,
      "263": 1615,
      "26d8": 1616,
      "##3818": 1617,
      "##3803": 1618,
      "##de9": 1619,
      "##dee9d": 1620,
      "4838": 1621,
      "48e2": 1622,
      "481c": 1623,
      "##58d2c": 1624,
      "##f479d": 1625,
      "##e8fd": 1626,
      "42f7": 1627,
      "4269": 1628,
      "##52bd": 1629,
      "##07e8fd": 1630,
      "##474cd9": 1631,
      "##bc3d": 1632,
      "45d86": 1633,
      "4c9f": 1634,
      "##fc5": 1635,
      "##eb3818": 1636,
      "3735": 1637,
      "373c": 1638,
      "##e278": 1639,
      "##a5460": 1640,
      "##b07969": 1641,
      "4611": 1642,
      "##5c9e8": 1643,
      "##61d247": 1644,
      "##a09cdb": 1645,
      "29a09cdb": 1646,
      "98474cd9": 1647,
      "##bdd40": 1648,
      "63fe1": 1649,
      "78a7": 1650,
      "7861d247": 1651,
      "##b23905": 1652,
      "91793": 1653,
      "9118475d": 1654,
      "39d1": 1655,
      "##86362": 1656,
      "##5ee70": 1657,
      "##c75c9e8": 1658,
      "49c7": 1659,
      "9bdc": 1660,
      "9bf9": 1661,
      "9b9e": 1662,
      "d6986b": 1663,
      "93b5": 1664,
      "##ecdfe": 1665,
      "1575": 1666,
      "##36286362": 1667,
      "4afe": 1668,
      "8bd1": 1669,
      "97fce": 1670,
      "61e1": 1671,
      "8e3c": 1672,
      "b095": 1673,
      "4e8d": 1674,
      "9074": 1675,
      "##fd7dc5a": 1676,
      "60f8": 1677,
      "429fd7dc5a": 1678,
      "0ba7d": 1679,
      "435e": 1680,
      "4276": 1681,
      "e6b7d9": 1682,
      "3bf2": 1683,
      "4c40": 1684,
      "9688": 1685,
      "afb5ee70": 1686,
      "a07ac654": 1687,
      "caeb3818": 1688,
      "52607e8fd": 1689,
      "8113": 1690,
      "9bb9": 1691,
      "a98abae": 1692,
      "##f57bdd40": 1693,
      "004aab7": 1694,
      "##3339c5b": 1695,
      "868a5460": 1696,
      "95a5": 1697,
      "aceb23905": 1698,
      "b562c501": 1699,
      "b31e": 1700,
      "d82fab16": 1701,
      "##938db": 1702,
      "##577b058f": 1703,
      "##d2157bc": 1704,
      "2d658d2c": 1705,
      "2fc3339c5b": 1706,
      "4a42": 1707,
      "814e": 1708,
      "d38f479d": 1709,
      "df6e": 1710,
      "eaefbad": 1711,
      "##6c847": 1712,
      "##a0224bc": 1713,
      "1a148a0224bc": 1714,
      "3f1c75c9e8": 1715,
      "3d26bc3d": 1716,
      "5c8f52bd": 1717,
      "6a763803": 1718,
      "6f9ecdfe": 1719,
      "676a577b058f": 1720,
      "72b4858f": 1721,
      "9c7ec218": 1722,
      "beb938db": 1723,
      "f362f57bdd40": 1724,
      "##93c1929": 1725,
      "1162e278": 1726,
      "##57dcd6": 1727,
      "552636286362": 1728,
      "189116b07969": 1729,
      "##085d739": 1730,
      "##9717de9": 1731,
      "4b4dd551": 1732,
      "01d570b0": 1733,
      "45d86085d739": 1734,
      "63fe193c1929": 1735,
      "7861d247cafa": 1736,
      "91793d2157bc": 1737,
      "d6986b54": 1738,
      "97fcea79": 1739,
      "429fd7dc5a3f": 1740,
      "0ba7d9717de9": 1741,
      "e6b7d957dcd6": 1742,
      "52607e8fd350": 1743,
      "a98abae6c847": 1744,
      "004aab7a9785": 1745,
      "aceb23905ebc": 1746,
      "b562c5018eaf": 1747,
      "2fc3339c5b5b": 1748,
      "eaefbaddee9d": 1749,
      "3f1c75c9e874": 1750,
      "9c7ec218365e": 1751,
      "095": 1752,
      "1b": 1753,
      "4ed": 1754,
      "79": 1755,
      "89": 1756,
      "a3": 1757,
      "c4": 1758,
      "pla": 1759,
      "##7f": 1760,
      "##7d": 1761,
      "##ment": 1762,
      "##cement": 1763,
      "##004": 1764,
      "##008": 1765,
      "##466": 1766,
      "25775": 1767,
      "261": 1768,
      "##922": 1769,
      "276": 1770,
      "placement": 1771,
      "091": 1772,
      "71": 1773,
      "8b0": 1774,
      "a4": 1775,
      "ab": 1776,
      "bc": 1777,
      "##bf": 1778,
      "##9f7": 1779,
      "##01c": 1780,
      "##0c2": 1781,
      "##951": 1782,
      "##316": 1783,
      "##590": 1784,
      "##280": 1785,
      "2560": 1786,
      "093": 1787,
      "178": 1788,
      "243": 1789,
      "247": 1790,
      "457": 1791,
      "4dc": 1792,
      "497": 1793,
      "464": 1794,
      "452": 1795,
      "4d8": 1796,
      "5c": 1797,
      "500": 1798,
      "67": 1799,
      "898": 1800,
      "Base": 1801,
      "b68": 1802,
      "f1": 1803,
      "f8": 1804,
      "you": 1805,
      "##4a": 1806,
      "##668": 1807,
      "##638": 1808,
      "##f01": 1809,
      "##f02": 1810,
      "##0a": 1811,
      "##1a": 1812,
      "##8a": 1813,
      "##87": 1814,
      "##246": 1815,
      "##e3": 1816,
      "##c0": 1817,
      "##mo": 1818,
      "131": 1819,
      "##fad": 1820,
      "remo": 1821,
      "##fb1": 1822,
      "##469": 1823,
      "25774": 1824,
      "##0e1": 1825,
      "066": 1826,
      "##21a": 1827,
      "260": 1828,
      "269": 1829,
      "##940": 1830,
      "252": 1831,
      "20GB": 1832,
      "too": 1833,
      "##661": 1834,
      "##061": 1835,
      "##9bc": 1836,
      "272": 1837,
      "372": 1838,
      "##20d": 1839,
      "242": 1840,
      "2560MB": 1841,
      "young": 1842,
      "remove": 1843,
      "0e": 1844,
      "048": 1845,
      "2aa": 1846,
      "278": 1847,
      "231": 1848,
      "3f": 1849,
      "367": 1850,
      "448": 1851,
      "447": 1852,
      "434": 1853,
      "4df": 1854,
      "5e": 1855,
      "65": 1856,
      "72": 1857,
      "806": 1858,
      "8b2": 1859,
      "c6": 1860,
      "d7": 1861,
      "e1": 1862,
      "ec": 1863,
      "ea1": 1864,
      "f3": 1865,
      "ro": 1866,
      "##4f": 1867,
      "##6e": 1868,
      "##b3": 1869,
      "##9a": 1870,
      "##9d": 1871,
      "##8c": 1872,
      "##e61": 1873,
      "##3e4": 1874,
      "##341": 1875,
      "##ot": 1876,
      "##936": 1877,
      "114": 1878,
      "117": 1879,
      "##6217": 1880,
      "##74a": 1881,
      "##275": 1882,
      "##a77": 1883,
      "##ab2": 1884,
      "##567": 1885,
      "##2dec": 1886,
      "##211": 1887,
      "##ea3": 1888,
      "265": 1889,
      "##f82": 1890,
      "##517": 1891,
      "##e7c1": 1892,
      "##f42": 1893,
      "##d8c": 1894,
      "275": 1895,
      "##d45": 1896,
      "370": 1897,
      "##cb6": 1898,
      "4e84": 1899,
      "4e46": 1900,
      "40e7": 1901,
      "4eb1": 1902,
      "root": 1903,
      "0f": 1904,
      "195": 1905,
      "1e1": 1906,
      "237": 1907,
      "297": 1908,
      "298": 1909,
      "282": 1910,
      "224": 1911,
      "371": 1912,
      "366": 1913,
      "392": 1914,
      "302": 1915,
      "324": 1916,
      "408": 1917,
      "437": 1918,
      "495": 1919,
      "451": 1920,
      "4e7": 1921,
      "430": 1922,
      "4fc5": 1923,
      "5e0": 1924,
      "611": 1925,
      "602": 1926,
      "74": 1927,
      "7b": 1928,
      "77": 1929,
      "818": 1930,
      "993": 1931,
      "998": 1932,
      "a6b": 1933,
      "b3d": 1934,
      "bac": 1935,
      "bbb": 1936,
      "b61": 1937,
      "c1": 1938,
      "eb": 1939,
      "e8": 1940,
      "e3": 1941,
      "f6": 1942,
      "fb": 1943,
      "f2": 1944,
      "fc": 1945,
      "##65a": 1946,
      "##927": 1947,
      "##2ab": 1948,
      "##798": 1949,
      "##378": 1950,
      "##d3c": 1951,
      "##ts": 1952,
      "##011": 1953,
      "161": 1954,
      "##dbfb": 1955,
      "##410": 1956,
      "##fa8": 1957,
      "##5b8": 1958,
      "##961": 1959,
      "##00e": 1960,
      "25791": 1961,
      "##390": 1962,
      "185": 1963,
      "188": 1964,
      "##540": 1965,
      "##786": 1966,
      "4761": 1967,
      "47c2": 1968,
      "582": 1969,
      "125": 1970,
      "120": 1971,
      "##950": 1972,
      "##2d9": 1973,
      "##9876": 1974,
      "##38b": 1975,
      "251": 1976,
      "145": 1977,
      "##d80": 1978,
      "##d8ea": 1979,
      "##040": 1980,
      "277": 1981,
      "##028": 1982,
      "373": 1983,
      "##f65": 1984,
      "##0b3": 1985,
      "280": 1986,
      "303": 1987,
      "##25f": 1988,
      "a6d0": 1989,
      "a7e9": 1990,
      "be64": 1991,
      "b413": 1992,
      "25998": 1993,
      "4ed4": 1994,
      "094": 1995,
      "0GB": 1996,
      "1d": 1997,
      "197": 1998,
      "171": 1999,
      "190": 2000,
      "2f": 2001,
      "2d": 2002,
      "241": 2003,
      "227": 2004,
      "221": 2005,
      "236": 2006,
      "292": 2007,
      "232": 2008,
      "226": 2009,
      "228": 2010,
      "3A": 2011,
      "321": 2012,
      "351": 2013,
      "358": 2014,
      "352": 2015,
      "3fb1": 2016,
      "493": 2017,
      "446": 2018,
      "44c": 2019,
      "418": 2020,
      "456": 2021,
      "494": 2022,
      "4f8": 2023,
      "433": 2024,
      "4960": 2025,
      "4fd7": 2026,
      "4384": 2027,
      "474a": 2028,
      "571": 2029,
      "569": 2030,
      "64": 2031,
      "6c": 2032,
      "676": 2033,
      "6f82": 2034,
      "75": 2035,
      "74b": 2036,
      "82": 2037,
      "8d": 2038,
      "826": 2039,
      "844": 2040,
      "8c9": 2041,
      "89bc": 2042,
      "9f": 2043,
      "996": 2044,
      "918": 2045,
      "927": 2046,
      "999": 2047,
      "a14": 2048,
      "ae7c1": 2049,
      "b86": 2050,
      "b384": 2051,
      "cf": 2052,
      "c004": 2053,
      "c922": 2054,
      "db": 2055,
      "d8": 2056,
      "dd": 2057,
      "d47": 2058,
      "d3f": 2059,
      "d2e": 2060,
      "e5": 2061,
      "ea": 2062,
      "ee": 2063,
      "e008": 2064,
      "fd": 2065,
      "fe4": 2066,
      "f36": 2067,
      "##6a": 2068,
      "##602": 2069,
      "##bfe": 2070,
      "##13": 2071,
      "##1ec": 2072,
      "##948": 2073,
      "##291": 2074,
      "##231": 2075,
      "##7c": 2076,
      "##730": 2077,
      "##e0ea8": 2078,
      "##eab2": 2079,
      "16c7": 2080,
      "##e4927": 2081,
      "##db8": 2082,
      "118": 2083,
      "11917": 2084,
      "100": 2085,
      "##0c5": 2086,
      "##fae": 2087,
      "54e1": 2088,
      "545a": 2089,
      "##fb8": 2090,
      "##fb3": 2091,
      "##ce8": 2092,
      "##a47": 2093,
      "##a4cb6": 2094,
      "08d5": 2095,
      "##000e1": 2096,
      "##46fe": 2097,
      "##3a921a": 2098,
      "25779": 2099,
      "319": 2100,
      "31d0": 2101,
      "3145": 2102,
      "##acc": 2103,
      "##391": 2104,
      "##392f": 2105,
      "##62bb": 2106,
      "186": 2107,
      "182": 2108,
      "##54b09": 2109,
      "##da2d9": 2110,
      "##689": 2111,
      "588a": 2112,
      "##9752": 2113,
      "##9779d": 2114,
      "##97602": 2115,
      "##a70d": 2116,
      "##a720d": 2117,
      "##9c865a": 2118,
      "##888": 2119,
      "##88d8ea": 2120,
      "4077": 2121,
      "128": 2122,
      "122": 2123,
      "121ec": 2124,
      "170": 2125,
      "179": 2126,
      "##430": 2127,
      "##431": 2128,
      "##05c": 2129,
      "##052ab": 2130,
      "##2d8": 2131,
      "##98e9": 2132,
      "4112": 2133,
      "##369f7": 2134,
      "##949": 2135,
      "##3bea3": 2136,
      "##380": 2137,
      "##3854b09": 2138,
      "##f8786": 2139,
      "255": 2140,
      "250": 2141,
      "253": 2142,
      "092": 2143,
      "09e7": 2144,
      "09d8": 2145,
      "076": 2146,
      "144": 2147,
      "14a4": 2148,
      "##510": 2149,
      "4806": 2150,
      "##580": 2151,
      "420": 2152,
      "428": 2153,
      "422e": 2154,
      "##52275": 2155,
      "##07ef": 2156,
      "##0797602": 2157,
      "##66d8c": 2158,
      "##047": 2159,
      "##0407ef": 2160,
      "##111": 2161,
      "##11a6": 2162,
      "##06900": 2163,
      "##06f8786": 2164,
      "##3286": 2165,
      "##312c4": 2166,
      "##f28": 2167,
      "4c86": 2168,
      "##fc63": 2169,
      "##5a668": 2170,
      "##5a052ab": 2171,
      "##2652275": 2172,
      "##bb62bb": 2173,
      "##020": 2174,
      "##029": 2175,
      "##67bfe": 2176,
      "##ity": 2177,
      "##d4eab2": 2178,
      "##a5d": 2179,
      "4637": 2180,
      "##5c11a6": 2181,
      "##f9d3c": 2182,
      "##28aa": 2183,
      "98e8": 2184,
      "ba25": 2185,
      "381": 2186,
      "445a668": 2187,
      "4368": 2188,
      "945b": 2189,
      "853": 2190,
      "##f001c": 2191,
      "##60a5d": 2192,
      "95fb": 2193,
      "b3e4": 2194,
      "432b": 2195,
      "bddf": 2196,
      "7c9876": 2197,
      "8b392f": 2198,
      "81f2": 2199,
      "560407ef": 2200,
      "b1be": 2201,
      "3a67bfe": 2202,
      "a107": 2203,
      "a1378": 2204,
      "512MB": 2205,
      "##73a77": 2206,
      "8f74": 2207,
      "8ff001c": 2208,
      "##ebc5c11a6": 2209,
      "##78507": 2210,
      "416b9c865a": 2211,
      "4e4e": 2212,
      "aaea": 2213,
      "bb31": 2214,
      "b416c": 2215,
      "441a": 2216,
      "c8e4927": 2217,
      "d406900": 2218,
      "ac97": 2219,
      "83a70d": 2220,
      "9a78": 2221,
      "a588d8ea": 2222,
      "c53a921a": 2223,
      "d20b3": 2224,
      "79fc63": 2225,
      "c4a0": 2226,
      "8b046fe": 2227,
      "##31678": 2228,
      "5005": 2229,
      "67b1": 2230,
      "b680": 2231,
      "##6387d": 2232,
      "##f0128aa": 2233,
      "##f0250": 2234,
      "06631678": 2235,
      "0e66d8c": 2236,
      "2aa6387d": 2237,
      "4df3e4": 2238,
      "8b2a": 2239,
      "c6d4eab2": 2240,
      "ea160a5d": 2241,
      "##517f42": 2242,
      "1e19": 2243,
      "5e0f9d3c": 2244,
      "a6b9779d": 2245,
      "b3d0": 2246,
      "bac0797602": 2247,
      "bbb5a052ab": 2248,
      "b612": 2249,
      "##dbfbd5": 2250,
      "74b000e1": 2251,
      "8c9d": 2252,
      "a149": 2253,
      "ae7c1466": 2254,
      "b863": 2255,
      "c00498e9": 2256,
      "c922a720d": 2257,
      "d473bea3": 2258,
      "d3ff0250": 2259,
      "d2e2652275": 2260,
      "fe4bb62bb": 2261,
      "f36ebc5c11a6": 2262,
      "119173854b09": 2263,
      "545a517f42": 2264,
      "08d50ea8": 2265,
      "31d09752": 2266,
      "31453286": 2267,
      "121ecfae": 2268,
      "445a668da2d9": 2269,
      "7c98765b": 2270,
      "8b392fdbfbd5": 2271,
      "560407ef2dec": 2272,
      "3a67bfe78507": 2273,
      "a137806f8786": 2274,
      "8ff001ca4cb6": 2275,
      "416b9c865af4": 2276,
      "b416cf0128aa": 2277,
      "c8e4927369f7": 2278,
      "d406900e0ea8": 2279,
      "83a70d92": 2280,
      "a588d8ea6217": 2281,
      "d20b3fad": 2282,
      "79fc63ab": 2283,
      "8b046fe73a77": 2284,
      "0e66d8c312c4": 2285,
      "4df3e4ef": 2286,
      "bac079760244": 2287,
      "bbb5a052ab1b": 2288,
      "c922a720d047": 2289,
      "d2e2652275de": 2290,
      "fe4bb62bb25f": 2291,
      "545a517f42f9": 2292,
      "1f": 2293,
      "1c": 2294,
      "193": 2295,
      "196": 2296,
      "198": 2297,
      "2b": 2298,
      "2a": 2299,
      "2e": 2300,
      "290": 2301,
      "244": 2302,
      "3e": 2303,
      "3c": 2304,
      "339": 2305,
      "394": 2306,
      "338": 2307,
      "496": 2308,
      "44d": 2309,
      "498": 2310,
      "458": 2311,
      "499": 2312,
      "4e2": 2313,
      "5b": 2314,
      "5a": 2315,
      "518": 2316,
      "6a": 2317,
      "601": 2318,
      "635": 2319,
      "678": 2320,
      "621": 2321,
      "614": 2322,
      "778": 2323,
      "771": 2324,
      "745": 2325,
      "893": 2326,
      "846": 2327,
      "92c": 2328,
      "935": 2329,
      "937": 2330,
      "936": 2331,
      "994": 2332,
      "9a8": 2333,
      "914": 2334,
      "Re": 2335,
      "The": 2336,
      "a27": 2337,
      "acc": 2338,
      "bf": 2339,
      "c7": 2340,
      "crea": 2341,
      "di": 2342,
      "e4": 2343,
      "e7": 2344,
      "its": 2345,
      "##4e8": 2346,
      "##b0c": 2347,
      "##f99": 2348,
      "##1f": 2349,
      "##956": 2350,
      "##7e": 2351,
      "##ef5": 2352,
      "##cf": 2353,
      "##339": 2354,
      "##d41": 2355,
      "##tch": 2356,
      "##Lis": 2357,
      "##018": 2358,
      "##01e": 2359,
      "162": 2360,
      "##e4d": 2361,
      "##351": 2362,
      "##a91": 2363,
      "115": 2364,
      "116": 2365,
      "111": 2366,
      "112": 2367,
      "105": 2368,
      "0006": 2369,
      "##571": 2370,
      "##579": 2371,
      "547": 2372,
      "##a4b": 2373,
      "##967": 2374,
      "##d68": 2375,
      "080": 2376,
      "537": 2377,
      "318": 2378,
      "317": 2379,
      "##620": 2380,
      "##621": 2381,
      "##911": 2382,
      "181": 2383,
      "##4ca": 2384,
      "##080": 2385,
      "##081": 2386,
      "##780": 2387,
      "##789": 2388,
      "##78e": 2389,
      "##480": 2390,
      "##481": 2391,
      "##749": 2392,
      "##743": 2393,
      "##271": 2394,
      "##681": 2395,
      "##0e3": 2396,
      "049": 2397,
      "##880": 2398,
      "214": 2399,
      "match": 2400,
      "##438": 2401,
      "##050": 2402,
      "##c4f": 2403,
      "##215": 2404,
      "##210": 2405,
      "##980": 2406,
      "##98a": 2407,
      "##361": 2408,
      "012": 2409,
      "2646": 2410,
      "2608": 2411,
      "##386": 2412,
      "##387": 2413,
      "075": 2414,
      "##511": 2415,
      "##de67": 2416,
      "033": 2417,
      "482": 2418,
      "##e77": 2419,
      "425": 2420,
      "424": 2421,
      "##070": 2422,
      "##928": 2423,
      "##32a": 2424,
      "##314": 2425,
      "2735": 2426,
      "##e15": 2427,
      "##bb1": 2428,
      "##f50": 2429,
      "##a8f": 2430,
      "##f9a": 2431,
      "##34f": 2432,
      "##349": 2433,
      "225": 2434,
      "222": 2435,
      "249": 2436,
      "577": 2437,
      "503": 2438,
      "InstanceLis": 2439,
      "##16a": 2440,
      "563": 2441,
      "##e6a": 2442,
      "25784": 2443,
      "created": 2444,
      "did": 2445,
      "InstanceList": 2446,
      "0c": 2447,
      "096": 2448,
      "0b8": 2449,
      "097": 2450,
      "021": 2451,
      "101": 2452,
      "146": 2453,
      "148": 2454,
      "156": 2455,
      "192": 2456,
      "235": 2457,
      "246": 2458,
      "208": 2459,
      "248": 2460,
      "218": 2461,
      "294": 2462,
      "230": 2463,
      "301": 2464,
      "300": 2465,
      "368": 2466,
      "337": 2467,
      "388": 2468,
      "304": 2469,
      "306": 2470,
      "347": 2471,
      "382": 2472,
      "359": 2473,
      "3bb": 2474,
      "376": 2475,
      "369": 2476,
      "330": 2477,
      "320": 2478,
      "401": 2479,
      "4ac": 2480,
      "4b8": 2481,
      "4da": 2482,
      "4ab": 2483,
      "488": 2484,
      "4d1": 2485,
      "4ca": 2486,
      "459": 2487,
      "467": 2488,
      "4a1": 2489,
      "5d": 2490,
      "557": 2491,
      "562": 2492,
      "578": 2493,
      "505": 2494,
      "572": 2495,
      "528": 2496,
      "646": 2497,
      "6b8": 2498,
      "618": 2499,
      "697": 2500,
      "664": 2501,
      "699": 2502,
      "634": 2503,
      "629": 2504,
      "616": 2505,
      "673": 2506,
      "76": 2507,
      "701": 2508,
      "757": 2509,
      "718": 2510,
      "797": 2511,
      "792": 2512,
      "731": 2513,
      "772": 2514,
      "714": 2515,
      "777": 2516,
      "710": 2517,
      "742": 2518,
      "878": 2519,
      "836": 2520,
      "858": 2521,
      "852": 2522,
      "831": 2523,
      "859": 2524,
      "8a1": 2525,
      "872": 2526,
      "820": 2527,
      "946": 2528,
      "991": 2529,
      "997": 2530,
      "9f8": 2531,
      "906": 2532,
      "947": 2533,
      "992": 2534,
      "931": 2535,
      "9bc": 2536,
      "976": 2537,
      "979": 2538,
      "977": 2539,
      "a0": 2540,
      "a08": 2541,
      "b35": 2542,
      "b08": 2543,
      "b280": 2544,
      "ce": 2545,
      "d5": 2546,
      "dc": 2547,
      "d16a": 2548,
      "e0": 2549,
      "e2": 2550,
      "ea4": 2551,
      "eb2": 2552,
      "id": 2553,
      "zon": 2554,
      "##554": 2555,
      "##531": 2556,
      "##5f7": 2557,
      "##5fc": 2558,
      "##f93": 2559,
      "##f3d": 2560,
      "##f54": 2561,
      "##f07": 2562,
      "##f06": 2563,
      "##037": 2564,
      "##0f7": 2565,
      "##2b7": 2566,
      "##250": 2567,
      "##220": 2568,
      "##768": 2569,
      "##721": 2570,
      "##7e1": 2571,
      "##e91": 2572,
      "##e64": 2573,
      "##300": 2574,
      "##321": 2575,
      "##338": 2576,
      "##me": 2577,
      "##2cb": 2578,
      "##2c1": 2579,
      "165": 2580,
      "163": 2581,
      "##930": 2582,
      "##93c": 2583,
      "##dbb": 2584,
      "##db1": 2585,
      "##a94": 2586,
      "113": 2587,
      "103": 2588,
      "##0cb": 2589,
      "0009": 2590,
      "##41b": 2591,
      "##411": 2592,
      "##419": 2593,
      "##fa2": 2594,
      "546": 2595,
      "##e4cb9": 2596,
      "##fba": 2597,
      "##fbe": 2598,
      "##a40": 2599,
      "##a4e": 2600,
      "081": 2601,
      "538": 2602,
      "##c2ce": 2603,
      "550": 2604,
      "551": 2605,
      "312": 2606,
      "313": 2607,
      "##ac9": 2608,
      "##398": 2609,
      "##ility": 2610,
      "##b76": 2611,
      "##b78": 2612,
      "##912": 2613,
      "184": 2614,
      "##dca": 2615,
      "##189": 2616,
      "473": 2617,
      "##273": 2618,
      "##0e8": 2619,
      "##370": 2620,
      "584": 2621,
      "581": 2622,
      "##971": 2623,
      "##a71": 2624,
      "##710": 2625,
      "##719": 2626,
      "##71d": 2627,
      "044": 2628,
      "##ability": 2629,
      "##645": 2630,
      "##649": 2631,
      "40d2": 2632,
      "##560": 2633,
      "173": 2634,
      "215": 2635,
      "217": 2636,
      "##051": 2637,
      "##d12": 2638,
      "##959": 2639,
      "##958": 2640,
      "##217": 2641,
      "##981": 2642,
      "##989": 2643,
      "##982": 2644,
      "##987": 2645,
      "417": 2646,
      "##36c": 2647,
      "2600": 2648,
      "2648": 2649,
      "2634": 2650,
      "##94b": 2651,
      "##3ba": 2652,
      "##fe98a": 2653,
      "2597": 2654,
      "2582": 2655,
      "073": 2656,
      "##51a": 2657,
      "861": 2658,
      "##589": 2659,
      "##999": 2660,
      "##e8b": 2661,
      "##523": 2662,
      "##075": 2663,
      "##660": 2664,
      "##332": 2665,
      "##069": 2666,
      "##920": 2667,
      "##320": 2668,
      "##328": 2669,
      "##f24": 2670,
      "##f20": 2671,
      "##f2e": 2672,
      "##fc1": 2673,
      "##fc7": 2674,
      "##265": 2675,
      "##261": 2676,
      "##f55": 2677,
      "##f5c": 2678,
      "513": 2679,
      "153": 2680,
      "##d49": 2681,
      "377": 2682,
      "##name": 2683,
      "##e2a47": 2684,
      "##f6f": 2685,
      "##a53b": 2686,
      "##cb3": 2687,
      "##309": 2688,
      "##c6d": 2689,
      "923": 2690,
      "##eef": 2691,
      "##ee00e": 2692,
      "##a0b": 2693,
      "##0be": 2694,
      "385": 2695,
      "284": 2696,
      "287": 2697,
      "355": 2698,
      "912": 2699,
      "945": 2700,
      "949": 2701,
      "##600c5": 2702,
      "##e9e": 2703,
      "##1d7": 2704,
      "##29d": 2705,
      "##409": 2706,
      "##a63": 2707,
      "325": 2708,
      "##2e5": 2709,
      "349": 2710,
      "610": 2711,
      "0010": 2712,
      "689": 2713,
      "hostname": 2714,
      "availability": 2715,
      "##3419": 2716,
      "4e7f": 2717,
      "4f81": 2718,
      "d16a600c5": 2719,
      "zone": 2720,
      "##e4cb9743": 2721,
      "##fe98aee00e": 2722,
      "##e2a47fe98aee00e": 2723,
      "d16a600c5e2a47fe98aee00e": 2724,
      "d16a600c5e2a47fe98aee00ee4cb9743": 2725,
      "0a": 2726,
      "0d": 2727,
      "041": 2728,
      "046": 2729,
      "0b7": 2730,
      "038": 2731,
      "0ba": 2732,
      "199": 2733,
      "293": 2734,
      "288": 2735,
      "299": 2736,
      "2c6": 2737,
      "393": 2738,
      "362": 2739,
      "374": 2740,
      "327": 2741,
      "356": 2742,
      "395": 2743,
      "329": 2744,
      "4db": 2745,
      "4a9": 2746,
      "40c": 2747,
      "4fa": 2748,
      "4ce": 2749,
      "4d6": 2750,
      "491": 2751,
      "4f1": 2752,
      "43b": 2753,
      "466": 2754,
      "492": 2755,
      "4f7": 2756,
      "4a8": 2757,
      "4d4": 2758,
      "490": 2759,
      "469": 2760,
      "4590": 2761,
      "541": 2762,
      "508": 2763,
      "599": 2764,
      "566": 2765,
      "504": 2766,
      "567": 2767,
      "524": 2768,
      "561": 2769,
      "529": 2770,
      "6b": 2771,
      "6f": 2772,
      "69": 2773,
      "62": 2774,
      "693": 2775,
      "691": 2776,
      "627": 2777,
      "637": 2778,
      "671": 2779,
      "605": 2780,
      "698": 2781,
      "636": 2782,
      "638": 2783,
      "658": 2784,
      "633": 2785,
      "647": 2786,
      "692": 2787,
      "667": 2788,
      "630": 2789,
      "650": 2790,
      "6c8": 2791,
      "603": 2792,
      "642": 2793,
      "623": 2794,
      "649": 2795,
      "7a": 2796,
      "735": 2797,
      "793": 2798,
      "754": 2799,
      "708": 2800,
      "774": 2801,
      "727": 2802,
      "705": 2803,
      "736": 2804,
      "7fe": 2805,
      "766": 2806,
      "706": 2807,
      "767": 2808,
      "734": 2809,
      "750": 2810,
      "779": 2811,
      "720": 2812,
      "740": 2813,
      "775": 2814,
      "801": 2815,
      "835": 2816,
      "85b": 2817,
      "8d6": 2818,
      "800": 2819,
      "848": 2820,
      "8dc": 2821,
      "874": 2822,
      "837": 2823,
      "864": 2824,
      "843": 2825,
      "847": 2826,
      "892": 2827,
      "802": 2828,
      "8e2": 2829,
      "834": 2830,
      "8d5": 2831,
      "850": 2832,
      "879": 2833,
      "819": 2834,
      "82a": 2835,
      "816": 2836,
      "9ed": 2837,
      "954": 2838,
      "908": 2839,
      "978": 2840,
      "964": 2841,
      "956": 2842,
      "94d": 2843,
      "905": 2844,
      "951": 2845,
      "958": 2846,
      "952": 2847,
      "96b": 2848,
      "961": 2849,
      "944": 2850,
      "97b": 2851,
      "969a": 2852,
      "9029": 2853,
      "a2c": 2854,
      "a9c": 2855,
      "ad2": 2856,
      "a82": 2857,
      "aa8": 2858,
      "ac6": 2859,
      "a72": 2860,
      "ab4": 2861,
      "b9": 2862,
      "b01": 2863,
      "bce": 2864,
      "b96": 2865,
      "bec": 2866,
      "b62": 2867,
      "b54": 2868,
      "bab": 2869,
      "b67": 2870,
      "bd4": 2871,
      "b6b": 2872,
      "bb1": 2873,
      "bd9": 2874,
      "ba4b": 2875,
      "cc": 2876,
      "cac": 2877,
      "cfe": 2878,
      "c82": 2879,
      "c90": 2880,
      "ca1": 2881,
      "c86": 2882,
      "d0": 2883,
      "d9": 2884,
      "ddb": 2885,
      "d67": 2886,
      "e9": 2887,
      "ebc": 2888,
      "f5": 2889,
      "f9": 2890,
      "fed": 2891,
      "fb8": 2892,
      "f33": 2893,
      "ip": 2894,
      "##5e4": 2895,
      "##5d6": 2896,
      "##591": 2897,
      "##521": 2898,
      "##598": 2899,
      "##559": 2900,
      "##439": 2901,
      "##4b7": 2902,
      "##408": 2903,
      "##65b": 2904,
      "##658": 2905,
      "##69b": 2906,
      "##bb7": 2907,
      "##b36": 2908,
      "##f48": 2909,
      "##f88": 2910,
      "##f51": 2911,
      "##1e": 2912,
      "##9ed": 2913,
      "##943": 2914,
      "##9f1": 2915,
      "##a35": 2916,
      "##a3b": 2917,
      "##a34": 2918,
      "##a2f": 2919,
      "##8aa": 2920,
      "##235": 2921,
      "##200": 2922,
      "##799": 2923,
      "##732": 2924,
      "##eaa": 2925,
      "##e56": 2926,
      "##e2d": 2927,
      "##c9b": 2928,
      "##307": 2929,
      "##3cb": 2930,
      "##d95": 2931,
      "##df4": 2932,
      "##d52": 2933,
      "##d07": 2934,
      "##d9b": 2935,
      "##d7b": 2936,
      "##v4": 2937,
      "##019": 2938,
      "##erva": 2939,
      "##2c7": 2940,
      "050": 2941,
      "052": 2942,
      "166": 2943,
      "169": 2944,
      "168": 2945,
      "167": 2946,
      "##e48": 2947,
      "##e4a7": 2948,
      "##359": 2949,
      "##357": 2950,
      "##dbc": 2951,
      "##a90": 2952,
      "##ed6": 2953,
      "##ed1": 2954,
      "##ede": 2955,
      "##edc": 2956,
      "##ede4": 2957,
      "##3d1": 2958,
      "002": 2959,
      "##412": 2960,
      "##fab": 2961,
      "##576": 2962,
      "##570": 2963,
      "540": 2964,
      "549": 2965,
      "##fb6": 2966,
      "##fb0": 2967,
      "##fb9": 2968,
      "##fbd": 2969,
      "##ce7": 2970,
      "##9c0": 2971,
      "##9c69": 2972,
      "##a4f": 2973,
      "##962": 2974,
      "##9629": 2975,
      "##d63": 2976,
      "089": 2977,
      "088": 2978,
      "##d23": 2979,
      "##462": 2980,
      "2577": 2981,
      "25740": 2982,
      "558": 2983,
      "315": 2984,
      "##ac5": 2985,
      "##395": 2986,
      "##b0b": 2987,
      "##b0f": 2988,
      "##b0a": 2989,
      "##b86": 2990,
      "##b8a": 2991,
      "##918": 2992,
      "180": 2993,
      "189": 2994,
      "187": 2995,
      "##543": 2996,
      "##4cc": 2997,
      "##da1": 2998,
      "##088": 2999,
      "##08d": 3000,
      "##78d": 3001,
      "##482": 3002,
      "##dc1": 3003,
      "475": 3004,
      "470": 3005,
      "471": 3006,
      "477": 3007,
      "##27b": 3008,
      "##270": 3009,
      "##279": 3010,
      "##68a": 3011,
      "##0ef": 3012,
      "##0ee": 3013,
      "587": 3014,
      "##a72": 3015,
      "##716": 3016,
      "##712": 3017,
      "064": 3018,
      "##642": 3019,
      "407": 3020,
      "##56c8": 3021,
      "177": 3022,
      "219": 3023,
      "##4d0": 3024,
      "##43a": 3025,
      "##0514": 3026,
      "##0520": 3027,
      "##d16": 3028,
      "##d19": 3029,
      "##d1e": 3030,
      "##f17": 3031,
      "##c45": 3032,
      "##9552": 3033,
      "##9550": 3034,
      "##2d5": 3035,
      "##2df": 3036,
      "4b38": 3037,
      "4bde": 3038,
      "##2100": 3039,
      "##2150": 3040,
      "##ead8": 3041,
      "##9861": 3042,
      "416": 3043,
      "410": 3044,
      "411": 3045,
      "419": 3046,
      "2641": 3047,
      "2697": 3048,
      "2671": 3049,
      "2611": 3050,
      "2676": 3051,
      "2661": 3052,
      "2672": 3053,
      "2665": 3054,
      "##94a": 3055,
      "##3b6": 3056,
      "##3b9": 3057,
      "##389": 3058,
      "##3830": 3059,
      "##f86": 3060,
      "##fef": 3061,
      "##fee": 3062,
      "2596": 3063,
      "2556": 3064,
      "2594": 3065,
      "2558": 3066,
      "2517": 3067,
      "079": 3068,
      "077": 3069,
      "147": 3070,
      "207": 3071,
      "##de51": 3072,
      "865": 3073,
      "863": 3074,
      "484": 3075,
      "4846": 3076,
      "483e": 3077,
      "##e73": 3078,
      "##f45": 3079,
      "42fe": 3080,
      "##520": 3081,
      "##522": 3082,
      "##072": 3083,
      "##07e61": 3084,
      "##d8b": 3085,
      "##d8f": 3086,
      "##334": 3087,
      "##330": 3088,
      "022": 3089,
      "##9ba": 3090,
      "##9b3": 3091,
      "##476": 3092,
      "##47c": 3093,
      "##826": 3094,
      "##828": 3095,
      "##3159": 3096,
      "279": 3097,
      "2708": 3098,
      "2748": 3099,
      "2727": 3100,
      "2707": 3101,
      "2732": 3102,
      "2722": 3103,
      "##f72": 3104,
      "##e17": 3105,
      "##e13": 3106,
      "##bc8": 3107,
      "##bc7": 3108,
      "455": 3109,
      "450": 3110,
      "453": 3111,
      "##d02": 3112,
      "##fc8": 3113,
      "##fc2": 3114,
      "##fcd": 3115,
      "##5ae": 3116,
      "##a85": 3117,
      "##cc7": 3118,
      "514": 3119,
      "510": 3120,
      "##02a": 3121,
      "##670": 3122,
      "150": 3123,
      "##d4a": 3124,
      "##fd5": 3125,
      "930": 3126,
      "469c": 3127,
      "##c60": 3128,
      "##c6c": 3129,
      "925": 3130,
      "920": 3131,
      "929": 3132,
      "922": 3133,
      "reserva": 3134,
      "##f9f": 3135,
      "##345": 3136,
      "##a0a": 3137,
      "985": 3138,
      "981": 3139,
      "389": 3140,
      "383": 3141,
      "##3c1": 3142,
      "789": 3143,
      "##440": 3144,
      "220": 3145,
      "223": 3146,
      "910": 3147,
      "2491": 3148,
      "##c87": 3149,
      "942": 3150,
      "885": 3151,
      "963": 3152,
      "4d59": 3153,
      "##f00c": 3154,
      "##c1c": 3155,
      "840": 3156,
      "##c53": 3157,
      "##19e": 3158,
      "##19ff": 3159,
      "##775": 3160,
      "322": 3161,
      "323": 3162,
      "8171": 3163,
      "##553": 3164,
      "##030c": 3165,
      "615": 3166,
      "##e65": 3167,
      "365": 3168,
      "from": 3169,
      "00094": 3170,
      "00092": 3171,
      "2717": 3172,
      "441c": 3173,
      "2747": 3174,
      "713": 3175,
      "4979": 3176,
      "464a": 3177,
      "4d81": 3178,
      "5cf6": 3179,
      "4d14": 3180,
      "ipv4": 3181,
      "reservation": 3182,
      "0931": 3183,
      "071": 3184,
      "0e2": 3185,
      "0a1": 3186,
      "0b1": 3187,
      "0acc": 3188,
      "1a": 3189,
      "1ce": 3190,
      "154": 3191,
      "1ab": 3192,
      "152": 3193,
      "159": 3194,
      "1b1": 3195,
      "1c3": 3196,
      "1c4f": 3197,
      "2c": 3198,
      "2B": 3199,
      "2d2": 3200,
      "2b0": 3201,
      "291": 3202,
      "2742": 3203,
      "205": 3204,
      "2f1": 3205,
      "238": 3206,
      "2df": 3207,
      "2466": 3208,
      "2e15": 3209,
      "335": 3210,
      "357": 3211,
      "346": 3212,
      "378": 3213,
      "397": 3214,
      "305": 3215,
      "3e7": 3216,
      "307": 3217,
      "332": 3218,
      "3bc": 3219,
      "326": 3220,
      "3e2": 3221,
      "361": 3222,
      "334": 3223,
      "350": 3224,
      "3d9": 3225,
      "3c7": 3226,
      "360": 3227,
      "3a6": 3228,
      "3e88": 3229,
      "3be": 3230,
      "3fa8": 3231,
      "3fb6": 3232,
      "43d": 3233,
      "4b0": 3234,
      "4ec": 3235,
      "462": 3236,
      "478": 3237,
      "468": 3238,
      "4de": 3239,
      "431": 3240,
      "4f2": 3241,
      "4d0": 3242,
      "43f": 3243,
      "4ae": 3244,
      "4647": 3245,
      "4d1a": 3246,
      "4350": 3247,
      "4561": 3248,
      "4951": 3249,
      "4398": 3250,
      "4f5c": 3251,
      "4389": 3252,
      "4fc8": 3253,
      "5f": 3254,
      "5ce": 3255,
      "591": 3256,
      "574": 3257,
      "568": 3258,
      "595": 3259,
      "521": 3260,
      "5de": 3261,
      "507": 3262,
      "506": 3263,
      "5f7": 3264,
      "590": 3265,
      "579": 3266,
      "560": 3267,
      "5ad": 3268,
      "5e5": 3269,
      "5a53b": 3270,
      "6e": 3271,
      "6ed": 3272,
      "600": 3273,
      "608": 3274,
      "656": 3275,
      "643": 3276,
      "695": 3277,
      "694": 3278,
      "652": 3279,
      "607": 3280,
      "6d8": 3281,
      "606": 3282,
      "632": 3283,
      "659": 3284,
      "626": 3285,
      "6cc": 3286,
      "60b": 3287,
      "679": 3288,
      "620": 3289,
      "655": 3290,
      "609": 3291,
      "622": 3292,
      "663": 3293,
      "665": 3294,
      "6246": 3295,
      "6db8": 3296,
      "70": 3297,
      "7d": 3298,
      "741": 3299,
      "700": 3300,
      "739": 3301,
      "762": 3302,
      "7da": 3303,
      "768": 3304,
      "764": 3305,
      "788": 3306,
      "798": 3307,
      "794": 3308,
      "738": 3309,
      "751": 3310,
      "752": 3311,
      "7d8": 3312,
      "711": 3313,
      "776": 3314,
      "702": 3315,
      "761": 3316,
      "744": 3317,
      "7c8": 3318,
      "760": 3319,
      "716": 3320,
      "712": 3321,
      "773": 3322,
      "723": 3323,
      "765": 3324,
      "7f48": 3325,
      "7ede4": 3326,
      "8fa": 3327,
      "857": 3328,
      "8ce": 3329,
      "896": 3330,
      "8d2": 3331,
      "8ec": 3332,
      "808": 3333,
      "897": 3334,
      "8a7": 3335,
      "856": 3336,
      "821": 3337,
      "894": 3338,
      "851": 3339,
      "8de": 3340,
      "8e7": 3341,
      "807": 3342,
      "882": 3343,
      "832": 3344,
      "8a8": 3345,
      "828": 3346,
      "8d7": 3347,
      "8049": 3348,
      "8e89": 3349,
      "875": 3350,
      "825": 3351,
      "8211": 3352,
      "8f65": 3353,
      "82e5": 3354,
      "827b": 3355,
      "939": 3356,
      "948": 3357,
      "974": 3358,
      "9ab": 3359,
      "943": 3360,
      "938": 3361,
      "911": 3362,
      "926": 3363,
      "9cc": 3364,
      "902": 3365,
      "95c": 3366,
      "972": 3367,
      "903": 3368,
      "9c9": 3369,
      "99bc": 3370,
      "9215": 3371,
      "9dbc": 3372,
      "Successful": 3373,
      "Tr": 3374,
      "al": 3375,
      "a0c": 3376,
      "a46": 3377,
      "ab0": 3378,
      "ada": 3379,
      "a71": 3380,
      "a06": 3381,
      "afc": 3382,
      "a5a": 3383,
      "aeb": 3384,
      "a69": 3385,
      "ae2": 3386,
      "aa5": 3387,
      "ab2": 3388,
      "ac8": 3389,
      "a7b": 3390,
      "ac1": 3391,
      "a22": 3392,
      "a70": 3393,
      "a951": 3394,
      "a567": 3395,
      "a928": 3396,
      "a68a": 3397,
      "af86": 3398,
      "afee": 3399,
      "be4": 3400,
      "bdb": 3401,
      "b0c": 3402,
      "b9c": 3403,
      "b37": 3404,
      "b97": 3405,
      "ba7": 3406,
      "b88": 3407,
      "b43": 3408,
      "bf1": 3409,
      "b3b": 3410,
      "b9b": 3411,
      "b92": 3412,
      "bf7": 3413,
      "be2": 3414,
      "b24": 3415,
      "bae": 3416,
      "bb5d": 3417,
      "bd27": 3418,
      "bff8": 3419,
      "b9f7": 3420,
      "b480": 3421,
      "b1d7": 3422,
      "b2d5": 3423,
      "c0": 3424,
      "c2": 3425,
      "c3d": 3426,
      "c3a9": 3427,
      "c78": 3428,
      "c4d": 3429,
      "cc4": 3430,
      "cf8": 3431,
      "c58": 3432,
      "ca8": 3433,
      "ceb": 3434,
      "c34": 3435,
      "cd5": 3436,
      "c94c": 3437,
      "c5f": 3438,
      "cbb6": 3439,
      "c93c": 3440,
      "dd6": 3441,
      "db8": 3442,
      "d68": 3443,
      "d4d": 3444,
      "d04": 3445,
      "d69": 3446,
      "d30": 3447,
      "d34": 3448,
      "d86": 3449,
      "d914": 3450,
      "dc0": 3451,
      "dc60": 3452,
      "ed": 3453,
      "e78": 3454,
      "e48": 3455,
      "ef1": 3456,
      "eca": 3457,
      "eee": 3458,
      "e23": 3459,
      "e1b": 3460,
      "ef2e": 3461,
      "e265": 3462,
      "f2c": 3463,
      "f4c": 3464,
      "f74": 3465,
      "f68": 3466,
      "fea": 3467,
      "f11": 3468,
      "f86": 3469,
      "fc1": 3470,
      "ffb8": 3471,
      "gro": 3472,
      "si": 3473,
      "ten": 3474,
      "##593": 3475,
      "##5fa": 3476,
      "##557": 3477,
      "##5aa": 3478,
      "##5a7": 3479,
      "##53b": 3480,
      "##551": 3481,
      "##532": 3482,
      "##5d4": 3483,
      "##530": 3484,
      "##5a4b": 3485,
      "##42c": 3486,
      "##496": 3487,
      "##400": 3488,
      "##491": 3489,
      "##451": 3490,
      "##4fc": 3491,
      "##4f5": 3492,
      "##4ef": 3493,
      "##4f0": 3494,
      "##49e": 3495,
      "##42b": 3496,
      "##4e77": 3497,
      "##60c": 3498,
      "##600": 3499,
      "##6b8": 3500,
      "##637": 3501,
      "##651": 3502,
      "##6e7": 3503,
      "##630": 3504,
      "##6a0": 3505,
      "##65d": 3506,
      "##6df": 3507,
      "##6ef": 3508,
      "##6f0": 3509,
      "##ba4": 3510,
      "##bac": 3511,
      "##ba7": 3512,
      "##b64": 3513,
      "##b99": 3514,
      "##bf2": 3515,
      "##ba3": 3516,
      "##b65": 3517,
      "##bfa8": 3518,
      "##ffa": 3519,
      "##f4d": 3520,
      "##f31": 3521,
      "##ffb3": 3522,
      "##f9861": 3523,
      "##0aa": 3524,
      "##0f1": 3525,
      "##038": 3526,
      "##09b6": 3527,
      "##1ac": 3528,
      "##197": 3529,
      "##1c4": 3530,
      "##9db": 3531,
      "##9a9": 3532,
      "##941": 3533,
      "##957": 3534,
      "##95b": 3535,
      "##9d2": 3536,
      "##9b0": 3537,
      "##908": 3538,
      "##9fd": 3539,
      "##an": 3540,
      "##afa": 3541,
      "##ab7": 3542,
      "##a68": 3543,
      "##ang": 3544,
      "##a0e": 3545,
      "##a64": 3546,
      "##a07": 3547,
      "##a59": 3548,
      "##a30": 3549,
      "##a29": 3550,
      "##afc7": 3551,
      "##84": 3552,
      "##8f4": 3553,
      "##819": 3554,
      "##241": 3555,
      "##2ac": 3556,
      "##239": 3557,
      "##208": 3558,
      "##256": 3559,
      "##206": 3560,
      "##259": 3561,
      "##290": 3562,
      "##2ee": 3563,
      "##796": 3564,
      "##748": 3565,
      "##771": 3566,
      "##726": 3567,
      "##779": 3568,
      "##7070": 3569,
      "##e9c": 3570,
      "##ea7": 3571,
      "##e05": 3572,
      "##eea": 3573,
      "##e52": 3574,
      "##e32": 3575,
      "##e5a": 3576,
      "##e26": 3577,
      "##ebb": 3578,
      "##ef9": 3579,
      "##c41": 3580,
      "##cb0": 3581,
      "##c54": 3582,
      "##c56": 3583,
      "##c33": 3584,
      "##c5a": 3585,
      "##cde67": 3586,
      "##c93c": 3587,
      "##301": 3588,
      "##3b7": 3589,
      "##388": 3590,
      "##3ca": 3591,
      "##311": 3592,
      "##3fd": 3593,
      "##3a3": 3594,
      "##3430": 3595,
      "##3649": 3596,
      "##3476": 3597,
      "##dd6": 3598,
      "##dd2": 3599,
      "##d00": 3600,
      "##daa": 3601,
      "##d46": 3602,
      "##d98": 3603,
      "##df7": 3604,
      "##d5a": 3605,
      "##d3f": 3606,
      "##dd9": 3607,
      "##dfc2": 3608,
      "##ps": 3609,
      "##ue": 3610,
      "##unc": 3611,
      "##ups": 3612,
      "##T05": 3613,
      "##014": 3614,
      "##01a": 3615,
      "##012": 3616,
      "##0172": 3617,
      "##0120": 3618,
      "##0110": 3619,
      "054": 3620,
      "051": 3621,
      "059": 3622,
      "160": 3623,
      "169552": 3624,
      "16T05": 3625,
      "##e44": 3626,
      "##e4fa": 3627,
      "##35a": 3628,
      "##358": 3629,
      "##35e": 3630,
      "##353": 3631,
      "##35d": 3632,
      "##354c": 3633,
      "##3560": 3634,
      "##3580": 3635,
      "##939": 3636,
      "##937": 3637,
      "##9300": 3638,
      "##9339": 3639,
      "##9391": 3640,
      "##9348": 3641,
      "##9370": 3642,
      "##93d5a": 3643,
      "##db7": 3644,
      "##db2b": 3645,
      "##db4b7": 3646,
      "##a9c": 3647,
      "##a95a": 3648,
      "##ed0": 3649,
      "110": 3650,
      "104": 3651,
      "109": 3652,
      "102": 3653,
      "1065": 3654,
      "##3da": 3655,
      "##3de": 3656,
      "##3dd": 3657,
      "##3d97": 3658,
      "##3d31": 3659,
      "##0cf": 3660,
      "##0ca": 3661,
      "##0ce": 3662,
      "##0c88": 3663,
      "##0c7e": 3664,
      "006": 3665,
      "003": 3666,
      "0005": 3667,
      "1332": 3668,
      "13cf": 3669,
      "##41a": 3670,
      "##4191": 3671,
      "##41f6": 3672,
      "##4130": 3673,
      "##4161": 3674,
      "##4120": 3675,
      "##415fc": 3676,
      "##faf": 3677,
      "##572": 3678,
      "##57c": 3679,
      "##5739": 3680,
      "##5768": 3681,
      "##5726": 3682,
      "##5760": 3683,
      "543": 3684,
      "543e": 3685,
      "##fb2": 3686,
      "##fba4": 3687,
      "##fbab": 3688,
      "##fb31": 3689,
      "##fbc93c": 3690,
      "##ce2d": 3691,
      "##9c5": 3692,
      "##9c1": 3693,
      "##9cdd": 3694,
      "##5b6": 3695,
      "##5b7": 3696,
      "##5be": 3697,
      "##5bf9a": 3698,
      "##5bb0f": 3699,
      "##5b19ff": 3700,
      "##a48": 3701,
      "##a402": 3702,
      "##a45e": 3703,
      "##96d": 3704,
      "##9657": 3705,
      "##96fb": 3706,
      "##9691": 3707,
      "##9611": 3708,
      "##9689": 3709,
      "##d66": 3710,
      "##d6a": 3711,
      "##d67": 3712,
      "##d6d": 3713,
      "##d6e6": 3714,
      "##d6206": 3715,
      "inde": 3716,
      "084": 3717,
      "086": 3718,
      "08c8": 3719,
      "##d2d6": 3720,
      "##00f": 3721,
      "##00a": 3722,
      "##aa6": 3723,
      "##aab": 3724,
      "##aa8": 3725,
      "##aa64": 3726,
      "##aad4": 3727,
      "##4664": 3728,
      "##46cc": 3729,
      "534": 3730,
      "539": 3731,
      "532": 3732,
      "533": 3733,
      "2571": 3734,
      "554": 3735,
      "556": 3736,
      "553": 3737,
      "314": 3738,
      "311": 3739,
      "31bd": 3740,
      "##acf": 3741,
      "##ac82": 3742,
      "##399": 3743,
      "##39e": 3744,
      "##39d5": 3745,
      "##b0af": 3746,
      "##b7b": 3747,
      "##b71": 3748,
      "##b77": 3749,
      "##b71b": 3750,
      "##ec7": 3751,
      "##ec43": 3752,
      "##ec716": 3753,
      "##629": 3754,
      "##624c": 3755,
      "##6251": 3756,
      "##6253": 3757,
      "##b80": 3758,
      "##b83": 3759,
      "##b838": 3760,
      "##b89f": 3761,
      "##916": 3762,
      "##91f": 3763,
      "##9151": 3764,
      "##9129": 3765,
      "##91431": 3766,
      "18c3": 3767,
      "##549": 3768,
      "##542": 3769,
      "##5452": 3770,
      "##4c1": 3771,
      "##4c7": 3772,
      "##da0": 3773,
      "##da8": 3774,
      "##da2": 3775,
      "##da3": 3776,
      "##0800": 3777,
      "##0891": 3778,
      "##781": 3779,
      "##788": 3780,
      "##782": 3781,
      "##783f": 3782,
      "##7832d": 3783,
      "##489": 3784,
      "##487": 3785,
      "##48a3": 3786,
      "##48b5": 3787,
      "##484f": 3788,
      "##745": 3789,
      "##744": 3790,
      "##740": 3791,
      "##7474": 3792,
      "##7440": 3793,
      "##74aad4": 3794,
      "##18b": 3795,
      "##180": 3796,
      "##181": 3797,
      "476": 3798,
      "4762": 3799,
      "4751": 3800,
      "4752": 3801,
      "4707": 3802,
      "47d0": 3803,
      "4726": 3804,
      "47c1": 3805,
      "47a6": 3806,
      "47e6": 3807,
      "4753": 3808,
      "47ba": 3809,
      "##276": 3810,
      "##27d": 3811,
      "##2700": 3812,
      "##2762": 3813,
      "##2721": 3814,
      "##279b": 3815,
      "##680": 3816,
      "##6841": 3817,
      "##68b0": 3818,
      "##6851": 3819,
      "##68469": 3820,
      "##0e11": 3821,
      "##0e34": 3822,
      "##0e7f": 3823,
      "##379": 3824,
      "##37c1": 3825,
      "##37d40": 3826,
      "583": 3827,
      "##97b": 3828,
      "##97f": 3829,
      "##979": 3830,
      "##979f": 3831,
      "##9712": 3832,
      "adf3": 3833,
      "##a7a": 3834,
      "##a7e1": 3835,
      "##71b": 3836,
      "##713": 3837,
      "##7130": 3838,
      "##71b6": 3839,
      "040": 3840,
      "##390838b": 3841,
      "40b7": 3842,
      "4091": 3843,
      "4038": 3844,
      "4052": 3845,
      "##569": 3846,
      "##56b9": 3847,
      "216": 3848,
      "210": 3849,
      "212": 3850,
      "##43f5": 3851,
      "##4380": 3852,
      "##058": 3853,
      "##05e": 3854,
      "##053": 3855,
      "##0500": 3856,
      "##d17": 3857,
      "##d1ead8": 3858,
      "##f1f": 3859,
      "##c44": 3860,
      "##c40": 3861,
      "##c4a": 3862,
      "##955": 3863,
      "##953": 3864,
      "##9530": 3865,
      "##2dd0": 3866,
      "4b35": 3867,
      "4bdb": 3868,
      "4b91": 3869,
      "4bbc": 3870,
      "4bee": 3871,
      "4b28": 3872,
      "4b20": 3873,
      "4bd7": 3874,
      "4b1c": 3875,
      "4b23": 3876,
      "##2139": 3877,
      "##210f": 3878,
      "##ea0": 3879,
      "##eae": 3880,
      "##984": 3881,
      "##9801": 3882,
      "##ca2d8": 3883,
      "415": 3884,
      "414": 3885,
      "413": 3886,
      "4154": 3887,
      "4192": 3888,
      "4131": 3889,
      "4102": 3890,
      "41cb": 3891,
      "41c6": 3892,
      "4170": 3893,
      "410f": 3894,
      "##366": 3895,
      "##36f7": 3896,
      "##36e6": 3897,
      "016": 3898,
      "01451": 3899,
      "2657": 3900,
      "2639": 3901,
      "2654": 3902,
      "2618": 3903,
      "2605": 3904,
      "2694": 3905,
      "2652": 3906,
      "2633": 3907,
      "2659": 3908,
      "2630": 3909,
      "2614": 3910,
      "26333": 3911,
      "2691431": 3912,
      "##94f": 3913,
      "##9471": 3914,
      "##3bb": 3915,
      "##3b58": 3916,
      "##381": 3917,
      "##382c": 3918,
      "##3891": 3919,
      "##f8f": 3920,
      "##f81": 3921,
      "##f89": 3922,
      "##f8d": 3923,
      "##f8f6": 3924,
      "##f81c": 3925,
      "##feb": 3926,
      "##fefce": 3927,
      "2508": 3928,
      "2598": 3929,
      "2551": 3930,
      "2555": 3931,
      "25567": 3932,
      "0901": 3933,
      "0926": 3934,
      "072": 3935,
      "149": 3936,
      "20d8": 3937,
      "##5102": 3938,
      "##51395": 3939,
      "##deb": 3940,
      "866": 3941,
      "860": 3942,
      "867": 3943,
      "034": 3944,
      "032": 3945,
      "031e": 3946,
      "033d97": 3947,
      "480": 3948,
      "489": 3949,
      "487": 3950,
      "489c": 3951,
      "48b7": 3952,
      "484c": 3953,
      "480e": 3954,
      "48c4": 3955,
      "482b": 3956,
      "48af": 3957,
      "48b5": 3958,
      "48c3": 3959,
      "##e7b": 3960,
      "##e7fa": 3961,
      "##e766": 3962,
      "##e77b": 3963,
      "##58b": 3964,
      "##581": 3965,
      "##582": 3966,
      "##58d": 3967,
      "##5810": 3968,
      "##58210": 3969,
      "##f4e": 3970,
      "##f437": 3971,
      "##99e8": 3972,
      "##e856b9": 3973,
      "426": 3974,
      "423": 3975,
      "4201": 3976,
      "42b0": 3977,
      "4234": 3978,
      "420b": 3979,
      "42af": 3980,
      "4287": 3981,
      "##526": 3982,
      "##52910": 3983,
      "##07f": 3984,
      "##079": 3985,
      "##07a": 3986,
      "##d81": 3987,
      "##66b": 3988,
      "##044": 3989,
      "##331": 3990,
      "##33a": 3991,
      "##33e": 3992,
      "##3396": 3993,
      "##3340": 3994,
      "##33371": 3995,
      "##119": 3996,
      "##ea4c": 3997,
      "020": 3998,
      "##065": 3999,
      "##06a": 4000,
      "##067": 4001,
      "##9bb": 4002,
      "##472": 4003,
      "##477": 4004,
      "##82b": 4005,
      "##829": 4006,
      "##9268": 4007,
      "##9269": 4008,
      "##325": 4009,
      "##3209": 4010,
      "##32e5": 4011,
      "##31f8f6": 4012,
      "270": 4013,
      "273": 4014,
      "2796": 4015,
      "2762": 4016,
      "2774": 4017,
      "2718": 4018,
      "2733": 4019,
      "2706": 4020,
      "2726": 4021,
      "2790": 4022,
      "2755": 4023,
      "2775": 4024,
      "2753": 4025,
      "##59484f": 4026,
      "##f70": 4027,
      "##e15c": 4028,
      "450c": 4029,
      "4556": 4030,
      "45f1": 4031,
      "455a": 4032,
      "45a5": 4033,
      "##f2b": 4034,
      "##d0bb": 4035,
      "4c30": 4036,
      "4cc6": 4037,
      "4cbe": 4038,
      "4c81": 4039,
      "4c8a": 4040,
      "4c87": 4041,
      "4c5a4b": 4042,
      "##urity": 4043,
      "##fc82": 4044,
      "##fc6b": 4045,
      "##5a3419": 4046,
      "##2619": 4047,
      "##bbb": 4048,
      "##bbd": 4049,
      "##bba35": 4050,
      "##bbe15c": 4051,
      "##f5f": 4052,
      "##f5ec": 4053,
      "de51a": 4054,
      "dedb4b7": 4055,
      "##a8b": 4056,
      "##a8e": 4057,
      "##a8f6f": 4058,
      "##765": 4059,
      "##760": 4060,
      "##762cb": 4061,
      "516": 4062,
      "##6790": 4063,
      "##67f00c": 4064,
      "##d4967": 4065,
      "##d4210f": 4066,
      "##ebd": 4067,
      "##fdf": 4068,
      "##fd9": 4069,
      "##90bc": 4070,
      "##9090": 4071,
      "##e2a": 4072,
      "##e2d19": 4073,
      "932c": 4074,
      "##f6b": 4075,
      "##f6ab": 4076,
      "##f6fe1": 4077,
      "##cb1": 4078,
      "##cb9": 4079,
      "##cbe": 4080,
      "##cbd": 4081,
      "461": 4082,
      "463": 4083,
      "46e4": 4084,
      "4641": 4085,
      "46d2": 4086,
      "46b8": 4087,
      "464c": 4088,
      "46f8": 4089,
      "4631": 4090,
      "4610": 4091,
      "46b5": 4092,
      "##30db": 4093,
      "##a1e": 4094,
      "##c65": 4095,
      "924": 4096,
      "##5c8": 4097,
      "##5c2": 4098,
      "##5c3": 4099,
      "##249": 4100,
      "##61739": 4101,
      "security": 4102,
      "##725": 4103,
      "##7290": 4104,
      "##34b": 4105,
      "##340": 4106,
      "##34e": 4107,
      "##d5e": 4108,
      "4f95": 4109,
      "4fea": 4110,
      "4f36": 4111,
      "4f3b": 4112,
      "##b12": 4113,
      "##b1d": 4114,
      "##a068": 4115,
      "##3f9b": 4116,
      "##3ff99": 4117,
      "##3f955": 4118,
      "chang": 4119,
      "##28f9f": 4120,
      "29b89f": 4121,
      "##1439": 4122,
      "986": 4123,
      "989": 4124,
      "ba54": 4125,
      "##0bf": 4126,
      "##0b44": 4127,
      "##0ba1e": 4128,
      "384": 4129,
      "387": 4130,
      "3858": 4131,
      "445": 4132,
      "44a4": 4133,
      "4448": 4134,
      "4421": 4135,
      "4406": 4136,
      "44fc": 4137,
      "44a5": 4138,
      "44f0": 4139,
      "44b9": 4140,
      "##bd7": 4141,
      "##bdd": 4142,
      "285": 4143,
      "286": 4144,
      "281": 4145,
      "2857": 4146,
      "2895": 4147,
      "2832": 4148,
      "2809": 4149,
      "4948": 4150,
      "4997": 4151,
      "49a5": 4152,
      "##3c5": 4153,
      "##3c7": 4154,
      "781": 4155,
      "7871": 4156,
      "##509": 4157,
      "##503": 4158,
      "##b29": 4159,
      "##b22": 4160,
      "##b23": 4161,
      "309": 4162,
      "3021": 4163,
      "##4422": 4164,
      "2296": 4165,
      "2254": 4166,
      "2238": 4167,
      "2292": 4168,
      "launc": 4169,
      "##2031": 4170,
      "4e96": 4171,
      "4e21": 4172,
      "4e98": 4173,
      "4e66": 4174,
      "917": 4175,
      "91c5": 4176,
      "240": 4177,
      "2451": 4178,
      "##d9f": 4179,
      "4346": 4180,
      "43a1": 4181,
      "570": 4182,
      "9452": 4183,
      "8521": 4184,
      "##ef51": 4185,
      "889": 4186,
      "887": 4187,
      "960": 4188,
      "96bc": 4189,
      "96ee": 4190,
      "4dd4": 4191,
      "##c1f": 4192,
      "##c13": 4193,
      "849": 4194,
      "8401": 4195,
      "ae34": 4196,
      "ae3c": 4197,
      "##c7c": 4198,
      "synced": 4199,
      "953": 4200,
      "9b5c": 4201,
      "##19f": 4202,
      "##19a": 4203,
      "##2a3": 4204,
      "##773": 4205,
      "d6e9c": 4206,
      "b327": 4207,
      "b3ab": 4208,
      "##1631": 4209,
      "8093": 4210,
      "bd08": 4211,
      "bd3c": 4212,
      "bddd": 4213,
      "##3e5": 4214,
      "##3e6": 4215,
      "##a69b": 4216,
      "1572": 4217,
      "##addf4": 4218,
      "4afb": 4219,
      "4ad9": 4220,
      "8b5b": 4221,
      "8ba71": 4222,
      "f0d7b": 4223,
      "812": 4224,
      "813": 4225,
      "813d": 4226,
      "8179": 4227,
      "565": 4228,
      "56390838b": 4229,
      "fff6fe1": 4230,
      "##9149": 4231,
      "##9b6987": 4232,
      "975": 4233,
      "9756": 4234,
      "975ae": 4235,
      "9334": 4236,
      "933a": 4237,
      "b139": 4238,
      "b14d": 4239,
      "b199": 4240,
      "b179": 4241,
      "##d741f6": 4242,
      "##d7c13": 4243,
      "##f145": 4244,
      "d96d": 4245,
      "##2e3ff99": 4246,
      "##64797b": 4247,
      "345": 4248,
      "612": 4249,
      "613": 4250,
      "b8c7": 4251,
      "00101": 4252,
      "00105": 4253,
      "##0941": 4254,
      "363": 4255,
      "a12a": 4256,
      "##af937": 4257,
      "8e5a": 4258,
      "8e64797b": 4259,
      "873": 4260,
      "8791": 4261,
      "87e8": 4262,
      "87e5": 4263,
      "##6d48b5": 4264,
      "2688": 4265,
      "a63d": 4266,
      "a6f6": 4267,
      "a6c5": 4268,
      "##4207e61": 4269,
      "##c9d2": 4270,
      "00062": 4271,
      "00064": 4272,
      "00090": 4273,
      "0009151": 4274,
      "25858": 4275,
      "683d": 4276,
      "90f6": 4277,
      "##4901": 4278,
      "##49ae": 4279,
      "##a2a8": 4280,
      "26266": 4281,
      "26204": 4282,
      "a7bc": 4283,
      "##65387": 4284,
      "##f3a": 4285,
      "##f3e1": 4286,
      "60f50": 4287,
      "435a": 4288,
      "##3a28f9f": 4289,
      "9d41": 4290,
      "9d18": 4291,
      "9d79": 4292,
      "b2fc": 4293,
      "40e1": 4294,
      "4c49": 4295,
      "9cf7": 4296,
      "##89d": 4297,
      "9bbb": 4298,
      "af37": 4299,
      "a9831f8f6": 4300,
      "b459": 4301,
      "b42e": 4302,
      "b4a3": 4303,
      "##d571": 4304,
      "26618": 4305,
      "4418": 4306,
      "b566": 4307,
      "d4fbc93c": 4308,
      "##6cdc": 4309,
      "##0d3f955": 4310,
      "##d26d35": 4311,
      "a8ff": 4312,
      "a237c1": 4313,
      "26726": 4314,
      "26776": 4315,
      "8a5b19ff": 4316,
      "8a37d40": 4317,
      "8c36e6": 4318,
      "99d8": 4319,
      "9a74aad4": 4320,
      "c5a4": 4321,
      "26308": 4322,
      "89a": 4323,
      "a364": 4324,
      "##008030c": 4325,
      "7159484f": 4326,
      "abf5": 4327,
      "##bf0514": 4328,
      "##0c20c": 4329,
      "4579": 4330,
      "4dca": 4331,
      "4dc3": 4332,
      "4dcd": 4333,
      "8986": 4334,
      "##1ae2": 4335,
      "##24627": 4336,
      "##0e14d": 4337,
      "25290": 4338,
      "27241": 4339,
      "##20ded6": 4340,
      "3ffd": 4341,
      "4345": 4342,
      "4342": 4343,
      "434e": 4344,
      "4dff": 4345,
      "72bc7": 4346,
      "806a": 4347,
      "8b23": 4348,
      "f34ca": 4349,
      "f3a7e1": 4350,
      "##3412f": 4351,
      "##d45e2d19": 4352,
      "297ec716": 4353,
      "282888": 4354,
      "366a": 4355,
      "437c": 4356,
      "611a": 4357,
      "74354c": 4358,
      "9933": 4359,
      "998c": 4360,
      "c1c1": 4361,
      "e3c6c": 4362,
      "fb99": 4363,
      "fbae": 4364,
      "f228": 4365,
      "fc5a3419": 4366,
      "##79818": 4367,
      "5825bf9a": 4368,
      "2fd26d35": 4369,
      "3A00": 4370,
      "4939": 4371,
      "44c7": 4372,
      "44c3": 4373,
      "44c8f4": 4374,
      "8265": 4375,
      "8445": 4376,
      "9183": 4377,
      "927b": 4378,
      "e54664": 4379,
      "eadb": 4380,
      "##05cc2ce": 4381,
      "##51068": 4382,
      "428b": 4383,
      "3eb0": 4384,
      "496a": 4385,
      "44d8": 4386,
      "498b": 4387,
      "4586": 4388,
      "4e23": 4389,
      "6a67": 4390,
      "8465": 4391,
      "92c3": 4392,
      "9a8de67": 4393,
      "a27d0bb": 4394,
      "a27af937": 4395,
      "acc5bb0f": 4396,
      "##4e8a53b": 4397,
      "##b0cad": 4398,
      "##34f36f7": 4399,
      "0b851395": 4400,
      "24864": 4401,
      "4acd": 4402,
      "4da6": 4403,
      "4ab4": 4404,
      "467c": 4405,
      "699eea": 4406,
      "7420e34": 4407,
      "820a": 4408,
      "a0893d5a": 4409,
      "b086": 4410,
      "b083419": 4411,
      "ea4d9b": 4412,
      "eb29cdd": 4413,
      "##f54dc": 4414,
      "##f06f": 4415,
      "##2b75e": 4416,
      "##7e1bb": 4417,
      "##3329c69": 4418,
      "##069d7c13": 4419,
      "0b7fefce": 4420,
      "0bace2d": 4421,
      "2c6f": 4422,
      "4db5": 4423,
      "4fa0": 4424,
      "4903": 4425,
      "6f00": 4426,
      "69e4": 4427,
      "6c809b6": 4428,
      "7fe0": 4429,
      "85b3": 4430,
      "8d6f": 4431,
      "8372": 4432,
      "9ed2": 4433,
      "94d3": 4434,
      "97b9": 4435,
      "a825": 4436,
      "ac6e": 4437,
      "ab451068": 4438,
      "b677": 4439,
      "cfe8": 4440,
      "c823": 4441,
      "d0d1ead8": 4442,
      "d6799e8": 4443,
      "ebcd741f6": 4444,
      "fed0e14d": 4445,
      "##8aa71b6": 4446,
      "##3b906": 4447,
      "##de517832d": 4448,
      "##e17cb": 4449,
      "5cf6a402": 4450,
      "0e22e3ff99": 4451,
      "1ab4e8a53b": 4452,
      "1b14207e61": 4453,
      "2B00": 4454,
      "2b0e5a": 4455,
      "2f1a8f6f": 4456,
      "2dfde517832d": 4457,
      "3e22b75e": 4458,
      "3e88afc7": 4459,
      "3be0ba1e": 4460,
      "3fa8a45e": 4461,
      "4f22": 4462,
      "5ceaa64": 4463,
      "5f705cc2ce": 4464,
      "5a53b008030c": 4465,
      "6cc8aa71b6": 4466,
      "6246e77b": 4467,
      "7ede40d3f955": 4468,
      "8ec5": 4469,
      "8a73": 4470,
      "95c0": 4471,
      "Successfully": 4472,
      "True": 4473,
      "all": 4474,
      "ab2e766": 4475,
      "ac8b": 4476,
      "a567979f": 4477,
      "afee069d7c13": 4478,
      "b9cd4210f": 4479,
      "bb5df4d": 4480,
      "b9f7dfc2": 4481,
      "c7820ded6": 4482,
      "c4d0c20c": 4483,
      "c94cf9861": 4484,
      "c5f46cc": 4485,
      "c93c67f00c": 4486,
      "dc0bbe15c": 4487,
      "eee9": 4488,
      "e265ea4c": 4489,
      "f1165387": 4490,
      "ffb8f145": 4491,
      "groups": 4492,
      "since": 4493,
      "tenan": 4494,
      "##a2993": 4495,
      "1695526d": 4496,
      "##9370645": 4497,
      "543e2dd0": 4498,
      "##d620633": 4499,
      "index": 4500,
      "##6253a8b": 4501,
      "4707d45e2d19": 4502,
      "47c1f81c": 4503,
      "4beefba4": 4504,
      "01451338": 4505,
      "033d97b9": 4506,
      "4c5a4bf8": 4507,
      "de51ad620633": 4508,
      "dedb4b73": 4509,
      "changes": 4510,
      "29b89f9b6987": 4511,
      "launch": 4512,
      "d6e9cfb8": 4513,
      "##addf40": 4514,
      "8ba713a28f9f": 4515,
      "f0d7b9370645": 4516,
      "56390838beef": 4517,
      "fff6fe1a": 4518,
      "975ae6253a8b": 4519,
      "60f50a9d": 4520,
      "a9831f8f6d41": 4521,
      "d4fbc93c48a3": 4522,
      "a237c1a8": 4523,
      "8a37d40f54dc": 4524,
      "8c36e637": 4525,
      "9a74aad4e4fa": 4526,
      "72bc73329c69": 4527,
      "f34ca27d": 4528,
      "f3a7e1addf40": 4529,
      "2828889b": 4530,
      "74354c38": 4531,
      "e3c6c34f36f7": 4532,
      "44c8f4e856b9": 4533,
      "e54664bf0514": 4534,
      "9a8de673412f": 4535,
      "a27d0bb52910": 4536,
      "699eeadf": 4537,
      "7420e34e17cb": 4538,
      "b083419d4967": 4539,
      "ea4d9b17": 4540,
      "eb29cdd762cb": 4541,
      "0bace2d3b906": 4542,
      "6c809b6cde67": 4543,
      "d6799e8bba35": 4544,
      "ebcd741f6fbf": 4545,
      "0e22e3ff995b": 4546,
      "1ab4e8a53b53": 4547,
      "1b14207e6129": 4548,
      "2b0e5a6d48b5": 4549,
      "5ceaa6424627": 4550,
      "5f705cc2ce6b": 4551,
      "6cc8aa71b618": 4552,
      "6246e77bc2ce": 4553,
      "ab2e766f": 4554,
      "b9cd4210f3ba": 4555,
      "bb5df4d7e1bb": 4556,
      "b9f7dfc2f6ab": 4557,
      "c7820ded6511": 4558,
      "c94cf986171d": 4559,
      "c5f46cc79818": 4560,
      "c93c67f00c73": 4561,
      "dc0bbe15c936": 4562,
      "tenants": 4563,
      "035": 4564,
      "0db": 4565,
      "0ed": 4566,
      "0fa": 4567,
      "039": 4568,
      "062": 4569,
      "078": 4570,
      "018": 4571,
      "027": 4572,
      "068": 4573,
      "037": 4574,
      "0ed5": 4575,
      "0ab": 4576,
      "02d": 4577,
      "098": 4578,
      "0f4": 4579,
      "0bb": 4580,
      "0a8": 4581,
      "0d5": 4582,
      "0df": 4583,
      "0c8": 4584,
      "0c1": 4585,
      "0b9": 4586,
      "0350": 4587,
      "0d2c": 4588,
      "0fad": 4589,
      "0d3c": 4590,
      "0961": 4591,
      "0f28": 4592,
      "0e6a": 4593,
      "02c1": 4594,
      "0fba": 4595,
      "0c6d": 4596,
      "078d": 4597,
      "0fcd": 4598,
      "00ce": 4599,
      "0a48": 4600,
      "0ea0": 4601,
      "0f3a": 4602,
      "1e": 4603,
      "1db": 4604,
      "1fa": 4605,
      "1a9e": 4606,
      "19335": 4607,
      "1d6": 4608,
      "1da": 4609,
      "174": 4610,
      "1b09": 4611,
      "1d1": 4612,
      "194": 4613,
      "151": 4614,
      "1d8": 4615,
      "14c5": 4616,
      "1f2": 4617,
      "1c1": 4618,
      "1960": 4619,
      "1f8c": 4620,
      "1ff": 4621,
      "14c4": 4622,
      "1cd": 4623,
      "1f02": 4624,
      "14ca": 4625,
      "1a40": 4626,
      "1b76": 4627,
      "1f20": 4628,
      "1fc1": 4629,
      "19c0": 4630,
      "1f17": 4631,
      "1a85": 4632,
      "1c87": 4633,
      "1c53": 4634,
      "1b77": 4635,
      "1ea0": 4636,
      "1f89": 4637,
      "1e7b": 4638,
      "1a8e": 4639,
      "1b23": 4640,
      "22c": 4641,
      "23d": 4642,
      "2e4c": 4643,
      "2fb": 4644,
      "2ce": 4645,
      "25b": 4646,
      "24c": 4647,
      "2a7": 4648,
      "2d1": 4649,
      "2e8": 4650,
      "233": 4651,
      "2a8": 4652,
      "2e2": 4653,
      "2a5": 4654,
      "2a1": 4655,
      "2446": 4656,
      "234": 4657,
      "2c8": 4658,
      "2c7": 4659,
      "2ad": 4660,
      "2ac7": 4661,
      "2b9": 4662,
      "2d3": 4663,
      "2be": 4664,
      "2a2": 4665,
      "2f3": 4666,
      "2c3": 4667,
      "2b6": 4668,
      "2b16": 4669,
      "2eff": 4670,
      "2922": 4671,
      "2bf": 4672,
      "2469": 4673,
      "2275": 4674,
      "2386": 4675,
      "20e8": 4676,
      "2332": 4677,
      "2f55": 4678,
      "2c1c": 4679,
      "2f5f": 4680,
      "2bd7": 4681,
      "23c5": 4682,
      "32c": 4683,
      "3e4": 4684,
      "3db": 4685,
      "30c": 4686,
      "341": 4687,
      "3ce": 4688,
      "3a4": 4689,
      "3b7": 4690,
      "3b8": 4691,
      "391": 4692,
      "354": 4693,
      "308": 4694,
      "348": 4695,
      "3a7": 4696,
      "3ab": 4697,
      "364": 4698,
      "343": 4699,
      "3d1": 4700,
      "32d": 4701,
      "33b": 4702,
      "3f8": 4703,
      "399": 4704,
      "3d8": 4705,
      "33fb": 4706,
      "333": 4707,
      "331": 4708,
      "3e1": 4709,
      "3fc": 4710,
      "3f5": 4711,
      "390": 4712,
      "3a0": 4713,
      "340": 4714,
      "33e": 4715,
      "3042": 4716,
      "3c3": 4717,
      "3eff": 4718,
      "3910": 4719,
      "3940": 4720,
      "3661": 4721,
      "3f65": 4722,
      "3ce8": 4723,
      "3579": 4724,
      "398a": 4725,
      "3e15": 4726,
      "3dca": 4727,
      "3f24": 4728,
      "3f6f": 4729,
      "30be": 4730,
      "3d7b": 4731,
      "3a90": 4732,
      "3d4a": 4733,
      "3d98": 4734,
      "3d5e": 4735,
      "3b12": 4736,
      "3c1f": 4737,
      "4a9e": 4738,
      "4dba": 4739,
      "4c2c": 4740,
      "4ea4": 4741,
      "4f5": 4742,
      "4f6": 4743,
      "4b07": 4744,
      "43c": 4745,
      "462e": 4746,
      "4a6": 4747,
      "4a9d": 4748,
      "4fbf": 4749,
      "4b87": 4750,
      "438e": 4751,
      "451e": 4752,
      "4460": 4753,
      "4d40": 4754,
      "4929": 4755,
      "4371": 4756,
      "4ab6": 4757,
      "4910": 4758,
      "4004": 4759,
      "40c2": 4760,
      "4316": 4761,
      "4fad": 4762,
      "4469": 4763,
      "4661": 4764,
      "4d45": 4765,
      "4fb3": 4766,
      "4ce8": 4767,
      "4689": 4768,
      "4f28": 4769,
      "4d68": 4770,
      "4749": 4771,
      "4386": 4772,
      "4314": 4773,
      "4a8f": 4774,
      "4b76": 4775,
      "4a71": 4776,
      "4fc7": 4777,
      "4fb0": 4778,
      "4f45": 4779,
      "4f9f": 4780,
      "400a": 4781,
      "439e": 4782,
      "4b7b": 4783,
      "49bb": 4784,
      "4d9f": 4785,
      "52c": 4786,
      "535": 4787,
      "593": 4788,
      "5ed": 4789,
      "596": 4790,
      "5d6": 4791,
      "5b0": 4792,
      "5da": 4793,
      "5dc": 4794,
      "527": 4795,
      "50e": 4796,
      "597": 4797,
      "564": 4798,
      "5f1": 4799,
      "594": 4800,
      "511": 4801,
      "592": 4802,
      "5e1": 4803,
      "576": 4804,
      "502": 4805,
      "56b": 4806,
      "5ee": 4807,
      "520": 4808,
      "5c8": 4809,
      "5ef": 4810,
      "5c7": 4811,
      "5e9": 4812,
      "5d7": 4813,
      "52b": 4814,
      "5e6": 4815,
      "5ff": 4816,
      "5d3": 4817,
      "5e81": 4818,
      "5fad": 4819,
      "5211": 4820,
      "5950": 4821,
      "5681": 4822,
      "5f93": 4823,
      "5fba": 4824,
      "5fbe": 4825,
      "5217": 4826,
      "5bc8": 4827,
      "5fc6b": 4828,
      "5ebd": 4829,
      "5fdf": 4830,
      "5cbd": 4831,
      "5f3e1": 4832,
      "66": 4833,
      "6e4": 4834,
      "6a9": 4835,
      "60c": 4836,
      "69c": 4837,
      "6d6": 4838,
      "639": 4839,
      "654": 4840,
      "674": 4841,
      "668": 4842,
      "60e": 4843,
      "688": 4844,
      "693b7": 4845,
      "6d1": 4846,
      "62d": 4847,
      "6fe": 4848,
      "6e8": 4849,
      "604": 4850,
      "682": 4851,
      "65a": 4852,
      "6d4": 4853,
      "690": 4854,
      "669": 4855,
      "661": 4856,
      "672": 4857,
      "6b1": 4858,
      "628": 4859,
      "6df": 4860,
      "686": 4861,
      "62f": 4862,
      "6ef": 4863,
      "660": 4864,
      "619": 4865,
      "62a": 4866,
      "677": 4867,
      "61d": 4868,
      "640": 4869,
      "69e": 4870,
      "675": 4871,
      "670": 4872,
      "625": 4873,
      "6e88": 4874,
      "653": 4875,
      "6350": 4876,
      "6dd": 4877,
      "6004": 4878,
      "64a": 4879,
      "6e61": 4880,
      "6d8c": 4881,
      "665a": 4882,
      "6948": 4883,
      "6fb3": 4884,
      "6f28": 4885,
      "6d41": 4886,
      "6b76": 4887,
      "694b": 4888,
      "6c6d": 4889,
      "60be": 4890,
      "6a63": 4891,
      "6d07": 4892,
      "6fd5": 4893,
      "619e": 4894,
      "6fb2": 4895,
      "65b6": 4896,
      "6aab": 4897,
      "6c4a": 4898,
      "7db": 4899,
      "75b": 4900,
      "746": 4901,
      "73a9": 4902,
      "7b7": 4903,
      "7b8": 4904,
      "748": 4905,
      "7dc": 4906,
      "737": 4907,
      "7ab": 4908,
      "79c8": 4909,
      "756": 4910,
      "743": 4911,
      "7f1": 4912,
      "795": 4913,
      "721": 4914,
      "7ca": 4915,
      "7de": 4916,
      "758": 4917,
      "799": 4918,
      "707": 4919,
      "704": 4920,
      "79b": 4921,
      "747": 4922,
      "782": 4923,
      "732": 4924,
      "7bc": 4925,
      "7f2": 4926,
      "726": 4927,
      "7fd": 4928,
      "790": 4929,
      "769": 4930,
      "730": 4931,
      "7ee": 4932,
      "724": 4933,
      "7a0": 4934,
      "7df": 4935,
      "77b": 4936,
      "7c7": 4937,
      "7e9": 4938,
      "71d": 4939,
      "703": 4940,
      "7f14": 4941,
      "7042": 4942,
      "709": 4943,
      "7ff": 4944,
      "770": 4945,
      "725": 4946,
      "7e88": 4947,
      "753": 4948,
      "7d3": 4949,
      "763": 4950,
      "7dd": 4951,
      "715": 4952,
      "7e61": 4953,
      "73e4": 4954,
      "7888": 4955,
      "7510": 4956,
      "7f28": 4957,
      "7ef5": 4958,
      "7980": 4959,
      "7a40": 4960,
      "7a4e": 4961,
      "7cb3": 4962,
      "7c6d": 4963,
      "73cb": 4964,
      "7e26": 4965,
      "8e4": 4966,
      "8db": 4967,
      "841": 4968,
      "89c": 4969,
      "839": 4970,
      "862": 4971,
      "891": 4972,
      "871": 4973,
      "8742": 4974,
      "8ea": 4975,
      "8ca": 4976,
      "8fe": 4977,
      "899": 4978,
      "8d8": 4979,
      "84c5": 4980,
      "833": 4981,
      "89b": 4982,
      "8f7": 4983,
      "8f2": 4984,
      "8d0": 4985,
      "876": 4986,
      "8d4": 4987,
      "8eb": 4988,
      "8fd": 4989,
      "890": 4990,
      "830": 4991,
      "8c6": 4992,
      "824": 4993,
      "8a0": 4994,
      "83f": 4995,
      "8d9": 4996,
      "886": 4997,
      "8c1": 4998,
      "829": 4999,
      "82e": 5000,
      "8a51": 5001,
      "8f4a": 5002,
      "8e6": 5003,
      "8cc3": 5004,
      "8ff": 5005,
      "870": 5006,
      "8fd7": 5007,
      "8d57": 5008,
      "84c4": 5009,
      "8475d": 5010,
      "8fc5": 5011,
      "8008": 5012,
      "8fb1": 5013,
      "80e1": 5014,
      "821a": 5015,
      "820d": 5016,
      "8936": 5017,
      "8d45": 5018,
      "805c": 5019,
      "8029": 5020,
      "801e": 5021,
      "84ca": 5022,
      "8215": 5023,
      "8f9a": 5024,
      "8349": 5025,
      "8b78": 5026,
      "8075": 5027,
      "8320": 5028,
      "8eef": 5029,
      "8edc": 5030,
      "83d1": 5031,
      "8b8a": 5032,
      "84cc": 5033,
      "80ee": 5034,
      "8712": 5035,
      "84d0": 5036,
      "8c45": 5037,
      "82d5": 5038,
      "8fef": 5039,
      "8d02": 5040,
      "8cc7": 5041,
      "8c1c": 5042,
      "83de": 5043,
      "80cf": 5044,
      "8ac82": 5045,
      "8b7b": 5046,
      "8b83": 5047,
      "8044": 5048,
      "8bbb": 5049,
      "8cb1": 5050,
      "80bf": 5051,
      "8bdd": 5052,
      "8c7c": 5053,
      "901": 5054,
      "9e4": 5055,
      "90c": 5056,
      "9fa": 5057,
      "9fb": 5058,
      "900": 5059,
      "9ac": 5060,
      "9b7": 5061,
      "9a7": 5062,
      "971": 5063,
      "995": 5064,
      "921": 5065,
      "9fe": 5066,
      "9e7": 5067,
      "907": 5068,
      "9d8": 5069,
      "982": 5070,
      "932": 5071,
      "9f7": 5072,
      "9d0": 5073,
      "9fc": 5074,
      "990": 5075,
      "969": 5076,
      "9a5": 5077,
      "9cb": 5078,
      "9a1": 5079,
      "9d5": 5080,
      "9b1": 5081,
      "9ae": 5082,
      "90b": 5083,
      "9cce": 5084,
      "9c8": 5085,
      "9f0": 5086,
      "95e": 5087,
      "9c5": 5088,
      "9a6": 5089,
      "9ad": 5090,
      "9ea8": 5091,
      "9a62": 5092,
      "9aa1": 5093,
      "9a51": 5094,
      "9a7c": 5095,
      "9edfc": 5096,
      "979d": 5097,
      "9c2": 5098,
      "9f57": 5099,
      "9b16": 5100,
      "9590": 5101,
      "921a": 5102,
      "9d8c": 5103,
      "9d45": 5104,
      "9390": 5105,
      "9d80": 5106,
      "9510": 5107,
      "9018": 5108,
      "9d68": 5109,
      "9481": 5110,
      "9438": 5111,
      "9f50": 5112,
      "9f9a": 5113,
      "941b": 5114,
      "9ac9": 5115,
      "971d": 5116,
      "9265": 5117,
      "9f55": 5118,
      "90be": 5119,
      "94cc": 5120,
      "9da1": 5121,
      "9fef": 5122,
      "9fcd": 5123,
      "9a9c": 5124,
      "99c5": 5125,
      "95b7": 5126,
      "9d67": 5127,
      "9b80": 5128,
      "9c44": 5129,
      "9f437": 5130,
      "9fd9": 5131,
      "9d9f": 5132,
      "Ru": 5133,
      "Wh": 5134,
      "ae4": 5135,
      "adb": 5136,
      "aed": 5137,
      "afa": 5138,
      "a57": 5139,
      "a96": 5140,
      "a4c": 5141,
      "a18": 5142,
      "a4d": 5143,
      "a05": 5144,
      "aca": 5145,
      "a94": 5146,
      "a38": 5147,
      "a51": 5148,
      "a52": 5149,
      "a04": 5150,
      "aud": 5151,
      "a31": 5152,
      "a59": 5153,
      "af7": 5154,
      "ae1": 5155,
      "af2": 5156,
      "a76": 5157,
      "a67": 5158,
      "acb": 5159,
      "aee": 5160,
      "ab1": 5161,
      "aa0": 5162,
      "a3f": 5163,
      "aae": 5164,
      "a5d": 5165,
      "abd": 5166,
      "a44": 5167,
      "a20": 5168,
      "aef": 5169,
      "af0": 5170,
      "a5e": 5171,
      "a60": 5172,
      "ac5": 5173,
      "afe1": 5174,
      "a960": 5175,
      "a16": 5176,
      "a55": 5177,
      "a17": 5178,
      "a38e": 5179,
      "a9dc": 5180,
      "a75": 5181,
      "a58f": 5182,
      "and": 5183,
      "a49": 5184,
      "ac3": 5185,
      "a9e8": 5186,
      "a89": 5187,
      "ab16": 5188,
      "aea6": 5189,
      "ae70": 5190,
      "a910": 5191,
      "a280": 5192,
      "a061": 5193,
      "a275": 5194,
      "a38b": 5195,
      "a028": 5196,
      "a0c5": 5197,
      "a2d8": 5198,
      "a789": 5199,
      "a387": 5200,
      "a314": 5201,
      "abb1": 5202,
      "a34f": 5203,
      "a0cb": 5204,
      "aac9": 5205,
      "a189": 5206,
      "a0e8": 5207,
      "a36c": 5208,
      "a320": 5209,
      "a2e5": 5210,
      "aed1": 5211,
      "a543": 5212,
      "a78d": 5213,
      "a56c8": 5214,
      "a334": 5215,
      "af72": 5216,
      "aa0a": 5217,
      "af00c": 5218,
      "a35a": 5219,
      "aaa6": 5220,
      "a629": 5221,
      "a91f": 5222,
      "ac40": 5223,
      "a3bb": 5224,
      "a33a": 5225,
      "abbd": 5226,
      "a340": 5227,
      "a19a": 5228,
      "a2a3": 5229,
      "b2c": 5230,
      "b93": 5231,
      "bed": 5232,
      "b00": 5233,
      "bb0": 5234,
      "bb7": 5235,
      "bb8": 5236,
      "b91": 5237,
      "b78": 5238,
      "b18": 5239,
      "b27": 5240,
      "b9c8": 5241,
      "b4d": 5242,
      "bd1": 5243,
      "bc4": 5244,
      "bca": 5245,
      "b38": 5246,
      "bf4": 5247,
      "bd8": 5248,
      "b04": 5249,
      "b47": 5250,
      "be1": 5251,
      "bfc": 5252,
      "b26": 5253,
      "bf5": 5254,
      "ba8": 5255,
      "bcc": 5256,
      "b90": 5257,
      "bcb": 5258,
      "b30": 5259,
      "bee": 5260,
      "bd5": 5261,
      "bb2": 5262,
      "b79": 5263,
      "b20": 5264,
      "b2f": 5265,
      "b16": 5266,
      "b40": 5267,
      "b049": 5268,
      "ba9d": 5269,
      "b3b4": 5270,
      "be89": 5271,
      "b2b": 5272,
      "ba84": 5273,
      "b22": 5274,
      "b94c": 5275,
      "b42": 5276,
      "bc9": 5277,
      "b79d": 5278,
      "bfce": 5279,
      "bb6": 5280,
      "b910": 5281,
      "bfc5": 5282,
      "b466": 5283,
      "b922": 5284,
      "b469": 5285,
      "bd45": 5286,
      "b390": 5287,
      "b38b": 5288,
      "bd80": 5289,
      "b25f": 5290,
      "bce8": 5291,
      "b431": 5292,
      "b956": 5293,
      "be4d": 5294,
      "b743": 5295,
      "b271": 5296,
      "b438": 5297,
      "b16a": 5298,
      "be6a": 5299,
      "b2cb": 5300,
      "bdca": 5301,
      "bd12": 5302,
      "be8b": 5303,
      "bf24": 5304,
      "bcb3": 5305,
      "be9e": 5306,
      "b29d": 5307,
      "bfb6": 5308,
      "bb8a": 5309,
      "b0ef": 5310,
      "bd19": 5311,
      "bd8b": 5312,
      "b828": 5313,
      "be13": 5314,
      "ba85": 5315,
      "b02a": 5316,
      "b19e": 5317,
      "be65": 5318,
      "ba9c": 5319,
      "b5be": 5320,
      "bd67": 5321,
      "b399": 5322,
      "b4c1": 5323,
      "bda8": 5324,
      "b745": 5325,
      "b058": 5326,
      "b06a": 5327,
      "bf2b": 5328,
      "b5c3": 5329,
      "b725": 5330,
      "b34e": 5331,
      "b3c7": 5332,
      "b19f": 5333,
      "b2a3": 5334,
      "c3": 5335,
      "ca9e": 5336,
      "cfb": 5337,
      "c5b": 5338,
      "caa": 5339,
      "cb8": 5340,
      "c91": 5341,
      "c54": 5342,
      "cdc": 5343,
      "c37": 5344,
      "cab": 5345,
      "cc91": 5346,
      "c56": 5347,
      "cfbb": 5348,
      "c52": 5349,
      "c92": 5350,
      "c32": 5351,
      "c31": 5352,
      "c26": 5353,
      "c67": 5354,
      "cf6": 5355,
      "cc6": 5356,
      "c6b": 5357,
      "cdf": 5358,
      "c5e": 5359,
      "c19": 5360,
      "c77": 5361,
      "c16": 5362,
      "c03": 5363,
      "c17": 5364,
      "cd7": 5365,
      "cb87": 5366,
      "caa1": 5367,
      "ce6": 5368,
      "c10": 5369,
      "c73": 5370,
      "ca2": 5371,
      "cf3": 5372,
      "c9e8": 5373,
      "cd86": 5374,
      "c2b48": 5375,
      "ce3": 5376,
      "c2d9": 5377,
      "cf65": 5378,
      "cfb8": 5379,
      "c0e3": 5380,
      "cc4f": 5381,
      "c0f7": 5382,
      "c273": 5383,
      "c51a": 5384,
      "ce9e": 5385,
      "cd52": 5386,
      "c43a": 5387,
      "c9ba": 5388,
      "cc53": 5389,
      "c9a9": 5390,
      "cdb7": 5391,
      "cfaf": 5392,
      "cda0": 5393,
      "c745": 5394,
      "c953": 5395,
      "ce7b": 5396,
      "cbdd": 5397,
      "cb29": 5398,
      "c3e5": 5399,
      "d1": 5400,
      "d3": 5401,
      "dd2": 5402,
      "db0": 5403,
      "dec": 5404,
      "d91": 5405,
      "dda": 5406,
      "d08": 5407,
      "ddc": 5408,
      "d74": 5409,
      "deb7": 5410,
      "d56": 5411,
      "d43": 5412,
      "d95": 5413,
      "d21": 5414,
      "dfe": 5415,
      "dde": 5416,
      "de8": 5417,
      "d52": 5418,
      "d07": 5419,
      "d66": 5420,
      "de1": 5421,
      "dbc": 5422,
      "dd0": 5423,
      "df5": 5424,
      "dcc": 5425,
      "dfd": 5426,
      "d5c": 5427,
      "d28": 5428,
      "d14": 5429,
      "ddf": 5430,
      "dc1": 5431,
      "dc7": 5432,
      "d3b4": 5433,
      "d2b": 5434,
      "d75": 5435,
      "d09": 5436,
      "d70": 5437,
      "d1c": 5438,
      "db9": 5439,
      "d49": 5440,
      "dbe": 5441,
      "db4": 5442,
      "dc2": 5443,
      "db6": 5444,
      "d81": 5445,
      "d008": 5446,
      "dd80": 5447,
      "d13": 5448,
      "dfb3": 5449,
      "df99": 5450,
      "d01e": 5451,
      "d215": 5452,
      "d989": 5453,
      "d94b": 5454,
      "dfc1": 5455,
      "d3d1": 5456,
      "db0a": 5457,
      "d4cc": 5458,
      "d334": 5459,
      "dbc8": 5460,
      "dd02": 5461,
      "d18b": 5462,
      "d97f": 5463,
      "d065": 5464,
      "d765": 5465,
      "dd5e": 5466,
      "d1ae2": 5467,
      "e2c": 5468,
      "efb": 5469,
      "e96": 5470,
      "e46": 5471,
      "eb0": 5472,
      "eb7": 5473,
      "eda": 5474,
      "edc": 5475,
      "e0e": 5476,
      "e9c8": 5477,
      "e36": 5478,
      "e38": 5479,
      "efe": 5480,
      "e58": 5481,
      "ee8": 5482,
      "e66": 5483,
      "e06": 5484,
      "e92": 5485,
      "ef7": 5486,
      "ee1": 5487,
      "ed0": 5488,
      "ea8": 5489,
      "e67": 5490,
      "ecb": 5491,
      "e30": 5492,
      "ec6": 5493,
      "e6b": 5494,
      "e5c": 5495,
      "e446": 5496,
      "ea0": 5497,
      "e28": 5498,
      "ec8": 5499,
      "e7b": 5500,
      "e5e": 5501,
      "e2a": 5502,
      "e1d": 5503,
      "e4b": 5504,
      "e16": 5505,
      "e3e": 5506,
      "e03": 5507,
      "e2e": 5508,
      "e000": 5509,
      "ea3": 5510,
      "e54b": 5511,
      "e42": 5512,
      "edd": 5513,
      "e89": 5514,
      "e81": 5515,
      "ed2c": 5516,
      "e246": 5517,
      "ee61": 5518,
      "e948": 5519,
      "e291": 5520,
      "e05c": 5521,
      "e018": 5522,
      "e78e": 5523,
      "e0e3": 5524,
      "e314": 5525,
      "ef07": 5526,
      "e930": 5527,
      "e0cb": 5528,
      "e959": 5529,
      "e412": 5530,
      "eac5": 5531,
      "eb86": 5532,
      "e56c8": 5533,
      "effa": 5534,
      "e5726": 5535,
      "e82b": 5536,
      "ec9d2": 5537,
      "fe": 5538,
      "fdb": 5539,
      "f41": 5540,
      "fce": 5541,
      "f96": 5542,
      "f00": 5543,
      "f78": 5544,
      "f48": 5545,
      "fdc": 5546,
      "f0e": 5547,
      "f64": 5548,
      "ff1": 5549,
      "f95": 5550,
      "f98": 5551,
      "fla": 5552,
      "ffe": 5553,
      "fe8": 5554,
      "f9b": 5555,
      "f47": 5556,
      "f31": 5557,
      "f59": 5558,
      "ff7": 5559,
      "fbb": 5560,
      "fd4": 5561,
      "feb": 5562,
      "fa5": 5563,
      "f30": 5564,
      "f61": 5565,
      "f5e": 5566,
      "f19": 5567,
      "f29": 5568,
      "f914": 5569,
      "fd7": 5570,
      "ff14": 5571,
      "fc3": 5572,
      "f9e8": 5573,
      "fbb6": 5574,
      "f6c": 5575,
      "f466": 5576,
      "f956": 5577,
      "f78e": 5578,
      "f32a": 5579,
      "fdb1": 5580,
      "f981": 5581,
      "fe8b": 5582,
      "ff55": 5583,
      "fcb3": 5584,
      "fe9e": 5585,
      "f29d": 5586,
      "f408": 5587,
      "ffb9": 5588,
      "fd63": 5589,
      "fb0b": 5590,
      "f0ef": 5591,
      "f2df": 5592,
      "fd4a": 5593,
      "fa0a": 5594,
      "f553": 5595,
      "f4f5": 5596,
      "f0ca": 5597,
      "fec7": 5598,
      "f71b": 5599,
      "f82b": 5600,
      "f32e5": 5601,
      "fcb9": 5602,
      "f5c3": 5603,
      "f0bf": 5604,
      "f509": 5605,
      "fb22": 5606,
      "pu": 5607,
      "##535": 5608,
      "##55b": 5609,
      "##546": 5610,
      "##539": 5611,
      "##5dc": 5612,
      "##5ed5": 5613,
      "##536": 5614,
      "##5fe": 5615,
      "##5de": 5616,
      "##5e7": 5617,
      "##5e8": 5618,
      "##5d8": 5619,
      "##504": 5620,
      "##506": 5621,
      "##5e1": 5622,
      "##5d0": 5623,
      "##502": 5624,
      "##5eb": 5625,
      "##5fd": 5626,
      "##5c6": 5627,
      "##53f": 5628,
      "##50b": 5629,
      "##5350": 5630,
      "##5590": 5631,
      "##500e": 5632,
      "##5390": 5633,
      "##5540": 5634,
      "##50c5": 5635,
      "##5081": 5636,
      "##5f20": 5637,
      "##5309": 5638,
      "##5270": 5639,
      "##5d8f": 5640,
      "##5ec43": 5641,
      "##5f81": 5642,
      "##5582": 5643,
      "##5f2b": 5644,
      "##5f6b": 5645,
      "##5340": 5646,
      "##401": 5647,
      "##441": 5648,
      "##4a4": 5649,
      "##4ac": 5650,
      "##4b0": 5651,
      "##4ec": 5652,
      "##40e": 5653,
      "##497": 5654,
      "##452": 5655,
      "##447": 5656,
      "##492": 5657,
      "##4ee": 5658,
      "##428": 5659,
      "##4b2": 5660,
      "##4e9": 5661,
      "##4af": 5662,
      "##4e0": 5663,
      "##4501": 5664,
      "##4e4d": 5665,
      "##4081": 5666,
      "##40cb": 5667,
      "##4999": 5668,
      "##4249": 5669,
      "##6e4": 5670,
      "##63d": 5671,
      "##696": 5672,
      "##6ec": 5673,
      "##618": 5674,
      "##6742": 5675,
      "##6d1": 5676,
      "##6ca": 5677,
      "##606": 5678,
      "##659": 5679,
      "##6bc": 5680,
      "##6f5": 5681,
      "##6a8": 5682,
      "##676": 5683,
      "##6eb": 5684,
      "##6f6": 5685,
      "##6a1": 5686,
      "##6c6": 5687,
      "##63e": 5688,
      "##6000": 5689,
      "##6ea2": 5690,
      "##6eaf": 5691,
      "##6061": 5692,
      "##6571": 5693,
      "##6e6a": 5694,
      "##6051": 5695,
      "##6e8b": 5696,
      "##6f6f": 5697,
      "##6c1c": 5698,
      "##bl": 5699,
      "##b01": 5700,
      "##b2c": 5701,
      "##ba9": 5702,
      "##b41": 5703,
      "##b57": 5704,
      "##bd6": 5705,
      "##base": 5706,
      "##b37": 5707,
      "##b97": 5708,
      "##beb7": 5709,
      "##b4d": 5710,
      "##b38": 5711,
      "##b58": 5712,
      "##be8": 5713,
      "##ba5": 5714,
      "##b6b": 5715,
      "##bee": 5716,
      "##bd5": 5717,
      "##ba0": 5718,
      "##b28": 5719,
      "##bae": 5720,
      "##b5e": 5721,
      "##ba6": 5722,
      "##b6f": 5723,
      "##b6cb": 5724,
      "##b015c": 5725,
      "##b49": 5726,
      "##b951": 5727,
      "##bacc": 5728,
      "##b928": 5729,
      "##b982": 5730,
      "##b576": 5731,
      "##be7fa": 5732,
      "##fe4": 5733,
      "##f0c": 5734,
      "##fdba": 5735,
      "##f96": 5736,
      "##fd6": 5737,
      "##f46": 5738,
      "##fec": 5739,
      "##f68": 5740,
      "##f97": 5741,
      "##ff1": 5742,
      "##f2d": 5743,
      "##fca": 5744,
      "##f36": 5745,
      "##fd8": 5746,
      "##f66": 5747,
      "##fd71": 5748,
      "##ff56": 5749,
      "##f5a": 5750,
      "##f67": 5751,
      "##f3f": 5752,
      "##fea8": 5753,
      "##f0c2": 5754,
      "##f961": 5755,
      "##ff65": 5756,
      "##f621": 5757,
      "##f749": 5758,
      "##f980": 5759,
      "##f928": 5760,
      "##ffbd": 5761,
      "##fd23": 5762,
      "##f712": 5763,
      "##f94a": 5764,
      "##f279b": 5765,
      "##f382c": 5766,
      "##093": 5767,
      "##041": 5768,
      "##0ec": 5769,
      "##0b8": 5770,
      "##078": 5771,
      "##0a7": 5772,
      "##071": 5773,
      "##021": 5774,
      "##0d8": 5775,
      "##031": 5776,
      "##0d0": 5777,
      "##0a8": 5778,
      "##0f6": 5779,
      "##0a5": 5780,
      "##03f": 5781,
      "##03c": 5782,
      "##0a3": 5783,
      "##0ff": 5784,
      "##0af": 5785,
      "##0969": 5786,
      "##0d80": 5787,
      "##0acc": 5788,
      "##0430": 5789,
      "##0438": 5790,
      "##0dbb": 5791,
      "##0912": 5792,
      "##0719": 5793,
      "##0560": 5794,
      "##0217": 5795,
      "##0989": 5796,
      "##0999": 5797,
      "##0330": 5798,
      "##00172": 5799,
      "##0624c": 5800,
      "##101": 5801,
      "##193": 5802,
      "##191": 5803,
      "##195": 5804,
      "##121": 5805,
      "##151": 5806,
      "##1d0": 5807,
      "##1a0": 5808,
      "##1ae": 5809,
      "##129": 5810,
      "##103": 5811,
      "##1a3": 5812,
      "##158f": 5813,
      "##1501": 5814,
      "##13a": 5815,
      "##1e9d": 5816,
      "##1561": 5817,
      "##15b8": 5818,
      "##1390": 5819,
      "##1510": 5820,
      "##1029": 5821,
      "##1620": 5822,
      "##1419": 5823,
      "##1398": 5824,
      "##1051": 5825,
      "##1328": 5826,
      "##1270": 5827,
      "##1f5ec": 5828,
      "##901": 5829,
      "##935": 5830,
      "##9a4": 5831,
      "##996": 5832,
      "##991": 5833,
      "##9da": 5834,
      "##974": 5835,
      "##997": 5836,
      "##988": 5837,
      "##94d": 5838,
      "##9d1": 5839,
      "##9ea": 5840,
      "##9de": 5841,
      "##9d0": 5842,
      "##9fc": 5843,
      "##9a8": 5844,
      "##9f9": 5845,
      "##9ee": 5846,
      "##9d35": 5847,
      "##9061": 5848,
      "##9080": 5849,
      "##9789": 5850,
      "##978e": 5851,
      "##9971": 5852,
      "##aa9": 5853,
      "##a5b": 5854,
      "##aa4": 5855,
      "##ad6": 5856,
      "##ad2": 5857,
      "##aec": 5858,
      "##ab8": 5859,
      "##a78": 5860,
      "##adc": 5861,
      "##a74": 5862,
      "##a27": 5863,
      "##a88": 5864,
      "##a05": 5865,
      "##af1": 5866,
      "##a36": 5867,
      "##af8": 5868,
      "##afe": 5869,
      "##a58": 5870,
      "##af4": 5871,
      "##ad8": 5872,
      "##a66": 5873,
      "##a31": 5874,
      "##ae1": 5875,
      "##af2": 5876,
      "##ad0": 5877,
      "##a26": 5878,
      "##aeb": 5879,
      "##a6b": 5880,
      "##afa1": 5881,
      "##a3f": 5882,
      "##adf": 5883,
      "##ad9": 5884,
      "##ada7": 5885,
      "##a2b": 5886,
      "##ad40": 5887,
      "##a371": 5888,
      "##ad80": 5889,
      "##a888": 5890,
      "##a880": 5891,
      "##aa40": 5892,
      "##aa90": 5893,
      "##a412": 5894,
      "##ab0a": 5895,
      "##afc2": 5896,
      "##a0c88": 5897,
      "##a4120": 5898,
      "##a00a": 5899,
      "##ae7fa": 5900,
      "##83": 5901,
      "##8d": 5902,
      "##835": 5903,
      "##8da": 5904,
      "##821": 5905,
      "##898": 5906,
      "##8e8": 5907,
      "##859": 5908,
      "##8fc": 5909,
      "##890": 5910,
      "##872": 5911,
      "##83f": 5912,
      "##8c8": 5913,
      "##8e9": 5914,
      "##840": 5915,
      "##8a3": 5916,
      "##809": 5917,
      "##810": 5918,
      "##8b5": 5919,
      "##8fce": 5920,
      "##8371": 5921,
      "##8590": 5922,
      "##8391": 5923,
      "##8430": 5924,
      "##8d41": 5925,
      "##8081": 5926,
      "##8e91": 5927,
      "##8b0af": 5928,
      "##8180": 5929,
      "##85fe": 5930,
      "##201": 5931,
      "##22c": 5932,
      "##23d": 5933,
      "##2d2": 5934,
      "##262": 5935,
      "##2b8": 5936,
      "##24c": 5937,
      "##278": 5938,
      "##227": 5939,
      "##298": 5940,
      "##251": 5941,
      "##2f4": 5942,
      "##299": 5943,
      "##204": 5944,
      "##29b": 5945,
      "##2e1": 5946,
      "##2f2": 5947,
      "##202": 5948,
      "##2eb": 5949,
      "##2fd": 5950,
      "##2b07": 5951,
      "##230": 5952,
      "##22a": 5953,
      "##2951": 5954,
      "##2280": 5955,
      "##2e7c1": 5956,
      "##2689": 5957,
      "##2080": 5958,
      "##2081": 5959,
      "##2789": 5960,
      "##2511": 5961,
      "##2070": 5962,
      "##2971": 5963,
      "##2309": 5964,
      "##243f5": 5965,
      "##258b": 5966,
      "##7a": 5967,
      "##7e4": 5968,
      "##754": 5969,
      "##718": 5970,
      "##797": 5971,
      "##7742": 5972,
      "##736": 5973,
      "##738": 5974,
      "##7fe": 5975,
      "##751": 5976,
      "##7de": 5977,
      "##7d4": 5978,
      "##790": 5979,
      "##7a5": 5980,
      "##7a1": 5981,
      "##7d4d": 5982,
      "##7c1": 5983,
      "##709": 5984,
      "##7e72": 5985,
      "##7cd": 5986,
      "##7940": 5987,
      "##7661": 5988,
      "##7410": 5989,
      "##7351": 5990,
      "##7967": 5991,
      "##7660": 5992,
      "##7ce7": 5993,
      "##7330": 5994,
      "##7c60": 5995,
      "##7a59": 5996,
      "##7faf": 5997,
      "##7b838": 5998,
      "##e2c": 5999,
      "##e35": 6000,
      "##e93": 6001,
      "##e5b": 6002,
      "##e96": 6003,
      "##e00": 6004,
      "##eec": 6005,
      "##eb8": 6006,
      "##e78": 6007,
      "##e0e": 6008,
      "##e71": 6009,
      "##e94": 6010,
      "##e38": 6011,
      "##efe": 6012,
      "##e51": 6013,
      "##ee7": 6014,
      "##e33": 6015,
      "##ee45b": 6016,
      "##e06": 6017,
      "##e9b": 6018,
      "##e31": 6019,
      "##ea76": 6020,
      "##ee1": 6021,
      "##ef2": 6022,
      "##efc": 6023,
      "##eeb": 6024,
      "##e69": 6025,
      "##e5c": 6026,
      "##e3f": 6027,
      "##e0b": 6028,
      "##e3c": 6029,
      "##e042": 6030,
      "##ef8c": 6031,
      "##e371": 6032,
      "##ee81": 6033,
      "##e922": 6034,
      "##e01c": 6035,
      "##e749": 6036,
      "##ebb1": 6037,
      "##ece7": 6038,
      "##ef72": 6039,
      "##e030c": 6040,
      "##eed0": 6041,
      "##e0c7e": 6042,
      "##c01": 6043,
      "##c62": 6044,
      "##cb8": 6045,
      "##cda": 6046,
      "##c08": 6047,
      "##cdc": 6048,
      "##c74": 6049,
      "##c37": 6050,
      "##cc4": 6051,
      "##c2d": 6052,
      "##c36": 6053,
      "##c94": 6054,
      "##cf8": 6055,
      "##c58": 6056,
      "##cd8": 6057,
      "##cfc": 6058,
      "##c76": 6059,
      "##c02": 6060,
      "##c72": 6061,
      "##c28": 6062,
      "##c3c": 6063,
      "##c20": 6064,
      "##cd9": 6065,
      "##cf0": 6066,
      "##c900": 6067,
      "##cd83b": 6068,
      "##ca47": 6069,
      "##cfee": 6070,
      "##c0ce": 6071,
      "##ca7a": 6072,
      "##c503": 6073,
      "##335": 6074,
      "##3db": 6075,
      "##396": 6076,
      "##33a9": 6077,
      "##337": 6078,
      "##364": 6079,
      "##343": 6080,
      "##336": 6081,
      "##33b": 6082,
      "##3f8": 6083,
      "##3e7": 6084,
      "##3f4": 6085,
      "##3e8": 6086,
      "##3f56": 6087,
      "##3a8": 6088,
      "##3a0": 6089,
      "##3ae": 6090,
      "##3af": 6091,
      "##30c2": 6092,
      "##3011": 6093,
      "##3888": 6094,
      "##3271": 6095,
      "##3880": 6096,
      "##3189": 6097,
      "##3c6d": 6098,
      "##3b8a": 6099,
      "##302a": 6100,
      "##3c4a": 6101,
      "##3a69b": 6102,
      "##d93": 6103,
      "##d3d": 6104,
      "##dac": 6105,
      "##d4c": 6106,
      "##d0e": 6107,
      "##d37": 6108,
      "##d97": 6109,
      "##deb7": 6110,
      "##d88": 6111,
      "##decac": 6112,
      "##df1": 6113,
      "##dea": 6114,
      "##d3b": 6115,
      "##d38": 6116,
      "##d51": 6117,
      "##dde": 6118,
      "##dd8": 6119,
      "##d31": 6120,
      "##d90": 6121,
      "##d5c": 6122,
      "##dd7": 6123,
      "##dfc5": 6124,
      "##d38b": 6125,
      "##d580": 6126,
      "##d928": 6127,
      "##dfba": 6128,
      "##d370": 6129,
      "##d3b6": 6130,
      "##d014": 6131,
      "##dfeb": 6132,
      "##nn": 6133,
      "##ic": 6134,
      "##iz": 6135,
      "##hr": 6136,
      "##vor": 6137,
      "##010": 6138,
      "##01d2": 6139,
      "##0108": 6140,
      "##0168": 6141,
      "##010e": 6142,
      "##0164": 6143,
      "##0111": 6144,
      "##0147": 6145,
      "##0159": 6146,
      "##01f2": 6147,
      "##01c6": 6148,
      "##0161": 6149,
      "##0128": 6150,
      "##0144": 6151,
      "##0160": 6152,
      "##013e": 6153,
      "##01a6": 6154,
      "##01ad": 6155,
      "##0189": 6156,
      "##0181": 6157,
      "##01280": 6158,
      "##01936": 6159,
      "##01a0b": 6160,
      "##01591": 6161,
      "##01b65": 6162,
      "##01df7": 6163,
      "##01f382c": 6164,
      "##01364": 6165,
      "##2c8": 6166,
      "##2c2": 6167,
      "##2cd": 6168,
      "##2c18": 6169,
      "##2c71": 6170,
      "##2c3b": 6171,
      "##2c9b": 6172,
      "##2c19": 6173,
      "##2ce9": 6174,
      "##2cad": 6175,
      "##2cd7": 6176,
      "##2c25": 6177,
      "##2cb9": 6178,
      "##2c89": 6179,
      "##2c6c": 6180,
      "##2c1a": 6181,
      "##2c8a": 6182,
      "##2c6e": 6183,
      "##2ca72": 6184,
      "##2c3c1": 6185,
      "##2c0e7f": 6186,
      "##2c996": 6187,
      "##2caa9": 6188,
      "056": 6189,
      "053": 6190,
      "0539": 6191,
      "05f7": 6192,
      "05bc": 6193,
      "0524": 6194,
      "0550": 6195,
      "054a": 6196,
      "057c": 6197,
      "05732": 6198,
      "0502a": 6199,
      "05bac": 6200,
      "20138": 6201,
      "2011390": 6202,
      "164": 6203,
      "16e4": 6204,
      "16b7": 6205,
      "1664": 6206,
      "16e7": 6207,
      "1602": 6208,
      "16eb": 6209,
      "167b": 6210,
      "16cd": 6211,
      "164a": 6212,
      "16da8": 6213,
      "16984": 6214,
      "##e46": 6215,
      "##e41": 6216,
      "##e446": 6217,
      "##e464": 6218,
      "##e443": 6219,
      "##e405": 6220,
      "##e4f8": 6221,
      "##e458": 6222,
      "##e402": 6223,
      "##e477": 6224,
      "##e4218": 6225,
      "##e4577": 6226,
      "##e4384": 6227,
      "##e4316": 6228,
      "##e44a": 6229,
      "##e4387": 6230,
      "##e4b36": 6231,
      "##e4e13": 6232,
      "##e40af": 6233,
      "##e4a88": 6234,
      "##35d2": 6235,
      "##3539": 6236,
      "##35ec": 6237,
      "##3518": 6238,
      "##3571": 6239,
      "##3536": 6240,
      "##3599": 6241,
      "##35e8": 6242,
      "##3547": 6243,
      "##35fc": 6244,
      "##3569": 6245,
      "##3561": 6246,
      "##35b1": 6247,
      "##353f": 6248,
      "##35c7": 6249,
      "##3519": 6250,
      "##3509": 6251,
      "##3522": 6252,
      "##3542": 6253,
      "##3573": 6254,
      "##35dd": 6255,
      "##357d": 6256,
      "##35540": 6257,
      "##35e15": 6258,
      "##35598": 6259,
      "##352c7": 6260,
      "##35462": 6261,
      "##35d6d": 6262,
      "##3543f5": 6263,
      "##354ec": 6264,
      "##35262": 6265,
      "##352c8": 6266,
      "2017291": 6267,
      "##93f": 6268,
      "##93a": 6269,
      "##932": 6270,
      "##933d": 6271,
      "##93b8": 6272,
      "##93b09": 6273,
      "##93d1": 6274,
      "##932d": 6275,
      "##933b": 6276,
      "##9338": 6277,
      "##9382": 6278,
      "##9392": 6279,
      "##9331": 6280,
      "##9330": 6281,
      "##9379": 6282,
      "##9360": 6283,
      "##9309": 6284,
      "##93af": 6285,
      "##93d3": 6286,
      "##93460": 6287,
      "##9380": 6288,
      "##93028": 6289,
      "##93911": 6290,
      "##93019": 6291,
      "##93a72": 6292,
      "##932df": 6293,
      "##93d66": 6294,
      "##93b951": 6295,
      "##db3": 6296,
      "##db98": 6297,
      "##db47": 6298,
      "##dbd0": 6299,
      "##dbb1": 6300,
      "##dbb2": 6301,
      "##db60": 6302,
      "##db9dc": 6303,
      "##db6d": 6304,
      "##dbb4": 6305,
      "##db638": 6306,
      "##db2d8": 6307,
      "##db9f1": 6308,
      "##dbf17": 6309,
      "##db94a": 6310,
      "##db9c5": 6311,
      "##a96": 6312,
      "##a99": 6313,
      "##a957": 6314,
      "##a9ac": 6315,
      "##a974": 6316,
      "##a968": 6317,
      "##a9a7": 6318,
      "##a943": 6319,
      "##a9ca": 6320,
      "##a911": 6321,
      "##a99b": 6322,
      "##a947": 6323,
      "##a9d0": 6324,
      "##a95c": 6325,
      "##a92f": 6326,
      "##a9c3": 6327,
      "##a99e8": 6328,
      "##a98c": 6329,
      "##a97e": 6330,
      "##a9a63": 6331,
      "##a9c9b": 6332,
      "##a99a9": 6333,
      "##a985fe": 6334,
      "##a92070": 6335,
      "##ed9": 6336,
      "##ed7": 6337,
      "##edce": 6338,
      "##ed46": 6339,
      "##ed27": 6340,
      "##edca": 6341,
      "##ed36": 6342,
      "##ed07": 6343,
      "##ed26": 6344,
      "##ed14": 6345,
      "##eddf": 6346,
      "##edc8": 6347,
      "##edec1": 6348,
      "##ed42": 6349,
      "##ed361": 6350,
      "##ed200": 6351,
      "##ed576": 6352,
      "##ed642": 6353,
      "##edf86": 6354,
      "##edda2": 6355,
      "##ed8a3": 6356,
      "11fa": 6357,
      "11a4": 6358,
      "11d6": 6359,
      "1146": 6360,
      "11f1": 6361,
      "112d": 6362,
      "11fc": 6363,
      "1134": 6364,
      "110b": 6365,
      "11bd": 6366,
      "117b": 6367,
      "1155": 6368,
      "1175": 6369,
      "1170": 6370,
      "110e3": 6371,
      "11d49": 6372,
      "11c5a": 6373,
      "11d00": 6374,
      "11f5ec": 6375,
      "106": 6376,
      "100c": 6377,
      "1000": 6378,
      "1091": 6379,
      "1043": 6380,
      "1033": 6381,
      "1072": 6382,
      "1034": 6383,
      "10a0": 6384,
      "1055": 6385,
      "10042": 6386,
      "102e": 6387,
      "109f": 6388,
      "10d3": 6389,
      "10246": 6390,
      "10345": 6391,
      "10637": 6392,
      "100e11": 6393,
      "##3d4": 6394,
      "##3d6": 6395,
      "##3d0": 6396,
      "##3d9": 6397,
      "##3d27": 6398,
      "##3dc4": 6399,
      "##3d98": 6400,
      "##3d9b": 6401,
      "##3d69": 6402,
      "##3da0": 6403,
      "##3d15": 6404,
      "##3da91": 6405,
      "##3d521": 6406,
      "##3d08d": 6407,
      "##3d3b6": 6408,
      "##3d748": 6409,
      "##3dc33": 6410,
      "##3d3ca": 6411,
      "##3dda3": 6412,
      "##3da99": 6413,
      "##0c6": 6414,
      "##0c96": 6415,
      "##0c00": 6416,
      "##0c46": 6417,
      "##0c78": 6418,
      "##0c27": 6419,
      "##0c9b": 6420,
      "##0ca8": 6421,
      "##0c90": 6422,
      "##0cbd": 6423,
      "##0cc1": 6424,
      "##0c3e": 6425,
      "##0c9f": 6426,
      "009": 6427,
      "008": 6428,
      "0032": 6429,
      "0086": 6430,
      "0029": 6431,
      "0040": 6432,
      "007c1": 6433,
      "1306": 6434,
      "139b": 6435,
      "1367": 6436,
      "131b": 6437,
      "13cbe": 6438,
      "##413": 6439,
      "##41b7": 6440,
      "##41b8": 6441,
      "##4171": 6442,
      "##4121": 6443,
      "##4136": 6444,
      "##4147": 6445,
      "##4131": 6446,
      "##415c": 6447,
      "##41b2": 6448,
      "##4160": 6449,
      "##41c5": 6450,
      "##4119": 6451,
      "##4116": 6452,
      "##413e": 6453,
      "##411c": 6454,
      "##4163": 6455,
      "##4181": 6456,
      "##41ea6": 6457,
      "##41590": 6458,
      "##41730": 6459,
      "##41020": 6460,
      "##41210": 6461,
      "##415ae": 6462,
      "##4189d": 6463,
      "##41790": 6464,
      "##4101a6": 6465,
      "##fa5": 6466,
      "##fa7": 6467,
      "##face": 6468,
      "##fab0": 6469,
      "##fa48": 6470,
      "##fad1": 6471,
      "##fa21": 6472,
      "##fae7": 6473,
      "##fa66": 6474,
      "##fa11": 6475,
      "##fad4": 6476,
      "##fa7b": 6477,
      "##faf0": 6478,
      "##fa73": 6479,
      "##faf82": 6480,
      "##fae15": 6481,
      "##faa34": 6482,
      "##57f": 6483,
      "##578": 6484,
      "##57d": 6485,
      "##572c": 6486,
      "##5700": 6487,
      "##5791": 6488,
      "##57ea": 6489,
      "##57d8": 6490,
      "##5766": 6491,
      "##5711": 6492,
      "##5759": 6493,
      "##57f2": 6494,
      "##5769": 6495,
      "##5730": 6496,
      "##57d9": 6497,
      "##577b": 6498,
      "##5740": 6499,
      "##5712": 6500,
      "##5710": 6501,
      "##5749": 6502,
      "##5780": 6503,
      "##5701e": 6504,
      "##57271": 6505,
      "##57681": 6506,
      "##57719": 6507,
      "##57981": 6508,
      "##57409": 6509,
      "##57549": 6510,
      "##575f6b": 6511,
      "##a9e02": 6512,
      "548": 6513,
      "542": 6514,
      "5493": 6515,
      "5438": 6516,
      "5402": 6517,
      "54f6": 6518,
      "5420": 6519,
      "54d9": 6520,
      "5475": 6521,
      "5442": 6522,
      "544a": 6523,
      "54b838": 6524,
      "54ffbd": 6525,
      "543561": 6526,
      "##2c4ba": 6527,
      "##e4c5a": 6528,
      "##dba61": 6529,
      "##dba89d": 6530,
      "##dba7faf": 6531,
      "##fb62": 6532,
      "##fb05": 6533,
      "##fb04": 6534,
      "##fb49": 6535,
      "##fba2": 6536,
      "##fbc3": 6537,
      "##fb798": 6538,
      "##fb291": 6539,
      "##fb4130": 6540,
      "##fb477": 6541,
      "##fb546": 6542,
      "##fb0c46": 6543,
      "##ce0": 6544,
      "##cec": 6545,
      "##ceab": 6546,
      "##ce94": 6547,
      "##cea5": 6548,
      "##cee32": 6549,
      "##ce0cf": 6550,
      "##ce325": 6551,
      "##ce34e": 6552,
      "##ce33b": 6553,
      "##ce5712": 6554,
      "##9cb": 6555,
      "##9c71": 6556,
      "##9c11": 6557,
      "##9c32": 6558,
      "##9cd0": 6559,
      "##9c6b": 6560,
      "##9c14": 6561,
      "##9c3e": 6562,
      "##9cd3": 6563,
      "##9c3a": 6564,
      "##9cf42": 6565,
      "##9c409": 6566,
      "##9c5e4": 6567,
      "##9c49e": 6568,
      "##9c6a0": 6569,
      "##9c95b": 6570,
      "##9ca64": 6571,
      "##9c0110": 6572,
      "##9c783f": 6573,
      "##9c63d": 6574,
      "##9cedca": 6575,
      "##5bb": 6576,
      "##5b2": 6577,
      "##5bab": 6578,
      "##5b56": 6579,
      "##5be1": 6580,
      "##5b5c": 6581,
      "##5bae": 6582,
      "##5b22": 6583,
      "##5b53": 6584,
      "##5b81": 6585,
      "##5b1b": 6586,
      "##5b411": 6587,
      "##5bb76": 6588,
      "##5b828": 6589,
      "##5b593": 6590,
      "##5b9b0": 6591,
      "##5b536": 6592,
      "##5baf1": 6593,
      "##a4c": 6594,
      "##a462": 6595,
      "##a461": 6596,
      "##a43c": 6597,
      "##a4ef": 6598,
      "##a4ff": 6599,
      "##a4b6": 6600,
      "##a49ed": 6601,
      "##a465d": 6602,
      "##a4daa": 6603,
      "##a45452": 6604,
      "##a4477": 6605,
      "##a45c2": 6606,
      "##a44249": 6607,
      "##a4eddf": 6608,
      "##966": 6609,
      "##963": 6610,
      "##9639": 6611,
      "##9638": 6612,
      "##9651": 6613,
      "##9659": 6614,
      "##965a": 6615,
      "##9690": 6616,
      "##9630": 6617,
      "##9672": 6618,
      "##9679": 6619,
      "##9620": 6620,
      "##96ff": 6621,
      "##96739": 6622,
      "##96431": 6623,
      "##96e4a7": 6624,
      "##96c54": 6625,
      "##d696": 6626,
      "##d651": 6627,
      "##d661": 6628,
      "##d6c7": 6629,
      "##d642": 6630,
      "##d6dd": 6631,
      "##d64e": 6632,
      "##d636c": 6633,
      "##d6ba7": 6634,
      "##d6984": 6635,
      "##d6195": 6636,
      "##d694d": 6637,
      "##d6e0e": 6638,
      "##d6cf8": 6639,
      "085": 6640,
      "082": 6641,
      "0839": 6642,
      "08b7": 6643,
      "0897": 6644,
      "0836": 6645,
      "0847": 6646,
      "0892": 6647,
      "0867": 6648,
      "0890": 6649,
      "085d": 6650,
      "0886": 6651,
      "08ef": 6652,
      "08d7": 6653,
      "0875": 6654,
      "0870": 6655,
      "08798": 6656,
      "08351": 6657,
      "08311": 6658,
      "0833371": 6659,
      "087742": 6660,
      "##d24": 6661,
      "##d28": 6662,
      "##d2e": 6663,
      "##d241": 6664,
      "##d23b": 6665,
      "##d211": 6666,
      "##d2f7": 6667,
      "##d2bb": 6668,
      "##d2fe1": 6669,
      "##d29e": 6670,
      "##d2b5": 6671,
      "##d245": 6672,
      "##d29d": 6673,
      "##d2e77": 6674,
      "##d21d7": 6675,
      "##d2ba4": 6676,
      "##d25c2": 6677,
      "##d22b07": 6678,
      "##006": 6679,
      "##0041": 6680,
      "##0000": 6681,
      "##00b0": 6682,
      "##0054": 6683,
      "##0058": 6684,
      "##00f4": 6685,
      "##00d4": 6686,
      "##0030": 6687,
      "##00ee": 6688,
      "##00d9": 6689,
      "##0060": 6690,
      "##0040": 6691,
      "##0051e": 6692,
      "##009f": 6693,
      "##0065": 6694,
      "##00231": 6695,
      "##00210": 6696,
      "##00554": 6697,
      "##0094b": 6698,
      "##00670": 6699,
      "##aa7": 6700,
      "##aae": 6701,
      "##aae8": 6702,
      "##aa61": 6703,
      "##aa5e": 6704,
      "##aad7": 6705,
      "##aa531": 6706,
      "##aaf51": 6707,
      "##aa3830": 6708,
      "##aa258b": 6709,
      "##aad29e": 6710,
      "##465": 6711,
      "##46b": 6712,
      "##461": 6713,
      "##467": 6714,
      "##46e": 6715,
      "##464c": 6716,
      "##4671": 6717,
      "##4621": 6718,
      "##4651": 6719,
      "##4633": 6720,
      "##4659": 6721,
      "##46bd": 6722,
      "##4650": 6723,
      "##4660": 6724,
      "##4619": 6725,
      "##462a": 6726,
      "##4640": 6727,
      "##46ad": 6728,
      "##46567": 6729,
      "##46689": 6730,
      "##46359": 6731,
      "##464ef": 6732,
      "##46119": 6733,
      "##468e91": 6734,
      "##46c36": 6735,
      "##46337": 6736,
      "530": 6737,
      "531": 6738,
      "53f7": 6739,
      "53a1": 6740,
      "53a0": 6741,
      "533e": 6742,
      "539e": 6743,
      "530160": 6744,
      "5341210": 6745,
      "##3a94": 6746,
      "##3a90c6": 6747,
      "##c2c33": 6748,
      "25748": 6749,
      "25768": 6750,
      "25771": 6751,
      "25751": 6752,
      "25752": 6753,
      "25707": 6754,
      "25704": 6755,
      "25706": 6756,
      "25782": 6757,
      "25702": 6758,
      "2576b": 6759,
      "257638": 6760,
      "257943": 6761,
      "2575760": 6762,
      "2576051": 6763,
      "2570438": 6764,
      "2575791": 6765,
      "552c": 6766,
      "55c4": 6767,
      "5536": 6768,
      "5533": 6769,
      "55d9": 6770,
      "55ff": 6771,
      "554e": 6772,
      "55c0": 6773,
      "55339": 6774,
      "55fb0": 6775,
      "55ebb1": 6776,
      "55db2d8": 6777,
      "555bb76": 6778,
      "316": 6779,
      "310": 6780,
      "3156": 6781,
      "3158": 6782,
      "31e8": 6783,
      "3131": 6784,
      "3167": 6785,
      "3161": 6786,
      "31b1": 6787,
      "315f": 6788,
      "31c0": 6789,
      "31689": 6790,
      "31037": 6791,
      "31a94": 6792,
      "31826": 6793,
      "31b99": 6794,
      "31e71": 6795,
      "31e4b36": 6796,
      "##ac62": 6797,
      "##acc6": 6798,
      "##ac28": 6799,
      "##accce": 6800,
      "##acd7": 6801,
      "##acc66": 6802,
      "##ac80": 6803,
      "##acc2": 6804,
      "##ac371": 6805,
      "##ac580": 6806,
      "##ac496": 6807,
      "##ac197": 6808,
      "##ac898": 6809,
      "##ac2f2": 6810,
      "##ac5b9b0": 6811,
      "##3978": 6812,
      "##3997": 6813,
      "##3911": 6814,
      "##3982": 6815,
      "##3992": 6816,
      "##395a": 6817,
      "##39f5": 6818,
      "##3990": 6819,
      "##3920": 6820,
      "##39ad": 6821,
      "##39a3": 6822,
      "##3980": 6823,
      "##390f": 6824,
      "##39b3": 6825,
      "##3996fb": 6826,
      "##39a957": 6827,
      "##39d6195": 6828,
      "##9319": 6829,
      "##9312": 6830,
      "##93190": 6831,
      "##93179": 6832,
      "##b06": 6833,
      "##b0db": 6834,
      "##b048": 6835,
      "##b074": 6836,
      "##b0b9": 6837,
      "##b089": 6838,
      "##b0d95": 6839,
      "##b0d07": 6840,
      "##b049e": 6841,
      "##b0b1d": 6842,
      "##b09c63d": 6843,
      "##ile": 6844,
      "2009c409": 6845,
      "##b72": 6846,
      "##b7e": 6847,
      "##b7c": 6848,
      "##b7d6": 6849,
      "##b7dc": 6850,
      "##b756": 6851,
      "##b7e7": 6852,
      "##b733": 6853,
      "##b7e1": 6854,
      "##b7c6c": 6855,
      "##b7d66": 6856,
      "##b7093": 6857,
      "##b7a66": 6858,
      "##b73f56": 6859,
      "##b72c1a": 6860,
      "##ecb": 6861,
      "##ecf": 6862,
      "##eca": 6863,
      "##ec2": 6864,
      "##ecda": 6865,
      "##ec68": 6866,
      "##ec37": 6867,
      "##ec98": 6868,
      "##ec38": 6869,
      "##ec58": 6870,
      "##ec99": 6871,
      "##ec31": 6872,
      "##ec7f": 6873,
      "##eca48": 6874,
      "##ecf06f": 6875,
      "##eccc4": 6876,
      "##628": 6877,
      "##62931": 6878,
      "##6238": 6879,
      "##6266": 6880,
      "##62bc": 6881,
      "##62a1": 6882,
      "##62ad": 6883,
      "##6210": 6884,
      "##62460": 6885,
      "##62079": 6886,
      "##62aa40": 6887,
      "##620164": 6888,
      "##62415ae": 6889,
      "##b81": 6890,
      "##b8a9": 6891,
      "##b84c": 6892,
      "##b864": 6893,
      "##b888": 6894,
      "##b8eb": 6895,
      "##b8c7": 6896,
      "##b8c0": 6897,
      "##b8571": 6898,
      "##b8c56": 6899,
      "##b858d": 6900,
      "##b89a8": 6901,
      "##b88da": 6902,
      "##b8a4ef": 6903,
      "##91c": 6904,
      "##9139": 6905,
      "##9127": 6906,
      "##9168": 6907,
      "##914d": 6908,
      "##912d": 6909,
      "##9111": 6910,
      "##9131": 6911,
      "##9159": 6912,
      "##9190": 6913,
      "##9130": 6914,
      "##91b1": 6915,
      "##912e": 6916,
      "##91050": 6917,
      "##91b36": 6918,
      "##91593": 6919,
      "##91e52": 6920,
      "##91c33": 6921,
      "##913476": 6922,
      "##91da0": 6923,
      "##91ba0": 6924,
      "183": 6925,
      "18ec": 6926,
      "1878": 6927,
      "1848": 6928,
      "1856": 6929,
      "184d": 6930,
      "1894": 6931,
      "1882": 6932,
      "18d4": 6933,
      "18a0": 6934,
      "18d9": 6935,
      "1886": 6936,
      "189e": 6937,
      "1875": 6938,
      "1815": 6939,
      "18922": 6940,
      "18111": 6941,
      "18438": 6942,
      "18387": 6943,
      "18959": 6944,
      "184160": 6945,
      "1896c54": 6946,
      "##54e": 6947,
      "##5400": 6948,
      "##5408": 6949,
      "##5499": 6950,
      "##54d8": 6951,
      "##5492": 6952,
      "##54f7": 6953,
      "##545a": 6954,
      "##5490": 6955,
      "##54e2": 6956,
      "##5430": 6957,
      "##5429": 6958,
      "##5440": 6959,
      "##54d3": 6960,
      "##5480": 6961,
      "##54341": 6962,
      "##544ca": 6963,
      "##54c45": 6964,
      "##54779": 6965,
      "##54c54": 6966,
      "##545d8f": 6967,
      "##548c8": 6968,
      "##54ca47": 6969,
      "##54933d": 6970,
      "##540c90": 6971,
      "##54aae": 6972,
      "##4cb": 6973,
      "##4c74": 6974,
      "##4c68": 6975,
      "##4c21": 6976,
      "##4c98": 6977,
      "##4cd8": 6978,
      "##4c11": 6979,
      "##4c92": 6980,
      "##4cc6": 6981,
      "##4c24": 6982,
      "##4c77": 6983,
      "##4c1c": 6984,
      "##4c0a": 6985,
      "##4c8c": 6986,
      "##4cb0c": 6987,
      "##4c9ba": 6988,
      "##4c256": 6989,
      "##4c624c": 6990,
      "##4cd17": 6991,
      "##4ce402": 6992,
      "##4ced07": 6993,
      "##4c0c3e": 6994,
      "##da35": 6995,
      "##da68": 6996,
      "##da21": 6997,
      "##dad8": 6998,
      "##da66": 6999,
      "##daef": 7000,
      "##da60": 7001,
      "##daba": 7002,
      "##da80": 7003,
      "##da87": 7004,
      "##dadd6": 7005,
      "##da19a": 7006,
      "##085": 7007,
      "##084": 7008,
      "##08b": 7009,
      "##08e": 7010,
      "##0841": 7011,
      "##0808": 7012,
      "##0871": 7013,
      "##082d": 7014,
      "##0847": 7015,
      "##0886": 7016,
      "##08c7": 7017,
      "##0860": 7018,
      "##089e": 7019,
      "##08b9": 7020,
      "##08c0": 7021,
      "##08029": 7022,
      "##08621": 7023,
      "##08235": 7024,
      "##082762": 7025,
      "##086eaf": 7026,
      "##08fe4": 7027,
      "##08901": 7028,
      "##7801": 7029,
      "##78eb7": 7030,
      "##7871": 7031,
      "##78ab": 7032,
      "##7898": 7033,
      "##78cc": 7034,
      "##7890": 7035,
      "##7830": 7036,
      "##783c": 7037,
      "##7879": 7038,
      "##7860": 7039,
      "##7819": 7040,
      "##7829": 7041,
      "##7840": 7042,
      "##78900": 7043,
      "##7870": 7044,
      "##7825": 7045,
      "##7873": 7046,
      "##78b4": 7047,
      "##78371": 7048,
      "##78940": 7049,
      "##789d": 7050,
      "##78726": 7051,
      "##78744": 7052,
      "##78d211": 7053,
      "##485": 7054,
      "##4841": 7055,
      "##4839": 7056,
      "##48b8": 7057,
      "##48f8": 7058,
      "##4867": 7059,
      "##4828": 7060,
      "##48c7": 7061,
      "##4860": 7062,
      "##4829": 7063,
      "##4825": 7064,
      "##486d": 7065,
      "##4880": 7066,
      "##4881": 7067,
      "##48826": 7068,
      "##48553": 7069,
      "##48d00": 7070,
      "##483e6": 7071,
      "##48fd71": 7072,
      "##48ee1": 7073,
      "##48d37": 7074,
      "##4801c6": 7075,
      "##482cd": 7076,
      "##48ce5712": 7077,
      "##4808c7": 7078,
      "##dcdc": 7079,
      "##dc36": 7080,
      "##dc26": 7081,
      "##dcb1": 7082,
      "##dc824d": 7083,
      "##dcb6": 7084,
      "##dc0d": 7085,
      "##dc13": 7086,
      "##dca91": 7087,
      "##dc088": 7088,
      "##dc7cd": 7089,
      "##74f": 7090,
      "##74b8": 7091,
      "##7471": 7092,
      "##7447": 7093,
      "##74f6": 7094,
      "##7450": 7095,
      "##74a757": 7096,
      "##7449": 7097,
      "##74949": 7098,
      "##74037": 7099,
      "##747e1": 7100,
      "##74320": 7101,
      "##747c60": 7102,
      "##74dfc5": 7103,
      "##7401f382c": 7104,
      "##743542": 7105,
      "##1841": 7106,
      "##18d2": 7107,
      "##180e": 7108,
      "##1871": 7109,
      "##1843": 7110,
      "##1894": 7111,
      "##18d8": 7112,
      "##1804": 7113,
      "##1830": 7114,
      "##1861": 7115,
      "##1814": 7116,
      "##1850": 7117,
      "##18c5": 7118,
      "##1809": 7119,
      "##1870": 7120,
      "##18c3": 7121,
      "##18211": 7122,
      "##18307": 7123,
      "##18dbc": 7124,
      "##18c45": 7125,
      "##18301": 7126,
      "##182139": 7127,
      "##185de": 7128,
      "##18a74": 7129,
      "##18cd8": 7130,
      "##18d014": 7131,
      "##18b8a9": 7132,
      "##1878744": 7133,
      "479": 7134,
      "4735": 7135,
      "4793": 7136,
      "47db": 7137,
      "4741": 7138,
      "4757": 7139,
      "47fb": 7140,
      "47ec": 7141,
      "4756": 7142,
      "47c4": 7143,
      "4721": 7144,
      "4798": 7145,
      "47ca": 7146,
      "47e8": 7147,
      "47d8": 7148,
      "4704": 7149,
      "47f2": 7150,
      "47f5": 7151,
      "47cc": 7152,
      "4702": 7153,
      "47eb": 7154,
      "47e2": 7155,
      "4730": 7156,
      "47a1": 7157,
      "47c6": 7158,
      "47ee": 7159,
      "47b1": 7160,
      "47b2": 7161,
      "4779": 7162,
      "47d9": 7163,
      "471d": 7164,
      "4716": 7165,
      "47d7": 7166,
      "4722": 7167,
      "476d": 7168,
      "47b9": 7169,
      "47d3": 7170,
      "4723": 7171,
      "4763": 7172,
      "47dd": 7173,
      "47e5": 7174,
      "4715": 7175,
      "47cd": 7176,
      "477f": 7177,
      "47b3": 7178,
      "47b64": 7179,
      "##272": 7180,
      "##2701": 7181,
      "##27ec": 7182,
      "##2727": 7183,
      "##27ab": 7184,
      "##27d1": 7185,
      "##2794": 7186,
      "##27cc": 7187,
      "##2790": 7188,
      "##275d": 7189,
      "##2750": 7190,
      "##2779": 7191,
      "##27a6": 7192,
      "##2770": 7193,
      "##27661": 7194,
      "##27291": 7195,
      "##27220": 7196,
      "##27e91": 7197,
      "##27658": 7198,
      "##27a68": 7199,
      "##27a2a8": 7200,
      "##27f0c2": 7201,
      "##27c503": 7202,
      "##68b": 7203,
      "##688": 7204,
      "##68e": 7205,
      "##68c": 7206,
      "##6871": 7207,
      "##6899": 7208,
      "##68d8": 7209,
      "##6847": 7210,
      "##6826": 7211,
      "##6828": 7212,
      "##6886": 7213,
      "##68ad": 7214,
      "##68a62": 7215,
      "##6863": 7216,
      "##68a2": 7217,
      "##6889": 7218,
      "##6824bc": 7219,
      "##68341": 7220,
      "##68920": 7221,
      "##681d7": 7222,
      "##68409": 7223,
      "##688aa": 7224,
      "##686ef": 7225,
      "##68ebb": 7226,
      "##6833e": 7227,
      "##68760": 7228,
      "##686ec": 7229,
      "##687410": 7230,
      "##68302a": 7231,
      "images": 7232,
      "##0e9": 7233,
      "##0e2": 7234,
      "##0e88": 7235,
      "##0e9b": 7236,
      "##0e61": 7237,
      "##0e2b": 7238,
      "##0ea84": 7239,
      "##0ee6": 7240,
      "##0eff": 7241,
      "##0e1c": 7242,
      "##0e9b3": 7243,
      "##0e366": 7244,
      "##0ead0": 7245,
      "##37e": 7246,
      "##37b7": 7247,
      "##3768": 7248,
      "##3794": 7249,
      "##37fe": 7250,
      "##3751": 7251,
      "##3731": 7252,
      "##37e1": 7253,
      "##375a": 7254,
      "##3761": 7255,
      "##37bd": 7256,
      "##3777": 7257,
      "##37e9": 7258,
      "##379f": 7259,
      "##3770": 7260,
      "##37ba": 7261,
      "##37654": 7262,
      "##37280": 7263,
      "##37a8f": 7264,
      "##37e64": 7265,
      "##37520": 7266,
      "##37cc7": 7267,
      "##37551": 7268,
      "##37259": 7269,
      "##3771b": 7270,
      "##37fdf": 7271,
      "##37cb8": 7272,
      "##373c4a": 7273,
      "##37aa5e": 7274,
      "585": 7275,
      "586": 7276,
      "5869": 7277,
      "5877": 7278,
      "586f": 7279,
      "5825": 7280,
      "58cf": 7281,
      "##970": 7282,
      "##97db": 7283,
      "##97ed": 7284,
      "##9757": 7285,
      "##9796": 7286,
      "##97d2": 7287,
      "##9762": 7288,
      "##97e8": 7289,
      "##9792": 7290,
      "##9776": 7291,
      "##9790": 7292,
      "##9750": 7293,
      "##9719": 7294,
      "##9729": 7295,
      "##9710": 7296,
      "##9763": 7297,
      "##97b5": 7298,
      "##971a": 7299,
      "##97469": 7300,
      "##97211": 7301,
      "##97040": 7302,
      "##97958": 7303,
      "##972df": 7304,
      "##97a07": 7305,
      "##97504": 7306,
      "##97afe": 7307,
      "##97cd9": 7308,
      "##97d4c": 7309,
      "##97b7d66": 7310,
      "##974c77": 7311,
      "ad01": 7312,
      "ada9": 7313,
      "ad9c": 7314,
      "ad00": 7315,
      "ade1": 7316,
      "add4": 7317,
      "ad34": 7318,
      "ad3c": 7319,
      "add9": 7320,
      "adef": 7321,
      "ade9": 7322,
      "ad15": 7323,
      "ad81": 7324,
      "ad1a": 7325,
      "adf07": 7326,
      "ad038": 7327,
      "aded0": 7328,
      "ad0e7f": 7329,
      "ad83": 7330,
      "ad089e": 7331,
      "##a7b": 7332,
      "##a774": 7333,
      "##a711": 7334,
      "##a75d": 7335,
      "##a7bd": 7336,
      "##a7460": 7337,
      "##a7cb6": 7338,
      "##a7db8": 7339,
      "##a7e4a7": 7340,
      "##a73d748": 7341,
      "##a754d3": 7342,
      "##b090acc": 7343,
      "##ed59": 7344,
      "##ed5386": 7345,
      "b575": 7346,
      "a48b": 7347,
      "a48a": 7348,
      "a48835": 7349,
      "##7141": 7350,
      "##7100": 7351,
      "##7178": 7352,
      "##7148": 7353,
      "##7164": 7354,
      "##7121": 7355,
      "##7131": 7356,
      "##71a8": 7357,
      "##716b": 7358,
      "##71f0": 7359,
      "##7112": 7360,
      "##71be": 7361,
      "##7115": 7362,
      "##71713": 7363,
      "##71067": 7364,
      "##71932d": 7365,
      "065": 7366,
      "060": 7367,
      "061": 7368,
      "069": 7369,
      "064c": 7370,
      "065e": 7371,
      "06c7": 7372,
      "06d3": 7373,
      "06501": 7374,
      "063a": 7375,
      "0674a": 7376,
      "06a0e": 7377,
      "06fea8": 7378,
      "06c76": 7379,
      "045": 7380,
      "042": 7381,
      "047": 7382,
      "044c": 7383,
      "04dc": 7384,
      "04d4": 7385,
      "04d5": 7386,
      "04afc2": 7387,
      "##abb": 7388,
      "##abf": 7389,
      "##abd": 7390,
      "##ab93": 7391,
      "##abf4": 7392,
      "##abd0": 7393,
      "##abc6": 7394,
      "##aba34": 7395,
      "##ab6cdc": 7396,
      "##aba2993": 7397,
      "##ab401": 7398,
      "##9c84": 7399,
      "##9c8e": 7400,
      "##9c8a59": 7401,
      "##9c8572c": 7402,
      "##64a": 7403,
      "##64e": 7404,
      "##6439": 7405,
      "##6494": 7406,
      "##6407": 7407,
      "##6447": 7408,
      "##6490": 7409,
      "##645c": 7410,
      "##64a6": 7411,
      "##6449": 7412,
      "##64d86": 7413,
      "##64936": 7414,
      "##6405c": 7415,
      "##64912": 7416,
      "##640f1": 7417,
      "##64509": 7418,
      "##643e5": 7419,
      "##6435b1": 7420,
      "##640cbd": 7421,
      "##64aad7": 7422,
      "##640e1c": 7423,
      "##885": 7424,
      "##887": 7425,
      "##88ee": 7426,
      "##88b1": 7427,
      "##8820": 7428,
      "##8870": 7429,
      "##8880": 7430,
      "##884e77": 7431,
      "##886e8b": 7432,
      "##8862ad": 7433,
      "##8837aa5e": 7434,
      "##88a711": 7435,
      "##8864a": 7436,
      "##7428": 7437,
      "##bb06": 7438,
      "##bb0f4": 7439,
      "##bb0bd": 7440,
      "##bb053f": 7441,
      "##c91c72": 7442,
      "405": 7443,
      "409": 7444,
      "402": 7445,
      "403": 7446,
      "4093": 7447,
      "40ed": 7448,
      "400c": 7449,
      "40ec": 7450,
      "4043": 7451,
      "4095": 7452,
      "4098": 7453,
      "4058": 7454,
      "40f4": 7455,
      "4031": 7456,
      "405a": 7457,
      "40a1": 7458,
      "4072": 7459,
      "40b2": 7460,
      "40f0": 7461,
      "40d7": 7462,
      "402e": 7463,
      "4022": 7464,
      "40ba": 7465,
      "40b5": 7466,
      "40dd": 7467,
      "40b4": 7468,
      "40333": 7469,
      "40721": 7470,
      "40de51": 7471,
      "40239": 7472,
      "402c6e": 7473,
      "4048c7": 7474,
      "12a9": 7475,
      "1260": 7476,
      "1217": 7477,
      "129bc": 7478,
      "12db2b": 7479,
      "1239a3": 7480,
      "##56b": 7481,
      "##5678": 7482,
      "##5668": 7483,
      "##56f1": 7484,
      "##5636": 7485,
      "##5699": 7486,
      "##56bc": 7487,
      "##5602": 7488,
      "##56eb": 7489,
      "##5669": 7490,
      "##5661": 7491,
      "##5679": 7492,
      "##56960": 7493,
      "##5609": 7494,
      "##5658f": 7495,
      "##5610": 7496,
      "##56dca": 7497,
      "##56971": 7498,
      "##563ba": 7499,
      "##56c41": 7500,
      "##563ca": 7501,
      "##56a78": 7502,
      "##56d28": 7503,
      "175": 7504,
      "1767": 7505,
      "17d9": 7506,
      "17ef": 7507,
      "17dcc": 7508,
      "1773": 7509,
      "17ebc": 7510,
      "177f": 7511,
      "17540": 7512,
      "17967": 7513,
      "17c87": 7514,
      "17b49": 7515,
      "17ee81": 7516,
      "1771f0": 7517,
      "1756bc": 7518,
      "213": 7519,
      "21fe": 7520,
      "2131": 7521,
      "21bb": 7522,
      "21a0": 7523,
      "213c": 7524,
      "21917": 7525,
      "21d7": 7526,
      "212b": 7527,
      "21061": 7528,
      "21579": 7529,
      "21438": 7530,
      "21581": 7531,
      "2161739": 7532,
      "21a0c88": 7533,
      "2141590": 7534,
      "2108901": 7535,
      "##4d1": 7536,
      "##4d9": 7537,
      "##4d7": 7538,
      "##4d9c": 7539,
      "##4d95": 7540,
      "##4de8": 7541,
      "##4d40": 7542,
      "##4d1c": 7543,
      "##4d89": 7544,
      "##4d0e3": 7545,
      "##4d5f7": 7546,
      "##4d40e": 7547,
      "##43f": 7548,
      "##43e": 7549,
      "##4368": 7550,
      "##433b": 7551,
      "##4382": 7552,
      "##4332": 7553,
      "##4369": 7554,
      "##4360": 7555,
      "##43af": 7556,
      "##43b6": 7557,
      "##436a": 7558,
      "##43cc7": 7559,
      "##4342b": 7560,
      "##43600": 7561,
      "##4327c503": 7562,
      "usage": 7563,
      "##0541": 7564,
      "##05fa": 7565,
      "##0591": 7566,
      "##0588": 7567,
      "##05f1": 7568,
      "##0521": 7569,
      "##0511": 7570,
      "##05cc": 7571,
      "##052a": 7572,
      "##0555": 7573,
      "##05d1a": 7574,
      "##0510": 7575,
      "##051a": 7576,
      "##059a": 7577,
      "##05cb6": 7578,
      "##055d4": 7579,
      "##05e2a": 7580,
      "##055c8": 7581,
      "##055408": 7582,
      "##05ab401": 7583,
      "##d13": 7584,
      "##d159": 7585,
      "##d1bc": 7586,
      "##d1a1": 7587,
      "##d150": 7588,
      "##d13e": 7589,
      "##d19f": 7590,
      "##d1f87": 7591,
      "##d170": 7592,
      "##d13a": 7593,
      "##d15f": 7594,
      "##d1ce8": 7595,
      "##d17e1": 7596,
      "##d1f31": 7597,
      "##d14b0": 7598,
      "##d197ed": 7599,
      "##f15": 7600,
      "##f137": 7601,
      "##f1de": 7602,
      "##f1f7": 7603,
      "##f1bb": 7604,
      "##f130": 7605,
      "##f1a1": 7606,
      "##f1b1": 7607,
      "##f114": 7608,
      "##f17b": 7609,
      "##f160": 7610,
      "##f12a": 7611,
      "##f155": 7612,
      "##f1e0": 7613,
      "##f15fc": 7614,
      "##f1fc1": 7615,
      "##f1e2d": 7616,
      "##f1bc7": 7617,
      "##f13b7": 7618,
      "##f11ae2": 7619,
      "##f16f5": 7620,
      "##f157ea": 7621,
      "##f1dc7cd": 7622,
      "##f1d13a": 7623,
      "##c4b": 7624,
      "##c47": 7625,
      "##c478": 7626,
      "##c4b2": 7627,
      "##c420": 7628,
      "##c4fd5": 7629,
      "##c4773": 7630,
      "##c4935": 7631,
      "##c4eeb": 7632,
      "##95a": 7633,
      "##9539": 7634,
      "##9551": 7635,
      "##9511": 7636,
      "##9555": 7637,
      "##95a3": 7638,
      "##9509": 7639,
      "##95f8f1": 7640,
      "##9512": 7641,
      "##9510": 7642,
      "##95c2": 7643,
      "##9589": 7644,
      "##9515": 7645,
      "##959d": 7646,
      "##95961": 7647,
      "##95d80": 7648,
      "##95f3d": 7649,
      "##95072": 7650,
      "##95ab7": 7651,
      "##952e7c1": 7652,
      "##95e2c": 7653,
      "##9546b": 7654,
      "##9508b": 7655,
      "##9537fe": 7656,
      "##95f15fc": 7657,
      "##2d96": 7658,
      "##2d5d": 7659,
      "##2d0b": 7660,
      "##2dd3": 7661,
      "##2d0f": 7662,
      "##2df01": 7663,
      "##2df8f": 7664,
      "##2de51": 7665,
      "##2dd88": 7666,
      "##2d0147": 7667,
      "##2d00ee": 7668,
      "##2dda87": 7669,
      "##2d4d95": 7670,
      "4bfa": 7671,
      "4b57": 7672,
      "4bce": 7673,
      "4b9c": 7674,
      "4bac": 7675,
      "4bb8": 7676,
      "4b48": 7677,
      "4bdc": 7678,
      "4b18": 7679,
      "4bab": 7680,
      "4b43": 7681,
      "4bc4": 7682,
      "4b21": 7683,
      "4b98": 7684,
      "4b52": 7685,
      "4b66": 7686,
      "4b47": 7687,
      "4b31": 7688,
      "4bd0": 7689,
      "4bfc": 7690,
      "4b26": 7691,
      "4b67": 7692,
      "4beb": 7693,
      "4bf6": 7694,
      "4b6b": 7695,
      "4b61": 7696,
      "4bd5": 7697,
      "4b3f": 7698,
      "4bae": 7699,
      "4b5d": 7700,
      "4bdf": 7701,
      "4bc1": 7702,
      "4b5e": 7703,
      "4b4b": 7704,
      "4b6f": 7705,
      "4be6": 7706,
      "4baf": 7707,
      "4b12": 7708,
      "4bc9": 7709,
      "4bdd": 7710,
      "4bb4": 7711,
      "4b3a": 7712,
      "4b5f": 7713,
      "4b15": 7714,
      "4b1a": 7715,
      "4bb3": 7716,
      "4b6a": 7717,
      "4b1f": 7718,
      "4b4147": 7719,
      "##216": 7720,
      "##21d": 7721,
      "##2136": 7722,
      "##2194": 7723,
      "##2106": 7724,
      "##2131": 7725,
      "##2190": 7726,
      "##21a1": 7727,
      "##210b": 7728,
      "##219e": 7729,
      "##2155": 7730,
      "##219f": 7731,
      "##2112": 7732,
      "##2165": 7733,
      "##21b6": 7734,
      "##214a": 7735,
      "##21730": 7736,
      "##21431": 7737,
      "##2136c": 7738,
      "##21e2d": 7739,
      "##214fc": 7740,
      "##21290": 7741,
      "##21b015c": 7742,
      "##212f4": 7743,
      "##2162415ae": 7744,
      "##ea0e": 7745,
      "##ea28": 7746,
      "##ea14": 7747,
      "##ea16": 7748,
      "##eae0": 7749,
      "##eae5": 7750,
      "##ea0f": 7751,
      "##ea314": 7752,
      "##ea276": 7753,
      "##ea526": 7754,
      "##ea193": 7755,
      "##eadd8": 7756,
      "##98c": 7757,
      "##983": 7758,
      "##9896": 7759,
      "##9891": 7760,
      "##9836": 7761,
      "##98fe": 7762,
      "##9858": 7763,
      "##985a": 7764,
      "##9830": 7765,
      "##9872": 7766,
      "##98bd": 7767,
      "##9820": 7768,
      "##9871f": 7769,
      "##9870": 7770,
      "##9812": 7771,
      "##98a2": 7772,
      "##980a": 7773,
      "##98e3": 7774,
      "##98958": 7775,
      "##985d4": 7776,
      "##98651": 7777,
      "##98c56": 7778,
      "##98f980": 7779,
      "##989796": 7780,
      "##98d150": 7781,
      "##989512": 7782,
      "##ca6": 7783,
      "##ca62": 7784,
      "##ca6b": 7785,
      "##cae05": 7786,
      "##ca859": 7787,
      "##cadde": 7788,
      "##ca57d9": 7789,
      "##caf1d13a": 7790,
      "412": 7791,
      "415b": 7792,
      "41ac": 7793,
      "41b0": 7794,
      "414c": 7795,
      "4108": 7796,
      "41d1": 7797,
      "412d": 7798,
      "4136": 7799,
      "41e7": 7800,
      "4166": 7801,
      "4104": 7802,
      "4133": 7803,
      "4132": 7804,
      "4159": 7805,
      "41f2": 7806,
      "415a": 7807,
      "4176": 7808,
      "4190": 7809,
      "41d5": 7810,
      "41b1": 7811,
      "410b": 7812,
      "41c8": 7813,
      "41ef": 7814,
      "41c5": 7815,
      "4119": 7816,
      "41ad": 7817,
      "412e": 7818,
      "4109": 7819,
      "419f": 7820,
      "41e6": 7821,
      "41af": 7822,
      "4110": 7823,
      "41c9": 7824,
      "4163": 7825,
      "41b5": 7826,
      "41b4": 7827,
      "41c3": 7828,
      "41b6": 7829,
      "41e5": 7830,
      "4145": 7831,
      "416c": 7832,
      "41bf": 7833,
      "41e3": 7834,
      "414f": 7835,
      "416e": 7836,
      "41b3": 7837,
      "413e4": 7838,
      "416a": 7839,
      "41fb8": 7840,
      "412cb": 7841,
      "41d2d6": 7842,
      "41c58": 7843,
      "414101a6": 7844,
      "##3601": 7845,
      "##3600": 7846,
      "##3639": 7847,
      "##36b7": 7848,
      "##36cc": 7849,
      "##365d": 7850,
      "##36e9": 7851,
      "##36a6": 7852,
      "##36900": 7853,
      "##36938": 7854,
      "##366e": 7855,
      "##36e91": 7856,
      "##36d12": 7857,
      "##36f20": 7858,
      "##36530": 7859,
      "##36bf2": 7860,
      "##36dd9": 7861,
      "##36c7c": 7862,
      "015": 7863,
      "011": 7864,
      "019": 7865,
      "013": 7866,
      "0162": 7867,
      "0154": 7868,
      "01f2": 7869,
      "013e": 7870,
      "0123": 7871,
      "0149": 7872,
      "01793": 7873,
      "01f437": 7874,
      "010217": 7875,
      "##oniz": 7876,
      "2638": 7877,
      "2651": 7878,
      "2699": 7879,
      "2607": 7880,
      "2692": 7881,
      "2631": 7882,
      "26a8": 7883,
      "2669": 7884,
      "2650": 7885,
      "26c8": 7886,
      "2660": 7887,
      "2617": 7888,
      "2612": 7889,
      "2673": 7890,
      "2663": 7891,
      "26b5": 7892,
      "26b4": 7893,
      "26d40": 7894,
      "26910": 7895,
      "26316": 7896,
      "26590": 7897,
      "26567": 7898,
      "26786": 7899,
      "26391": 7900,
      "26949": 7901,
      "26380": 7902,
      "26911": 7903,
      "26357": 7904,
      "26781": 7905,
      "267474": 7906,
      "266851": 7907,
      "26366": 7908,
      "2658210": 7909,
      "2635262": 7910,
      "2693460": 7911,
      "2696431": 7912,
      "2693179": 7913,
      "2662079": 7914,
      "2678900": 7915,
      "2668920": 7916,
      "2664509": 7917,
      "2695961": 7918,
      "2636530": 7919,
      "##942": 7920,
      "##9401": 7921,
      "##94a7": 7922,
      "##9498": 7923,
      "##94f6": 7924,
      "##9428": 7925,
      "##9479": 7926,
      "##9440": 7927,
      "##9470": 7928,
      "##9423": 7929,
      "##94577": 7930,
      "##94798": 7931,
      "##94554": 7932,
      "##94200": 7933,
      "##3be": 7934,
      "##3bd0": 7935,
      "##3be3": 7936,
      "##3bdb8": 7937,
      "##3b34f": 7938,
      "##3bac9": 7939,
      "##3bf88": 7940,
      "##3b395": 7941,
      "##3bd8b": 7942,
      "##3be17": 7943,
      "##3bfd5": 7944,
      "##3b35d": 7945,
      "##3b13a": 7946,
      "##3b2951": 7947,
      "##3bc28": 7948,
      "##3b01d2": 7949,
      "##3bec68": 7950,
      "##3808": 7951,
      "##383b": 7952,
      "##3859": 7953,
      "##38eb": 7954,
      "##3850": 7955,
      "##3879": 7956,
      "##3860": 7957,
      "##3877": 7958,
      "##38ad": 7959,
      "##3817": 7960,
      "##38f3": 7961,
      "##38e9d": 7962,
      "##389a": 7963,
      "##38040": 7964,
      "##38080": 7965,
      "##38982": 7966,
      "##38462": 7967,
      "##380ee": 7968,
      "##38fcd": 7969,
      "##3853b": 7970,
      "##38f94a": 7971,
      "##38c74": 7972,
      "##f84": 7973,
      "##f8b": 7974,
      "##f8a": 7975,
      "##f899": 7976,
      "##f832": 7977,
      "##f8f9": 7978,
      "##f879": 7979,
      "##f8ef": 7980,
      "##f8da7": 7981,
      "##f812": 7982,
      "##f8ba": 7983,
      "##f8dd": 7984,
      "##f8e5": 7985,
      "##f84f": 7986,
      "##f8789": 7987,
      "##f80172": 7988,
      "##f8526": 7989,
      "##f80a3": 7990,
      "##f86863": 7991,
      "##f8ca6": 7992,
      "##fe9": 7993,
      "##fece": 7994,
      "##fe52": 7995,
      "##fe66": 7996,
      "##febb": 7997,
      "##fef6": 7998,
      "##febd": 7999,
      "##fe55": 8000,
      "##fe03": 8001,
      "##fe371": 8002,
      "##fe0a": 8003,
      "##fe959": 8004,
      "##fe9ed": 8005,
      "##fe6d1": 8006,
      "##fe357d": 8007,
      "##fea968": 8008,
      "##fefab0": 8009,
      "##fe78d211": 8010,
      "##fea774": 8011,
      "##fe36c7c": 8012,
      "25ac": 8013,
      "250e": 8014,
      "2507": 8015,
      "2511": 8016,
      "2592": 8017,
      "2531": 8018,
      "2559": 8019,
      "2524": 8020,
      "2586": 8021,
      "25c1": 8022,
      "25917": 8023,
      "2512": 8024,
      "2523": 8025,
      "2515": 8026,
      "25384": 8027,
      "25561": 8028,
      "25d45": 8029,
      "259876": 8030,
      "25391": 8031,
      "25911": 8032,
      "25361": 8033,
      "25273": 8034,
      "25958": 8035,
      "25a63": 8036,
      "250514": 8037,
      "25358": 8038,
      "25916": 8039,
      "25fdba": 8040,
      "2501280": 8041,
      "2593911": 8042,
      "25a9ac": 8043,
      "2557549": 8044,
      "2500231": 8045,
      "2591050": 8046,
      "2527661": 8047,
      "2568409": 8048,
      "2564912": 8049,
      "2536900": 8050,
      "2538040": 8051,
      "090": 8052,
      "09b5": 8053,
      "09561": 8054,
      "09261": 8055,
      "09991": 8056,
      "09ad2": 8057,
      "0935540": 8058,
      "0908029": 8059,
      "0927291": 8060,
      "0921431": 8061,
      "07bc": 8062,
      "076f": 8063,
      "077c": 8064,
      "07e05": 8065,
      "07be7fa": 8066,
      "07c0ce": 8067,
      "07d51": 8068,
      "0757271": 8069,
      "0793190": 8070,
      "0768a62": 8071,
      "07972df": 8072,
      "14fb": 8073,
      "1451": 8074,
      "206": 8075,
      "2096": 8076,
      "2032": 8077,
      "2029": 8078,
      "206a": 8079,
      "2061739": 8080,
      "2041020": 8081,
      "##519": 8082,
      "##512": 8083,
      "##5118": 8084,
      "##51f4": 8085,
      "##5159": 8086,
      "##51c6": 8087,
      "##5120": 8088,
      "##51e9": 8089,
      "##5129": 8090,
      "##51c0": 8091,
      "##51949": 8092,
      "##51719": 8093,
      "##51fab": 8094,
      "##51f45": 8095,
      "##51ba4": 8096,
      "##51f621": 8097,
      "##51c2d": 8098,
      "##51face": 8099,
      "##51ac580": 8100,
      "##5162bc": 8101,
      "##51970": 8102,
      "##defc": 8103,
      "##de69": 8104,
      "##de7b": 8105,
      "##debb7": 8106,
      "##de60c": 8107,
      "##de6bc": 8108,
      "##de3d69": 8109,
      "869c": 8110,
      "8664": 8111,
      "86bb": 8112,
      "86d5": 8113,
      "86ae": 8114,
      "86c5": 8115,
      "86a6": 8116,
      "869f": 8117,
      "86b6": 8118,
      "8615": 8119,
      "86cd": 8120,
      "869d": 8121,
      "866a": 8122,
      "86058": 8123,
      "863f9b": 8124,
      "86997": 8125,
      "86686ef": 8126,
      "8695f8f1": 8127,
      "031": 8128,
      "0304": 8129,
      "0331": 8130,
      "03cc": 8131,
      "03a05": 8132,
      "03db9f1": 8133,
      "0327658": 8134,
      "485": 8135,
      "486": 8136,
      "483": 8137,
      "48ed": 8138,
      "4896": 8139,
      "48d6": 8140,
      "48ec": 8141,
      "4808": 8142,
      "4848": 8143,
      "4868": 8144,
      "4871": 8145,
      "4805": 8146,
      "4898": 8147,
      "4804": 8148,
      "4833": 8149,
      "489b": 8150,
      "4892": 8151,
      "48f2": 8152,
      "48a5": 8153,
      "48d5": 8154,
      "483f": 8155,
      "48df": 8156,
      "4844": 8157,
      "48d9": 8158,
      "48c8": 8159,
      "48c5": 8160,
      "4877": 8161,
      "4840": 8162,
      "4855": 8163,
      "482e": 8164,
      "486f": 8165,
      "4875": 8166,
      "4825": 8167,
      "48e0": 8168,
      "4853": 8169,
      "48ba": 8170,
      "48d3": 8171,
      "4865": 8172,
      "48b4": 8173,
      "485f": 8174,
      "4845": 8175,
      "487f": 8176,
      "487d": 8177,
      "484f": 8178,
      "4813": 8179,
      "487c": 8180,
      "481f": 8181,
      "481e": 8182,
      "48640f1": 8183,
      "4895c2": 8184,
      "da74": 8185,
      "da8b5": 8186,
      "da2fd": 8187,
      "##e7a8": 8188,
      "##e7d3": 8189,
      "##e7c8f": 8190,
      "##e7bb1": 8191,
      "##e7ad40": 8192,
      "##e735fc": 8193,
      "##e739ad": 8194,
      "##e754c45": 8195,
      "##e737259": 8196,
      "database": 8197,
      "##589b": 8198,
      "##58c6": 8199,
      "##5861": 8200,
      "##5834": 8201,
      "##5840": 8202,
      "##581a": 8203,
      "##58231": 8204,
      "##58645": 8205,
      "##58200": 8206,
      "##584e77": 8207,
      "##586e7": 8208,
      "##58569": 8209,
      "##58fc82": 8210,
      "##584189d": 8211,
      "##584825": 8212,
      "##58059a": 8213,
      "##582d0b": 8214,
      "##f47": 8215,
      "##f44d": 8216,
      "##f4e1": 8217,
      "##f402": 8218,
      "##f450": 8219,
      "##f477": 8220,
      "##f4f57": 8221,
      "##f400e": 8222,
      "##f47c": 8223,
      "##f4f45": 8224,
      "##f449ae": 8225,
      "##f43d98": 8226,
      "##990": 8227,
      "##992": 8228,
      "##99b0": 8229,
      "##9991": 8230,
      "##9999": 8231,
      "##999b": 8232,
      "##9990": 8233,
      "##9903": 8234,
      "##992b": 8235,
      "##99e5": 8236,
      "##99231": 8237,
      "##99acc": 8238,
      "##992ac": 8239,
      "##e816": 8240,
      "##e840": 8241,
      "##e8af": 8242,
      "##e863": 8243,
      "##e8523": 8244,
      "##e8ac371": 8245,
      "##e84c0c3e": 8246,
      "##fbb9da": 8247,
      "##fbb230": 8248,
      "##fbb97e8": 8249,
      "4293": 8250,
      "42ed": 8251,
      "420c": 8252,
      "42a4": 8253,
      "4248": 8254,
      "4268": 8255,
      "42a7": 8256,
      "42d1": 8257,
      "4251": 8258,
      "4204": 8259,
      "429b": 8260,
      "42e1": 8261,
      "4202": 8262,
      "4290": 8263,
      "426b": 8264,
      "4250": 8265,
      "4260": 8266,
      "42ad": 8267,
      "42da7": 8268,
      "42d27": 8269,
      "42f3": 8270,
      "424e": 8271,
      "4280": 8272,
      "42b6": 8273,
      "42bf": 8274,
      "426e": 8275,
      "4224c": 8276,
      "4256971": 8277,
      "##52e": 8278,
      "##5292": 8279,
      "##525a": 8280,
      "##52fd": 8281,
      "##52f6": 8282,
      "##5230": 8283,
      "##525c": 8284,
      "##5244": 8285,
      "##524e": 8286,
      "##5281": 8287,
      "##52520": 8288,
      "##52415fc": 8289,
      "##52eae": 8290,
      "##52a8e": 8291,
      "##5293f": 8292,
      "##5218d2": 8293,
      "##07c": 8294,
      "##0791": 8295,
      "##07ea": 8296,
      "##07de": 8297,
      "##0799": 8298,
      "##07fc": 8299,
      "##07f5": 8300,
      "##07fd": 8301,
      "##0769": 8302,
      "##0730": 8303,
      "##0761": 8304,
      "##07a6": 8305,
      "##07a3": 8306,
      "##0701a": 8307,
      "##07d370": 8308,
      "##d82f": 8309,
      "##d8a7d": 8310,
      "##d87d": 8311,
      "##d87940": 8312,
      "##d83ae": 8313,
      "##d83d15": 8314,
      "##d85b53": 8315,
      "##3fb8": 8316,
      "##3fb3a": 8317,
      "##3fb4ac": 8318,
      "##4c5c": 8319,
      "##4c5c478": 8320,
      "##4c6b5": 8321,
      "##6691": 8322,
      "##6690": 8323,
      "##665c": 8324,
      "##6609": 8325,
      "##6670": 8326,
      "##66943": 8327,
      "##66180": 8328,
      "##66da68": 8329,
      "##66f155": 8330,
      "##664c6b5": 8331,
      "##0441": 8332,
      "##0404": 8333,
      "##0420": 8334,
      "##04930": 8335,
      "##04999": 8336,
      "##04482": 8337,
      "##0447c": 8338,
      "##04b71b": 8339,
      "##042762": 8340,
      "##04472": 8341,
      "##045d8": 8342,
      "##04b576": 8343,
      "##042c71": 8344,
      "##33f4": 8345,
      "##3311": 8346,
      "##33a8": 8347,
      "##3302": 8348,
      "##3319": 8349,
      "##3309": 8350,
      "##33e5": 8351,
      "##3339d5": 8352,
      "##33e4e13": 8353,
      "##3393af": 8354,
      "##33379f": 8355,
      "##3364e": 8356,
      "##333bf88": 8357,
      "##3acb7093": 8358,
      "##114": 8359,
      "##114c": 8360,
      "##11eb": 8361,
      "##11f6": 8362,
      "##1140": 8363,
      "##11501": 8364,
      "##1115": 8365,
      "##11e52": 8366,
      "##d71dd": 8367,
      "##ea4219f": 8368,
      "024": 8369,
      "029": 8370,
      "02a9": 8371,
      "0231": 8372,
      "028d41": 8373,
      "##0601": 8374,
      "##0671": 8375,
      "##0699": 8376,
      "##06bc": 8377,
      "##0630": 8378,
      "##06f9": 8379,
      "##0619": 8380,
      "##06da7": 8381,
      "##0653": 8382,
      "##063a": 8383,
      "##06589": 8384,
      "##06309": 8385,
      "##063b7": 8386,
      "##062c18": 8387,
      "##06acd7": 8388,
      "##9baf": 8389,
      "##9b49": 8390,
      "##9bb4": 8391,
      "##9beaa": 8392,
      "##9bdd6": 8393,
      "##9b96d": 8394,
      "##9bf67": 8395,
      "##9b101": 8396,
      "##9b411c": 8397,
      "##9bb8eb": 8398,
      "##9b182139": 8399,
      "##9b68e": 8400,
      "##9bea16": 8401,
      "##9bfece": 8402,
      "##9b11f6": 8403,
      "##479": 8404,
      "##4708": 8405,
      "##4768": 8406,
      "##4779": 8407,
      "##475e": 8408,
      "##47fe1": 8409,
      "##4729": 8410,
      "##4703": 8411,
      "##47d7": 8412,
      "##47ea2": 8413,
      "##47f99": 8414,
      "##47a30": 8415,
      "##47decac": 8416,
      "##8291": 8417,
      "##8281": 8418,
      "##828c": 8419,
      "##8227ec": 8420,
      "##92f": 8421,
      "##92a": 8422,
      "##9259": 8423,
      "##9230": 8424,
      "##9240": 8425,
      "##924a": 8426,
      "##92273": 8427,
      "##920cc1": 8428,
      "##92d6cf8": 8429,
      "##92b858d": 8430,
      "##9227ab": 8431,
      "##92974c77": 8432,
      "##3291": 8433,
      "##3258": 8434,
      "##3299": 8435,
      "##32f2": 8436,
      "##3290": 8437,
      "##32f6": 8438,
      "##3230": 8439,
      "##3261": 8440,
      "##3260": 8441,
      "##3249": 8442,
      "##32929": 8443,
      "##32940": 8444,
      "##32349": 8445,
      "##32645": 8446,
      "##32e2d": 8447,
      "##329ba": 8448,
      "##3247c": 8449,
      "##322ee": 8450,
      "##32db9c5": 8451,
      "##32a4b6": 8452,
      "##310": 8453,
      "##319": 8454,
      "##312": 8455,
      "##31d": 8456,
      "##3148": 8457,
      "##3168": 8458,
      "##3143": 8459,
      "##3102": 8460,
      "##3161": 8461,
      "##3150": 8462,
      "##3179": 8463,
      "##31c5": 8464,
      "##3149": 8465,
      "##316c8": 8466,
      "##31561": 8467,
      "##31328": 8468,
      "##313cb": 8469,
      "##319b0": 8470,
      "##3191f": 8471,
      "##31a99e8": 8472,
      "##31082d": 8473,
      "##3178b4": 8474,
      "##319757": 8475,
      "##314d9c": 8476,
      "##3194a7": 8477,
      "##31063b7": 8478,
      "##a76fa": 8479,
      "##a76b64": 8480,
      "##a76796": 8481,
      "27f7": 8482,
      "2776": 8483,
      "2702": 8484,
      "2769": 8485,
      "2724": 8486,
      "2772": 8487,
      "2734": 8488,
      "2728": 8489,
      "2779": 8490,
      "2777": 8491,
      "27960": 8492,
      "27774": 8493,
      "2709": 8494,
      "27218": 8495,
      "27910": 8496,
      "27004": 8497,
      "27316": 8498,
      "27936": 8499,
      "27571": 8500,
      "27620": 8501,
      "27780": 8502,
      "27271": 8503,
      "27314": 8504,
      "27037": 8505,
      "27e91": 8506,
      "27300": 8507,
      "27075": 8508,
      "27716": 8509,
      "27522": 8510,
      "274191": 8511,
      "2768469": 8512,
      "2758210": 8513,
      "27e33": 8514,
      "272cd7": 8515,
      "2741730": 8516,
      "2700670": 8517,
      "2754779": 8518,
      "277164": 8519,
      "2756960": 8520,
      "27d1f87": 8521,
      "27ca6b": 8522,
      "2738080": 8523,
      "2751970": 8524,
      "27525a": 8525,
      "2704930": 8526,
      "##59d8ea": 8527,
      "##590c27": 8528,
      "9e35": 8529,
      "9e18": 8530,
      "9e0e": 8531,
      "9e51": 8532,
      "9e67": 8533,
      "9e2f": 8534,
      "9e29": 8535,
      "9e9f": 8536,
      "9e63": 8537,
      "9eb36": 8538,
      "9e6e6a": 8539,
      "9ea9ca": 8540,
      "9e9792": 8541,
      "9e9830": 8542,
      "##f767": 8543,
      "##f7c6": 8544,
      "##f7b1": 8545,
      "##f7c5": 8546,
      "##f73e": 8547,
      "##f79b6": 8548,
      "##f7d7": 8549,
      "##f723": 8550,
      "##f72e5": 8551,
      "##f7bb7": 8552,
      "##f7a2f": 8553,
      "##f76b8": 8554,
      "##f75c6": 8555,
      "##f7cfee": 8556,
      "##f7d642": 8557,
      "##f70555": 8558,
      "##f565d0": 8559,
      "##f56606": 8560,
      "##e16": 8561,
      "##e1f": 8562,
      "##e1c": 8563,
      "##e10c": 8564,
      "##e1c9": 8565,
      "##e1e3": 8566,
      "##e19a": 8567,
      "##e17e": 8568,
      "##e1768": 8569,
      "##e1419": 8570,
      "##e1e69": 8571,
      "##e1f15": 8572,
      "##e1983": 8573,
      "e97b12": 8574,
      "##bcfc": 8575,
      "##bc76": 8576,
      "##bc90": 8577,
      "##bc5d": 8578,
      "##bc948": 8579,
      "##bc321": 8580,
      "##bc307": 8581,
      "##bc357": 8582,
      "##bc482": 8583,
      "##bc071": 8584,
      "##bc103": 8585,
      "##bc204": 8586,
      "##bc11eb": 8587,
      "4501": 8588,
      "459c": 8589,
      "45a4": 8590,
      "45d2": 8591,
      "4546": 8592,
      "4539": 8593,
      "45ec": 8594,
      "4554": 8595,
      "4568": 8596,
      "4564": 8597,
      "45ca": 8598,
      "4538": 8599,
      "4551": 8600,
      "45de": 8601,
      "45e8": 8602,
      "4531": 8603,
      "4559": 8604,
      "45f7": 8605,
      "45e1": 8606,
      "45cc": 8607,
      "45d4": 8608,
      "453c": 8609,
      "455e": 8610,
      "45a6": 8611,
      "45ad": 8612,
      "45d7": 8613,
      "45e6": 8614,
      "45e0": 8615,
      "45e5": 8616,
      "45554": 8617,
      "450e8": 8618,
      "45f80172": 8619,
      "4532349": 8620,
      "##f267": 8621,
      "##f2eb": 8622,
      "##f2be": 8623,
      "##f2b5": 8624,
      "##f287": 8625,
      "##f269b": 8626,
      "##f2389": 8627,
      "##f26df": 8628,
      "##f2413": 8629,
      "##f26609": 8630,
      "##f2312": 8631,
      "##d0a4": 8632,
      "##d0d3": 8633,
      "##d057d": 8634,
      "##d0bc357": 8635,
      "4cac": 8636,
      "4cb0": 8637,
      "4c54": 8638,
      "4c4c": 8639,
      "4c78": 8640,
      "4c74": 8641,
      "4c56": 8642,
      "4c4d": 8643,
      "4c3b": 8644,
      "4c07": 8645,
      "4cd8": 8646,
      "4c04": 8647,
      "4c33": 8648,
      "4cfd": 8649,
      "4c90": 8650,
      "4cb1": 8651,
      "4c3f": 8652,
      "4c5d": 8653,
      "4c3c": 8654,
      "4c50": 8655,
      "4cb2": 8656,
      "4c79": 8657,
      "4cdf": 8658,
      "4cd9": 8659,
      "4cf0": 8660,
      "4cc1": 8661,
      "4c29": 8662,
      "4c16": 8663,
      "4cd7": 8664,
      "4c2e": 8665,
      "4c2b": 8666,
      "4cff": 8667,
      "4c1c": 8668,
      "4cdd": 8669,
      "4cc2": 8670,
      "4c3a": 8671,
      "4ccd": 8672,
      "4c246": 8673,
      "4c9d": 8674,
      "4c1a0": 8675,
      "4c7a": 8676,
      "4cc08": 8677,
      "4ce4f8": 8678,
      "4cbc5d": 8679,
      "##fc62": 8680,
      "##fcfe": 8681,
      "##fcb2": 8682,
      "##fcc7": 8683,
      "##fc2a": 8684,
      "##fcdcc": 8685,
      "##fcc9": 8686,
      "##fc23": 8687,
      "##fc29d": 8688,
      "##fc600": 8689,
      "##fc957": 8690,
      "##fca754d3": 8691,
      "##fcabf": 8692,
      "##fc58645": 8693,
      "##fc3fb8": 8694,
      "895531": 8695,
      "##4d94a": 8696,
      "##5a6": 8697,
      "##5a8": 8698,
      "##5ad": 8699,
      "##5af2": 8700,
      "##5ae6": 8701,
      "##5a554": 8702,
      "##5adc1": 8703,
      "##5a2100": 8704,
      "##5a532": 8705,
      "##5a30c2": 8706,
      "##5a3509": 8707,
      "##5ab8c56": 8708,
      "##5a78ab": 8709,
      "##2601": 8710,
      "##2659": 8711,
      "##26011": 8712,
      "##269f1": 8713,
      "##26732": 8714,
      "##26fa66": 8715,
      "##2691b36": 8716,
      "##2674b8": 8717,
      "##bbeb": 8718,
      "##bbb1": 8719,
      "##bb28": 8720,
      "##bbdf": 8721,
      "##bb19": 8722,
      "##bba94": 8723,
      "##bb5e4": 8724,
      "##bba7a": 8725,
      "##bb9de": 8726,
      "##bbb72": 8727,
      "##bb36b7": 8728,
      "f705": 8729,
      "f73e": 8730,
      "f75f": 8731,
      "f7fa2": 8732,
      "f7783f": 8733,
      "f791b1": 8734,
      "##f5e": 8735,
      "##f5d": 8736,
      "##f53c": 8737,
      "##f5d35": 8738,
      "##f5fbe": 8739,
      "##f5ac9": 8740,
      "##f5e26": 8741,
      "##f5d241": 8742,
      "##f5468e91": 8743,
      "##f59c8e": 8744,
      "##f5884e77": 8745,
      "##f556eb": 8746,
      "##f5d19f": 8747,
      "##f5ea314": 8748,
      "##f53bd0": 8749,
      "deb9": 8750,
      "de53b": 8751,
      "de6c1c": 8752,
      "de9d35": 8753,
      "de9c32": 8754,
      "##a83": 8755,
      "##a8dc": 8756,
      "##a805": 8757,
      "##a87b": 8758,
      "##a855": 8759,
      "##a812": 8760,
      "##a8668": 8761,
      "##a841b": 8762,
      "##a8987": 8763,
      "##a8a068": 8764,
      "##a8a26": 8765,
      "##a8c3c": 8766,
      "##a8465": 8767,
      "##a898958": 8768,
      "##a8999b": 8769,
      "##761": 8770,
      "##761c": 8771,
      "##76f3f": 8772,
      "##7652e": 8773,
      "##ccf": 8774,
      "##cc90": 8775,
      "##cc3c": 8776,
      "##ccb2": 8777,
      "##cc250": 8778,
      "##ccd07": 8779,
      "##ccbfa8": 8780,
      "##cc725": 8781,
      "##cc5b2": 8782,
      "##cc4cb": 8783,
      "515": 8784,
      "519": 8785,
      "517": 8786,
      "5128": 8787,
      "51589": 8788,
      "5126011": 8789,
      "##02f": 8790,
      "##0278": 8791,
      "##0268": 8792,
      "##0288": 8793,
      "##0299": 8794,
      "##0290": 8795,
      "##0250": 8796,
      "##0240": 8797,
      "##0249": 8798,
      "##0281": 8799,
      "##02911": 8800,
      "##02e922": 8801,
      "##02f47": 8802,
      "##679": 8803,
      "##673": 8804,
      "##67d": 8805,
      "##67f1": 8806,
      "##6794": 8807,
      "##6799": 8808,
      "##677d4d": 8809,
      "##679cb": 8810,
      "1552": 8811,
      "15ed46": 8812,
      "15f26609": 8813,
      "##d456": 8814,
      "##d404": 8815,
      "##d426": 8816,
      "##d4ad": 8817,
      "##d4d23": 8818,
      "##d44422": 8819,
      "##d4ce94": 8820,
      "##d4ec2": 8821,
      "##d4f1de": 8822,
      "##eb2d": 8823,
      "##ebf2": 8824,
      "##eb01c": 8825,
      "##ebea3": 8826,
      "##eb332": 8827,
      "##eb598": 8828,
      "##eb943": 8829,
      "##eb4fc": 8830,
      "##ebe31": 8831,
      "##eb41b7": 8832,
      "##ebec7f": 8833,
      "##ebe737259": 8834,
      "##fdfa1": 8835,
      "##fd50": 8836,
      "##fd749": 8837,
      "##fd5f7": 8838,
      "##fddf4": 8839,
      "##fdd1e": 8840,
      "##fd072": 8841,
      "##fdf6b": 8842,
      "##fd3b8a": 8843,
      "##fd2caa9": 8844,
      "##fddb3": 8845,
      "##fd74f": 8846,
      "##fdf84": 8847,
      "##fd5162bc": 8848,
      "##fd47a30": 8849,
      "##fdf7d7": 8850,
      "##909": 8851,
      "##9001": 8852,
      "##905b": 8853,
      "##9062": 8854,
      "##9066": 8855,
      "##90b6": 8856,
      "##90927": 8857,
      "##90710": 8858,
      "##90b09c63d": 8859,
      "##90d85b53": 8860,
      "375": 8861,
      "37d6": 8862,
      "3746": 8863,
      "37a1": 8864,
      "3728": 8865,
      "3722": 8866,
      "3723": 8867,
      "37be": 8868,
      "37d41": 8869,
      "37988": 8870,
      "37686ec": 8871,
      "3751ba4": 8872,
      "3706589": 8873,
      "##69fa": 8874,
      "##69b8": 8875,
      "##e24": 8876,
      "##e2e": 8877,
      "##e2a8": 8878,
      "##e2f6": 8879,
      "##e22b": 8880,
      "##e2f4a": 8881,
      "##e20d": 8882,
      "##e2e6a": 8883,
      "##e25a7": 8884,
      "##e2535": 8885,
      "##e2201": 8886,
      "##e2dcb1": 8887,
      "##e2bb5e4": 8888,
      "934": 8889,
      "930c": 8890,
      "93b0": 8891,
      "93ea": 8892,
      "93f8": 8893,
      "93fe": 8894,
      "9311": 8895,
      "93c8": 8896,
      "93b87": 8897,
      "93aa1": 8898,
      "93e0": 8899,
      "93fa2": 8900,
      "93cb0": 8901,
      "93ec43": 8902,
      "933997": 8903,
      "93ebec7f": 8904,
      "##f6e": 8905,
      "##f6d": 8906,
      "##f6a8": 8907,
      "##f6af": 8908,
      "##f6ba": 8909,
      "##f6a77": 8910,
      "##f6353": 8911,
      "##f6da66": 8912,
      "##f6bb06": 8913,
      "##f633f4": 8914,
      "##a5cb": 8915,
      "##a5501": 8916,
      "##a5a4e": 8917,
      "##a5f31": 8918,
      "##a5ec58": 8919,
      "##a52794": 8920,
      "##a506acd7": 8921,
      "##a5e10c": 8922,
      "##cb918": 8923,
      "##cb41c5": 8924,
      "##cb0030": 8925,
      "##cba855": 8926,
      "##b07b28": 8927,
      "##b07da80": 8928,
      "460": 8929,
      "4635": 8930,
      "4693": 8931,
      "460c": 8932,
      "46fb": 8933,
      "46ac": 8934,
      "46b7": 8935,
      "4654": 8936,
      "4608": 8937,
      "46dc": 8938,
      "4668": 8939,
      "4605": 8940,
      "46d1": 8941,
      "46fe": 8942,
      "4699": 8943,
      "46d8": 8944,
      "46bc": 8945,
      "46f6": 8946,
      "465c": 8947,
      "4634": 8948,
      "46c8": 8949,
      "46ef": 8950,
      "46c5": 8951,
      "46ad": 8952,
      "4655": 8953,
      "46d7": 8954,
      "4609": 8955,
      "465f": 8956,
      "4615": 8957,
      "460d": 8958,
      "460a": 8959,
      "46b3": 8960,
      "4668469": 8961,
      "4657719": 8962,
      "4633379f": 8963,
      "##30d6": 8964,
      "##3068": 8965,
      "##3099": 8966,
      "##30d9": 8967,
      "##30d68": 8968,
      "##30a2f": 8969,
      "##30a5b": 8970,
      "##30dac": 8971,
      "##30ec37": 8972,
      "##3036f20": 8973,
      "##309b96d": 8974,
      "##a1c": 8975,
      "##a1d1": 8976,
      "##a17f": 8977,
      "##a13a3": 8978,
      "##a118b": 8979,
      "##a1713": 8980,
      "##a1577b": 8981,
      "##a1d6ba7": 8982,
      "##a1fbb97e8": 8983,
      "##c61": 8984,
      "##c614": 8985,
      "##c6bd": 8986,
      "##c6ef": 8987,
      "##c6db1": 8988,
      "##c6a8987": 8989,
      "##6bed1": 8990,
      "##6b95b": 8991,
      "##6bea7": 8992,
      "##6bdeb": 8993,
      "##6b6ea2": 8994,
      "##6bf961": 8995,
      "##6b3dc33": 8996,
      "##6b679cb": 8997,
      "928": 8998,
      "9246": 8999,
      "9256": 9000,
      "92e8": 9001,
      "9266": 9002,
      "9232": 9003,
      "92f9": 9004,
      "92bd": 9005,
      "92a2": 9006,
      "92bf": 9007,
      "920a": 9008,
      "929a": 9009,
      "92b6f": 9010,
      "920159": 9011,
      "9257d8": 9012,
      "92a8a068": 9013,
      "##5c1": 9014,
      "##5cf4": 9015,
      "##5c2f": 9016,
      "##5c23": 9017,
      "##5cd1d": 9018,
      "##5c41b": 9019,
      "##5c502": 9020,
      "##5ced27": 9021,
      "##5c62a1": 9022,
      "##5c7471": 9023,
      "##5c1814": 9024,
      "##5c365d": 9025,
      "##5c30d9": 9026,
      "##f9db": 9027,
      "##f9ee": 9028,
      "##f9e6": 9029,
      "##f9dd": 9030,
      "##f9fb9": 9031,
      "##f9d651": 9032,
      "##f90541": 9033,
      "##f9a76b64": 9034,
      "##eebb0": 9035,
      "##eeef5": 9036,
      "##eee6a": 9037,
      "##ee65b": 9038,
      "##ee69b": 9039,
      "##ee5b5c": 9040,
      "##ee08235": 9041,
      "##ee0e2": 9042,
      "##245": 9043,
      "##244": 9044,
      "##2459": 9045,
      "##2455": 9046,
      "##24561": 9047,
      "##24a3b": 9048,
      "##24a4f": 9049,
      "##24f70": 9050,
      "##240999": 9051,
      "##2493a": 9052,
      "##243770": 9053,
      "##44679": 9054,
      "##610": 9055,
      "##61db": 9056,
      "##6100": 9057,
      "##6139": 9058,
      "##6198": 9059,
      "##61a5": 9060,
      "##6150": 9061,
      "##619d": 9062,
      "##6142c": 9063,
      "##61f06f": 9064,
      "##61dd7": 9065,
      "##6158c6": 9066,
      "##720": 9067,
      "##729": 9068,
      "##7231": 9069,
      "##7250": 9070,
      "##7280": 9071,
      "##72580": 9072,
      "##7284": 9073,
      "##723dd": 9074,
      "##72ad8": 9075,
      "##7222a": 9076,
      "##720ea84": 9077,
      "##72952e7c1": 9078,
      "##3400": 9079,
      "##3491": 9080,
      "##3421": 9081,
      "##3498": 9082,
      "##3490": 9083,
      "##3420": 9084,
      "##3455": 9085,
      "##34900": 9086,
      "##34350": 9087,
      "##34b0b": 9088,
      "##345be": 9089,
      "##342e1": 9090,
      "##34db638": 9091,
      "##34edec1": 9092,
      "##34fc58645": 9093,
      "##d5f2d": 9094,
      "##d5c6bd": 9095,
      "##d4d1": 9096,
      "4f93": 9097,
      "4fdb": 9098,
      "4f39": 9099,
      "4f54": 9100,
      "4f08": 9101,
      "4fdc": 9102,
      "4f68": 9103,
      "4f37": 9104,
      "4f21": 9105,
      "4f98": 9106,
      "4fca": 9107,
      "4ffe": 9108,
      "4f52": 9109,
      "4f5a": 9110,
      "4ff6": 9111,
      "4f34": 9112,
      "4ffeb": 9113,
      "4f325": 9114,
      "4f0d80": 9115,
      "##b1ef": 9116,
      "##b1f1f": 9117,
      "##b14e4d": 9118,
      "##b1e371": 9119,
      "##b10886": 9120,
      "##a0d2": 9121,
      "##a0be": 9122,
      "##a03290": 9123,
      "##a0fcfe": 9124,
      "##3f99": 9125,
      "##3f3da": 9126,
      "##3f18c3": 9127,
      "##3f37cb8": 9128,
      "##281": 9129,
      "##2898": 9130,
      "##28e8": 9131,
      "##2890": 9132,
      "##2879": 9133,
      "##28b4": 9134,
      "##28780": 9135,
      "##28eaa": 9136,
      "##28522": 9137,
      "##283de": 9138,
      "##2858b": 9139,
      "29e9": 9140,
      "29049": 9141,
      "29e61": 9142,
      "2935462": 9143,
      "297447": 9144,
      "2927220": 9145,
      "2904482": 9146,
      "##ae3a": 9147,
      "##ae0ee": 9148,
      "##ae65d": 9149,
      "##aef96": 9150,
      "##ae628": 9151,
      "##aebbdf": 9152,
      "##14bd6": 9153,
      "##14f9dd": 9154,
      "984": 9155,
      "980": 9156,
      "987": 9157,
      "983": 9158,
      "98b8": 9159,
      "9827": 9160,
      "9868": 9161,
      "9836": 9162,
      "98e7": 9163,
      "983f": 9164,
      "98df": 9165,
      "981d": 9166,
      "984b": 9167,
      "9875": 9168,
      "9842": 9169,
      "9863": 9170,
      "98be": 9171,
      "986a": 9172,
      "98075": 9173,
      "98dbd0": 9174,
      "badb": 9175,
      "baa9": 9176,
      "bab8": 9177,
      "ba31": 9178,
      "bad0": 9179,
      "ba5a": 9180,
      "baff": 9181,
      "ba23": 9182,
      "ba2971": 9183,
      "bafa21": 9184,
      "bab7dc": 9185,
      "ba64936": 9186,
      "##5d3c": 9187,
      "##5dd25c2": 9188,
      "##5d475e": 9189,
      "##0b9": 9190,
      "##0bdc": 9191,
      "##0b92": 9192,
      "##0b0c2": 9193,
      "##0b217": 9194,
      "##0bd580": 9195,
      "##0b5679": 9196,
      "##0bc4b": 9197,
      "##0bea526": 9198,
      "##0bf8526": 9199,
      "##0b524e": 9200,
      "##0b5a8": 9201,
      "##0b6b679cb": 9202,
      "##0b245": 9203,
      "386": 9204,
      "38fe": 9205,
      "38ad": 9206,
      "38328": 9207,
      "384161": 9208,
      "386824bc": 9209,
      "386447": 9210,
      "3852520": 9211,
      "38319757": 9212,
      "386bf961": 9213,
      "38720ea84": 9214,
      "3834350": 9215,
      "444": 9216,
      "442": 9217,
      "4401": 9218,
      "4493": 9219,
      "44fa": 9220,
      "44d2": 9221,
      "4408": 9222,
      "4474": 9223,
      "440e": 9224,
      "4437": 9225,
      "44a7": 9226,
      "4405": 9227,
      "44f1": 9228,
      "442d": 9229,
      "4451": 9230,
      "4458": 9231,
      "449b": 9232,
      "4447": 9233,
      "4459": 9234,
      "44e1": 9235,
      "44f2": 9236,
      "44a8": 9237,
      "44e2": 9238,
      "44f6": 9239,
      "445c": 9240,
      "44b2": 9241,
      "4444": 9242,
      "442f": 9243,
      "4409": 9244,
      "4425": 9245,
      "44ba": 9246,
      "44e5": 9247,
      "44948": 9248,
      "44974": 9249,
      "4456a78": 9250,
      "191956": 9251,
      "191726": 9252,
      "1915350": 9253,
      "1911871": 9254,
      "##bd94554": 9255,
      "##bd045d8": 9256,
      "289": 9257,
      "283": 9258,
      "2896": 9259,
      "2811": 9260,
      "2872": 9261,
      "280b": 9262,
      "2850": 9263,
      "28f0": 9264,
      "281d": 9265,
      "2855": 9266,
      "2812": 9267,
      "28350": 9268,
      "2863": 9269,
      "28371": 9270,
      "28561": 9271,
      "28011": 9272,
      "285b8": 9273,
      "28967": 9274,
      "28334": 9275,
      "2897f": 9276,
      "2833371": 9277,
      "2835598": 9278,
      "2800210": 9279,
      "2846689": 9280,
      "28b756": 9281,
      "2808621": 9282,
      "2878940": 9283,
      "2837551": 9284,
      "2866180": 9285,
      "4935": 9286,
      "49db": 9287,
      "490c": 9288,
      "4900": 9289,
      "49b8": 9290,
      "4954": 9291,
      "49a7": 9292,
      "49ab": 9293,
      "4988": 9294,
      "49fe": 9295,
      "49f4": 9296,
      "49e8": 9297,
      "49d8": 9298,
      "49a8": 9299,
      "4902": 9300,
      "49eb": 9301,
      "49f6": 9302,
      "49d5": 9303,
      "49a0": 9304,
      "49ef": 9305,
      "49a6": 9306,
      "49ff": 9307,
      "49d3": 9308,
      "49a2": 9309,
      "49e3": 9310,
      "49f812": 9311,
      "##3c93": 9312,
      "##3c57": 9313,
      "##3c26": 9314,
      "##3cdf": 9315,
      "##3c09": 9316,
      "##3c3a": 9317,
      "##3c87": 9318,
      "##3ced1": 9319,
      "##3c8fc": 9320,
      "##3c0065": 9321,
      "##3cb0b9": 9322,
      "##3c88b1": 9323,
      "63dbb4": 9324,
      "785": 9325,
      "786": 9326,
      "783": 9327,
      "78b7": 9328,
      "7890": 9329,
      "78f9": 9330,
      "7817": 9331,
      "7810": 9332,
      "78c44": 9333,
      "78eed0": 9334,
      "78acc2": 9335,
      "782106": 9336,
      "b596": 9337,
      "b562": 9338,
      "b5da": 9339,
      "b564": 9340,
      "b521": 9341,
      "b598": 9342,
      "b507": 9343,
      "b5e1": 9344,
      "b5e2": 9345,
      "b5e0": 9346,
      "b55f": 9347,
      "b5fb546": 9348,
      "##50f": 9349,
      "##50d": 9350,
      "##5039": 9351,
      "##500c2": 9352,
      "##50d3f": 9353,
      "##502cb9": 9354,
      "##50edda2": 9355,
      "##50dc36": 9356,
      "##509c84": 9357,
      "##b20e8": 9358,
      "##b2eaa": 9359,
      "##b208e": 9360,
      "##b2ed59": 9361,
      "##b2f47c": 9362,
      "b690": 9363,
      "b6c6": 9364,
      "b65c": 9365,
      "b6d9": 9366,
      "b6ef": 9367,
      "b63e": 9368,
      "b6d3": 9369,
      "b65f": 9370,
      "b6a4f": 9371,
      "b6d4a": 9372,
      "b6efe": 9373,
      "##7993": 9374,
      "##7941": 9375,
      "##df8837aa5e": 9376,
      "##df677d4d": 9377,
      "30350": 9378,
      "3046119": 9379,
      "##442": 9380,
      "##4450": 9381,
      "##4420": 9382,
      "##4429": 9383,
      "##44f3": 9384,
      "##44e8b": 9385,
      "##44fe36c7c": 9386,
      "##ccecb1": 9387,
      "229": 9388,
      "2255": 9389,
      "2222": 9390,
      "22940": 9391,
      "22028": 9392,
      "22231": 9393,
      "22576": 9394,
      "224161": 9395,
      "22582": 9396,
      "2257981": 9397,
      "2278371": 9398,
      "2243600": 9399,
      "222136": 9400,
      "2251949": 9401,
      "2206309": 9402,
      "2231328": 9403,
      "2234900": 9404,
      "2228522": 9405,
      "##2091": 9406,
      "##2099": 9407,
      "##209a4": 9408,
      "##20abb": 9409,
      "##2034db638": 9410,
      "454e": 9411,
      "454c": 9412,
      "353": 9413,
      "3535": 9414,
      "3594": 9415,
      "3521b6": 9416,
      "35ea28": 9417,
      "4e01": 9418,
      "4eed": 9419,
      "4eec": 9420,
      "4eb8": 9421,
      "4e78": 9422,
      "4e88": 9423,
      "4eea": 9424,
      "4e94": 9425,
      "4e3b": 9426,
      "4ef8": 9427,
      "4efe": 9428,
      "4ee7": 9429,
      "4e99": 9430,
      "4e52": 9431,
      "4e33": 9432,
      "4e06": 9433,
      "4e59": 9434,
      "4ebb": 9435,
      "4ef5": 9436,
      "4e67": 9437,
      "4e90": 9438,
      "4e5d": 9439,
      "4e5e": 9440,
      "4e03": 9441,
      "4e6d": 9442,
[...]
