[PAD]
[UNK]
[CLS]
[SEP]
[MASK]
!
"
%
&
'
(
)
,
-
.
/
0
1
2
3
4
5
6
7
8
9
:
<
=
>
?
A
B
C
D
E
F
G
H
I
L
M
N
O
P
R
S
T
U
V
W
Y
[
\
]
_
a
b
c
d
e
f
g
h
i
j
k
l
m
n
o
p
q
r
s
t
u
v
w
x
y
z
##3
##7
##8
##9
##6
##0
##a
##5
##c
##2
##f
##4
##d
##e
##b
##1
##A
##i
##y
##l
##h
##r
##o
##w
##n
##v
##t
##u
##p
##g
##s
##m
##k
##T
##x
##R
##I
##C
##L
##B
##N
##G
##E
##U
##P
##M
##F
##O
##S
##D
##q
##Y
##z
##01
no
05
##va
##er
nova
##2c
16
##ta
201
##e4
2017
##35
##db
##93
##a9
##ed
10
##3d
11
##te
##0c
##pu
##om
com
##pute
compute
13
##fa
##41
lo
##57
log
##a9e
IN
##FO
INFO
re
54
##ver
##pi
##e4c
##dba
##2c4
ser
##ed93
##db41
##e40c
##35e4c
54fa
##35a9e
##dbaed93
##2c4e40c
##db412c4e40c
##35e4c35a9e
54fadb412c4e40c
##dbaed9335e4c35a9e
54fadb412c4e40cdbaed9335e4c35a9e
server
req
##fb
##ce
##9c
##en
##sta
##5b
##d6
##a4
##im
##96
in
##nce
##stance
##aa
##00
##46
##d2
instance
08
53
##c2c
##3d3
api
##a401
##aa5b
##96d2
##fbd6
##9c3d
##2cc2c
##a99c3d
113d3
##a401fbd6
##aa5b96d2
##2cc2caa5b96d2
##a99c3da401fbd6
113d3a99c3da401fbd6
113d3a99c3da401fbd62cc2caa5b96d2
257
sta
55
31
HT
##us
##sg
wsg
##TP
HTTP
wsgi
##eta
stat
##ac
len
tim
status
time
##ET
##b0
##931
##il
200
##39
GET
2931
##rt
##irt
##b7
##ag
os
li
lib
v2
##api
osapi
##ec
25746
##b8
servers
##62
##08
deta
detail
##da
18
##91
47
##78
##54
##as
##4c
##18
##48
##68
##dc
00
##42
##37
04
im
imag
##27
##ase
##ng
base
58
##97
##e7
##he
##ing
##ar
virt
##virt
libvirt
ad
01
02
03
##eb7
instances
40
##57e
##ed5
##b09
##dc18
4778
b57e
5854
##eb7b8
2ed5
addc18
5854eb7b8
addc1839
5854eb7b8b09
##or
var
06
##a7
##868
##92
##27c
##ac0
##f0c
##bb0
a48
##ab
##3908
##ecac
##37da
##e742
##93b7
imagecac
imagecache
##6227c
##9c868
##91bb0
##ac0e742
##f0c37da
a489c868
##3908ac0e742
##93b76227c
##91bb03908ac0e742
##f0c37da93b76227c
a489c868f0c37da93b76227c
a489c868f0c37da93b76227c91bb03908ac0e742
meta
##71
##56
1893
##6c
##4d
##es
17
##88
##is
26
ma
##95
##05
us
##43
##e2
##94
##02
##lo
##58
man
manag
manager
##f1
##64
22
4b
20
##on
41
##le
##la
##ent
##ca
##d1
##90
##98
##de
##vent
##laim
42
##data
metadata
45
##ck
25
48
da
on
21
##31
fil
27
46
12
##38
data
claim
image
th
23
op
open
##stack
openstack
to
##61
##51
4fb
##ea
##5b4
##d71
##3fb
##4c5
##32
##if
claims
##73d
86c
##72
4fbb
4062
86c4
34c5
##e45b4
0673d
##3fbe45b4
40623fbe45b4
0673dd71
at
this
##ting
To
##07
1892
##f8
##52
44
43
##fc
15
##f2
##67
##e1
##ud
##608
##6b8
##60
##57f
##59
##e8
##3ac
##30
##50
##47
##d8
##f7
e97
##40
##4697
##56a7
##574c
##a9e88
##6b8a9e88
##57f56a7
##3ac574c
e974697
##6b8a9e8857f56a7
##3ac574c6b8a9e8857f56a7
e9746973ac574c6b8a9e8857f56a7
e9746973ac574c6b8a9e8857f56a7608
##99
3e
##3b
##wn
files
##loud
38
##e2d
51
28
##36
##3c
##95d
4c
##ur
de
##ti
##a8
the
32
##eb
sp
##94ab
##d64c
4b64
##052c
9e2d
3ea4
895d
04d64c
##4d94ab
3ea4052c
04d64c4d94ab
##ul
49
##a1
vc
vcpu
##f6
##ee
##f0
##d7
##em
2013
50
##33
##it
##b1
##21
##f4
##bb
##5c
30
##tal
used
dr
##iver
driver
##imit
Event
Lif
MB
VM
event
##cle
##ycle
##ecycle
Lifecycle
35
##na
f7
loca
local
24
##a2
37
14
##34
##fe
19
57
for
js
json
node
07
##9b
##446
##fd
##st
##f5
##66
dis
##ve
##021
disk
##22
##11
##fa1
##b07
##5d
res
##a7d
##f1d
##e0
##e6
52
09
sec
##our
resour
resource
##a6
36
##bc
ex
##b8d1
ch
##fa10c
##ds
##ok
##4d446
##43b07
##onds
Took
f7b8d1
##021fb
##a7d021fb
##f1d4d446
seconds
##fa10ca7d021fb
##43b07fa10ca7d021fb
f7b8d1f1d4d446
f7b8d1f1d4d44643b07fa10ca7d021fb
##a0
56
##awn
spawn
##b2
##end
##77
##th
##age
##cti
##king
##tor
oth
sh
stor
##des
nodes
##ecking
##aring
use
checking
other
sharing
storage
Acti
Active
##ff
##dd
34
vcpus
Total
##nal
##d0
##44
##10
##f3
la
##f9
##20
##test
latest
29
##a5
##28
##49
##c1
88
##c8
##cce
98
##70
##4b
##e5
33
59
##d5
39
##ful
##ucce
##ss
##uccess
##uccessful
cp
cloud
pg
slo
tc
uta
##lab
##wv
##m1
cloudlab
pg0
slowv
tcloud
utah
slowvm1
124
##ro
000
##45
##3a
##69
file
##ter
GB
PO
limit
mem
successful
##PU
##ST
##ory
events
exter
POST
memory
external
##74
##e9
##76
4f
4a
191
##12
##ad
##b5
##ly
##e3
##79
##cc
##ack
tr
##acker
tracker
##b6
##b9
92
##75
##af
4d
81
Rem
Remo
##a3
4e
b8
##d3
##06
##d9
a8
##nc
##55
##ae
sy
sync
##16
##c2
not
##09
In
##rea
Instance
##ice
##vice
##tion
91
##53
82
##b4
##d4
##04
404
##3f
##bf
##am
2578
##yp
hyp
##vis
##ervis
hypervis
hypervisor
9c
##est
25743
##et
78
##limit
defa
Crea
De
Res
VC
b1
dest
net
un
##ied
##wor
##um
##ecif
1759
del
specif
##ulting
##roy
successfully
##limited
defaulting
Creating
Dele
Resum
VCPU
destroy
networ
unlimited
specified
Resumed
network
##7c
##3e
tas
task
vend
vendor
##65
po
##wer
state
power
##uring
During
Sk
has
pend
##ip
Skip
pending
spawning
a2
641
b2
157
##df
##6b
##1c
##ef
##7b
967
68
80
158
##19
##73
##63
bc
##llo
64172
##lloca
##9e
95
8c
##14
##29
##be
96
##9d
##mi
##bd
##03
##26
##ted
ac
a7
##ou
##NG
WA
##RN
##ING
WARN
WARNING
a6
Un
or
sw
##ap
##ble
##own
##nown
##known
##vable
Removable
Unknown
swap
##5e
b0
1583
blo
##ppi
mappi
device
block
mapping
##0e
001
##6d
##c7
##6e
97
b7
##ba
##17
##15
1910
264
##9a
512
##b3
ab
256
##able
ph
ram
##6f
##ys
##GB
##MB
total
phys
262
a1
##9f
##4f
##4a
90
87
bb
##4e
962
##25
##81
211
202
##c5
##87
a0
##6a
204
957
##2a
268
99
9b
##13
a4
380
203
fr
b6
b5
aa
296
##0a
##80
##5a
733
86
##82
##7a
##5f
##24
##1b
dea
176
##0b
8e
190
##nd
8b
93
##0f
fou
found
94
f8
##0d
85
##7e
##cb
2012
##ption
##ception
2048
exception
St
##pp
##rted
No
At
Claim
CPU
DE
Pa
Sta
Ter
an
bu
of
pl
vif
##opp
##ug
##ple
##pting
##ged
##mpting
##LET
##tempting
comple
##used
##ild
thro
##nating
spawned
Deleting
Deletion
destroyed
##llocate
##minating
96258
95746
free
deallocate
Stopp
Attempting
DELET
Paused
Started
Terminating
any
build
plug
complete
thrown
Stopped
DELETE
plugged
##ving
Removing
8d
##23
9f
##ost
host
bf
##2b
258
ba
ava
avail
##cf
bd
b9
user
89
9a
83
8f
1c
##1d
##89
##cd
84
b4
271
d5
c8
##ch
a3
1891
##1f
f0
##2d
1708
be
af
a5
a9
c2
##c3
##c6
##c4
328
##2e
71
##c9
##c0
9d
254
ae
##2f
25783
b3
c6
##7f
1909
9e
service
c7
119
25790
6c
1916
72
##1a
e8
25778
259
Com
up
upda
Compute
Aud
Fi
alloca
nam
pc
sch
vi
##cor
##ew
##iting
##edul
recor
25776
stats
usable
15GB
locally
resources
64172MB
available
updated
Auditing
Final
allocated
name
pci
schedul
view
record
scheduler
67
70
ec
##86
##8d
e7
c1
61
d8
25791
63
25786
266
142
3c
cc
##1e
25775
2c
7c
491
25788
8a
25799
497
66
77
cb
pla
##ment
##cement
placement
64
d2
2b
5b
25795
401
25777
25779
261
dc
5c
fc
25774
4f8
441
4fc
1874
278
f6
25793
60
f1
25784
143
435
e0
d1
498
ami
49c
418
1f
437
##7d
134
76
##8a
0c
0b
e6
1b
4a4
4e8
462
62
d7
1575
438
d0
141
4db
442
##85
2560
496
##83
eb
##8b
267
4ed
6b
25797
ee
117
d6
##3bc
4a9
44c
##8e
Base
you
##ove
##move
remove
too
young
448
4e1
4e4
##320
408
f3
##961
248
e2
##8f
20GB
2560MB
46c
4d8
427
4fa
265
##940
f2
139
##5df
4d6
4a1
ff
##3d1
400
458
##8c
4dc
##84
##960
120
65
431
e5
##f1b
439
454
127
##780
##370
3b
73
##521
##a47
0f
468
140
457
##028
145
d4
272
144
6d
##5b1
e9
246
d3
##98a
270
4ac
e4
231
446
432
7b
##350
443
146
7e
488
##932
##5b8
3A
4d2
118
260
##050
##f25
091
3a
c3
ro
##ot
##0c5
##000
252
root
cd
8b8
##921
##070
1d
4ce
##928
e3
##080
3d
4b7
##641
2e
##011
138
ef
ed
251
##380
896
4ec
456
116
##420
##311
0d
##904
##391
##a86
ca
##b97
##d22
##390
##540
263
##058
74
115
##f17
130
273
128
fb
861
##560
##369
227
0008
247
##542
##ity
##938
##411
##b08
44d
##919
6e
255
4b8
7f
cf
e1
##a60
##00e
##970
##949
1915
f9
##621
##980
0a
3f
75
##a8c
25998
db
d16
##529
79
ce
##976
253
##310
##600
##f1c
##887
##218
##418
##920
##438
907
##ts
##580
##3c1
##f4a
493
##460
##f87
c0
##958
##950
490
d9
##e46
##392
##dc5
##644
69
845
f5
277
##f9d
192
4de
##aa2
##429
0007
288
c5
114
137
##abc
##f28
151
##351
##918
276
##075
178
911
##a00
147
##b3b
##010
##db2
##571
##081
##f10
##36d
368
4e7
##019
275
1e
##361
##910
2f
##009
##62e
1873
##180
##481
269
##952
##951
##d0b
4d1
958
##410
##d60
##082
868
##dc1
##719
##581
##609
194
##680
##387
##209
7d
##930
##620
##4cd
##eb1
##5dd
4a2
906
##ce9
##968
##781
##fc4
2d
242
5a
##3e1
##2c7
##358
##051
##619
##5d4
##98aee
239
fd
##352
##381
45b
##018
##510
##f2d
237
941
b4d
c4
##91c
##959
##f44
148
dd
##326
154
##2cb
##788
129
##999
##f6b
##a69
df
ea
##2c2
##359
##431
##610
##979
##97c
##f14
##909
150
385
492
##edc
##0cf
##514
093
096
098
354
4b0
##570
##6c0
##720
338
4a7
##5b9
##270
##561
##05e
##589
##e10
198
352
##3d4
##ee5
##5c3
##0c5e2
934
##f68
##e4cb97
##488
##07c
##fe98aee
##a47fe98aee
##a600c5e2
##00ee4cb97
d16a600c5e2
##a47fe98aee00ee4cb97
d16a600c5e2a47fe98aee00ee4cb97
d16a600c5e2a47fe98aee00ee4cb9743
1a
5f
6f
7a
##aa7
##399
##371
274
##60b
281
##3cd
##a8a
f4
##785
##271
##6c1
##981
##319
##ea8
##470
##a89
##f4e
235
218
113
##aa1
##acd
250
##612
494
901
zon
##ility
##92d
##ability
##ea6
##a0d
availability
zone
101
241
4f0
997
921
##760
##e4a
##3d9
##acc
##088
##989
4eb
bf8
##d61
##397
##485
##d1a
##312
##31e
##b17
951
##3d2
##f11
197
243
##d27
##ac4
##ad9
##596
##ed3
##e87
##36f
0e
238
4da
6a
822
##ec1
##548
##569
##e20
##ca1
##520
##309
##f7e
##9bf
##e06
361
##fb1
##a4b
##ab4
##645
##079
##fcd
##d7d
928
##ce1
##917
##880
##430
##fd9
##e0f
195
##fb6
##461
##181
##406
##f5f
40c
922
##2cc
##ac8
##436
228
##679
149
852
##355
##35c
##edf
##020
##ca0
##d06
5e
801
821
##00f
##dab
##029
##ea1
##329
##f8b
##a84
##93b
##fbf
##328
##670
##a17
##f55
4e9
##e4e
136
##fac
##fad
##cec
##5b5
##54b
##710
##e1c
249
193
196
938
##dbc
##468
##428
##971
##6cf
##e82
##409
##ee0
4d7
##ede
##fa8
##b0b
##912
##27b
##e8f
##a2d
##d55
878
fa
167
##a95
##469
##421
##974
378
990
912
##93e
##008
##ac7
##ec4
188
230
##a16
##e65
##204
092
##2c9
##2cd
##ed8
##467
##e7b
##024
##f7b
##b14
##fbc
##004
##628
##94b
221
##fdf
##b4e
171
301
810
a5c
##939
##0ce
##579
##d23
##e7c
##02b
##d1b
##617
##511
##fe6
991
ba7
fe
##412
##ec7
##97f
##e71
021
##947
##640
##f20
##d80
282
##a12
##f6d
##f4b
758
988
162
##dbe
##0c4
##415
##ce0
##ecd
##480
002
226
##324
##f2b
##e85
##e8e
##30d
##36e
##e0b
135
c62
##2c8
##d2f
182
586
##715
##567
##881
##43e
##f13
##fe5
308
327
390
972
##591
##9c4
##969
##681
123
##f7c
##e6f
##a3e
866
812
##2c3
##934
##fb4
##cee
##5b2
##398
##62b
185
##482
##688
##379
##272
##56c
##052
##f1f
##ca2
##de0
232
245
##444
##e3f
4aa
4a6
604
bdc
165
112
##46d
##922
##56f
##983
ab7
##dbf
##936
##9c1
186
181
##982
##07f
##f7a
##40a
326
##f49
##bb6
##ddd
621
947
c9
##013
##d65
##dc3
##422
##d11
##d0e
4f6
##3d5
##d66
##967
##da0
##564
##f16
225
097
071
291
##5bc
##daf
##189
##427
##425
##055
##d10
##728
##fc8
##f2a
##509
##3cc
##a11
ip
##e08
##e56
##v4
##me
##e4d
##db6
##3dd
110
##a40
##b86
##625
##489
##686
##a7c
##929
##649
##ca8
##90d
##name
hostname
ipv4
877
##414
##007
##084
##91f
##787
##549
##54e
##a76
##ab1
224
##32a
##a8f
a46
##4c6
##a06
2a
857
998
a41
a37
##ffa
##id
##35d
##0c2
##ce7
##5b0
##d2e
25740
##ecb
##a75
##95f
##e22
220
233
##f76
##f74
##366
##3c7
##b13
560
b18
b22
##fb7
##fb8
##9c7
187
##4cb
##71f
##f2e
283
##f0f
##d74
0009
042
208
837
##e42
##a9c
106
##faf
##972
222
##d15
##de1
##382
##729
##d8b
##f7f
388
870
Re
##2c0
##db4
##fb5
##d69
##d6b
##a48
##a4c
##002
##dad
##789
##687
##689
##276
179
##f12
##907
##985
##385
##611
280
##d70
##345
330
871
966
##2c5
##a91
##da1
##6cb
##05c
##e26
##f84
##f2f
##a8e
##f03
##d0f
##10f
240
811
The
b4b
caa
crea
did
its
##tch
##Lis
##357
189
##544
##4cc
##4c1
##dc9
match
##026
216
##ea0
##f75
##34f
##fd0
##fff
##d5e
##69e
##cc6
InstanceLis
created
InstanceList
342
5d
93b
b6b
##a94
##3d8
##fbb
##9c0
##b05
##39b
184
##911
##48c
##279
##e76
##925
121
##ebe
##b11
##a24
##129
095
298
3bc
567
828
##014
##93f
##ce6
##a4f
##d25
##acb
##b81
016
##a7b
##944
126
##322
##f79
##ebb
##b1b
##111
565
0GB
id
##adc
##3da
##419
##9c8
##464
##b83
##624
##68d
##abb
##6c8
172
##de8
217
279
##386
##e1b
##bbb
##4b6
##b9f
512MB
0b1
372
347
571
bf1
##96e
##08a
##dcf
##e77
##4d3
##059
##512
##f21
322
324
355
346
356
995
bd8
161
##354
132
##545
##682
##37b
234
##51e
##07a
##50f
##3b2
##a20
##e69
754
716
b33
##db9
##db1
##a4a
553
##da5
471
010
##38c
##606
382
##fe3
##f9a
##280
0006
##76a
290
##01e
##a43
##d2b
180
##275
122
##389
365
##3ae
742
931
920
##5ad
##fe1
##aa6
##00a
##92f
177
##95e
##61c
##614
##72a
##a28
094
4e2
##017
##2ce
##2c1
##e41
100
##d26
##ac2
##b79
##187
##377
##a71
417
##721
##528
##f29
##99e
321
##f3a
##4b4
541
168
##35b
##937
##a97
##aaf
##321
##404
386
##220
156
396
596
678
637
721
898
875
952
977
##0c3
##0c0
##0c1
542
##fbe
##9ca
##5b7
##46f
##ec5
##089
##372
##94f
##d14
236
##517
##72f
##603
325
##fd3
##5d0
##b29
367
697
778
767
858
8c1
##f52
##353
##576
##ceb
##395
##d19
##38b
##f26
##d77
377
622
766
933
949
##012
133
556
##b78
##e79
##e7e
##59f
##e8a
##fe0
152
566
##590
##e49
##ed7
##fbd
##ec8
##626
##62f
183
##316
##f83
##fcc
##e84
##30b
381
##3c6
##a15
575
##e0a
##449
917
205
642
798
163
##db3
##ed1
##5be
##a42
317
##b87
##08d
##711
##56b
173
##647
##51c
##076
##eba
##ee3
##ee9
##eee
##f3f
##c8e
612
790
942
##a9a
##fa6
##fa2
##574
##9cb
##582
209
##fc7
153
##f23
329
##ff9
##a55
##a5e
##cc9
##c29
297
371
500
848
975
a1c
##57c
##572
##5ba
##a44
##aa0
##629
##ab6
##aba
170
##023
##64b
##ea2
##72e
##e81
##c14
348
561
735
b48
##vation
##ervation
##db8
##db5
##a9f
##3de
##417
##573
##ce8
##962
##b0f
##eca
##786
##4cf
##42b
##022
##02f
##d16
214
##07e
##fc0
##211
##222
reservation
526
43d1
853
164
##aac
##b71
##086
##4c4
##923
##abe
229
##073
##077
##fc9
##217
244
376
##e6d
369
from
090
4e5
847
806
##394
##274
##e72
##924
##433
215
##616
##32f
##e17
##304
##d8c
##f04
##a2b
##9b6
##229
##22a
682
629
840
##a90
##5bb
##d6a
088
##b70
##78e
##182
014
061
##6cd
175
##519
##e19
##599
##504
##bbf
373
##669
##e09
##e04
##bc0
578
572
628
700
976
##e40
##fb0
##d28
551
##ac6
##18c
##92b
##4d7
##95c
##43a
##e2e
##f86
##f8e
447
##fcf
##303
##d76
##a6b
##b5a
##b9e
357
615
831
9c8
##b46
##9cc
##a46
##4c2
##e7d
##56d
##56e
##eae
##e12
##3bd
##3c8
##eb5
##eb2
##5c8
##349
569
##ff3
##09e
0010
358
602
614
87c
ab8
##fd8
160
##e44
##fa7
##aaa
082
##b03
##05d
223
206
##903
##38f
159
##477
335
362
4ca
521
5c1
##faa
##57a
##462
##68f
407
##6cc
174
##95a
##053
##e21
##e15
##59a
##a81
375
374
##d53
341
619
770
713
827
84b
bc1
c28
##ed9
##d24
##d1d
##726
##40b
##a0e
##b20
072
305
4dd
946
950
##d42
##2cf
##9c9
318
##085
##08e
##da6
##da2
##54f
##e70
##71d
##05a
##e25
##d1f
##deb
##eb9
##fe9
##b2d
1572
761
706
851
9d8
##2ca
131
##b0a
##08c
4707
##977
##f1e
212
##a80
##f65
370
##f3e
##65a
2626
4415
350
333
677
888
836
940
970
Successful
b35
fde
##ll
##01b
166
##db7
##dbb
##93c
##ed6
##fa4
##39f
##b8b
474e
##783
##18e
##dc7
##27d
##97a
##a7e
##d12
210
##f24
389
379
##9b9
##fd5
##a0f
884
##69a
synced
Successfully
008
391
351
all
##f88
##93a
##a9d
108
##3dc
##0cc
##087
##4c7
##4c0
##a79
##432
207
469e
##325
##32d
##677
##473
387
384
286
##3c2
##eb3
##d7c
##210
##5cb
##9b5
##69d
##e9d
018
502
609
793
7b7
737
996
937
Tr
ca8
e88
##an
169
##fa5
##fb9
##aab
##463
##466
086
539
##ac1
##627
##54c
##188
581
##926
##566
##05f
414
##524
##e1e
285
284
##a2f
##a09
349
4ff8
##cc3
##d4a
2B
366
522
660
649
710
948
ac1
si
ten
##3fc
##ang
##ue
053
16T
##e4b
##d62
##d21
##ac9
##b04
472
##277
##92a
##02e
##58d
##58b
##987
##98c
##59b
##e86
##30a
##47c
##ebc
##f6e
chang
3A00
True
##ants
2B00
since
tenants
changes
199
562
960
b11
dfb
##f58
##a98
109
##578
##9c6
##d64
534
##b82
##78b
##6c7
##98d
45d3
463
440
##d81
##3b3
##365
##3c9
##3c4
##a83
##f0d
##a26
##34b
##f5e
##e6a
##d9e
4ac3
302
360
672
9ec
955
953
ac8
b12
##e43
##ed4
##3d6
##5b6
##aa3
558
313
315
##91a
##54a
006
##975
##a70
##ab2
##6c3
##4d8
2611
##de3
425
219
##f80
##e14
320
##a65
##b5e
##b9a
##d3e
686
49cc
2bb
332
334
757
862
944
bc8
##ce3
310
##da3
##dae
##784
##4c8
012
##6c2
##4d9
##64e
45c7
125
##51b
##ea5
##f82
##506
287
323
##d7b
##fdd
##5d5
##a6a
##a6d
##a0a
##a3f
2a1
505
646
658
954
910
dd6
d7c
055
##a9b
##edd
478
##782
##dcc
402
##884
##4300
48d9
##383
##f8c
430
##479
289
##3c0
##eb6
##f63
##f06
##5c2
889
##e5a
813
46cc
397
398
535
608
651
741
818
993
ed6
##2c6
##e47
##a99
103
##fa3
##577
##ce5
##d6f
007
588
582
##e29
421b
##eaf
##522
155
##59d
##50a
##a10
##a1c8
##bc2
##c1d
##3ad
##cc2
829
046
627
605
607
611
792
867
849
af5
##e48
##3d0
##41d
547
##d67
##d6d
##d29
089
##b72
##b8c
477
##dc8
##e7f
##f15
426
##31a
##31d
##d8a
510
##bb2
345
d530
4e9a
0dc
0f7
5ab
751
703
890
102
##5bd
##da8
##78f
##54d
##4d1
##88c
##43c
##02d
##587
##64f
##de5
453
##61b
##323
##e89
##99b
517
##665
##e0d
929
785
a29
4ed3
1a5
394
331
842
8bc
##3d7
##fa7b
##fba
##d63
##d20
##b8f
##622
##37e
##e7c1
413
410
412
##61e
##50e
##3b6
de5
##f0a
309
##a25
##fef
##11b
##779
88c
981
##e5f
4e58
684
681
292
508
507
659
764
738
808
994
b70
##0cb
546
##d6c
##d6e
##966
##00b
319
311
##91b
049
409
##a74
##e2a
4bfb
##ca6
##61d
##07b
##f70
##f66
##bb3
##5cd
577
##b26
##c89
4a3d
1a4
598
654
665
854
d6c
eb6
##0c6
##41e
549
##fb2
##96a0
083
087
537
552
316
##376
409b
##a7f
##d1e
45fb
##e1a
##3cf
##a14
##f45
353
##e63
4d3b
45bb
630
633
655
895
869
874
879
b21
b77
b7c
##0ca
##aad
##b02
##b75
##ec6
##b80
47f1
47bf
##37c
405
##92e
##71c
##888
##94a
4b2a
424
213
##f8f
##fc3
##fc2
##fcd1
##47f
##3b1
383
4c37
##ebf
##f0b
306
##9b2
885
4e00
041
1c8
518
601
657
722
838
939
545
##ce2
##aae
##465
##623
##48a
033
##6c9
##e28
428
429
48b2
##ead
433
##fca7
##e80
##5c7
573
##fd4
##117
##bc8
4ffd
##d9f
497a
44cd
408a
293
4d0b
691
618
648
695
661
634
794
715
802
807
844
809
##e4f
##db0
##57b
##96f
##005
##b73
##b88
038
40d3
##9227
##ab97
##563
##5643
##585
##58f
##f1a
##64a
421
##72b
449
##676
##476
##d86
##3bb
##a8d
##d7e
##b1c
##5d3
##dd5
4a9c
393
339
337
364
5c8
662
692
638
640
670
626
718
777
918
968
905
930
##ed2
111
554
##b8d
##916
##e24
4111
4145
##60d
##d8e
##f77
4c7a
32a
##f6f
##b15
##5cf
303
563
##c84
980
00078
a7ec
b0bb
a9e7
392
591
527
647
653
69e
613
6ee0
705
745
833
873
935
978
999
be7
bbe
b075
##a18
##db14
##a92
##5b3
##ec9
##08b
##da7e
##dc6
##426
##97d
031
416
41f3
420
##525
434
##f22
##60a
##f7d
##3b9
##3b4
513
##a1b
##3388
##bb5
570
##66b
##e03
##a532
##49a
9247
##d3f
95ed
0011
620
676
603
617
625
797
795
747
753
841
894
850
820
9b9f
b51
##016
##015
054
##2c2b
##fa0
##9c5
314
##91e
##4ca
##dcb
403
##712
##6caa
26bb
##caf
##986
##def
489
482
##314
##61a
43f0
##675
516
##36a
##d7f
574
##ad3
781
##cbe1
afd7
4019
0b60
2f87
495
632
652
650
636
669
616
739
768
729
855
aa1
##3df
##9c2
##d68
559
550
##ec2
472f
##486
##dc4
##42a
##27a
##a77
419
415
411
416d
##ca3
##90f
422
450
466
465
##f81
445
##3ba
##a87
##ee6
509
##5c4
##5c1
##9ba
##f5a
##e6e
##770
344
886
##ccf9
##b6e
##af3c
826
##b4a
b0f6
bb95
##780eb
##b3b6
694
772
709
835
839
a70
b06
##41a
548
##a4d
##b7f
##18b
##273
##ab9
##ab5
##4d4
##e2f
##e2b
450e
##52f
##52b
##fc5
##67b
##e8b
##b16
##215
##bbc
##344
##a63
363
##bcc
##b28
##ddf
989
00088
##cc5
##c2f
782
##36d48
068
395
343
359
592
635
671
610
702
769
774
893
9e1
945
b68
d37
##a67
107
##96c
##00d
085
533
312
##b8e
473
##42f
025
##584
46db
##32b
##725
##59e
##e83
##286
##e3e
##cc4
##b65
925
2548
4914
0a4
300
501
762
897
830
057
##a96
105
##0cd
##5bf
4719
044
585
066
##6ca
##889
##02a
##67a
##d89
##d82
##d84
514
##a82
##333
579
##110
##774
986
982
##45e
##e9e
##76b
4f38
817
078
0de
307
594
666
891
876
8918
908
936
a39
b47
b10
ef6
##ic
##aa8
##003
538
530
##62d
580
069
##abf
##565
##88a
423
##38d
##722
##52e
##fc6
##fc1
##d85
##3c3
##eef
506
##b10
##f4f
##bba
##5cc
1908
##22d
##116
##e55
##79d
##75e
814
##165
914
3ec
688
606
748
732
865
c01
cec
d2c
ec8
e81
##458
104
##9cf
##b76
##b7a
032
406
##434
41c3
##cae
455
##38e
4444
##3be
515
##33a
##219
524
##a03
##a5f
985
##3af
4a6c
##b5f
336
593
564
693
698
667
644
673
799
749
726
717
724
846
971
916
e57
f5b
##330
##e57
##01c
##dbd
##fab
##964
##96b
##ac5
##4c3
##dc0
##dc2
589
030
2651
42f7
45f1
44f4
436
##e11
4c52
##b12
##bb4
##5c9
##5c5
304
520
881
4f6c
4ace
##d4f
aa37
037
1c1
499
557
597
668
746
771
7a2
734
711
719
714
725
832
834
804
974
c77
052
##356
##ed0
##0c8
##0c9
470
4721
##543
584
##4d0
##4d5
##945
4154
##90b
481
469
##fcb
##e1f
##30e
##f73
073
077
079
##9bc
##f5d
##228
528
##d09
##d0d
##109
##c82
00091
##763
##b53
926
##c2b
913
825
786
4db4
4ed2
4d21
4da7
035
048
0a7
340
4f1b
5b7
568
674
779
872
961
909
a4b
f44
##01f
543
##006
##b7c
##b84
##da7
##424
040
013
017
403a
##ca5
##d13
##51d
##f85
444
##40d
4c36
576
##9be
##5d9
##b2b
##d04
##a5a
##d5a
819
787
683
685
4a12
039
062
595
631
63b
624
752
750
728
765
973
cac
de2
d21
e60
##eda
##a45
##96d
084
475
##186
045
065
4b58
4142
467
43e4
##3cb
4cd3
##a1a
##a1c
##bb9
##34a
882
##79e
4da9
##7bd
680
4971
498b
4377
4b89
4a2e
3f7
599
664
699
712
775
900
902
904
bda0
gro
##52c
##up
##01a
059
##41b
##a49
005
587
034
064
##a73
##a72
##71e
##f19
416f
##de9
42ac
486
489c
##317
##30d3
##urity
##a85
##d7a
##21c
074
security
##dd4
##10e
##f9f
##d5d1
##455
815
##14a
4fc1
439e
b4b3
group
groups
299
590
600
663
708
788
707
776
773
856
cc2
dd8
f88
050
##933c
##fae
081
##b06
##39e
##b85
##915
473e
471d
##487
047
583
026
40ee
067
##4310
##d17
426a
##384
43ca
##306
##30f
511
504
##bbe
529
525
##f9e
880
##3a3
4f71
4d58
4e57
919
789
4dcd
44d8
427c
791
727
720
7e5
7d9
77c
723
927
959
a12
eb7
##cfb
##0181
058
056
##933
##96a
##39a
##ecf
476
474
##68c
2637
##025
##586
##589b
463c
##615
##ea3
##52d
43f1
503
##334
##b1e
076
##289
##281
##c12
##4b5
923
8179
##553
##65f
b9f8
4420
b226
294
2b2
399
45b4
4644
61c
701
730
943
9d7
97b
a64
bbc
d98
##e5d
##b27
051
##3560
##0c7
540
555
##b7b
##4cf8
##184
##dca
003
##37a
022
024
##4dd
##4de
4b98
411e
422a
451b
2598
483
487
4861
##f8d
4304
##674
##ebd
30f
##223
##a04
##49f
984
##b6d
78e
687
689
44c7
4e13
4d86
400a
4dc2
431f
4f6a
099
690
736
892
864
9ea6
bb08
b71d
c9c
##ad2
##35f
##41c
##aa5
532
531
##ac3
##b0d
4759
##78a
##37f
043
##e73
##953
##f1c5
4bc4
41d2
##98b
##31c
4fb2
##32e
44be
##67c
##67ed
##e8c
##f69
##f6a
##eeaa
##21e
##f53
##66e8
##bcfb
##a0b
##776
##20a
##a53
##4be
##e5e
ab56
ab67
a4e2
d5fa
4d6a
696
679
675
6c2
7bc
763
800
899
863
992
956
a21
ba8c
ba2d
c0c
e07
e16
f3d
##a3c
##dd8
##416
##cef
##5bab
##a4e
080
##acf
##b74
##083
##913
4711
##37ab
images
028
##abd
##88d
##88d8
##9531
##43b
4bbf
4118
41b4
42b9
480
489a
##38a
##515
##724
4307
##e16
##5943
##3bf
519
##3c54
##a8b
##b19
##b1f
##a2e
070
##9bd2
##c1c
##b6f
816
##b4f
9c7
783
a2d5
0012
abe4
abd8
2624
2719
4f89
4184
4d8a
4a1f
4d29
4b77
8222
4e2d
756
805
860
89d
8acd
8f9a
903
9d2e
af1c
be1
b204
c12
d96
dec
e11
ecc
f29
##35a1
##9c11
##d2d
##d2b1
##b7e
47b5
##78c
##78d
##7831
##68b
##42d
##374
##37d
##973
015
063
##5893
##583a
4bfa
4157
##d1c
##9027
##98f
4554
485
4814
461
##38e6
##38bf
##516
##07cd
##f2f1
##3b23
4cc5
##a1d
##ee27
##bbb2
##a29
##9b3
##9b36
##9bad
##119
##11a
##20e
98b0
00093
4f46
4f27
b8ee
##d9a
823
82fc
9c4a
9905
9b38
a448
b5dc
##0ae7
8e3c
4fc5
4fcf
4e85
4966
042e
0d1
1931
295
2d9e
4b08
796
743
731
755
836d
8ca2
a868
a52
c71
d57
e46
eec1
fc2
##e45
##db0a
##93d
544
##aaa9
25751
##b89
##5493
004
023
2672
2612
4bde
41bb
##ca31
42df
484
48a3
4fbf
##074
##522c
4300
##36a1
49f2
##5c0
373c
5767
##fd0e
##666
##b2a
##f3b8
987
00096
##afe4
4e94
##d4e
780
784
##6eed
a408
##80d
f8a
d5d8
60f8
4485
4fac
44dd
f9d2
4e9e
1c8f
1ec
2a4
3e46
5e1
6f9
740
843
93d
964
ae0
a5b5
a784
b61
b44
de7
d07
e12
e13
f87
##9371
115e
##9c3
##d60a
##b0e
47c
475c
##7800
##dc59
##f174
41a5
##ca18
452
451
45d6
487b
48c5
460
##611c
##51f
44b6
4346
##36b
4c82
##eb4
49e6
##34bf
##9bd
887
##c8d6
##4b9
##d5f
##d551
00072
##74e
4a39
9239
##a3a6
##063
##d9d
80fd
8c35
##14e
##c5f
##82b
94eb
8d50
9aee
be18
e6b7
4e80
4423
4395
4683
4680
4577
8610
##f6d02
##e2551
0a1
1e1
4a0d
4fff
5f2
759
8cc
9f0
9e0
969
979
97c
965
a88
bf7
b56f
c35
c98
cb2
d28
e3b
fd6
##e96
##bd7
##41f
##4670
##547
##4c9
##71b
##6c6
##955
4b12
4179
4103
##de6
4264
42ff
42d0
48b5
481d
46dc
4651
46eb
460f
##3299
44e7
43aa
43e3
##67e
##503
##40f
4c05
4c14
4c6a
4998
##bbd
##a22
##e6b
##c87
##12a
##b6b
4e62
4ef1
bd41
4f8c
435d
462a
4389
4edc
4e4f
4d6b
906b
0c1
2e7
3ca
3c5
4320
5fa
656
623
8ed
90c
9438
aed
b65
cdc
e42
e10
##9cd
##96e4
##0009
##46c
##d2a
##6251
##914
4714
4703
##7890
##2718
029
##9268
##4df
##6440
4be7
4be0
4bd0
4bb6
41f6
4115
##90e
4201
45ce
48ef
481f
482f
4698
##eae7
##ead8
##72d
44e8
4447
44eb
4476
43e2
43b3
430f
##e828
##d80b
49ce
4905
49dd
##d79
##216
##6690
##b2f
##49d
983
4f31
4fd7
4e07
a87
##aef
824
a0bb
4910
4f81
49c1
4d83
458e
4467
0da
0cc
3e4
4a9e
4959
4d06
643
645
7db
9d6b
a4f
a719
aa84
b93
b28
c60
dd1
d31
ddd
f02
fcc
##c61
##cb1
##c9b
##01d
##9321
##5782
##fb3
##963
##9600
##4688
##08f
473d
47f0
4704
009
##4211
011
4031
40f9
40b9
060
##ab3
##7191
4ba4
4b37
4b59
4be8
4b24
4197
##dee
4266
4210
42ad
4204
4219
45a4
45aa
4519
4853
460c
469c
461f
##51a
##723
44a8
43a0
4363
4ca9
4caa
4c88
4c10
4c74
##9b4
##6651
##6660
523
##bc3
##bc7
4ff4
1912
##12e
##cc0
92f9
81a2
4ef8
##163
9120
##3ef
803
##29f
b0a0
4db5
4e4b
4a16
4008
3A58
4b78
4ecc
4a7b
4f09
a5c2
1db
1e2
1e0
4bb0
4a89
4e09
5f7
6d6
6ab
6dd
7dc
932
ae7
a22
a04
a3d4
aed3
bd0f
c93
c94
c72
c44
eac
ea7
e72
fla
##fdb
##de2
##e58
##efd
##vor
16b
##ed07
13c2
536
47a
##185
##684
##97e
020
40ab
4034
##0291
4b47
4b29
4105
##98e9
426b
429e
42be
42bd
4590
4534
4525
455f
4838
4840
48b1
486e
487f
##3118
##3179
465b
46ee
46d9
4619
4663
467a
##ea36
##07d2
44a9
43ed
4c20
4c1c
4991
494c
4988
4943
##33e
##e637
09e7
##b24
##d0a
##e5d1
00081
4f3d
4f32
4f59
4f99
4f34
4a62
4a5d
##ccd
##b6a
4dd2
4dec
4d30
##c24
##3e39
##6bd3
8756
##87e
83a7
b498
4010
4353
498a
418b
4a4d
462e
4a9a
4a9b
448c
4e1f
4e4a
4dc8
4314
4324
3A11
4a65
4e5e
flavor
flavors
0c2
3aa
3f2
495d
4b07
4aa2
4abc
4e69
5f4
6b9
60a
7e7
963
a01
ae1
a7c
b0c
bf63
c92
c59
d58
d7b
f47
f15
##6780
##f35
##be0
##a9f8
##a920
##9ca0
##9639
##aca
##b068
##62a
1866
##9152
4750
473b
4710
4776
019
403b
40e9
409f
a48d
##6c4
##6c4cd
##434b
##94e
##5800
4b94
4b3a
41b
41ab
41d8
4140
41a6
##984
4205
45fc
45f0
45e5
4553
2596
4893
48b0
4891
2150
4668
46fc
467e
##612c
##ea53
44a
4393
43ea
43ad
##f241
##e8d
##e8ed
##47d
##3660
4cda
4ca7
4cde
4cf6
4cc1
4c16
4cd4
49ec
49b2
##f054
##f03f
##d75
##333d
##bba4
##a2a
##a295
##9b42
##a668
##bc5
##b23
34b
##d0ac
##c85
984a
4f4d
4fde
4a56
4ade
4af0
##ad4
4dfc
4eed
4e08
4e6c
9c66
b1be
##1cb
8cdf
b0d
a4f6
##0f95
89f6
8f36
b4ae
aeb8
6c6d
ec6e
4970
401d
4fc7
498e
4183
4dbf
44c9
4487
4589
4549
4436
2ef9
4dea
a41c
23d
2d2
3da
4f55
4f23
4ea2
63d
6f0
6c4
7d7
8029
9a4
9c1
9947
a31
aeb
a11
a77
a02b
bb0
bec
b084
cf9
c406
ded
d90
d0b
d69e
e3d
ef3
e25
f27
fbe
f6d
##fe7
##f50
##e5c
##e625
##unc
##2cd8
##edf2
##ed8d
##0cc7
##5b4c
inde
##ec0
##b877
##91d
47b1
470e
4725
472a
475f
471a
##183
##48d
00b
##373
ad4a
40ed
4095
4058
40bb
##9231
##0591
##43cc
##583
##6449
41e2
4153
417c
41ef
416a
##cadf
##98e
42e0
426f
420b
4594
2541
4831
4646
463b
4610
##38ab
##526
44fe
44bf
444f
447f
433b
43fe
436d
##e1d
##d8d
##d802
##d83b
4cf8
4c3b
4c4b
4cbf
4ccf
32fb
##ebc8
##f6ab
##fdd8
##445
##4435
launc
##282
9800
##709
##e9f
4f94
4f61
4ab0
924
##af88
4d97
4de7
4efc
a834
9177
829b
##0499
##3f47
##7c0
b266
##7bfc4
bc57
ac58
9b3e
##7a27
8bfc
8ded
bd48
9af0
4f83
4fcd
4a45
4a42
4425
4967
d6e2
4fa3
4548
4433
456a
4945
ba70
4a63
b333
bc1b
4dd9
index
launch
1a8
2b7
2c3
464
4d71
4a86
4fe6
5eb
639
6b8
7b0
8ce
859
8f7
8db2
90cf
9715
9936
95d0
a931
a33
a729
a34b
b32a
b606
b92f
b647
cde
da4
d64
d69
ec7
f01
f97
fc6
##a27
##efa
##bf6
##01b1
16d
##e470
##93fc
##a9f6
##edfc
##4118
##9c78
##d652
##965
##aae8
479
47dc
4764
47d7
##54fa
##42e
##4281
##3754
##97a0f
adf0
##8680
##887b
2648
2677
##9537
##5802
##f155
4baa
4bcf
4156
414d
4120
41c2
419d
414f
##906
48da
48dd
48c8
48ae
4863
##3108
4608
4648
4656
4690
46e6
4670
23c
##513
##5104
##f8a
44ff
440e
43e7
434d
434e
##fcdc
##3039
##4768
##f798
##f7b2
##99e1
4c1
4cf1
4cba
##a817
49d2
4994
49bb
##f6e4
##212
075
##663
##6650
##a6e
##b25
883
##d592
00082
4ae0
4eea
b855
a86
915
##0450
9cf0
b149
##6be
bc54
bc6c
8c30
8c21
b068
b0a7
9bda
a4bc
8e5d
9f68
b9a3
c8e
a5a4
9d97
8ab7
49c8
44c6
4e1b
4e11
4080
##5df50
443c
3682
b4d7
8217
991e
87cd
027
4fd
4ea1
5ff
62a
7a9
7e2
8d71
8980
8d0b
8581
9be
93cd
9edf
9444
99c9
af4
ae6
abd
a952
a209
aad9
a409
a42a
bc2c
b59
b925
b95e
b5be
c4d
df3
d4cc
edb
e30
e76
eba
fec
##3fe
##af1
##e97
##e452
##e45c
##e48a
##3509
##db08
##db67
##a9a9
##a902
##fa67
##41b1
##577b
##cea
##9ca4
##9c3e
##0003
5368
##3946
##b7d
##ec68
##0887
1858
##913e
47d6
4766
479d
478f
##5476
##4c97
##4c1c
##18310
##4828
##dcd
##dc7c
##273d
##e75
01c
4026
##714
##56b9
##6c97
##6cd8
##4d10
##886
##88fd
2618
2642
2606
##95e3
##e2f2
##58b8
##64b7
##6495
##6407
4b40
4ba2
411c
41c4
##d110
##de50
##debb
4249
42e3
4282
455b
45dc
2537
2138
4633
46a0
##07e9
##0703
##f838
##f861
##f8f0
##f877
449c
##f2f5
##67d5
##e855
##50a6
##d87
##f752
##403
##99ae
##3bb9
4cf5
4c0e
4c8b
321b
4978
##a13
##f66c
##eea4
##ee88
##f0e
##f031
##d76c
##2139
##f472
##f4bc
##9b68
##e0e
##e0fa
##a6a8
##bcf
##bc61
##bc1c
##b230
##dd9
##44b
##f393
2943
##4992
881c
##4bd
00092
00077
##74a
4a00
4ab7
4a52
4ae1
##1241
##e318
##b63
##b696
92f6
92a6
4df0
b83c
b8ff
a80
a899
a85a
8247
82be
b199
b235
b2ac
b26c
8096
bcb3
96ac
96a8
a738
a7c1
##5ef7
b030
9764
9747
b7ee
a174
8741
bb5b
a096
9bdb
a4f4
b6bb
93e4
9361
badc
89f8
8ffe
1c4
84ce
a3aa
a305
##c942
aef5
4f87
49cb
4a44
4a94
4e45
6ddb
488f
8b8b
4ce9
896b
4ecf
493c
4dee
911c
385881
bf82
4d79
16797a0f
a41e
b22b
##48c35d
bf1a
bd87
a1c3
ac8d
bc86
38588148c35d
1a1
12cb
2d5
2be
4c2c
4eee
5903
64f
760
704
76a
7a71
84c5
8ff
8aa2
897c
82cc
891f
8e49
8c8e
8433
9e4c
9aa1
9ab4
9fbb
9fd5
ad6
a961
af44
a43e
adb4
a59f
aa0e
a975
a79e
b73d
be8
b3ac
bb07
b5b1
b542
bd0b
b5d4
b381
b91c
b548
b2c8
b62b
bbb6
bd10
b6c8
b51e
b9b9
c3d3
ca6
d77
dec5
eab
##c58
##01b4
##2c90
##e4b5
##e487
##e42b
##db52
##9367
##93c1
##a971
##a982
##3d51
##0cde
13f2
##fa38
##413
##575
##d654
##a452
##9687
##aaab
##00aa
##0048
##466c
5396
3150
##b705
##ec3
##b8a
##b847
##b8d4
##0846
##dab8
##da28
##9193
474d
4747
47b2
##7832
##4898
##48fc
##48cd
##48c9
##683
##37e4
##37aa
##3732
##3726
04a
##27f
##e75a
addc
ad1f
036
0334
40a3
409d
402e
##a7a
##a72b
##924c
##924b
##6c20
##882
2646
2631
2661
##953d
##05ca
##051d
41dd
4109
##d1c8
##90a
##90b8
##98cb
4298
42ae
45d5
4516
453e
4854
4802
48bd
##317c
2722
##6154
##6118
##51cd
##ea28
##f89
##fc77
##f2ec
##673
##473f
##d89f
##3b5c
##3657
##3c5
##a8ec
##a171
##a160
##f6d6
##f650
##ee2c
##d7d6
##d7b1
##f4b0
##f44c
##f4fe
##bb44
##5c5f
##34b7
1956
##9b21
##f5da
##66fa
##a6fa
##a634
##a6b2
##bc4
##bc1
##dd0
##d035
##f3f2
##20f7
##c1b1
8841
88d6
88d8
88b1
9841
989d
##703b
##e53
##d5e6
00068
##3ae3
4f62
4a67
4a34
##adf
92e2
9299
4d93
4d91
81f4
4ea7
b862
b8fc
b860
a845
9199
8243
8259
##d400
9cfa
9c04
b135
b1d2
a2ae
b233
b23a
##ef57
##7b3
8035
8067
803e
bc67
95d6
9505
9590
9507
95f7
9659
ac45
a692
a63e
##0ef0
b791
b792
2628
9032
90f7
9040
9049
962e
a048
9573
9bfb
b6a2
b5e4
b536
aafc
aaeb
86b6
##7a07
8e18
9336
93a6
94fe
8dac
8d72
8dd7
bab7
8908
9ae2
8332
83e3
8443
84bb
af99
af3b
9e02
9e34
5b30
fc45
d199
1f6c
1f4d
0cb2
4e8a
4db7
ee61
4275
4545
4ac4
cdf3
##6410
0d05
b4de
4b06
4f0e
878a
870b
933e
##5bbae
ac19
b703
04c
0e87
04c6
1928
1dbc
1a65
2a24
2bc2
3cd
507f
5d1e
6a8
6d3
65e
6c5
6209
6ce9
73fb
70e
7521
7418
707c
7111
7ec8
8a0d
8d69
876a
8603
8d1f
8ce3
905e
99bf
9e06
9dc3
9d66
9564
94c1
9a5e
9e7f
ae2d
ae3
a940
a5df
a921
a070
a369
af6b
a0cf
ae7b
a3d5
a5bc
a38f
a69d
a665
a75e
b66
b320
b932
bf87
bdc1
b5c3
bca1
b329
be82
bec4
ba48
b3ae
be0a
bb20
b88a
c009
c0c2
c316
d446
d909
d3d2
d686
dfb5
ed22
ed23
f40
f69
faf
f979
f406
fcee
f425
feae
f05f
##054
##2e7
##f46
##e35b
##0143
05fc
##2c96
##2c32
##2cc0
##2c1a
##e43d
##359a
##db54
##a978
##a9d4
1116
##fa88
##facd
545b
##2c46
##fb8f
##9cc6
##5bdf
##a47e
##00d0
##0044
##00788
##00482
##469a
08fe
5559
310f
##aca4
##ac8e
##b75c
##b7ff
##eccf
##0838
##08c2
##9187
470a
##548c
##1894
##1898
##4863
##375
##373a
##379e
##37c7
##e766
ad1
adfc
ad17
ad9f
0193
02f5
032a
4039
4021
##a7eb
##a714
##f0cb
##ab93
##abeb
##7145
##569d
##6c5
##4d07
2662
2691
2607
26540
##05e5
##4364
##43be
##e23
##e20c
##9477
##58a
##581b
##f12c
##f178
##f1e8
##64a5
##64b5
##cae1
##ca86
##d19f
##90b1
##90df
##9833
##98b9
##deb4
4593
45ec
455d
459a
4899
2105
2176
##31b
27c14
4639
46dd
1287
##38e5
##613
##61d6
##51ea
4fb6
4fb4
##ea26
##ea1f
##7208
##72a0
##f84c
##f825
44fb
444d
44bd
43ac
##fc22
##f2e2
##f28a
##67f
##676b
##e13
##e132
##60f6
##60600
##e8c2
##30bd
##50b
##504c
##475c
##d835
##d8c8
##f7c8
##f79e
##404c
##99f
##3b5
##3b4d
##3bf9
28b
##36b1
##3cc5
4c76
##ebad
##f6f1
5060
##b146
##21b2
##f49b
##bbd7
##bb9d
##bbcf
##a2d6
##a237
##a2e2
3799
1498
19b4
##fded
##f5d1
##f5a5
##66b5
##5d4f
##e078
09de
##a6eb
56f
##ff96
##dd95
##d094
##f9de
##f9f2
##f9e5
88b0
8848
880e
9842
986c
##e55b
00087
##692c
4fe8
4afe
##125c
##12e7d
##cc58
9235
9232
92f0
4dd7
81da
8133
b8b5
a82c
a8d6
a8d8
a82a
##555
##aefd
##09f
91fb
91e0
##d4b8
##04999
9c11
9c5d
9c6a
78f7
b118
b150
b136
b17a
##7c600
a2db
a2f6
b227
##dff4
##6bd
##6b49
##1c6f
9675
80aa
80de
803f
1585
bc5e
bc9a
##9ea4
952c
9596
95ac
8c46
8c31
8cc1
96fb
##26f
ac18
ac20
ac0d
a799
a7fe
a7c2
a6fa
a6e2
a6d1
b041
b0ea
##6eea
b730
b7cc
##15e2
##b3ed
a171
a1b3
9071
90de
bbf0
##25a1
2688
994c
99a7
99f3
a458
b6ed
b654
b6d1
b5fc
aafe
aaf5
86fb
##0b94
8e37
8e58
8ef5
8b96
93f4
94f2
8546
8505
85f8
bafe
b9fa
b9aa
b9f0
89f5
9ada
9ade
8f41
a364
a3ff
f03b
be05
##2ef5
9dec
b300
##7fd1
9ef0
67dd
ec50
61de
cb9b
cba5
441f
e038
1be4
eb4d
6b57
ee94
427b
d4e6
6d3b
c305
8b83
8b89
1d00
e36c
3dd2
ed39
ed51
##41170
7f4c
##2186
c037
845f
f53b
c5f3
911d
##3611
7d72
934f
901c
997b
951b
852b
ba77
9884
866d
bdcc
ab75
8773
a465
966f
##4b69c
5717
9953
920b
875e
952d
8c1c
949e
##b87e2
b487
853f
840d
9765
831b
a4b3
0370
0a69
0ec4
0e0b
0f1f
0d2b
1c2c
1350
1976
1d61
1fb8
1dc9
13da
1ce8
1a26
1c2f
1c5f
25b8
2ce9
362e
3ea8
3b17
3645
3ca0
3ddd
3d25
3b79
3a81
3deb
3a7e
5eb1
5fbf
5fbc
5ca2
5a15
5b9e
5d1d
6d22
6976
66c0
6f7c
6eba
6e43
6a3f
6cc5
727c
744
736f
7e7c
72c0
7a8e
70c1
7c1d
8f1b
8d60
8514
8679
8d23
8e4d
8a7c
895f
8a9c
8fe3
8aaf
8fb0
8da2
8cae
96b8
93cc
9e42
900a
95b7
9bc0
a446
a919
a949
aaa2
a788
a97c
aa89
acee
aa4a
aed1
a504
a09e
afaa
a61b
a165
b5b4
bf17
bf1c
b2cb
bac4
bcec
be65
becd
b76a
b5ba
b42b
b073
b5c8
b053
bb9a
b97d
c4e
c3d1
c075
c781
cd1a
cdb9
cb6e
dfd
d981
dce1
d912
df75
d616
d5d5
d3cf
e467
ee3f
e37b
ffa
fe9
fb9
f621
f619
f31e
ffac
fc8e
fb03
##8b1
##6a7d
##a05e
##d40a
##e93e
051f
058b
##2c11a
16f2
##e493
##e474
##e45ad
##35f8
##93f5
##a9d5
##ed33
10ed
##3d66
##3d4f
##0c20
##face0
##57a0
5431
##dbad
##fb23
##fbe46
##ce6e
##ce05e
##9c62
##d66f
##a441
##9697
##96af
##96cf
##9685
##aa01
##aa26
##46b5
##d2446
##d249
08c7
##c2cd
31d8
3185
##ac93
##ac9c6
##39f5
##b76d
##ecd1
##ec3f
##ec51b
##b81c
##62ef
##da32f
184e
##91d6
##9136
##786c
##54ac
##5448
##54f9d
##483f
##68f24
##dc94
0058
0077
0059a
009c3e
##4226
##37a8
##37a3
0405
04a1
##e74
##e769a
ad47
0108
0245
0322
##57eb3
##a7436
##a75782
##9226
##926f
##71dd
##7122a
##567a
##4d9d
##4d8e
170c
##88ac
2635
2608
26d1
2632
26a6
##0536
##e235
##e29c
##e2af
##949b
##0206
4bd8
4bc2
4b13
41fd
##ca8d
##d1d0
##909e
##98eb
##dea70
480c
dad6
da6d
da5a
212c
##31fc
##386c
##38a5
##383e
##384e
##51d65
##ea54
##ea3bd
##d710
##3fbe56
##32e8
##32f7
##724b
##075e
##074e
##f850
##f83a
##52a
##52928
434f
##e17b
##e129
##e1bd
##e1f5f
##60e
##e817
##50d
##50d1
##d8c7
##f7e6
##f7412
##400c
3e78
##e2d00788
5175
##36485
##3c15
4c9c
##a813
32b2
##eb67
##ebff
##ebc0
##ebdab
##a157
##a1c3
##ee9e
5042
##334a
##214
##f495
##bbdba
##bbfb
3507
f7d8
f7d4
24f8
3718
37b5
37719
14f25
##34eb
##3490d
57ca
##9bc4
##44661
##fd5dd
##f596
##f5ff
##e0d1
09051
##a6fb
##bce4
##a03a
##a0a8c
56b5
##b202
##b2f8
##77b4
##ff9537
##dd3a
##ddfb6
##d03
##44eb
##4445
##10a5
##f3e5d1
##c121
8860
88f0
881b
982c
9822
98f3
9879
98e97
##e53a
##e555
##d5fbe
39ac
39dd
00094
00098
##4546
##45e7
##e9d3
##e9eb1
##b52c
##e331
##cc7
92ec
9252
929f
925a
##afa9
81d8
8176
b8b7
b808
b8a5
b8d3
##d3f6
##065b
a8ce
a8ef
a81e
##ae6c
##16a
##53f7c
##b401
9cb7
9cfe
9c9d
78ca
b13
a29c
a2ad
b2a9
b23f
b2e855
##7b35
##7b6c9
80dd
80d4
##73ce
bc96
bcbb
953b
8ce4
9656
9602
9664
963c
##bd36
##2697
ac77
acc8
ac026
a70c
a635
a6af
97e5
97b9
b73c
ab9c
a164
a1bc
a13a
8754
87c2
bb57
bbda
bbf8
bb44
a0da
a092
##6ae9
9b61
a496
a472
b546
b5d1
b5e9
##0a58
8e35
9457
8558
8550
8dd2
9f64
bfdb
bf2c90
ba88
##cfec
b995
8393
83ed
8f57
1c01
##89fc
##89e85
8402
d532
c890
a335
f099
f033
be9c
be60
a5a9
a5ec
a988
a92c9
c2d6
c24b69c
##c618
##2e18
71de
7144
9dfa
9d40
9d99
ae3a
b36c
c6e3
c768
c75d
7242
72b5
e897
7036
70b6
704546
ec46
c147
6159
d8c1
63b7
3cb9
2c67
2c5c
7cf2
7c47
66b5
7705
cbf4
cbe5
2b22
2b5d
5b50
5c54
fc46
4f8e
f6dc
f605
e0d9
e04c2
d142
1f60
7630
0bda
e643
4e8c
6201
d7f5
d0a7
d6b7
f348
f3011
##9612c
46c7c600
ff52
65e3
3b52
d4a0
e943be
d346
##98ad0e
7ba1
7ef1
091c
c3fc
1d58
e346
eff7
ef3fbe56
8966
861e
##36908
6e51
cf60
cf887b
3fde50
cef0
ce5cd
##218c61
907a
d99c
9116
##a00f
##b3bd
1e50
4d1f
958c
958e
19454f9d
##38795
9065
##3e1c
##61901
941a982
b4df
b4d1
##909a4
338d
3528
352a
1a41
5fe470
28175
bf8c82
##d279b
##e8736908
##ca161
##fb159
928b
##fd956
##f555d
9383
912f
##ed832
##0040c
##9474c
##ce03c
c6289e85
812d
##46d31
##d0e88
4f69
##a117b
##e566
a37a
##d74da5
##d8b9c
##90732
##fd035
342dea70
93b1
3bc5
567b
##abb3d
##e775476
b33f
29036
9317
766a
975a
##57c45
5c1f
##6cc4670
84b9
2626e8736908
##01bff9537
960e
b114
9ec26
##506f4
de5fd5dd
##476f3
32a6cc4670
69e54
b06b
b103
##33ae3
de201bff9537
427cc1b1
e115
5f2d279b
4b37218c61
6d638795
ae70887
4decc942
0c27832
e3da75782
00be775476
##38ab4768
##0499e8
##a81700
aad9ee2c
##577ba48
2be57eb3
1f4d4300
ee612186
04c65943
1dbcdff4
7521581b
ed23ee27
##38e50c
7f4c38ab4768
6a3f0703
d616e48a
051fe2d00788
009c3e98ad0e
3771905a
14f255b9
98e9712a
b2e855d74da5
ac026b4a
a92c9ce1
c24b69cda32f
f30113de
e943be94
cf887b38e50c
3fde50f3e5d1
ce5cd577ba48
19454f9d08c2
941a98268f24
5fe470a81700
bf8c824d
342dea704c1c
de5fd5ddf5da
32a6cc4670ae
427cc1b12ef5
4b37218c6196
ae70887fd956
0c27832a7436
e3da7578262e
00be775476f1
2be57eb33299
0a86
0390
0ce9
0e10
0a8a
0d80
0e6f
0686
0ab1
0e79
0eb5
1a17
1db6
1dcf
1ac2
1e8a
1780eb
2e8
2c1
26c0
2abe
2cc3
2a6d
2ed07
2ebc8
3028
3938
3d60
307c
3a4b
3b0b
3a75
3da5
3a97
3fa7
5f1b
560b
562b
5daf
52ce
5ac9
5db14
6370
6de0
6d8b
650f
6fbe
6dae
6d89
64cf8
6e2551
7868
7fd9
7a16
7ce0
710f
7a63
8ee5
8b17
8ea1
832a
89c0
8ee9
84cf
8e828
95d4
9612
930d
9dbf
909e
99b5
af4a
adc5
a610
a612
a62b
a084
aa8f
a111
a07a
a725
a9bd2
a5ef7
bad
bf4a
b209
b968
be10
b9bf
bf20
b625
b4cb
b3da
b00a
bfbd
bea36
c3bc
cf1b
c680
c4cd
c785
cfdf
cdbe
ca3e
cca8
cecb
cd5e
cff3
c30a
ca99
c11b
cb73
c88d8
c0009
cc2cd
d931
ded5
d5e
d921
ddc1
dacc
ded3
d54b
d6cf
d0c4
d425
dab1
df76
db83
df06
dd3f
d116
d14a
d20e
d0ae7
d80d
e369
e3cd
eb14
eb05
ea43
e353
ee15
ed7f
e0040c
f5a
f918
f2cd
fdaf
f3c6
fe6d
f56e
f65a
febf
fcbe1
f0ef0
fabb3d
pu
##302d
##693b
##0e8
##5ea26
##ff7b
##eebb
##bl
##0178e
0579
##2cb13
##2ceca
1652e
16cfb
##e4544
##35f29
##db4c5
##db222
##dbcc2
##db9227
##db6ae9
##93ae
##934a
##93e89
##a9fc4
##ed12e
109e
##3dda
##3d7b35
1147
112e18
##0cce
##0c92d
##0c37e
##0ce55b
##0cb76d
1349
13f52
13e93e
##fa27b
##fa93e
##fa2c1
##fa4d4
##fa35a1
##41a89
##41adc
##41d62
##41b3b6
5421
##2c4583a
##ed93a0a8c
##fb5df
##fb204
##fba24
##ce2c7
##9c40b
##5bd69
##5b52f
##d631
##d6473
##a4a47
##a4b8b
##a4a668
##96b0f
##aaca0
##aa10f
##aaa20
##aa08d
##00215
##00466c
##466b
##469685
##d2d400
08485
53e5
53adc
##3d3355
257ff7b
55f8
55f2
5583
55ec51b
31eebb
##ac644
##b0d3
##b0e0f
##b0726
##9315
##b7ee
##b76b
##b7204
##b7f7c8
##ec7b
##ecd4a
##b8b88
##62958
##62fb6
##62129
##6238bf
##62d2d400
##08b80
##daee5
##da35c
##dae69
18bf
##91676
47f4b
4757a
##78a5
##78275
##7899e
##7895c
##78a10
##548e
##54e85
##54c29
##54f1c5
##54a9f8
##4c17
##4cda7e
##4c02a
##4c0846
##48529
##48a00
##48a71
##48f86
##68b7
##685dd
##68d7d
##68bc0
##680499e8
##dcb4
##dc90d
##dc587
002a
00385
00a09
##424b
##4205ca
##373d4
##37a8a
##3736f
##37ce7
##37fa4
##3720a
##37163
049b
04d7d6
##27ba
58b8c
##97d6
##97d3
##974a
##97a9a
##9778b
##97611c
##e7a
##e7e2e
##e747f
##e7e132
ad470
ad54b
016e
0263
02fdb
02efd
031c6f
03ce6e
##eb7d3
##eb7ec7
##eb7a20
406e
40aa0
##dc1847
##a74c
##a72d
##a77f
##a7117
##a737a8a
##868ef
##86825a1
##92345
##92e566
##27ca3c
##ac06780
##bb0fa
##ab614
##714b
##71e19
##71f65
##56989
##56f9de
##6c600
##6cd19
##4d35f8
172b
##88a3
##88ea8
2654
2671
2647c
##9562d
##05524
##e29f
##94db2
##945b5
##944d10
##58c
##58600
##58760
##58f29
##58ed8d
##f1b5
##f1db2
##f11cb
##f1fa88
##64aa1
##64e76
223388
4bb8
4bcb1
207a
200c37e
416b
4172a
##ca028
##ca542
##d11241
##9043a
##90477
##9027d
##90a7f
##9800f
##98404
##98d5e6
##de0d
##de82b
##de6bd3
42e96
459
453ae3
2591
25f68
4810e
da30b
da3b23
da125c
2130d
##31ac06780
1253
12f241
124863
232d
233c2
23fe7
23ee88
##6175
##51352
##51e10
##51e04
##ea0d
##eaea0
##5b408
##5b47191
##5b47208
##d71bd7
##325d
##726a
##722a
##07d
##07383
##07b1c
##075d3
##f8485
##f8edf2
##f8a47e
##f8373a
##52949
##fc87e
1534bf
15e43d
##f2983
##f2dad
##f24d07
##67011
##67b17
##e1f7a
##e14d3
##e1522c
##608d6
##608d5fbe
##6b893
##6b8efa
##60d2
##57fe1
##57f07f
##57f3fc
##e8620
##3ac51e04
##30f2e
##30f5d1
##50415
##50bb3
##47576
##479b6
##47b3bd
##d8dba
##d83dd
##f7db
##f70e
##f7392
##f779d
##f738e
##f74c17
e97c5
##40e
##40acd
##99fc7
3e35
3e6c
3ef7
##3b979
##3b596
##3b51e
##3b4b4
##3bee9e
38f9
38aa08d
51ec
514f
51d42
519600
51dc94
513ac51e04
280e
28f5f
##36d5d1
##3cddd
##3cf877
##3cbc61
##3cfb204
4c420
4c05d
de62f
deb46
##a863
##a87a07
##a8722a
32d7
##a1db
##a12c96
##f6904
##f6f8b
##f6f650
##f6379e
##f094b
##f0ebb
##d7acc
##d7cec
##d7c89
##d7f4bc
##d7b230
50da3
50d0ac
505b4c
50d66f
##33ea
##330ce
##b12c9
##b1fa2c1
##214c
##210181
##216407
##f4f25
##bbf83a
##5c89
##5ca44
##5c22a
##5c779
35f3
f7590
f7c9b
f7e5c
##a23
##a2596
37dc9
##343d8
##fe589
57c0
57785
57a2d
07ff
07560
07e8f
##9bcb
##9bb705
##44631
##fd880
##fdf4b0
##f550
##f5542
##f5fad
##f5f2f1
##f5aaa9
##f53611
##66e6
##66f838
##02168
##226b49
##110cc7
##fa1458
##5de21
##5da9d5
##f1d4b
##e09187
##e6fc
##e671f
##e661a
##e6db08
522cf
09ee3
09b7ff
##a6f
36b5
36fe1
##bccc6
##a067011
566c
##ff359
##ff9227
##ff9612c
##ddf11
##dd596
##ddd63
##dd33ae3
##dd424b
34f50
##44a902
##10dab
##10d592
##f32c2
##f393b
##f318c
##f9a86
##f9f596
##20f1b5
29b7
29f25
29d7b230
##a5a00
##28ca028
##c1967
##c152c
##c1ca8d
##c1ae6c
88b6
8875
8824
8846d
885cb
##c8567
9852
980e
98e42
9857f3fc
##704
##706cd
##706495
##4ba
##4bf2b
##4bcae1
##e5464
##e5a6b2
33b08
33db54
33eb7a20
##d5529
##d5e6f
39fb
394364
##45ee
##3a3f
##3a5b47191
4a62e
4af58
##12b29
##ad50
##addb9
##b53b5c
##e3623
##e3868ef
##79d80
##cc42f
##b66c
##b62c7
##b9960
92e
9202
##af00
##afe1f5f
4d9c11
813bc
8107e9
##a30c4
##a3b86
##a3a2b
4ef68
b8aa
b8f0
b8692c
##d3473f
##d3f178
##06f
##d9f84
a8ad2
##55fd0e
##ae02f
##16d55
##c2544
91910
##53274
8218
829d
82b3b6
82e58
##b405c
##b451ea
##0472
##042c2
##3fce6
##3f3d51
##3f64e76
##bf64b
##bf42b
9cbb
9cacc
9c3b9
9c7831
7874
78e8f
786440
78dc1847
b100
b1bc
b171f
b1f825
##3e3c1
##65521
a208
a24b6
6416e
6412cb13
b263
b2f49
b2fd8
b2be0
b23fe
1574
##dfce
##dfecb
##1c54
686cf
68229
80d6
804c
8099e1
##731898
##73ab93
bc77b4
##9efa6
955d
95f3
95fc77
95a171
8c49a
##1471f
##bef6d02
96abc
96ffa
##9d50f
##9dff9612c
##bd0ce
acbe
a764
a64c
a63b
a6f24d07
##0e9315
00101
##6dd19f
##c7d
##c730
##c7f88
##6e070
##6ef7e
97fc
97e14
976251
b7b72
b7ea53
##ba6c4cd
##1502
##9ab0b
512b
512b4e
abca
abd9
256d42
a134
90af88
87f2
962a920
211719
211617
##87fcd
##87728
##6a37
204f0f
268c84
99e7
99d5
99a157
9b427
##13e84
##13475c
a49c
b661e
b562e
aa5d
aa3c4
aa61d6
aa67b17
##7ab86
##5f999
##1b5b408
8e5dd
8be1522c
93000
9308a
f8d6
f84e
f8f1c
f8b4e
f8f2e2
##0d93fc
##0dde0d
853a
##cb4c5
9f6118
bf4d9
bfde6bd3
##2b01
ba41
ba687
9ab8
836caa
8f58b8
1c34f
1cb83
1cd84
1c47b3bd
##89d55
b4ff
b4017
d5f6
d5589
d5d11
d50003
d5ea28
c833
c8fcdc
c895e3
a3e5
f0a2
f0f2d
f054d
f00143
f07145
##2de71
be3a
a957
c2af
c2514
c2d5e
c2e12
c2ed9
##c4952
##2eb0b
##2e7899e
716ca
71db222
71bbf83a
##c9ac1
aeed7
b3f054
c6f4
c634
c6bf
c6320
c6352
c6dab
c7b0
c794
c7d82
6cdc
6cd76
72df
72be
729193
e8cc6
e8ecd1
67f798
67e17b
673cbc61
7001b4
7037aa
ec5643
ecb81c
##8d932
##8d9ca
##8ddef
##8df472
##8d38a5
e7a3e
e756d
e70291
e7a87a07
c1d8
c1f0
61e4d
61a6a8
639c
6318
6331
63a0d
6318e
266076
266e7e2e
3c0c
3c5893
3c36a1
3cf84c
cc9c
cc968
7c48
7cb5
7c9f
491776
491d2446
8a39
77d14
cb5b
cb50
649ca0
64bba4
6458ed8d
d2f1
d2fe5
d2b8e
d26238bf
2b0c
2bf2
5bce
5b3c1
5baae8
5ba978
dc57
dcdc
dc9531
dc063
5cbcc
5c00466c
fcdb
f6fcd1
f60044
f636b1
60bf
604205ca
f1a7eb
f1a6fb
e0aa
e0a067011
49c21c
1f99
1fdc5
7656
76fba24
0c00aa
0c32f7
0be6
0ba160
e630f5d1
1b3b
1b36f
4a4aaca0
4627
62304
d7a55
d73f3d51
d0f2
d0463
d0e09187
ebd8e
6bab
ee3b2
ee5c5f
ee386c
11772a
d6f26
##3bc45
##3bc3e
##3bc60600
4a9d
f3e318
##9616c0
e293
e2bb9d
e244a902
4fae9d
4fa4118
##940b2
f2e0fa
f2f9f596
##5dfda
##5df32
##5df726a
ffdbe
fffdd8
##3d1e75a
##3d1b62c7
##84a43
65d7
1275
127e769a
3bdc587
73326
73e637
73e817
73f6379e
##521028
0f88c
0f3cf877
##02892
d4ad9
6d5d
6df031
##5b1aa
##5b1055
e9b1
e99cc
d3ca
d3f9
d30ce55b
e401
e4e7
e43d1e75a
231b7204
7b2c2b
7e5b2
##5b859d
##5b8706495
4d20cc
118a1c3
##05042
091edc
3a5da9d5
3ae671f
3a3bc60600
c3e9
c3e7b
cd545
cd926f
cd56f9de
8b8de2
1d5df726a
e307
##080bb
3d579
3de747f
##641a1
##64177
##6413e1
##641ead8
2e676b
2e60f6
ef31a
ed34
89604999
##42061901
0de2
##904ea54
##a86983
cae7
ca088
ca2139
##d22a7
##390f6ab
7437a8
##f17609
##f17b0726
273aaa20
128d7acc
12810dab
fb3c1
##542da7e
##9384c
##41190477
##919f4
##919a2
##919a95
6e3d4
cfd7f4bc
f9d6
3f58
75ab
75e9
##a8c317c
db35
d165ca44
##52900482
79df
##887d8
##8873b
##218e35b
##21862129
##438a0
907b7f7c8
90705042
490f
d90cce
##e46ac4
##dc594
69ad
845591
8452c11a
192ebe
##4299371
288ce05e
##abc110cc7
151330ce
##35168b7
178dc594
##a004b
##081dc59
##f10d3473f
##36d50
368ddf11
##019d8c
##36150bb3
2f30bd
##48139
4d1bf6
##d60d2f
##082af
868ab97
868a05e
##dc1debb
##609b7
7d0838
##eb1677
906d6473
2d074e
##3e13f
##5d4fb159
239afe1f5f
fd720
941a
c458
##91c47
ddf850
##326b0
##32668d7d
154dd8
##f6bd4b8
##a69fb4
3855bdf
##0cf38
##514a16
354c58
4b0a8c317c
338a4a47
##5b99c62
##5c3a2
934b
6feb
6feeaa
7ae0f
##399da
##60ba5
f443
##27197f
##6c13179
##acd02168
901c4952
1014cb
##760e5d
##3d9daee5
4ebf6f8b
##d61ec4
##d61a237
##d1a67a
##312f2
##31ef7
9519027d
##d2735f29
0e90732
##54842
##9bff6d6
##e06913e
##a4b59
##917273d
##2cc93
##ac8a40
##679f76
##35505
##ca0ab
5e67ed
801c8567
##f8be6
##a84bc
##e1c6e
##428ccf9
##edee1f7a
##fa8e3f
##27bb13
fa521028
167aefd
##97497
##974ea
3780dde0d
990b
##ac75c2
##a16ebff
##e65fe
##ed8eb67
##024b1
##b1457f07f
##00493
##fdf05
##b4e3c3
301b
a5cc
##0ce36d48
##d1bce
##fe6eb1677
ba7a46
##ec7eb
02172f
0212c1a
##a12bb6
758d
7583e13f
##324f8
##324ee
##36e309
##e0b42
c626154
c62f4f25
##2c84b
##d2ff7
586ef57
58693ae
##715a5
390715a5
##5919f
##a3ef6e4
##934d6
##444af
604e65fe
bdcd8b9c
11256989
##56ffc87e
ab7f
##dbf35
##9c15d
621b52c
947b
##dc3db
##3d5eb7ec7
##d66e6fc
0717
071d
291fe589
##d106650
##fc8a0a
##f2a3946
##a1174e
##e08b75
##e08c2544
110414
##a40387
##ca8d6
##91fdc
##787c1
##54e58
##54e0c92d
##a76ae
a462e7
##4c69226
##a06a0
8578
##ffa47
##a75a3
##366a28
##3c79b42
560783
b18b1457f07f
b189c15d
283476f3
106f861
##d15de
##fb5333d
##687d8a
##689ff96
##34554fa
87179d80
##a9122
##6cba0
##6cba4a
##f8491
##f034c
##f03f1e8
##10fde
b4b6cba0
caa3039
caa5ea26
caa8d932
##34f924b
b6bec68
b6bdd424b
##a9441170
##3d8f7e6
##b050206
##48c9a
##b11c8
##b11323
##129d7c89
29812b29
3bc3fc
3bc37163
##014da
##93fe4
##ce6b5a
##a4f36a
##b81da
01648529
016e3623
##a7b3bc
##a7bdb52
565ac9c6
##624a84bc
##68d02b
##68dac644
17288ea8
##de84bcae1
0b1ebc0
0b1e0b42
bf16651
bf157c45
##96e36d50
##08a210181
##4d38873b
3555c779
bd8e
754a06a0
7169bc4
##db10c20
5536b893
471abeb
4713d7b35
01090df
36508a210181
742ab614
##5add2
##5adf8be6
##fe12a
##92fca8d6
##95eec6
##61cf6
##2ce5bab
##ac299
##187de3
##377a6
417b050206
##4b49bad
541bccc6
596f0ebb
##0c3a9a9
5423f47
69771f65
778a
7679bb705
##f525
##cebe9
##38b34
556d89f
##5906
##f833b
##fcc47
##e84e40
575469a
917d8c8
642a18
798bbd7
##08d54
##56be1
##51cbf
##ee339
##f3f99
61264177
7905b8706495
##9cbfc
##ff927
##cc94c4
50098c
848addb9
##023e6
##72ea4
7353d8f7e6
b4850e
##b7152
##073f3
##fc935505
##21798
##e17a2d6
68292345
##a90a5
01471e19
0612cc93
##bbf91fdc
572a12c96
62820f1b5
70054e58
5513f64e76
4479562d
##b4649
##eb2f6
4cadb4c5
5c1693b
407ddd63
##95ace
6195b6
7709778b
c28a
c28f
072ee339
##08598
##fe998
76162958
9d895ace
##b0a36e309
##08cd9f84
2626b146
836b
940d61ec4
fdeea3bd
fde27bb13
##dbb22d
##93cf5542
##97af74c17
88497a9a
00887728
##93a548e
##4c0a15
##32d54f1c5
##eb3a5
7b7db67
ca89d50f
e88f35
e88dc90d
53988a3
##627ea
##e1e3b4d
053a4b8b
4724898
##58bd80b
##59ba6
dfb7fd1
##6c748
##98d36485
46308598
6723dda
b12f5f2f1
006fca7
##b5ef393b
##d3e6c
2bbbbb2
##4c85d
012438a0
2a13ad
2a113e84
dd678a10
dd687fcd
d7c944d10
055e45c
##eddf4a
##f8c0e9315
8890cf38
53512e7d
ed638e6
ed6706cd
007ddfb6
588c1967
##a1c8c
##a1c8fd880
af5f7392
af534554fa
##31d5c
0dc6eed
0f753274
0f7bef6d02
5abfe6eb1677
5abf034c
##43cbd
##de53a
929934d6
a29de82b
a29ec7eb
1a5ca542
1a557fe1
##e7c1d835
##e7c1da35c
de5343d8
88cf8c0e9315
684f393
764b9960
##e2af6
##61d45e7
##07b01
##c89bb
1a4e14d3
d6c65521
eb66c600
eb6e7c1da35c
##41ea4b59
##96a0a5
##96a05bbae
083627ea
b7cf7412
##aad08e
47f1934a
47bf93cf5542
4b2ab87e2
##fcd12a
##4659c40b
64839f5
##db0ac8a40
##96f71
##5643a004b
##585a4
##dd5a9
5c858bd80b
##b8d4c02a
4c7ab76b
32ae661a
##5cf94
98040acd
b0bbdc7c
69e08b80
6ee0e2f2
be793e89
bbe8680
bbe9cbfc
##5b3a532
##a1b5d
##a5329efa6
747a3a6
b5116d55
26bb55fd0e
##cbe137ce7
0b6043cc
2f87019d8c
aa1f6904
9e1a1c8fd880
b68a7bdb52
d3747576
2548bbcf
491478a5
0a49bcb
##774f738e
##76beb6
0dee6db08
a394bf2b
ef6eb2f6
##bbaf318c
3ec9bff6d6
c01a3b86
cec97d3
d2cea1f
ec8eaea0
e816c748
e573c79b42
f5b082af
1c19ab0b
7a2ed832
##30eff
##763187de3
0a7bd0ce
5b7641a1
f445bd69
##51dfa
63b917273d
d21a1c8c
e603bc3e
3f7024b1
##30d307
cc2b4649
dd8b6d
f8848a71
7e5db0ac8a40
7d9a9fc4
eb74de
##4b5e5a6b2
##65f41d62
2b2bf42b
45b45c22a
9d797611c
97b51cbf
d98fa93e
##356066fa
30f37fa4
4d86e7c1d835
bb08af3c
c9c5f999
##66e846
6c2ebdab
7bccebe9
c0cf833b
e0751d65
e1660ba5
##37ab1c54
##3c545cf94
9c7f8485
a2d5fc8a0a
8f9aedee1f7a
b204e53a
c12f5fad
d96a117b
dec763187de3
ecc7bfc4
f2948fc
##902710a5
##07cd88
##9b36e45ad
99059474c
8e3c129d7c89
0d130f2e
2d9eb8d4c02a
a529384c
c71c9ac1
d5758760
e46de53a
fc29477
##db0adb14
373c933c
576741ea4b59
##f3b86e
f8ad1bce
d5d8b401
f9d298d36485
1c8ffc22
1ec0450
2a4b1fa2c1
5e1bbdba
6f9e06913e
93ddd596
ae04c97
b61dbf35
de7b0a36e309
d07c152c
e12e5464
e13373d4
f8707b01
47c52949
##ca183726
49e6902710a5
9239b12c9
0a1ffa47
8cc9b36e45ad
9f0f1d4b
9e0d71bd7
bf79dff9612c
c35399da
c98924c
cb241a89
e3bc89bb
fd6ed93a0a8c
4ef146b5
2e7377a6
3ca326b0
3c53657
43204226
5fa21798
8eddd95
90cabc110cc7
b65a2596
cdc685dd
e10d110
##2718760
##9268f13
a8705524
0daf1db2
0cc99ae
3e451e10
7dbd5529
a71901b1
b93b53b5c
c60940b2
dd148c9a
d31d11241
ddd4b49bad
fcc68bc0
##93211a
##468871
##4211fe12a
##66603c
1912fd035
1dbfa4d4
1e0945b5
5f718310
6abb81da
6dd3736f
7dc3b596
a04f1fa88
c93d3f178
c942c4583a
eac84a43
ea7216407
e7207383
16bca0ab
47a6b8efa
40ab53f7c
##98e94d8e
465bb2f8
##07d22eb0b
09e74992
4a62ec3f
3aaf03f1e8
3f2bf64b
4e6996cf
5f4dc1debb
6b997af74c17
60ae8ed
7e7cc42f
ae1b0e0f
b0c8d38a5
c92fa1458
c59d83b
d58c121
d7bff9227
f47db6ae9
f15aca4
##b068c7f88
18666cba4a
41b4b5e5a6b2
##612cce03c
44a612cce03c
43ada9d4
##a29530eff
##c85944
4f4d7b6c9
b0d312f2
ec6e78275
23d8df472
2d23d5eb7ec7
3da542da7e
63d444af
6f048a00
6c4b068c7f88
7d7469685
9a4787c1
aebf3f99
bb09697
b08496e36d50
cf9a29530eff
c406dfecb
d90e08b75
d0b9043a
ef3fdf05
e25887d8
f27ae02f
fbe31ac06780
f6df6f650
##2cd87a27
##b87748cd
##9231ab97
##4435c8d6
829b36150bb3
ac58d7b1
8bfcfb23
ba70f17b0726
1a85643a004b
2c393f5
5eba813
6b83490d
7b06cd19
8ce3c545cf94
8f7dc3db
a931e625
a334c0846
a34be452
cdea30c4
da48d9ca
d64f094b
d69eb3a5
f01a5329efa6
f9790a7f
fc6f2983
16df10d3473f
##edfcfbf
##4281395
##37540b94
adf0afa9
##580299
##f7b2aba
4c1e9eb1
a86919a2
b06894db2
c8e324ee
4fd98b9
62a5b3a532
7a910fde
7e2a3a2b
8581214c
9be07d22eb0b
af499fc7
ae6a12bb6
abdfb5333d
b59f779d
c4dd0e88
df32ce5bab
e30db10c20
e766c20
ebad094
fecdd5a9
##fa67e766
##41b19c
##9ca489fc
1858d551
##48281502
01c7122a
40260cde
##64b7f28a
2138fa7b
##f8f038
##f2f5d14
##f7526e
##d76c1f
92f66a37
b8ff50d1
a80a69fb4
96acfa67e766
b0306410
a096fa7b
1c4023e6
84ce51cd
a3aaa863
12cb2c32
2d541adc
590337540b94
64f59ba6
76ae84e40
8ff3fce6
897c98e94d8e
82cc48281502
ad66ef7e
b73df6f1
be84445
b5d4786c
b62b548c
b9b9a9441170
ca63a5b47191
eab56be1
##e4b53cd
##aaab311
##0048e6
##da2869d
0334acd02168
##d1c86eea
##a8eca5
##f44c3732
##bb44e26
b233dbb22d
b23afa35a1
bc6766e6
95053c15
9032b87748cd
86b65adf8be6
fc45506f4
0cb25b859d
4275366a28
cdf33108
0d05e0d1
04ccbe137ce7
1a6588fd
3cdde84bcae1
6d3fa8e3f
65e00215
70e95eec6
707c4300
7ec86dd19f
8ce3e487
905e05e5
ae2d703b
ae3a1b5d
ae7b3cddd
d4465d4fb159
d6863d1b62c7
f409800f
f69e1c6e
faf974ea
fcee949b
feaef5a5
05fc479b6
##facdfb7
545bf525
##2c4691c
310f680499e8
##ac8e96e4
ad1e2af6
##f0cb580
##569d3d66
##90b177
##deb4d631
27c14f0cb580
##e8c2909e
##504c65
##f79eac4
28b4211fe12a
5060e08c2544
##f49b2cc0
##66b5f7db
56fd22a7
##f9e5e2
##cc58a12
81da3bf9
9c6a624a84bc
b136ad50
b227fdf4b0
##9ea40e
95960536
##15e2940
90de6690
bbf045ee
99a7ccf9
a458c730
b9faa634
67ddf4fe
ec50359a
6b57bbaf318c
6d3be9d3
8b833660
f53b6449
5717ac8e96e4
920b37c7
853fd2735f29
13509ca489fc
1dc9a86983
1ce84659c40b
1c2f4d38873b
3d25a72d
5eb14435c8d6
5fbc00d0
5d1df174
6d22bbf91fdc
66c09367
6f7c42061901
6eba334a
727c302d
736f98d5e6
7e7c52928
72c0567a
70c1714b
895fd60d2f
900a52900482
a949d1d0
aed1bc1c
a5042cd87a27
bcec10d592
becdd249
c4e609b7
c3d166b5f7db
c075ca86
cb6e34b7
dfd96a05bbae
d981a03a
df75e129
e37bd8c7
fe9ecd4a
fb9fb5df
f62173ce
fc8e27197f
16f241190477
10edca183726
##57a0272
543167d5
##fbe46aa
##aa019c78
##aa26d4
3185051d
0059a61d45e7
04050d93fc
04a120f7
01083cc5
##71dd3c0
##e29cf4
##383eedf
##32e8fb4
5175f8edf2
32b208cd9f84
3507b696
37b5f17609
09051cc58a12
##e555aa6
b13f2dad
963c356066fa
bb44d652
945721862129
bf2c9073ab93
##cfec03
a3353d9daee5
c2d6fb8f
7242731898
72b55906
704546b4e3c3
63b7774f738e
7cf2b5ef393b
66b5a6eb
2b2265f41d62
5b50569d3d66
e04c251352
d14227ca3c
d7f554e0c92d
d6b7bd36
3b52deb4d631
d346db0adb14
##3e1cf74
##909a4361
35283118
28175f2d
##f555d319
##46d3137b
29036d106650
9ec26e4544
69e54386
e11532668d7d
0a864310
0e1064b7f28a
0e6f46d3137b
0686f44c3732
0ab15104
0eb5f495
1db6909a4361
1780eba4
26c092fca8d6
2ed07a8a
2ebc8390f6ab
3938c618
3d60b405c
3a4bafe4
3a75e46ac4
562b21b2
5daff555d319
52ce96af
5db14024
637068dac644
6de066f838
6d8bec7b
6fbefc935505
64cf84281395
6e2551687d8a
7868b7ee
7a16f155
7ce062d2d400
8ea137ab1c54
8e828dd33ae3
909ee1bd
adc5ac93
a9bd2ec1
a5ef7c14
badf2a3946
b625aa019c78
bea36641ead8
c4cd404c
cfdf56ffc87e
cca8f32c2
cd5e91d6
c30a5800
ca9954a9f8
c88d8f83
c0009e555aa6
cc2cd397
ded5a00f
d5e3d3355
d9210ce36d48
dacc6175
d0c4724b
d425d1c86eea
df06a714
dd3f60d2
d116384e
d14ae42b
d20ef49b2cc0
d0ae7ea6
e36998cb
eb05e235
ea432c2b
ed7f608d5fbe
e0040c9616c0
f5a32d54f1c5
f9183e3c1
f3c698eb
fcbe1e8620
f0ef03e1cf74
fabb3dc85944
publ
05799231ab97
1652ee4a
16cfba7117
##dbcc2e4
112e18db
13f52dbcc2e4
13e93e3d
##fa27b64
##ce2c7ae
##aa10fe4
##466b33
0848507e
53adc15e2940
257ff7b91676
55f2fa38
55ec51bf8491
31eebbfd
##b8b883f
##dae69f1
47f4b46f
4757a54f
002afded
00385da2869d
00a09545
##3720af0
04d7d641b3b6
58b8c07c
ad470d60
ad54bed8eb67
02fdb1b5b408
02efdf3e
031c6fce6b5a
03ce6eab
40aa0e3868ef
172be8c2909e
2647c28ca028
##586007
223388226b49
4bcb14299371
207a34eb
200c37e5b52f
4172a56c
42e9697f
453ae3eb
25f68218e35b
4810ee41
da30bdae69f1
da3b23f5aaa9
da125ccc94c4
2130d2c3
12f241d1a67a
124863e7e132
232de29f
233c2aac
23fe7624
23ee881d
##07b1cdb
##075d3f0
1534bff7
15e43d93211a
##f70e5c4
e97c5383eedf
##3b4b4f4
38aa08df11cb
51d42f70e5c4
51960092e566
51dc94b8
513ac51e0452
28f5f3b4b4f4
4c4203720af0
4c05d52b
de62f081dc59
deb46f9d
##d7cec27
50da338c
50d0acb11323
505b4ca8722a
50d66f33
f7590b27
f7c9bad9
f7e5c428ccf9
37dc95b47208
57785923
57a2daa10fe4
07560d15
07e8ff79eac4
522cf3d9
09ee3689ff96
09b7ff78
36fe12e7899e
##ff35997
34f50fbe46aa
##f9a86ac
29f25a6a
8846d4cc
885cb94b
98e42a17
33b08e17a2d6
33db54c5
394364f7526e
4a62e86825a1
4af58f7b2aba
4d9c11504c65
813bc217
8107e9f3b86e
4ef686c1
b8692c919a95
a8ad2a737a8a
91910d61a237
82b3b6466b33
82e58058
9cacc976
9c3b9fa27b64
9c783114
78644035
b171f9268f13
b1f825db9227
a24b63cfb204
6416ee7c
6412cb13e474
b2f49ce2c7ae
b2fd8e1e3b4d
b2be00c3a9a9
b23fe887
686cf99b
68229bb44e26
8099e1c1ca8d
bc77b4f53611
95fc77cf
95a171fe
8c49a574
96abccce
96ffa93a548e
a6f24d07ca31
97e145b99c62
976251d5
b7b7257a0272
b7ea53a1174e
512b4ee29cf4
256d4271
90af885d
962a9206e070
21171941b19c
211617aa26d4
204f0fde
268c84514a16
99a157468871
9b427380
b661e958
b562ef10
aa3c44d7
aa61d6e4
aa67b17d83dd
8e5ddd6f
93000edfcfbf
9308a34f924b
f8f1cf17
f8b4e617
f8f2e2b3
9f6118679f76
bf4d95b9
ba687acb
836caab5
8f58b868d02b
1c34f72f
1cb83facdfb7
1cd84b8b883f
b4017faf
d5589a8e
d5d11311
d5000396
d5ea280cb76d
c8fcdc5b
c895e3a5
f0f2d4c69226
f054df2d
f0014365
f0714595
c251471dd3c0
c2d5e9c4
c2e12d7cec27
c2ed90c0
716caf9a86ac
71db2222ceca
71bbf83ae078
aeed740a
b3f0545e
c63205b0
c6352ba6c4cd
c6dab644
c7d82581
6cd76e8f
729193b451ea
e8cc658d
e8ecd119
67f7981d
67e17b30d307
673cbc61a2e2
7001b407cd88
7037aa6c
ec564347
ecb81c5b
e7a3e6c13179
e756d932
e7029131
e7a87a07065b
61e4de4e
61a6a85e
63a0d960
6318e32e8fb4
2660764cda7e
266e7e2e9833
3c589374
3c36a177
3cf84c7e
cc968e63
491776eddf4a
77d14e4b53cd
649ca06413e1
64bba490b177
d2fe5d1b
d2b8e614
5b3c1075d3f0
5baae84f
5ba97876beb6
dc9531d8
dc0632c4691c
5cbcc35168b7
f6fcd196a0a5
f60044a8eca5
f636b13f
f1a7eb97
f1a6fbfcd12a
e0a067011b79
49c21c36
1fdc5ff35997
76fba24ed12e
0c00aa0a
0c32f7760e5d
0ba1606d
1b36ff6bd4b8
4a4aaca0a72b
62304aa1
d7a553d2
d73f3d51dfce
d0463ab4
ebd8ea95
ee3b2904ea54
ee5c5fce
ee386c8c
11772af8f038
d6f2630d
f3e31806
e2bb9daad08e
4fae9d94
4fa41183bc45
f2e0fa0f
ffdbe2718760
fffdd89ea40e
3bdc58754e85
73326a3ef6e4
73e637e2
73e81766603c
0f88cf2f5d14
d4ad9354
6df03198
e99cc320
e43d1e75afbc
7b2c2b50
7e5b2dc3
4d20cc66e846
118a1c33b51e
091edc0048e6
3ae671f50415
3a3bc606006f
c3e7b38c
cd545aaab311
cd926f99
cd56f9de0a58
8b8de2a7
1d5df726afe5
3d579467
3de747fca161
2e676ba40387
2e60f6f8373a
ef31a56c
ca088276
ca2139bb
7437a827
273aaa20bcfb
128d7accb66c
fb3c1a16ebff
6e3d407b1cdb
cfd7f4bc2697
d165ca44f66c
907b7f7c8f25
d90ccecfec03
84559170
192ebea7b3bc
2f30bd4c0a15
4d1bf636d5d1
868ab9751dfa
868a05e54842
7d083813475c
2d074e580299
239afe1f5ff8
fd720bbb
ddf850e3
154dd8e4
3855bdf2c84b
354c58d0
4b0a8c317cff
6feeaa8f
7ae0fd66e6fc
901c4952075e
1014cb64
0e90732073f3
5e67edd1
801c8567d2b1
fa521028325d
167aefdd15de
3780dde0dac0
ba7a4605
02172fd76c1f
0212c1a54c29
c6261548ddef
586ef57eb7d3
58693ae5b1aa
621b52c5c3a2
110414f9e5e2
a462e705
560783a4f36a
106f8617895c
87179d8062ef
caa3039d2ff7
b6bec68b7152
b6bdd424b56d
3bc3fcf8a47e
0b1ebc048f86
bf16651bb0fa
7169bc4080bb
471abeb5de21
4713d7b3592b
01090df08d54
417b05020651
5423f4793fe4
7679bb705fcd
556d89fd8dba
575469a58f29
917d8c843cbd
642a182d
798bbd7d3e6c
50098cc1ae6c
848addb9fca7
7353d8f7e69b
b4850e67
01471e19eccf
572a12c96488
62820f1b557e
5513f64e76bc
5c1693ba76ae
407ddd63e20c
6195b6586007
7709778ba452
940d61ec4a4f
fde27bb13f12
00887728434b
7b7db675add2
e88f355b1055
53988a3608d6
472489896f71
dfb7fd10178e
6723dda72ea4
b12f5f2f194a
006fca731ef7
2bbbbb289d55
2a13ad3bee9e
d7c944d102c0
055e45c7ab86
ed638e6780eb
af534554fa3c
0dc6eedcb4c5
0f753274a9f6
0f7bef6d02f6
a29de82b50a6
684f393919f4
d6c655216caa
4b2ab87e23b4
64839f5a9122
5c858bd80b33
98040acd31fc
69e08b803e39
bbe8680face0
747a3a6fcc47
26bb55fd0e93
2f87019d8c6f
b68a7bdb5206
491478a5cadf
0a49bcba90a5
0dee6db08de1
3ec9bff6d687
c01a3b86f550
cec97d3324f8
d2cea1f97497
e573c79b4232
63b917273d1d
dd8b6da4a668
eb74deac75c2
2b2bf42b9136
45b45c22adb5
9d797611c054
c9c5f999ea0d
6c2ebdaba77f
a2d5fc8a0afc
f2948fc62fb6
99059474cb15
fc2947791c47
d5d8b4019687
1ec0450b11c8
2a4b1fa2c1af
6f9e06913e52
ae04c9744631
d07c152c72a0
9239b12c9dcf
9e0d71bd75c3
c98924c64aa1
3c5365738b34
8eddd955df32
e10d11096b0f
0daf1db23bb9
0cc99aefe998
3e451e1048c9
a71901b1bce4
b93b53b5cb3b
d31d11241d26
ddd4b49bad18
fcc68bc09152
1912fd035aa7
5f718310f03f
a04f1fa88b81
c93d3f17843e
c942c4583a62
ea7216407391
e72073834d9d
47a6b8efade1
40ab53f7cd67
3aaf03f1e8e2
4e6996cfe2af
5f4dc1debb56
60ae8ed042c2
b0c8d38a541d
c92fa1458ecd
c59d83b1471f
d58c12102892
d7bff9227b2d
f47db6ae9082
f15aca4ff927
18666cba4a51
4f4d7b6c9928
ec6e782755d4
23d8df472220
3da542da7e97
6f048a006a7d
7d74696855dd
bb09697d5e6f
c406dfecb645
d90e08b75f4e
f6df6f650da6
2c393f5585a4
5eba8133b979
a334c0846d06
b06894db231e
4fd98b9014da
62a5b3a532b9
ae6a12bb6fb9
abdfb5333da8
df32ce5bab98
e30db10c209e
e766c20ac299
ebad0944c85d
01c7122add3a
a80a69fb401e
2d541adcd40a
76ae84e40468
be844455919f
b233dbb22ddc
b23afa35a1a8
fc45506f4f2e
0cb25b859d36
4275366a2816
6d3fa8e3f2c5
70e95eec6f5f
7ec86dd19ff8
905e05e5e331
ae7b3cddd013
05fc479b6a7c
b227fdf4b036
1dc9a86983f9
3d25a72d54ac
6eba334a6c97
736f98d5e602
7e7c52928d70
72c0567adab8
895fd60d2f31
bcec10d592a8
becdd24997d6
fe9ecd4a88ac
fb9fb5df5c89
fc8e27197fed
04050d93fcb5
5175f8edf2da
37b5f17609f3
724273189848
e04c251352e9
d14227ca3c19
9ec26e454494
3d60b405cf9d
3a75e46ac4e3
6de066f8383c
6d8bec7bd60a
badf2a3946c6
cca8f32c26c1
ca9954a9f85f
d5e3d3355fbf
f9183e3c1f4b
fcbe1e8620ba
public
16cfba7117bf
0db4
1f44
1f3a
2d1a
3f6
5b53
6e8e
6a06
8c8
8af3c
9dba
900f
be85
b72e
ba6b
ed8
ee82
ed11
e45e
fe8e
##d961
##0110
##0192d
##dbf0c
##edd70
13b847
54cc4
##ce90
##96b8d4
##aae4e
##d214e
##ecc
##68a
##42aaf
##27e
##97a9f
013e1
##bb07e
##6ce493
2600
2652
##43f
##e242
##58dd
41a2
##9037a3
21b1
21e56
##313
4692
##7207a
##07436
44e6
##604
##60d0
##30d7d
##f700f
38ffa
289c1
##36ede
4c5b
debbfb
##f09
50ee
50f10
##bb3fb
##5c6
##5cf14
355b8
f7400c
14a5
##fea441
074d35f8
52f0
##b2e
##fff13
##dd3
##10a67
##7060d
##4bd035
00071
##45a
##e9008
##b9ebad
920591
##75974a
##a364a5
4efb
b8cc
##d9aa7
##ae9b68
82b8
##3fe4f
78a27
##3e3388
##65303
##6b3
##7ba
##9eb0d3
##5ef74
001d961
##6d91c
##24ac7
deadb6
19097c
94b7
f847
8df16
9f5b8
8ff6
1c394
##cd391
f040
f069e
c25df
71af1
c139
1429
3cf28
ccb6
66d27
64b8
649b21
d2a5a00
f698
f13e3388
d148
e6953d
eb39b
6bf7f
##3bc3a3f
ff589b
65ed33
e537
##5b161cf6
##f2597a9f
3afff
##070e8
4cee57
456b
##d22483f
##058d710
7ff2597a9f
##88793b
##418ba
##438d6a
##dc55493
28898404
##0192ca
##4cdfea441
##edc69
354884
1982de71
##60bfc
##3970192ca
##f11edc69
##ca1b4
9220472
##ea1f2a
##fac6c
##f7b3d4f
a5c0192d
##f6d7800
##f2b5d4f
30860bfc
##9c4dcb4
998f
a37418ba
##ce7a1db
##d2e98
b6b48139
##f214bd035
b334
396e9008
##5be50
##c29ae9b68
##57348a
61536ede
##3c833ea
713438d6a
b3510a67
ca8aae4e
dfb96b8d4
##d64af00
955ce7a1db
##91aa971
2bb30d7d
d7c0e8
0dcd
703ca1b4
88cf700f
1a46d91c
b47c29ae9b68
c771894
cacbb3fb
77cedd70
61c5ef74
a643970192ca
78efac6c
f3dfff13
89d5dfda
be14cdfea441
1e165303
0c1cd391
aedf214bd035
e427207a
a4fd2e98
1e236d48
c72d214e
a015cf14
34ba364a5
deddc55493
23c75974a
##5df50b1b
5ff058d710
##eea460d0
a305d654
##37e407436
04af2b5d4f
42aee242
##f3f2dc
88d627ba
b536b9ebad
6c5070e8
a070a74c
a3d558dd
##9cc66cd8
##b75ce4a
265403c9
ac18eae7
a799dbf0c
##b3ed3dd
1c5f5448
ffa31d5c
##44661b26
##b202a8
c6e39cc66cd8
7c4744661b26
1ac2dbad
3028d3f6
d54b44eb
e3cd00493
32d7eea460d0
92e37e407436
78e8f91aa971
f8d60f95
##2b013bc
639cf11edc69
7c4824ac7
c28a5df50b1b
0db4a6fa
1f3af5ff
5b539639
6a0642aaf
8af3cf6d7800
ed11ea1f2a
e45e5b161cf6
fe8ebb07e
13b847e2
54cc4fd3
013e13c833ea
21e56009
38ffae5a
289c143a
debbfbb202a8
50f10b75ce4a
355b8b3ed3dd
f7400cf3f2dc
14a5f2ec
074d35f8f12c
92059188793b
##d9aa741
78a27f7b3d4f
001d9617060d
deadb6de
19097c9037a3
8df16621
9f5b8d64af00
1c394f79
f069ef4e
c25dff04
71af12b013bc
3cf283bc3a3f
66d27d22483f
649b2161
d2a5a003fe4f
e6953d9eb0d3
eb39bd9aa741
6bf7ffc4
ff589b6ce493
65ed33aa
3afff9c4dcb4
4cee5757348a
7ff2597a9f3b
28898404ce90
354884a3
9220472a75a3
396e900864b5
713438d6a6cf
b3510a6790b8
dfb96b8d4985
955ce7a1db51
d7c0e84b
1a46d91cf9f2
c7718945be50
e427207a7890
34ba364a5881
deddc5549369
23c75974ab8f
5ff058d710ee
04af2b5d4feb
b536b9ebad33
a799dbf0c8b1
e3cd00493444
7c4824ac7a9d
6a0642aaf080
ed11ea1f2ae8
fe8ebb07e39f
4d53
76c
a47
a17
fe7
fd9
##35a
##00fd
##484
##48e
##423
##56a
2693
2610
41af
##9060
42d9
45ab
2593
2597
4828
2707
##e168
##d83
49e1
##a19
##a1f
##bcd
##49e
##453
##7c7
a72c
2686
2681
2582
4eb7
9aab
acc
##edce
##46b
2577
5510
##48f
##97b
40af
##9241
##717
2601
2630
2675
41e9
42d8
42b1
45e2
2556
##31f
2700
46e5
##3842
##3280
##0770
##523
43b0
4343
43a5
##99a
3e9
4c02
##a1e
##106
##706
1914
##c2d
##09a
2687
4e44
4d8b
4d67
468a
8bc1
1a9
2c8
4e20
9b1
9311
a28
cd8
f56
per
##dic
##io
##2c82
##9649
##aa0b
##39d
##b77
oslo
##78ed
##716
2638
2616
2614
##cafa
##dea
4556
4834
2718
##517f
##475
##363
##bc6
00097
00095
00090
4f92
4af6
##c23
##c2a
a221
##6ba
00102
##c7a
##82e
2581
a3ed
4ed8
46c7
845a
ab85
perio
periodic
0fc
74b
8464
93ae
ER
aad
b54
c4b
ccc
c81
ee76
##64d
##RO
##fa6f
##57d
##9ccb
4762
47d8
##4240
4072
40b2
4073
##a705
2602
4b4a
##cad
428a
4504
2551
4845
2727
46a5
461b
43ee
##474
##d8f
4cf0
##33f
##21b
##fe6e
##44a
##28c
##284
98c2
##6996
##e9a
##065
##55a
80ad
##73628
8cb
a7a
00100
2567
9fca
bd43
6c71
4007
4b7d
4b81
ERRO
ERROR
0e0
3b8
3d7
4f9d
4f4e
4f7f
4e6a
a392
b39
bb6
cc7
de4e
fae
##35e
##9676
##ile
47c5
##4c71
##48b
##4860
58b
2668
2697
2695
2658
2676
4bb1
415b
41e7
412a
412e
42fa
4224
2568
2558
481c
2735
2721
4605
465e
44a4
4494
43c8
##47e
##40b4
51a3
4c4d
49db
##b1a
##9b47
##66e
00080
##7660
4a0c
4a18
##b55
##55e
ac4e
bd52
b396
435f
4370
0fea
432b
4cea
4ec3
9c87
2c2
3a4
3e1
4fd3
73c
8ad
9eb
a98
a07
bcc
c1c
fe1
##a58
##af5
##fce
##9651
47a1
##4c7a
##18a
##3759
405c
2641
2639
2656
2667
2660
2647
2655
4b2
4b32
4174
##9001
##9870
42b5
4527
45e3
4515
2554
48d6
48a7
4821
2708
46b9
23222
##61f
44ee
430d
##99d
4c77
49ee
49b9
##3300
##213
##34e
##66a
##bcb
##206
##20f
##c81
00067
00083
4fe1
##79a
##753
4d18
4edb
a82
##53e
2620
2682
2712
497e
4f80
435e
4e81
0e8
2df
4b09
4fe3
ae2
a06
a7b
a35d
c58
e1c
e1b
fca
fb1
##a56
##2ce2
##dbfb
##0c58
##9670
##46fc
##483
##68e
##2750
4042
2692
2650
2636
2604
4b3d
4bac
41ed
42de
421f
4535
2535
2592
2594
48fa
48f8
48e1
4850
48cb
##3161
2732
2747
##3827
##5170
43b5
##67d
2837
4c40
##b1d
##fef2
36f
##203
##20b
##c17
##70b
00086
4af2
##b9d
4df5
813d
a8b
##c26
##1cd
##0340
b7e
2563
2627
2622
2621
##25a
9bb8
89fb
2711
4f84
462b
4960
4cef
4aa8
45b1
4904
4951
63f
7a1
8f2f
afb
ace
aaa
b56
c5b
c68
c16
d76
d82
e78
edc
f18
fdc
fe1a
##41b7
1872
47af
478b
##7830
##5610
##883
##88b
2690
2634
4b4c
41e4
41d4
##d1e3
4241
4254
4243
429a
4289
428b
45f3
455a
2557
2531
4878
4864
4847
4877
483a
48ba
2738
46f9
4305
43c7
##47b
5147
4cce
4cfe
4cf3
4c19
4908
49f8
##d73
24b
##66f
36b
##bc9
##10a
##c1b
##7001
4fce
4fd2
4a32
##126
##af72
4ded
81f2
4eaa
b8f3
##04f
##7c6
bcfb
bcb0
a7a8
abd4
2565
2717
2716
4916
4418
4fc9
4fcc
4986
4e8d
4384
4962
4276
4fad
4d69
4583
4dc9
4572
4463
4e7c
4926
4b0e
9517
0e4
0b2
0c5
14c
34d
3d1
4f21
4d04
56c
7ff
8b7
99c
a18
a97
af2
aabe
bac
b72
b50
b5d
b69
ce0
d9c
d42
d3b
d74
e56
ed7
##a05
##d48
##9391
##0cb4
##5799
##9680
2576
2572
##0830
##9140
4795
47f5
47a0
473a
47c2
472b
##7809
##4cd1d
##18d
##6892
40d6
##885
##88e
##88b29
2657
2698
2653
2619
##4380
##0281
##5877
4bec
4bdc
41b7
4126
4257
4248
4267
4537
45f7
45e9
4512
45c3
2546
4856
4852
4875
4803
##3131
##3112
2702
2758
2706
4699
460e
##6151
##5b4b
4454
4450
44bc
445a
4362
436f
##f70c
##3b97
4c0c
4cd7
4c7b
##eb4c
49a2
##21a
##66d
##a7d4
##a62c
##777
##44f
##28d
00084
4fd6
4fdc
4a01
4ae4
4a08
4a05
##75f
814e
4e35
##5550
##04e
9551
00108
##4ace
bd37
bd94
b9000
89e8
aef4
401e
4413
49c7
442e
496a
4e46
46c1
4fa7
4a13
4ac6
4ecd
44d0
6ee2
4b8f
4e7b
1e88b29
40c7
40ca
b9000564
1e88b294cd1d
0c8
0e7b
1b5
2904
4f1
4f2d
4a69
42c2
43d9
499e
4f1a
5d7
6d2
6f2
7bf
8de
9e7
9a1
9366
9e1b
a76
a53
a571
ab11
c0d
d61
d67
d22
e92
ea8
f4e
f649
##541
##d41
##9322
##5709
##9cdb
##9c5b
##aa33
##aa7b
##46e
##46a9
##4610
2575
2571
##9310
##b862
4702
4744
4779
474a
##4810
##4200
##4269
40e8
40eb
40fd
40ad
4053
4063
40ba
2694
2645
2617
##4331
##0290
##0250
4ba7
4bb9
4b1e
20b
41f0
41c1
4117
410a
4232
4240
42a6
42e5
42e9
4212
4216
4217
4225
422d
45eb
45a5
45c4
2562
2590
2552
480b
2731
2728
46f3
463a
##ea62
44b2
43bb
4365
##30a2
4c57
4c91
4c32
4c5d
4cb2
3211
4901
49ac
49fc
##f678
f7f
##e651
34e
##103
##c19
##c1f
##4b3
00076
##45f
4ae7
4add
8146
4e3c
4ef0
##d3f5
91c
91e6
##3ffa
##7cf
b7a3
##c408
4974
49c6
4181
4a43
4a49
4db3
4db6
496e
4ede
448b
4316
4578
7e9c
488c
4ec6
456c
4de5
4923
4aac
c9d1
4e5f
4cad
0932
1d6
1d2
1ac
25b
2ca
3c8
42c
4645
4ab6
7aa
7f1
7d4
73f
7392
83d
9d2
995d
9a8
9dd
9d16
adb
ac2c
a9c7
a3a3
b57
bd6
beb
bff
b5c1
b96d
cf8
ce8
c7e
c449
d4c
dab
d94
d13
e35
e4c
ee0
ebc
e87
e5d4
f59
fd3
f1b
##d9c
##415b
##cecd
##96d6
##46a
2579
##0829
18c
1887
4701
##7840
##7880
##54f0
##685
##683d
##9750
ad8
ad4
40a6
404b
##9280
##abd7
2696
2678
2605
2644
2673
26528
##05d7
##0511
##e258
##0209
##5831
2238
4b99
4bbb
4b28
4be3
4b6e
41f2
4136
41d7
4110
4155
414a
4125
41cf
426d
429f
4286
428f
45c
4596
45da
45f8
45e6
45af
4526
2550
2555
48ac
48d0
486d
4817
481a
2701
2751
2777
4600
46a7
46ab
469b
46af
461a
4fb1
##7221
##0700
##5239
4490
4472
44a3
44ef
4368
43a2
##6750
##6039
4c08
4c48
##a895
49da
49ae
##a1b4
07c
##226
##22f
##224
##e0db
##e69c
98fc
0005
00085
4f91
4fd1
##123
##125
##79f
4d4d
4d5d
4d9d
4ea4
4e52
4e67
4eeb
a8d9
##c2e
##7c3
##65e
a2dc
80ac
##26a
a730
a6a
00105
9752
2625
2680
89f0
2542
662c
77a4
401a
435b
4185
418e
437f
496b
4edd
4e17
4e19
4e4d
454f
4ac2
4ce0
4de8
4a73
921d
4f65
9ecf
b77e
0ed
0eb
0d7
0ae
1ba
2d6
2fc
2a2
3f0
4a8f
4a8e
4e3e
5ee
5f0
5ba
6ea
74c
827c
8f87
8467
93d2
9cc9
adc
af8
ae4b
b08
b90
ba4b
bfbb
b0c3
b395
ca1
c5a
daa
d00
d17
d2d
dc3
e01
e66
e0b
f93
fc0
py
##01f1
##93d1
##936b
##3d52
##fa42
##5731
##fbac
##fb56
##fbad
##0083
2574
##3909
##da36
##da5c
##9175
47b7
4790
47e1
47eb
47dd
47f9
##7882
##5409
##481a
##4210
##e751
ad0
ad2c
01d
40a9
40aa
40d9
##71a
##4d0a
2659
2674
##4319
##e278
4b4d
4bd1
4bf6
4b33
4bdd
4198
415c
41b2
4129
##9818
4268
424a
4562
4568
4552
4530
45d8
459b
2595
2538
2599
48e4
48e2
48af
##315
##3121
2752
4650
##6100
##7231
##07e8
443d
4470
43e5
##6730
##60f
##6030
##5048
##5042
##f7e8
##3650
##3c58
4c38
4c61
4948
##b156
##5c21
##3441
##3408
##225
##20d
##703
##70d
##4bf
##4b58
##e9db
4f57
4f54
4f68
4d39
4dfe
a8d4
##c25
91a4
91b9
##53f
78c
b10c
a2a0
a245
##1c5
bc7
95a5
8ca7
8c79
963b
00106
90fe
876c
a03c
9bdc
aa39
86e4
933d
94f3
9f2c
bf32
2587
2589
2585
bdd8
8927
9a5c
1c0
8451
2714
b33c
4987
4e82
438d
4dbd
44c0
4e12
46c0
4dc6
4392
4574
4883
4886
4d2e
490a
490e
4a2a
45ba
4b03
4b0a
4a71
9215
bf81
4da6
9907
810e
87c5
8273
8516
0931
0af
12c
1e8
3f9
4f4a
4e65
4a03
5da
5bb
508a
5fcb
6cc
6be
67e
72c
73e
7be
7e82
83e
8970
8f14
8a8a
8e20
8181
8e7c
8936
864b
8db8
9f8
9e6
9ff
9b9
9d22
96c0
93d9
9f26
94b9
ab1
a49
a19
a9a
and
afb6
a95f
a9c0
a577
b3d
bab
bca
b32
bfd
b976
b96e
b5d0
bd7e
b00d
bb5f
b7bd
cb0
c43
c61
c87
dc8
db9
d81
e94
ef1
ea2
f90
ff4
f20
f4c1
f4be
##a2c
##a62
##a68
##c62
##hile
##e4f2
##dbce
##9331
1067
##3dee
11c
##4109
##411c
##5790
##fb62
##fb38
##ce80
##9cf8
##5ba1
##d635
##d251
0897
##b0f1
##931c
##3900
##39e8
##9160
47ab
47d5
472d
47c6
##54dc
##4cb8
##18f
##1871
##18ee
##6811
ade0
40a5
40b6
##5657
##4df6
##88f
2664
2666
2663
2603
##0589
##e28a
##94e7
##0218
##026c
##5814
##f196
##f13f
4b1
4bf2
4b2d
4135
4128
4112
##9041
##defc
4252
4213
425a
420d
45a1
2500
2532
2536
4841
48b7
483b
487a
2754
2737
2756
2795
2760
2775
2703
2723
46e
46ce
4642
4637
46e2
46f6
4611
##f875
##52d1
4439
44ec
43f2
43a1
43f4
43b9
430a
##fc1a
##474c
##d8b2
##f7a0
##4060
4cf7
4c11
4c44
de0
##ebc1
49e
49b5
##bbf2
##5c08
07b
##f531
##11c
0900
##f347
##f3f7
##f94d
##c1e
##c8ad
00089
##7499
4ae8
4a3c
4afd
4ad0
##e3e6
##e3ff
##b661
##b6fe
4d57
4dd8
81ef
b801
b871
b85a
b80d
##55f
91da
##bf9b
9c72
b153
a2fb
b29
b2d5
80ee
##6362
96d5
acdf
a7f7
a6ee
00118
9737
ab41
abdc
ab52
2566
a158
8736
9629
a0f2
9577
2684
99fa
a4ed
b6e1
86a6
8bf4
8b3e
##23aa
9f98
b9f3
89a4
9a33
83b0
8338
2710
a3f1
a3fc
a5e8
9ee1
2be7
441a
2781
4359
4985
418a
462f
d035
4db8
4d80
4270
4009
468d
4573
4ce3
4ce2
4b7c
2277
4e79
4d13
9589
df92
4f0b
921c
811e
93b3
8987
84b5
b35a
9484
a70a
e604
a21a
a315
0d4
0df
0ef
14c5
1ebe
2a8
2e0
2ff
2937
4ed5
4952
4f14
4a84
4f12
42ca
4f1e
4a09
4f4f
4a53
5e0
5c6
6a9
63c
6d9
6cd
7f5
7cb
8ac0
8f6
83a
8976
8e4e
8971
8f20
8398
846d
8649
8bbb
807a
8d77
85c8
8e86
8f15
8ca6
927c
9dad
9da1
9a24
9bbb
994f
9fcc
9616
918c
9e29
ad2
a4c
a56
afc
ab2
a10
a16
aef
a3cd
aaa1
ae71
aa12
a681
a6c8
aa55
ae2e
aa6b
aa46
a32d
ab9a
a78d
ba8
bb9
b521
bf44
b322
bde8
bb78
b3b3
b344
bbbe
b52d
babd
ce7
cf5
c17
c6c2
de4
d11
dab6
efa
eea
eae
ec4
f57
f08
f37
ff8
f11
fb5
fe3
##300
##9d8
##559
##cbe
##ff1
##4e1
0506
##e45b
##3540
##3503
##db88
##db34
##9390
##9370
##9382
##a9fb
##ed8b
10a
1034
##3d42
##3dd8
11e4
118f
##0c00
##4140
##4122
##57fb
##5747
##57bc
##fb2c
##cedb
##ce72
##a491
##aab7
##aa5f
##004b
##46a4
##4690
##46c2
##b048
##3980
##ecdb
##eca4
##ec37
##ec6f
##b868
##b842
##6240
##6221
##6210
##0835
##0860
##08ee
##9130
##9180
4741
4739
4745
4774
##7810
##78c2
##5480
##4880
##42e3
##4229
##3741
##3790
##3710
##377e
##2700
##2770
58f
##9762
##97c8
##e7fc
0257
4027
4097
4098
4061
40ef
4023
##92e8
##f0c6
##ab38
##71f7
##4d7c
##4d8a
2643
2665
2615
2613
##9500
##0590
##0503
##05c7
##9440
##0261
##0222
##f1ab
##f131
##f128
##6493
##6477
4b93
4164
4151
4107
4144
4104
415e
419a
##90b6
##98aa
##9891
##9830
##98dd
##de31
420c
429c
425b
42f8
4247
4220
4591
4536
450d
2528
2506
48a5
483e
482d
48c3
##3170
2739
2740
2720
2755
2704
2729
4630
4675
4609
##3818
##385a
2329
23370
##61d2
##61dc
##6130
##5110
##51af
##72e5
##0772
##52e3
##5286
4437
44f0
4301
##fc86
##6092
##5902
##e818
##e8de
##e874
##47e6
##4069
2873
##3669
##3665
##365e
##3c9c
##3cc0
4c72
4c9f
4c4a
de6
49a4
49d0
49d9
##a115
##ee9b
##f094
##b1c9
##a231
3735
57f
07d
##9ba8
##112
52a
##a04c
##a0ea
##77c
##ffd2
##ddac
##d043
##44e
##a5328
##28e
##28b
##28e2
##c1a8
880c
8802
8831
88d5
88c3
983c
987e
9823
00062
00075
4f93
##ad3c
##ccc
##ccb
##b6b3
9250
9249
##75a
##7537
4dd1
##a368
4e54
b861
b8d5
b81e
##d948
a869
9118
824c
8227
9c48
9cde
b1ca
b1c7
a201
a218
a207
a2e8
a2e5
b2b4
9677
80a2
80ff
bc39
bcb8
bc02
8cf
8cbb
9638
##0307
a6e
b0b7
b095
b0b3
00111
9736
b757
aba7
2561
a145
a15e
9001
8740
8766
87d4
##2500
99fe
a4ec
b693
b6ef
b50c
aa0c
##0afd
8678
8602
8631
86ad
##5f4c
8e64
8bf6
93ce
93f3
94ae
853c
8d08
9fa9
2583
2586
bd90
bd31
b9d4
9ae6
9ad5
1c07
1cfe
##1ddc
84f1
84a3
b4ac
d5d7
f054
af5b
a55b
a5ae
a5ef
a9dd
b3e6
9e51
6cf8
67b0
4915
4972
d161
4989
437b
4620
4621
44c8
448d
4e4e
46c3
46ca
427e
4d6e
4ac9
4ac1
4461
8969
4b88
3f48
7900
ce56
d946
4a20
##35811
4eb6
bf83
##07942
9287
9225
8522
8211
4d76
9724
4a6a
8716
995c
4e21
8587
a1c6
##41749
ab84
b356
b126
b516
a22e
0a8d
1a7
1dd
1a00
1f11
1ec9
2eb7
24d
3cb
3fac
393c
3a79
4931
457e
4fe
4e0f
42cd
4ff3
4f70
5dc
5d16
6b7
6dc
6e8
6fe
6380
7ad
7b9
76f
77e
72b
732a
7eb9
7a74
83b
8058
8609
8381
82cb
8edc
83cd
8dbc
8d74
869e
839b
83dc
8325
805f
8a6d
9a9e
96c
9af
9ce1
9a17
9fb4
9688
9086
9d12
9cc3
93c4
9bb9
While
a3c1
a429
aee5
a427
a6cb
a014
adb8
af80
a344
a3af
a7bd
a455
b74
ba47
b621
bf10
b92d
b31e
bfcd
bfad
b939
be71
b944
b3b2
b01e
beba
b077
ba2f
bf0d
bed4
b91b
bdbd
cac0
c211
ce2a
c49d
db8
dcf
d94b
d38f
d463
d314
e71
eca
ea1
efd
e2e
e075
e5dd
e574
e78f
eb84
e706
fe4
f96
f98
f36
fe0
f62a
##7b6
##957
##9b7
##6ab
##039
##536
##da9
##dd6
##base
##iz
##hr
##0101
##01fc
##01d7
##0128
##2c2c
##2ca2
##2cb6
##2c13
##e406
##35a6
##3519
##db4b
##9300
##93b8
##93e0
##932f
##a9f2
##a91d
##edf9
##ed3e
##ed9e
##edc0
10a0
##3d19
11fa
1162
13e4
134e
##faea
##fa4f
##4101
##4175
##417b
##57dc
##5760
##5750
5481
##dba7
##fb9c
##fbc8
##fbd5
##ce93
##9c48
##9c52
##5bdc
##5be0
##9660
##96b6
##aa86
##0008
##46a2
##d254
##d242
0869
5397
5328
##c2c0
2570
##ac8b
##b039
##3941
##3950
##b771
##b837
##b8fd
##6281
##0840
##dab0
18a8
##91a2
##9149
474b
##4c0a
##18e1
##183b
##48bb
##6840
##dcd2
##dcf3
0028
##4250
##424a
##3708
##37f4
##37b3
##37c3
049e
##9740
##e733
##e72f
adf3
02e8
02b3
40e7
4094
40a1
40ff
40d0
4020
4079
40b4
40df
4025
##a741
##a777
##a7c1
##a745
##a7c9
##a7b12
##8688
##9210
##92bf
##922a
##928b
##ab67
##abae
##713
##56d2
##6c1c
##6c14
##4de5
##88a0
26b
2633
2670
##43b1
##4311
##9470
##5828
##587f
##f130
##f134
##f1bc
##f1c7
##644e
4bb7
4b38
4b67
4b44
4b55
4b6b
4b15
20d
##oniz
41d1
4175
41c7
414e
##903e
##9810
##deaa
##de6c
42a9
4215
42b3
4287
422e
453d
2539
2527
2516
2515
2523
48db
48d7
48cc
4809
489f
4823
##31b7
##31c8
2762
2748
2742
2705
2725
46da
46f8
1286
##3894
##3847
##3803
##38cb
database
##610c
##51f6
4fbe
##eae1
86cb
##07ea
##f822
##5237
44ed
449a
444a
433a
##fc08
##f29b
##e1e3
##6067
##3040
##5067
##47a
##47fb
##d821
##d8d5
##9990
516b
##3630
##3cca
##3c67
##3cd9
##3c2f
4c33
4ccc
4c6e
4c23
##eb3d
49e4
49f3
49af
##f6b5
##eee3
##f09c
##f0d5
##d79c
##2148
##f4a4
##f451
##f4fc
##f4e6
##f4e9
##5c78
##5c47
##5c5d
35ac
f7e1
242c
2491
##fef7
##9be0
##fd06
##fd5e
##6666
##22a3
##11d
##5d2c
##e0a7
##a0e9
56f9
##b239
##dd40
##f342
##f34d
##a530
##a5eb
##285
88b2
##cce2
98f0
##e53f
39d6
00074
##45e6
4f78
4f36
4adb
##1208
##e346
##79f8
##b998
##b9a2
92a8
9255
4dfb
4df3
815b
81b4
4e5b
4e96
4eb8
4ef3
b86b
b80f
a8fa
a843
##ae3b
synchr
82e2
8232
9cbc
states
a241
a2b0
b294
##6bfb
80f0
9531
95ee
8ca9
8c39
8c49
9642
acb7
ac6c
acb9
acd4
a7d8
a639
b0d6
97ce
9750
b7d
b7d1
b7a1
b7c8
aba9
abe1
256e
2623
a1ef
##9f32
90a1
90ad
90bd
87ac
bb3d
##4e60
##c5ceb
a0dc
a061
a0a2
##6a30
##2a38
2685
99f8
9bf9
a4f5
b63d
b602
b559
b5a6
aaea
8638
86d8
86af
##0bca
##0bf8
8bd6
8bd1
8bf8
939c
93a1
94f1
94bc
8ddc
8d30
8dfd
9f97
bf64
bfe1
bf59
2584
ba05
ba30
baf7
bd42
bdfe
832c
83fa
83ce
8f2c
8f34
##cd31
8439
b40c
b4b7
b478
c85b
c8bb
c816
be78
af5c
a5e2
a9e8
c246
c291
2547
c633
722c
ecfd
e7b4
d890
d8d0
77d
774d
dcbc
4f8b
4a40
4623
4629
4381
d090
4422
ebd2
6ba6
d60c
4a97
4fa8
4fa2
4a1d
ff56
e5db
7e90
8b85
1d01
4cec
4ce1
e301
4b75
8619
8616
44d1
9074
4de3
4def
151f
2f32
4a28
5ab7
2394
df91
df98
eae4
492a
4b0b
4a75
4f06
8228
928d
40c8
8013
912b
8103
810d
##2c347
4a6d
9476
a46f
##faffc
8113
bd85
4e25
##51799
8c1a
9c83
##fd83
##a673
##e8368
b44e
a77f
2c1a
##onizing
synchronizing
0180
0720
0e1c
0fc0
1d1
1bb
1d69
1d85
2dc
2e2d
2f28
2aa7
2db3
24c4
24c7
3d71
3f4a
3b87
3924
3d76
3e86
4eb1
4e0b
4f45
4f9f
5e4
55b1
5612
5f49
535b
55ba
5cc3
6c8
6f7e
6a76
6fb8
6182
67bd
757f
7f28
7270
7a8f
7ab6
7924
7e70
79ba
84d
8d8
87b
8fb7
8f0f
8dc9
8b29
8023
8e81
8e2e
893a
8d6d
8bb5
8f6a
9fb
9b09
9bc
9f87
9352
9f6b
9fac
9e82
9d1b
9969
9922
9055
9cc6
9f79
961c
9ff9
99b6
9b9e
968f
9d53
969a
9eaf
9c1d
9ca3
9dee
a35
a68
af0
acce
a917
a35c
aca0
af55
ae65
aa94
a76a
a353
a711
aeee
ab0f
a3c2
afa3
abb2
a71c
a117
a67b
a98f
b75
b6f
b609
b05e
b569
bd06
b415
bd25
b682
b4c4
bfcf
b3bd
bfaa
bd7c
b6c2
bd9f
b5d3
b4ca
b3ba
b273
b74a
c78
cd0
c429
c511
ce8e
c026
d0c
d010
d5c3
d9bf
dd55
dddd
e58
e90
e44
e429
e728
e276
ecc6
e322
ee6d
eaaa
e37a
fdb
f9c
ff7
fbc
f3c1
f180
fedc
fe06
ff6d
f3de
f274
f57a
fe29
fb85
fd1c
##7ef
##a0c
##5d7
##2f1
##d90f
##b48
##0191
##0105
##0140
0537
05fe
##2ce6
##35ec
##3595d
##35bc
##93bf
##a9bb
##a9c0
##a98d
##ed74
103a
1080
##3d71
##3d11
##3d0a
##3dc0
##41dc
##4151
##5700
##573b
##5787
##575f
54c
##fb36
##fb9b
##ce50
##d62a
##a439
##a47c
##9640
##96bd
##96c9
##aaba
##000c
##4659
536c
5331
530f
5516
55df
55c5
55cb
3191
31eb
3169
3176
##ac1c
##b088
##b058f
##399c
##39aa
##3910
##b793
##b7fa
##b71f
##b785
##ec83
##b8ec
##b8e1
##b832b
##625d
##da5b
##dad0
##da85
186d
##91f1
4757
47aa
4756
4799
47fe
47e9
4753
471c
4724
471b
477f
##545b1
##4cfe
##4841
##4830
##483c
##48e9
##68e7
##dcb3
##42b7
##4256
##3760
##274e
58d
58ea
58f4
5814
586f
##976d
##9717
##e7a1
##e7bc
40d1
40f0
40e5
405f
402f
0661
##9291
##9240
##9209
##abbf
##7147
##56ac
##6cfb
##6c2e
17b8
2699
269b
##9530
##95f4
##e266
##9491
##0224
##028a
##64528
22af
4b35
20d0
41a
41db
4127
4192
41ca
4190
41eb
41c9
##d160
##d126
##d16d
##d17e
##90e4
##9070
##9861
##98d7
##986b
##de14
##de87
##de5a
##de89
422c
42b7
4237
4231
42e8
42ee
4269
42d4
4223
428c
453c
450f
2588
2514
48ce
4872
4859
4811
48ad
48d4
489d
48cd
da0
dafa
21ca
2741
2746
2791
2730
2750
4602
4636
46f4
46ad
##3844
##38cf
##ea932
##ea540
##32eb
##07f1
##07e21
##072c6
##f8d3
##5233
##5210
44ce
445b
4474
447c
43bf
43c3
##fc13
1558
##f281
##f289
##6758
##6760
##67940
##e10f
##60b8
##57ff
##5995
##599a
##3acb
##30e4
##5069
##475d
##d8ec
##d8b3
387b3
51b0
514b
2811
28967
##3c0e
4c97
4c56
4c98
4c80
de0f
##a852
##a815
##eba4
##eb25
4927
49a1
49a0
49df
##a1189
##f635
##f66b
##d7ac
##d7fe
506c
##3360
##b1d8
##f4a9
##f4f9
##5c55
f7d6
2493
24ae
245e
##a2b0
##a2d4
37b8
##34f3a
##fe3b2
07ce
0705
074b
##9be4
##fdd2
##fd95f
##f5987
##22e
##e0ea
##e6e8
##e6f12
##a64c
##a6de
##a6fcd
363e
##bc93
##bcf3
##bcc9
##fff7
##dda9d
##44b2
##1097
##10d4
##f3ce
##f948
29a0
29d0
8800
8899
883a
887c
889d
884f
##c843
9860
9804
##4b52
33e5
59fb
##d553
39d1
39fd
124a
00066
##45abc
4fdb
4ff6
##ad49
##b9fa
9292
92df
4dda
4d59
4d9a
81a7
81ba
817a
##a305
4e0c
4e61
4e3b
b852
##d3f2
##06d
##06b
a8b1
a8b4
a8bd
##5590
##5530
##53f8
##d4da
##0408
##bfe2
9cd1
9c65
78a7
78a0
b19
b102
b17d
##7c5
##7cb
##3efd
##65f0
b2a8
b2b6
68bc
68a05
bca7
bcfd
bc3e
95aa
8c10
8cba
##14f
9657
##bdd2
aced
acdd
a7ca
a7b5
a62c
a656
a6ad
a6ae
b057
b0e1
##0eea
0014
00121
##c705
##6e32
97de
97b1
97a6
b7f0
b7f5
##ba61
##15a
##1557
26471
ab01
ab48
2564
2629
##9ffc
##4af5
90d
87dc
bb56
bbf1
bbea
bb40
##25f
a060
99a5
9b37
9b43
##1338
a4fc
b6d3
aae2
aad0
##82d
##0b391
8edb
8e5b
8eb0
8ba5
93fa
##0fe7
##0f4d
##0f33
9491
94dc
8562
##cbed
8d54
bad2
89a8
8f59
1c32
1c53
84d2
b448
b45c
f0b2
bea9
a9de
##c3f8
715c
2545
ae08
##7fe8
9e01
9e38
9e52
72e5
70ab
e7c2
61e1
d8a
d859
d8b2
d806
d86b
6305
cc35
2c49
7cfd
7c5e
8adb
66fb
6697
66eb
7749
cb43
64b2
d2d5
2bb8
2b62
fc3b
602c
6062
6097
f1a4
f1bc
f1ad
49cf
1ffb
##7df9
76b2
##8a34
e694
4a4f
4e83
4e8f
4e8e
4626
438a
438b
##83fe0
ebd1
eb350
6b49
ee645
4e15
4d81
42763
f254
f2a5
4d6f
4d6d
4580
e541
e5a4
3bf2
7346
6d94
6d07
e44c
446b
4328
7baa
7e98
##5b8cb
091d
c3a2
8b84
1ddc
1df7
##92829
##080de
3ded7
##a8662
##f17f2
7f00
f9a2
dbe8
##f4ade
490d
f557
c550
##f2844
1516
9119
##b3b4
368b
4e7f
2ffa
9582
194f
7dfe
5af0
##358f0
df5b
##51451
6f08
6f54
901f
6ae2
##f7e07
9382
4d7f
fafe
##a95f3
9915
feea
c624
3089
9726
##9c45d
866a
##39879
##f1fe7
4aa5
bdc4
##98200
6214
947a
b183
##a9ce4
##f7ff6
##a4c6c
5d58
93b5
298c
5676
##937c1
678f
7210
8c1f
##a4251
##eca78
629a
827e
##325e6
b110
849f
##d2956
b77d
##0ca93
cecc
##458a
##4d5d6
d284
a7c3
ec7f
2c8d
##c408d66
e87d
##12538
##e266d7
00c
03dd
0d09
0bbb2
0c87
0c7a
1edf
1fbb
1d28
1ac6
1d7c
1ac5
1d4f
1d7a
22c
295d
2b1
2cc
2cf
2e06
2b1b
2abb
295a
2a98
2d6c
2ad4
3a1
3cc
3f1b
3904
3b08
343e
3daf
3414
3a94
3b1b
3d26
3c1c
3f1c7
43d
4928
4949
4f1f
4fe9
4f5e
4a5f
5ce
5e5
5d74
5985
5d8c
5a1c8
5e8b
5de9
5bcfb
5b1f
5edce
5c23
59b47
5ea62
6b07
6f14
63d9
6ed3
6329
6ebe
676a
6e72
65bb
6a82
6d17
62c82
7ed
7fa
7b8
7a8
7e0
7b5
7a86
7ed3
70c4
7017
794f
7e79
7e6d
7ed6
7a83
750a
8ac
84f
8921
8270
830d
8e41
8cc9
8b63
84c71
8a5328
9f7
9b3
9310
9ac7
9fdf
9e8e
9d15
9276
9fc9
9b20
965a
9a85
9d2a
94d0a
94e60
a3d
a27
ae8
a30
a6b
a9d
a304
aeb5
a68f
ada3
a4d0
ae5e
adb0a
ae2551
a08f
a3b97
ba9
bf2
ba2
b7b
b9e
b070
bf9d
b6cf
bd6b
bfc9
beb5
b67e
bfe6e
c08
c42
c37
c56
c608
ce1c
c2cd
c567
ce76
c377
c46f
cd77
c665
c06f
c96d6
d35
da9
d48
d70
d460
dce9
d561
df11
d328
dbb6
dd15
d4b4
dd77
d05a
df6e
d64f
d92e
d016
dca5
d35f
d45abc
e2c
e37
e02
eb1
ea60
ea84
e93e
e907
e65a
ead3
e5bf
e22d
ea22
e73628
e6151
e4b58
e931c
ee3ff
edab0
ee8368
f4c
f31
fc8
f26
f0c5
f904
fa8c
f2c7
fca1
ffb1
fe1c
f489
fa28
ffe0
fed1
f40b
ff6e
faa3
f00b
f96b
fe11
f424
f71e
f49f
f21e
f37d
f3300
f4319
f0307
fc408d66
##327a
##7f4a4
##6e22
##2a3
##f31
##f4c6
##df0c6
##e05
##e187
##ef23
##0180
##01680
##01da6
0559
05d0
053842
0560b8
##2c223
16fb
16d6
165c
1681
1628c
##e4edc
##e4e20
##e45cb
##e478f
##e4ab9
##e41338
##35ac
##3561
##35355
##35d4a
##35e5f
##db9f
##db426
##db73628
##9369
##93422
##93d12
##93d21
##937ba
##93b156
##93f1bc
##a9a8c
##a9785
##a9934
##a9a28
##a9b04
##a9286
##ed377
##ed186
1076
##3df28
##3d612
##3d606
##3da65
##3d4ace
##3d5747
##3d0fe7
1137
11a705
##0c34
##0cdd
##0c126
##0cf875
13b
1373
##fae4
##fa026
##fab46
##fab16
##4110
##4149
##4181
##4180
##57ad
##5780
##571f
##57391
##57bc7
5454
546c
549b
5424
##e4c917
##ce000
##ce3c1
##9cd4
##9c7a
##9cc1d
##9c0c6
##9c40b4
##5bfa5
##5b0181
##a4f7
##a42d
##a4510
##a46c1
##a4b9f
##9690
##9621
##9611
##96ac8
##96db3
##96724
##96a115
##aac7
##aad7b
##aa516
##0031
##00923
##00f0a
##004df
##4660
##4640
##4629
##4600f
##d224
##d2dbc
##d2e7e
##d222a
##d246a4
##d2da5b
0882
08180
0871c
08585
08bdd2
##c2ce03
5563
##ace46
##acf2f
##acd25
##acf347
##acc1a8
##b0e8e
##b0b76
##b06bfb
##3957b
##39de87
##b7acb
##b7d126
##ec01
##ec61
##ec218
##eca3a6
##ec3efd
##b890b6
##62e9
##626f
##62644
##62fc8
##62229
##6239a
##621cd
##0881
##0840a
##083d5
##0865f0
##da8c
##da361
##da509
##daed8b
18e7
18fe
18a3
18710
##91fe
##916f
##91b14
47fa
4771
4763
476a
47c3
478c
47b3b
##7807
##7899
##78f66
##78d13
##5490
##5420
##54ef
##5458b
##4c93f
##1868f
##48f8
##4850
##4840
##480c6
##4858f
##6870
##6881
##dc365
##dcf0d5
##dcfef7
006f
00dc7
##4264
##4219
##4223aa
##37f0
##3770
##37fc2
##373cca
042c7
04357
0438bf
04e3e6
04da9
0479f8
04ae3b
##2790
##2740
##275d
##27aa0b
##27d8d5
##27f342
58db
58b7
5811
58b9
581f
58c3f8
##9700
##97b842
##e7309
##e739b
##e75d5
##e72a38
ad4f
ad553
01f0
01a6
015657
021d
02972
0230a2
##eb707
##eb7774
4032
4022
4077
406a
402b
0697
06f6b
06cc9
##a7f5
##a764e
##a7ee6
##a742b7
##868a69
##9299
##9260b
##92ab4
##9235d
##923b1
##ac04a
##f0c32
##ab5550
##5670
##6c60a
##6c3d0a
##4d884
##4dd251
##4d5f4c
17904
##88aa3
##886c3
##8866b
26f2
26d8
2640
26e5
2679
2609
26f4e
26bbf
##9501
##9590
##95de
##9526
##9589
##955cb
##95e5f
##95a745
##0500
##05d61
##05ca2
##05ebc
##43c2c
##43a3
##438a
##43c5ceb
##e2e168
##e2a1b4
##e2defc
##e24175
##9444
##944cd
##0241
##0241c
##58e
##5850
##58cf
##580c0
##58f0a
##f1324
##f1ee9
##f1c84
##f1caf
##f190b
##f1106
##f1e53f
##f1ba61
##6444
##6470
##64fd0e
2296
2239
2268
221b
22af5
220cf875
4b92
4b34
4be5
4bad
4b6a
4bd60a
20018
20a7b12
41b0
4171
4102
4199
41a8
4169
41e3
41cc
41df
41c5
41e6f
##ca1ddc
##d113
##d17c7
##9030
##90f0
##90380
##902cb
##902c82
##90e28a
##9816
##98e56
##98525
##def25
##dee9d
##deb04
4293
4227
42e7
4292
4256
4288
42d1
42bb
42109
45d7
4510
2508
2559
2522
2512
2525
48aa
486c
4890
4830
4806
48d41
dae7bc
21eb
2107f
21414
21ad3
##31a97
2796
2778
2764
2769
2709
2726
464c
46a1
46d0
4606
461c
46a12
463c6
1201
1244
12570
12bc5
##3830
##38c8d6
23ca
##6170
##61119
##5160
##517d
##51ca18
##51c1b
##3fba5
##4c55828
##4c50f33
##3290
##73dcbed
86c3
##72f7d
##0727
##0731
##0750
##0741a
##07a7d4
##07aa7b
##07da85
##f8e9
##f86c3
##f820f
##5246
##5221
##52ff
##5280
##52b05
##52682
##5211b
##52d9a
##5205c7
4448
445d
447a
44f46
4388
43c2
433e
4367ed
43a56
##fc974
##fc72d
15d8b3
##f2d7
##f2ba
##f2512
##f229f
##6700
##e1ce9
##e193c1
##e1fc08
##6088f
##608e08
##6085d7
##6b873
##6b84d7c
##59fc3
##e8a2d
##e8d10
##e8d4f
##3090
##3060
##30013
##50b08
##50f5987
##479d
##4727d
##47cafa
##47481a
##d8ae
##d85e
##d8bcf
##d846fc
##d81c5
##f7c7d
##f7a852
##99a91
3eed
3e35a1
##3b6e
38d0f
##e2d3c9c
51688
510afd
283f
##3605c
##3693bf
##3c7660
4c6
4ce4
4cdb
4cb7
4c4c
4c94
4cbb
4c45
4cb4
4c5e
4c2b
4c1d
4c8a
4c83
4c8c
##a8077
##a83dc
##a86c3
##a86c2
##a838c8d6
323bb
##eb481
##ebb17
##ebacb
##ebcafa
##eb3818
##ebcd31
##94abc
49fa
4942
49e7
49be
##a19b36
##f6596
##f6b6b3
##ee3a
##eef281
##f0326
##f04cf
##f0f7e07
##d7dc5
##d702e
##d767b
##d70ae7
##d70bca
50e08
##33312
##3305a
##b1d6b
##b1bcc
##b15286
##b1e8de
##b14af5
##21f
##21b78
##f4f49
##f4f84
##f458cf
##bb2b
##5ccd
##5cb5a
##5c6477
30a43
309c11
30fe6e
3038cb
35ae
35e1fc08
f7e258
2478
24a25
##a2f12
##a2fe3
##a2e4edc
1490
14aa33
##3490
##3450
##3449
##34fa4f
##feb039
##fe080de
19b0e8e
5778
5794
579c40b4
079c4
07aaa9
07dbce
07072c6
##446af
##446f6f
##fd350
##fd181
##fd93f
##fdffd2
##fdfc72d
##f5d8b
##22b
##22b7f
##112e
##11d53
##fa16
##fa103
##fa1d74
##b07969
##5d4d5
##5dfb3
##a7d9717
##f1d9f
##f1d427
##e06d
##e0fcd
##e0b0f
##e0bbf
##e0a80
##e0a7e
##e6582
5254
5238cf
52571f
092c
09d1
##a6e8a
##a6dc4
##a6e6e
##a6edf9
36b1c9
36f6b5
36aaba
##bc3d
##bc33
##bc03
##bc7d
##bcfcf
##a0d6e
##a09382
##a0573b
##a09be4
569a
56a62
5618ee
56d553
##b28c
##b284
##b29c0
##b2abb
##b291b14
##fff1e
##ff723
##ff5ba1
##ddf68
##ddf3ce
345b
34ea
34ef
##d0ddf
##44425
##44372
##44ab5
##44a95f3
##1066b
##1032b
##f9d0e
##f9786
##f956b9
##f957fb
##20e0d
##202c13
29fd93f
##a5460
##49355
##c16
##c156
##c196b6
88e4
8826
88f1d427
##c8ee5
98c
98b
98fa
98ff
9829f
98474c
##70af72
##4bad
##e5f7e
##e53112
##e5a231
33e187
334dd251
5908
##d5ab4
##d5fa8
##d5deaa
##d5f4f84
39b7
00070
##4550
##45f0c32
##3ae44
##3ab8b
##6900b
##e935
##e9f17
##e9f58
##e94810
##76d
##76e
4fe4
4f4c
4f42
4fea
4aee
##12b7a
##ad99
##e338b
##e37882
##79353
##b9549
##b9565
##b94c50f33
92a4
92ae
##7505
##75de31
##af57
##af961
##af409
##af46f
4dfa
4d9c
4d54
4d72
4d40
4d3c
4d9f
81d6
81663
815d2c
##a360
##a335a6
##a3e6f12
4ea9
4e6b873
b8dd
b806
b89e
b8058
b897f
##d3ca
##d3a2
##d3ca8
##d3ca31
##d3a895
##d957dc
a8cc
a8726
##5508c
##5541b7
##16d2dbc
##16b07969
##09af
91f1
91968
91cfb
91a68
##04fad
##3f729
##3fd242
##bf3665
9c37
9c039
78385
78544
786039
7861d2
783df28
b1db88
##7c4
##7c9d
##7c7a
##7c9c8
##65edce
##6554dc
a2da
a2d4
a2de3
a24e1
b2de89
##df422
##dfe79
##df4d8
##df684
##6bce
##6b45e6
##6b37fc2
##1c4a
##ef985
##efa9ce4
6871
68aa2
68086
158f7c7d
##19d
##63628
bc58
##9ef14
95ff
95e2f
95522c
##143d0
##29d2b
9694
96f0f
9600fd
9678ed
96abbf
##9d92d
##0331
##26bb5
ac3cc
a7a3
a6a3
a6a86
##5e5b7
##5ee70
b03c54
b09676
##0efd9
001a58
97fce
b737ab
##baeb4c
##15de
##1554a
##9a611c
##9af4fc
ab69
abd8e
ab608e08
256f7e
##6fda361
##9f30d3
##4fde
##4f433
##4aee9
90ba
90e2e168
##4eed6
##4e38d
##c53ae
##c5ab67
##873b1
a037
a0fb1
a0d21
##6a08
##6a007
20435811
##2a3c
9956
99b862
a4a4c
b63e
b63909
aa6c
aa38
##0adb3
869b47
8601f1
863dc0
##5f32
##5f328
##1bf6b6b3
##0b2c3
8e38
8efa42
8e004b
8ec2ce03
8b93
8bb7
8b49
9368
934dd
9330013
##0fd222a
f89
f8b27
f8d3f5
f8fd5e
85468
##7eec61
##7ee2a1b4
##cbd7b
9fce72
9fed9e
bffad
bf9c8
bf57c
bf05d
##2bec37
baa9fb
bde2
bd3d2
b9ff
89d5
8330
8ff2f1
8f61dc
1cf20
1c6b37fc2
84b0
271b291b14
d5f7e
d53509
c8d9
c801e
c8c12
a3f2
189116b07969
f090d
be07942
befbd5
aff1
af9c8
af52d1
a591a2
a9f6b
c2a2d
c2a76
c2a777
##c6e3
7132
##c997c
2549
##2f4c
##2f92b
b307
b33be
c6a9
c65c21
##7f34bf
9e59a
c7aa
c7d9
c7392
c7fa6f
c75170
c795f4
c7d70bca
6cf0
6cd3
6c65
6cb10
6c0241c
7239e
724610
##1a41a
e8dc
e8b785
67e8f
67cee
67d1f
70e8
70eca4
7093f1bc
ec3d1
ec98dd
ec31b7
##8650a
e798
e738
e7d48
e727f342
e7438a
c1faf
c1b6b
c10222
c1fd06
61ea5
615731
d818b
63ca6
63f45
630083
cc38
cc74a
ccd7fe
cc93b156
2cb8
2c72e5
2c0eea
2ce4c917
7cfe
7c584
491e
8aeeaa
66950
774c0a
77b1d8
cb36
6456b9
d2aad7b
2bdc
2ba62c
5bb82
5bf956b9
4018
4011
401967
5c53
5c39a
5cbb2b
fc00
fc22a3
4417
4fc112e
2788
6001d7
f10c
f1710
4356
4355
d130
d1a0
4188
1f3d11
43752c
4371032b
437c997c
7636
0c79
0caa2
0c781
0b5b2
0ba7d9717
e6e2
1bdbfb
1be2defc
623bc
623847
d7f3
d7aa7
d7d17e
4382
438404
43829d2b
d064e
4db4c93f
##83eba
##8361d
eb399
ebb71f
6b018
6b3dd8
eef5
ee07a7d4
d6ee27
d6986b
##8ea4c
##8e183
4483
4e47
##320e5f7e
4086
408a6fcd
f362f
f3417
f3b02
f37830
f3f13f
f3a5eb
2480
e2bcfcf
4d8d
f2184
f25508c
4d66c3d0a
4d622b7f
4a1c
458b
4581
45836f
##8c46
4dc0
##960b5
##960dcd2
431b
e5eb1
e559f
e5fbd
e598d
e50503
e5e10f
##f1b30
##f1bd4
439f
##780e935
3be0
3bf1ab
##521aa7
0fee
0f580
0f673
##0286d
d44cfe
d43d5747
##5b1cc
e9e0
e9f85
e9d79c
246e0d
d302d
d3e168
432392
7b43f
##350b1
1469ef14
7eff
7e937c1
488d
48851f
cdfb36
8b8c
8b83cc0
8b8e478f
##9219001
e3e2
e335c
3dec
3dde
2e98
2e68f
ed46a2
##380de
896d5deaa
0dec
0d3693bf
caeb3818
##b976d
##d22481
##d2235c
7400
2733fba5
128c2b
128fb9b
fbec3efd
##560da36
##938db
44d4
6e277
4b85
7ffe
cf5c6477
e1bb
e1f5
e1e5f
##970ebcd31
f9ac1c
##621aa
0adb2
0afa5
0a88c
0ae7a1
0a07da85
##52946a9
79486
cee7fc
ceaa86
##310392
##f1cd3
##580d1
##5805bd
4939
493a
4907
d900fd
##e46674
##dc5589b
69922
69966
6996a115
f5a9a
f5a87
c53408
c53d4ace
##f28b5
##db239
4e7e
4e79a611c
275d6e
1e52e3
##009d81c5
##180b6
##952f14
4d14
##4100c
##410b15286
868a5460
##dc1675
##4cd30a
##ce992d
2d33
2d9cf8
2df196
5ae24
5a0c00
##3e1a
##2c7a4c6c
##358a1c
##619489
45b3
##018eaf
##51071
c442
c4aac
##f44f6
154277
##2cbf5
eaf6
ea66
ea936b
##2c2ed
##2c297b842
##f14b1d6b
492e
##514e8
09364d
0980008
098df0c6
##570b0
##589b7d126
##e10aa
198f
##ee5fbac
##f686996
##f689b7
##f6805d61
##07cd8bcf
1a21e
1af458cf
5f3280
7aff
##3194cb
##ea820
113fdd
##acda4a
##92dd767b
2416ab
4f04
997d802
997df684
##76044b
##e4af1
##e4a50
##088d23
##088dc7
##397e8
##3973ffa
##ac4b14af5
##ad94d
##ed3a0e
##e87007
##e87626
0ef6d02
0eec83
0e0865f0
4da5
6a0c
##ec192e8
##e20dc4
361e
361923b1
##fb1d5d1
##a4bdb3
##079928b
##fcd32e
##ce1cce2
##917e72a38
##fd9d821
##e0f97
##fb6d9
##461e0b
##181a0ea
40c8ea4c
##ac846c
5e56
801ff1
##f8ba8
##67061
4e9d
##5b5fc
##ee0de0
4d77
##ede54
fafa1d74
9906b84d7c
91252d9a
##93e31a97
##ac7d1
##e6534fa4f
##2c956
##2cdf0
##f7b4b
171cbe
301e
##02b5709
##d1b9027
99114a
fea4bdb3
##412279
##ec73c7
##97f9ba8
##e7196a
##e7167940
##d8034
##dbeeae
##41551451
##ecdfe
##36efd
c62b29c0
308330
327d0f
972aa516
##2c396bd
##fb435
##ceea46c1
##5b2b2d
##56c7505
##05246c2
##052a8077
##f1ffe
##de0b6
4aaa
bdcd9f
ab7c62
ab742e3
186dc6
##f7a5bdc
##f7adcfef7
326a6dc4
##f49bb
##013a98d
##013e266d7
##d6535
##d650c
##d652c3
##422a9
##d0e36a1
##da0d17c7
##f1638c
##f169235d
##3cc51f6
##e0816
##db651c
##625a8
##90d95f
8774
##00798
2a5bab
a417b6
a37d4da
##e22ec5
##e22af961
##3c7610c
##3c7d652c3
##b1343
##b13f4f49
##9c75c78
##f0f43
##d742c2ed
837e06d
##97207f1
##382fa103
388d8b2
388ac4b14af5
##d6be6
##002f7
##38536
330b9565
##2c5018eaf
##f2f180b6
b4bd
##4c15b2b2d
##0265c
##fd097c8
93b47481a
93b3973ffa
##925acda4a
##ebe62
##1290ca
82843c5ceb
##94499a91
##adcc5ab67
##6c847
##38668
0b120e0d
347b3b4
##96ef678
##e77028
##5124bad
3244d884
##354ab
##354f1ee9
716fd8
##280ab
##27502e
##fe12a3
##aa65c
4e2f
168a29
##a97bf
##40472b
1561a41a
6782f1
678b1343
6376
637e9f17
##0c335
##9ca39
##5b750
##517f6
767fa6
8c1d8034
##f52bd
##d19a5
6223
##e7ef3
##e7ea7b
##e7e0589
566f
##e49b7acb
##fbde22ec5
##626f4
##30b68
##e0aeae1
91793d21
##a42aa5f
##a42ea540
##076a9
9420830
##fa2b7
29770af72
84879353
a1c4
a1c36efd
##aa0ad94d
##629e2
##e81569
561d
##786d7
##022bc
##02f51ca18
##fc0a2
##fc0ec73c7
52607e8
##08635d4a
4e537b3
8069762
##6166c
##e173b
629f2844
##b70af
##b70933c
##18248
##6cd31c8
##e09ed
##e045b1cc
57862644
##ac654
##4d74b52
##f8eb0
##a6b31
9c84
##4c2f15
##56e952f14
569df4d8
ab8a13
##e44ed
##aaa36
082ea932
##b0368
521e75d5
5c1a0573b
##57a5b4b
375d702e
619dd6
84bfe3b2
bc1a491
c28e9f58
305f0326
950e
##08eaa
##e7048
##eb9dc
9d826f
470768e7
##a8044372
##db77221
##39fdc1675
##f88427
108e4e20
##0ccf9d0e
##087273
##a79f4
018a09be4
60943c2c
609af46f
7b7902c82
7b773dcbed
737dda9d
99616d2dbc
##54cd19a5
##a2f37c3
522274e
6609ffc
649902cb
16T08
16T07
16T11
16T10
16T06
16T09
##ac9a305
##92a54b
##92ad8ec
##58d2c
4403da65
##d81f3f7
##a83aa65c
##f5eff723
953a9934
ac8c53ae
##54adb
##54a07aa7b
##f80ddf3ce
686ddf
##ce3fef
505fd181
##a9b43
46cc599a
741c
##577b058f
##ce5461e0b
58266e8
##eafde0b6
##50a3d3
##3ad78d13
046873b1
7920b2c3
792adcc5ab67
##e4811
##d8ae53112
##5bd9b
453e651
51741f
8bc59fc3
##fba3ae44
##d20ec
98100923
507ce5461e0b
b70fb435
##0cb57
##0cba8662
409f1ffe
d6c5
d6c6e22
549002f7
55263628
##376ab5550
##a7fa9b43
6555
874b70933c
b77f46
b7c9
##b02fb
##92ef289
##f8f354ab
##fc39cf
##fc2a1
##f0bd0
##ce2394
##48a0224
##e80bf3665
691d9c
##57bdd40
##5633d
##72bf4e9
5c8f52bd
64001680
640f0bd0
71800798
554b048
978e0b0f
##08bf70c
031f5d8b
6206a007
##0153c58
##fa0ad
##91eb8
632960b5
7392bec37
aa1f1fe7
##27a35ac
##90f90e28a
77212538
a704
a70903e
b06a2c
##a4d466
##18b626f
##18bdc365
##b28e24175
782b94c50f33
702f7ff6
9e11c4a
d37541
##59e9c7a
##59e8866b
##286cedb
##b6554
0a49d92d
##3339c5b
579b02fb
0dece000
a39ee5fbac
ef6f80ddf3ce
##003e8d4f
##5cc90f0
3ec397e8
688ff5ba1
d2ce4811
ec8a2f12
e81eb9dc
032e80bf3665
e577eec61
f5bb976d
##33047
##4c3087273
##dc25205c7
##bb45d9
##5c9e874
##5c5fc
7a23
##5434cd30a
##e1ff8eb0
##c2bb890b6
0a7580d1
4f1b18bdc365
5b77f4a4
9613
f442c347
63b26bb5
de2a764e
3f795a745
699d
##01a050
##a49ad
##71e66
77651071
cc2074
525925acda4a
7e557391
7d9410b15286
959f7a852
a12d
##9332c223
##68c9ca39
b226da8c
2b2e
a6452b05
d98b0b76
##b7ba0
##4cf8d5
30f39fdc1675
##223ee
78e0c58
c9c580c0
##67ca7c9
f3d7fe8
##88d50
##51550a3d3
##c1cc81
##b4f62
9c7ec218
7562ca2
89dd635
8acddcf0d5
##d2b11557
##b7ee739b
##07cd937
b8ee65edce
a448c705
2d9e5814
##54938361d
004aab7
57674d8a
##f3b8e0816
##6eed09af
d5d8f9786
6f9ecdfe
115e9175
##f174fd95f
##36bf04cf
9239f94d
8c35a7fa9b43
e6b7d957dc
a885
b28a
f0283fe0
f02280ab
f0208eaa
##cc0b28c
c44e6534fa4f
c445633d
##c24e1ce9
##d750265c
bec97f9ba8
##d802ee
##d802fc13
##445a4d466
##7c0fb
4dd9a335a6
2b71208
2b74f433
ec7db239
edbe338b
edb1554a
##886ad49
2537976d
1a148a0224
d77536
6a83d606
6a8517f6
b66f190b
4039bf9b
4c763503
2e8d2e7e
2e8955cb
2c162229
##40e6239a
3f65124bad
ed8013e266d7
41a2e7167940
76c4256
a4798200
fe7dbeeae
fe754938361d
fd9da509
fd9f686996
##48ef2ba
##4233131
##9060ee3a
##d83e0ea
acc90380
5510d90f
42b1f8f354ab
##38426067
3e9b1bcc
4c02da5c
468a3d71
1a98e183
9b1fb1d5d1
cd8310392
f566c1c
f565995
##517ff1c84
##82ee173b
a3edf094
0fcfb6d9
74ba6e8a
93ae9444
aad88aa3
aad02f51ca18
b54cbd7b
c4bf49bb
cccf0f43
c8172f7d
##64d40
##9ccbd3a2
##a7059cc1d
98c20ccf9d0e
80ad587f
8cb2cbf5
a7ae20dc4
a7afd097c8
bd43202c13
6c7190e4
6c71d22481
0e0621cd
3b82f92b
3d7621aa
b39e0a80
bb63305a
cc7cc0b28c
faee7309
##4c71b661
58ba4b9f
4bb111d53
4c4d3c2f
ac4e9cd4
0fea58f0a
2c235355
3a498aee
3e14eed6
73cace46
8ad0772
9eb4223aa
a98abae
a07ac654
bccb832b
c1c9d8
fe1a9286
##4c7ae8a2d
4b24233131
##98704df6
49b9a6e6e
##213a7c1
a82076a9
0e8223ee
2df5cb5a
ae21066b
c583d612
e1b64528
fcaa9a8c
fb161119
##2ce267e
4b3d5541b7
##3161a06
##38275a
##fef2e09ed
36f72bf4e9
4af2f8e9
a8b0ca93
##0340b14
b7e2c297b842
##25a07e
63fe193c1
afb5ee70
aceb239
aaa83eba
b562c5018eaf
c68fc0a2
c16ac04a
d76a7059cc1d
d82fab16
e78ce3c1
edc30b68
f1852946a9
fdc00f0a
24be72f
36b3595d
4fce28e2
4986354f1ee9
0e4619489
0b293422
0c596db3
14c93d12
34dfff1e
3d17c9c8
56c786d7
7ff2c396bd
8b70efd9
99c445a4d466
a9791eb8
af295e5f
b723605c
b505bfa5
b5dd650c
b69083d5
ce092829
d9c93b8
d42a4251
d3be41338
d74a368
e56944cd
ed7d2956
##9391a9b04
##0281ef23
##587735bc
45f75067
aef47809
6ee247fb
0c854a07aa7b
1b5aaa36
2904b8fd
4f138668
42c2feb039
5d7b4f62
6d20153c58
6f20adb3
7bfeef281
8de33312
9e750f5987
9a1625a8
9e1b48bb
a53f7b4b
c0d3ab8b
d61377e
d6748e9
d22d6535
ea8286cedb
f4ea79f4
f649a91d
##932248d
##420036
##4269fd83
20ba6de
421635e5f
45ebeb3d
f7f67061
34e3d0fe7
91cd1b9027
91e6b9549
c9d19c0c6
4cad32eb
1d2fc974
1aca2e4edc
25b07e21
2cad6be6
42c6fda361
7aadfe79
7d4350b1
83de0fcd
9d2a04c
995df4c6
9ddf1ba61
9d16e346
adb3c7d652c3
a9c7382fa103
b570b391
bd6629e2
beb938db
bfff635
b5c17499
cf8c8ee5
ce82c956
c7edb651c
dabee0de0
d945069
d133957b
e3556e952f14
e4cede54
ee09af4fc
ebc6900b
e5d440e6239a
f595434cd30a
fd3eb25
f1bf8ba8
##415b7537
##cecd44425
18c4c55828
ad4db73628
##abd743b1
26528cc2
##05d7ebb17
426deca78
429fd7dc5
45c480c6
48d0b7ee739b
##e0dbeb707
98fc7147
4eeb6a08
a6a3cc51f6
662cd5ab4
77a4bc33
0edef985
0ebdc25205c7
0d7d2235c
0aeac9a305
1baf1bd4
2d658d2c
2fc3339c5b
3f0ddf68
5eef1e53f
5f0a86c2
5ba3c0e
6eae0aeae1
74c4727d
adcfc0ec73c7
af8deb04
b90bb45d9
c5a325e6
daa05ca2
d00a86c3
d2d376ab5550
dc338536
e01f957fb
e66e44ed
e0b358f0
f93ac7d1
fc0a2f37c3
##fbaddee9d
##e75156ac
01d570b0
4b4dd551
4b3337f0
##981857ad
45d86085d7
##72313cd9
##5048ce50
##34412f4c
78cd0ddf
aa394cb8
89270cb4
1c0e7ef3
8451f689b7
b33c6c2e
4dc63c7660
0aff174fd95f
12c39879
3f9970ebcd31
5dafbc8
5bbe0bbf
5fcb39de87
6ccc2bb890b6
6bef2512
67edb9f
73efc2a1
7be98525
83e004df
9f8fa0ad
9ffe4ab9
9b9e37882
9d223b6e
a4990f90e28a
a9aed377
bca3d19
c43f3b8e0816
c61d8ae53112
db9ed186
e94af409
ea2d5f4f84
f90a19b36
ff4b70af
f20d0e36a1
f4c190d95f
106736bf04cf
11c079928b
##fb384600f
08975f32
##b0f1c843
##021894abc
##026cdc1
46ea49ad
##f7a0fa2
de0b06bfb
##ebc1385a
49efbde22ec5
##bbf26811
b871eb7774
b80dd846fc
91da3ad78d13
b29f28b5
96d591fe
95775237
b6e14fde
86a6d62a
2be7458a
0d4e0f97
0df6092
2fffa2b7
5c6a2d4
63cce1cce2
6d9021894abc
6cd9391a9b04
7f5e4af1
7cb5dfb3
83a51550a3d3
85c85042
9a2450b08
ad205d7ebb17
aeffb384600f
a68139aa
bb9a1189
bbbe932f
ce7fef2e09ed
cf5faffc
eeaf820f
eaefbaddee9d
ec4f1caf
f3704fad
ff8b28e24175
fb559e9c7a
fe3e0dbeb707
##559f66b
0506edc0
10ae2d3c9c
11e47c9d
118f5893
##fb2c93c1
##78c2ba
58fe87007
025707cd8bcf
##ab383b23
##71f742d
##f131fe
2329ddac
##47e6dcc
28736cfb
de654ef
49d9b088
57f18248
07d422a9
52adef25
##d0439c5
9118475d
9c48acd25
bc02358a1c
8cf917e72a38
a6e517ff1c84
b0b3b8ec
aba715de
93f31868f
bd317ee2a1b4
1c07ee9b
1cfefc39cf
a5ef3c67
b3e6a83aa65c
9e51f14b1d6b
4915028a
79000408
4eb69c48
9287faea
a22eabd743b1
1dd4c3087273
1f114240
2eb71097
24d96ef678
3cb5c5fc
4fe0286d
5d16de5a
7ad589b7d126
7b9ce93
76ff6596
77ee45cb
72b4858f
732a39e8
8381dad0
82cb587735bc
839ba2b0
9afeb481
a427b0f1c843
c49ddaed8b
dcff7adcfef7
d94b52ff
d38f479d
d314415b7537
efd2cb6
e2ea7ee6
e07593e31a97
e5dd01fc
e574db426
e78f3844
f62afb2c93c1
##e406e7
##db4ba5
##93e0aab
##a9f2a6
##ed3e56d2
10a0aac7
11fa5c47
1162e278
##d254ea
5397b13f4f49
532808635d4a
##ac8bda
##b8374c7
##183b68b
##dcf378
40d040472b
##a7412a3c
26b4c7ae8a2d
##f130d85e
##f134b3b
##644e9be0
20d92ad8ec
1286d224
##07ea22
516b9332c223
##f45145
f7e1da0d17c7
242c8a34
##e0a7afe4
81b42c7a4c6c
b86be49b7acb
82e21bf6b6b3
95315f328
95ee96ac8
b7df1324
bb3d6eed09af
##0bf8f28
bfe1c24e1ce9
bdfe6a30
b478e6582
c8bb6892
c816e22af961
af5c052a8077
c246c196b6
ecfd003e8d4f
d8d0d802fc13
77d446af
dcbc4d5d6
d090412279
8b85e75156ac
1d01b9a2
2f32fba3ae44
239493d1
df919f32
df98e4f2
07205be0
2aa70835
24c74122
3d71f948
3f4afdffd2
39244331
3e86d750265c
55b1a09382
56120cba8662
6a763803
6fb83dee
67bd08ee
757f916f
7f28c8ad
7270e1ff8eb0
7e709ccbd3a2
79bad113
87beca3a6
8bb5ebcafa
a9174264
aca0f4f9
a3c268c9ca39
b6f4c15b2b2d
b682bc03
bd9f0209
b3bae69c
c511d3ca31
d010bc93
d5c3f128
d9bf72313cd9
dd553acb
e72875de31
ee6d5246
eaaa0281ef23
e37ae0a7afe4
f2745c5d
fe29fb9c
05fe3e1a
##35ec922a
##a9c05b
103ad2b11557
10802c2c
##96c9e4
##000c75
55c5a673
31eb6bce
##545b1f9
58d51799
5814aa0ad94d
0661583a
269b6554dc
20d078ed
41aec192e8
##98d7a1d
##5233f1c
15586c14
##57ffedc
387b3488
51b041551451
289670741a
de0fed3a0e
##a8153d
##eba4ca6
506cb6fe
##f4a993d
07cef7e8
074bf130d85e
363e54f0
##44b201a
##10d492
29a09cdb
29d09ccb
887c9649
39fd575f
124afc1a
b17df09c
68a05da0
ab019bad
90d380de
9b43f6805d61
8e5b0770
89a849355
1c3238426067
1c53ebacb
f0b26e32
e7c2ab383b23
d8acecd44425
d85998aa
cc356996
7cfd51af
7749d742c2ed
cb43ad99
64b2a7412a3c
2bb8eafde0b6
6062a530
1ffb54cd19a5
76b2009d81c5
ebd1f169235d
eb350d83e0ea
ee645970
4276367ca7c9
f25494499a91
f2a598704df6
e44c417b
1df77001
3ded7087
dbe84860
2ffa82ee173b
7dfe9060ee3a
c624a8044372
3089ceea46c1
6214bbf26811
629ac2c0
d28443a3
0bbb23f729
1edf3759
1ac5dcb3
295de7196a
2b1be6e8
2abbe818
295af34d
2d6c30e4
3f1b92dd767b
3daf3d42
3a94e045b1cc
3b1bebc1385a
3d26bc3d
3f1c75c9e874
5985399c
5a1c8327a
5bcfb21b78
5edce57ffedc
59b477807
5ea62026cdc1
6b0764fd0e
63d94de5
676a577b058f
65bb9bd2
6a82ad3c
62c82886ad49
7a864c2f15
70c44c71b661
794f4d5f4c
7ed634412f4c
84f54adb
8e41ce80
84c710fd222a
8a53287b
9fdfde6c
9e8ea42ea540
9a85fb56
94d0a599
94e6092a
adb0ab8374c7
ae25513194cb
a3b97f1106
b070fcd32e
bfe6e57a5b4b
c608a838c8d6
c5676088f
c377ac846c
c06ff5eff723
c96d608bf70c
dce9a0e9
d5610829
d32835ec922a
d4b4a7f5
d35f320e5f7e
d45abcaa
ea60fff7
e907644e9be0
e65af2f180b6
e736280e
e61513c7610c
e4b585458b
e931cd4e
ee3ffe1b
edab0788
ee83683f
f0c55c55
f2c76758
fe1c4aee9
fa28ed3e56d2
f40be45b
fe11b1e8de
f424ed74
f71ee1e3
f21e59e8866b
f33005cc90f0
f4319dc0
f030796724
fc408d66a360
##01da658
05384227d8d5
0560b8d6
165c53f8
1628c183b68b
##a9a2838
1137e87626
11a70562e9
137388a0
##a4f7b4e
0818027a35ac
0871c284
08585a3e6f12
08bdd2d254ea
##acf2f4d
18710fd9d821
47b3b957
##78f6696
00dc7e7e0589
042c707cd937
043572ce267e
0438bfdb4ba5
04e3e69d
04da956c7505
0479f80c
04ae3b9c
58c3f8420036
ad553ea0
01f0dba7
015657a8153d
021d5048ce50
02972a8f
0230a2b1
06f6bf1b
06cc9a4f7b4e
##9260be2
17904a0d6e
26e5981857ad
26f4e932248d
26bbfd29
##95263b6
22af5fcf
4bd60a64
2001844b201a
20a7b12f86c3
41e6f47e6dcc
42109a42aa5f
48d41fe080de
dae7bcbc
2107fead
21414785
21ad3f44
46a1278e
463c6a4d
12570efa9ce4
12bc5f0d
##51c1bfa
##52682ba
44f467c7a
4367ed1290ca
43a565233f1c
15d8b3ce3fef
##f2d7b03
3e35a19a
38d0f582
5168816a
510afd3fd242
283f4269fd83
323bb54b
50e08559f66b
30a43418
309c1127502e
30fe6e58
3038cbf0
f7e258e77028
24a2505246c2
##a2fe3ca
14aa33f1638c
19b0e8e34f3a
579c40b4f1c5
079c4a6a
07aaa923
07dbce868a69
07072c6514e8
5238cf3b
52571fd2
36b1c9f5
36f6b5e5a231
36aabae46674
56a620340b14
5618eea742b7
56d553ce992d
##b2abbe9
29fd93fe7048
9829f40f
98474cd9
33e187ac
334dd2516444
##d5fa8f4
81663055
815d2c24
4e6b873ebe62
b8058f2d7b03
b897fdc5589b
a8726b04
91968dad
91cfb213a7c1
91a68a2fe3ca
9c039b70
7838592ef289
7854497207f1
78603925a07e
7861d247cafa
783df28e0a7e
b1db885b
a2de3f134b3b
a24e1cec
b2de89ec
68aa2f7a
680866cd31c8
95e2fd7c
95522c6b45e6
96f0f95263b6
9600fd07ea22
9678edce2394
96abbff45145
ac3cc787
a6a86ac8
b03c54de
b09676373cca
001a5863
97fcea79
b737abb5
abd8e01b
256f7ef5
a0fb15b1
a0d21545b1f9
99b862e1
a4a4c0bf8f28
b63909a1
869b47ae
8601f1e94810
863dc0baeb4c
8efa423b
8e004b41
8ec2ce03b793
934dd59f
9330013a83dc
f8b2752682ba
f8d3f5a9
f8fd5e38275a
854689260be2
9fce722d
9fed9efc
bffadf4a993d
bf9c8f7a0fa2
bf57c3161a06
bf05df0f7e07
baa9fb76044b
bd3d244a95f3
8ff2f1f9
8f61dc46
1cf20a17
1c6b37fc2962
271b291b149c
d5f7e3cc
d53509fe12a3
c801e521
c8c12387
f090d01da658
be0794271e66
befbd501
af9c870b
af52d17f34bf
a591a29d
a9f6b002
c2a2d30f
c2a7693e0aab
c2a77736
b33be904
c65c219b
9e59adb5
c7392615
c7fa6f521aa7
c75170f88427
c795f4446f6f
6cb10f7a5bdc
6c0241c9c45d
7239e181a0ea
724610acc1a8
e8b785ea
67e8f488
67ceef8e
67d1ffdfc72d
70eca47d
ec3d147f
ec98ddd3a895
ec31b7ac8bda
e7d48ce5
e7438ad246a4
c1fafdb77221
c1b6b00d
c1022253
c1fd06a9c05b
61ea59c1
6157310c
d818b45f0c32
63ca6712
63f4502b5709
63008361
cc74a780e935
ccd7fe000c75
2c72e5fa
2c0eeae7ea7b
7c5844d74b52
8aeeaa7e
66950f4f
774c0a60
77b1d8fa
6456b95b
d2aad7b44ab5
2ba62c5805bd
5bb82d0439c5
401967f5
5c39a189
5cbb2ba1
fc22a3a2
4fc112e886c3
6001d7d70ae7
f1710316
1f3d11e6
43752cd6
0caa2d5fa8f4
0c781436
0b5b2eba4ca6
0ba7d9717de9
1bdbfb27
623bc18b626f
623847bf
d7aa7caf
d7d17e68
438404e81569
d064edb3
4db4c93f91f1
eb39998d7a1d
ebb71fe2
6b01801f
6b3dd8c9
d6ee27a5
d6986b54
f362f57bdd40
f341751c1bfa
f3b02a5e
f3783027aa0b
f3f13ff6
f3a5eb9f30d3
e2bcfcfd20ec
f218478f6696
f25508cb7ba0
4d66c3d0a3c9
4d622b7f411c
45836fd802ee
e5eb1960dcd2
e559f9ba
e5fbd477
e598d93f
e505034cf8d5
e5e10fe2
3bf1ab34
0f580560da36
0f67348ef2ba
d44cfe68
d43d5747bc7d
e9f853b3
e9d79c4d
246e0d5b0181
d302d013a98d
d3e16876
43239296c9e4
7b43fa9a2838
7e937c133047
48851f088d23
cdfb36ee
8b83cc0f1d9f
e335c94f
2e68f9c75c78
ed46a2088dc7
896d5deaaaae
2733fba59676
128c2b59
128fb9b62fc8
6e277b2abbe9
cf5c64775787
e1e5f61b
f9ac1cdcf378
0adb2eef
0afa5e6f
0a88cd81f3f7
0ae7a11e
7948671f742d
cee7fc6d
ceaa86f3
d900fdd2da5b
6992250e
699669219001
f5a9a787
f5a8771b
c5340875
4e79a611c7c0
275d6eaa
1e52e36c
2d9cf845
2df19665
5ae24acf2f4d
5a0c00e8
c4aacaae
154277c1cc81
ea936bd7
09364df131fe
098000888d50
1a21e603
5f328099
113fdd92
2416abacf347
997d802b6554
0ef6d0298e56
0eec83ab
361923b19816
801ff1ca1ddc
fafa1d74fdd2
9906b84d7c44
171cbe92a54b
99114a01a050
fea4bdb30727
308330e406e7
327d0f07
bdcd9f3b
ab7c6273
ab742e3f229f
186dc66c
2a5babef
a417b6f5
a37d4da5b8cb
837e06d0c126
388d8b2e4a50
93b47481a6cc
93b3973ffa63
82843c5ceba1
347b3b4a6b31
716fd85d
168a29a6edf9
1561a41a0c34
6782f1e1
767fa69b
91793d2157bc
94208306c60a
29770af725bc
52607e8fd350
4e537b3937ba
8069762626f4
569df4d8275d
ab8a13ff
082ea9322148
5c1a0573b603
619dd692
bc1a49157bc7
c28e9f58c6e3
9d826f3c
018a09be427b
7b7902c82d25
7b773dcbed18
99616d2dbc3d
522274ee8d10
6609ffc12b7a
649902cbde14
953a99343710
ac8c53ae517d
686ddf50
58266e80840a
453e6515bd9b
51741fe2
8bc59fc3b7fa
d6c6e225d4d5
552636286362
874b70933c13
b77f468e
691d9c21
554b048143d0
031f5d8bf8d3
7392bec37f9d
a70903e0cb57
b06a2cf1
9e11c4ae10aa
d37541ac
a39ee5fbac2a
688ff5ba1e3f
e577eec61ccd
5b77f4a4c156
3f795a745576
cc2074a9f2a6
959f7a852b6f
d98b0b765239
78e0c58b0368
f3d7fe8f1cd3
9c7ec218365e
7562ca25211b
89dd635d3ca8
8acddcf0d5e1
b8ee65edce91
a448c705683d
2d9e5814a64c
004aab7a9785
57674d8a5ccd
d5d8f9786949
e6b7d957dcd6
bec97f9ba894
4dd9a335a6aa
2b712080c335
1a148a0224bc
d7753678c2ba
b66f190bd16d
4039bf9beee3
3f65124bad93
76c4256f44f6
fe7dbeeae36e
fd9f686996d0
acc90380bcf3
3e9b1bcca47c
4c02da5c0cdd
1a98e183424a
9b1fb1d5d107
cd8310392bb2
f566c1c64d40
f565995a97bf
c8172f7df29b
a7ae20dc40cf
a7afd097c852
bd43202c13e7
6c71d2248150
0e0621cdfa16
b39e0a80e9db
cc7cc0b28c36
4bb111d53469
0fea58f0ae46
73cace46b771
8ad07724e38d
9eb4223aa61c
a98abae6c847
c1c9d810d492
4b2423313143
49b9a6e6e397
e1b645285943
fcaa9a8cd7ac
fb16111995de
4b3d5541b777
36f72bf4e9f9
a8b0ca9338e6
63fe193c1929
aceb23905ebc
f1852946a9d6
fdc00f0a6666
24be72f41749
36b3595d5831
0e4619489f19
0b293422b868
14c93d12af57
34dfff1e92bf
7ff2c396bd05
8b70efd9d1e3
b723605cb8e1
b69083d5625d
d9c93b8fa026
d3be41338934
d74a3685e5b7
e56944cdf531
6ee247fbfa6f
42c2feb039d2
6d20153c58ca
7bfeef2815b0
8de33312b284
9e750f5987b9
c0d3ab8bd948
d61377eea820
d6748e94100c
ea8286cedb9d
20ba6de6166c
421635e5ffc4
34e3d0fe736e
91cd1b9027e1
91e6b95494c9
c9d19c0c6434
1aca2e4edcf0
42c6fda36172
7aadfe79ecdb
9d2a04cdf422
9ddf1ba61e03
bfff6355b5fc
b5c17499d3f2
c7edb651cca3
dabee0de0e7d
d945069a4510
ee09af4fc4ba
fd3eb25f1b30
18c4c55828a0
ad4db73628c0
426deca78b9e
429fd7dc5a3f
a6a3cc51f69f
662cd5ab44d3
0d7d2235c209
0aeac9a30516
2fc3339c5b5b
5eef1e53fdcc
5ba3c0e5b750
6eae0aeae19b
b90bb45d9ea6
e01f957fbd0f
fc0a2f37c360
45d86085d739
8451f689b796
4dc63c7660d1
5dafbc82cdf0
5fcb39de875c
6bef2512b9fa
67edb9ff4ade
7be98525fc86
9b9e3788236d
bca3d19fab46
ea2d5f4f84fb
f90a19b36591
f20d0e36a19f
f4c190d95fde
11c079928ba6
de0b06bfbff3
b871eb777401
b80dd846fcf2
0df60928650a
5c6a2d4f17f2
63cce1cce2e9
9a2450b086b8
bb9a1189db34
f3704fadec6f
fb559e9c7a5d
10ae2d3c9cb3
58fe87007ecd
de654ef022bc
49d9b0888c46
9c48acd250c1
bc02358a1c98
93f31868f56b
1cfefc39cf36
24d96ef6780d
7b9ce937c0fb
76ff65967df9
9afeb481bfe2
c49ddaed8ba7
efd2cb692ab4
e2ea7ee637f4
e574db42634a
40d040472ba7
20d92ad8ec70
95315f328e20
95ee96ac810a
b7df13249651
b478e6582d2f
c246c196b6b9
77d446aff4e6
dcbc4d5d6a73
d09041227935
3f4afdffd26b
55b1a0938254
87beca3a6f2b
8bb5ebcafa2c
c511d3ca31bb
e72875de3155
269b6554dc0f
41aec192e8e8
289670741a35
de0fed3a0e02
89a84935554b
1c53ebacbe26
0bbb23f729e1
295de7196ae2
5a1c8327ae0d
5bcfb21b78e2
59b4778075b5
6b0764fd0e32
7a864c2f1518
794f4d5f4c2e
a3b97f1106e7
b070fcd32ef9
c5676088ffba
c377ac846c5e
e4b585458bfe
fe1c4aee94c6
fe11b1e8de15
f030796724eb
1137e87626bf
11a70562e9fa
17904a0d6e9c
44f467c7a88d
0d2
0e7
0e2
1ee
2db
2aa
2a7
2f7
3a8
3a6
3b2
3fa8
4868
45b8
4921
4f1c
4f75
4f9a
4a83
4ab2
464a
4ab3
6ca
6de
6b1
6cf
7f7
80c
8b0
8e72
838f
8aa3
9ed
95b
9b0
93c
a9c
a08
a57e
a6c1
a982
ad24
aca3
b41
b42
bb1
b0c2
b280
b3bb
cfb
cea
c32
c40
c11
c5f
c686
d01
d5b
d08
d91
d54
da7
df8
d47
df7
dd0
d12
dc0
efb
e96
eec
e08
e64
ef8
ef2
ea0
e20
e19
e2a
e0a
f35
f3fb
f32
f16
##301
##531
##un
##0161
##0172
##0149
##2c71
##e486
##3500
##3530
##3d62
##0c3c
##4141
##4190
##4160
##4150
##5770
##9671
##9620
##0090
##0070
##d257
##ac5b
##acf6
##3970
##ec81
##6291
##6271
##6220
1817
1815
##9151
4796
4791
47e2
4761
4765
47be
4726
476d
476e
4715
47c9
477d
4785
##7878
##7821
##7879
##54fb
##5478
##5449
##4cc6
##1820
##4819
##6850
##4260
##4279
##3700
##2760
##2730
##2721
4093
40b8
404c
40de
4047
40d7
##9200
##9290
##9230
a48e
##7166
##5691
##5699
##5669
17c
##8820
2649
##9510
##4360
##4309
##9400
##9499
##0249
##0269
##5860
##6451
##64b9
4bdb
4bce
4b9c
4b61
4be1
4b66
4bbc
4ba5
4bc8
4baf
4b1c
4b6d
4b5f
4b1a
4108
41da
4131
4147
41b1
414b
41b6
41d9
411b
4123
412d
##9078
##9071
##9090
42db
42b0
4239
42dc
423c
42d7
42f5
42b6
4255
424f
45e4
4597
4551
45e1
4559
4550
45fe
45d4
4513
4524
451d
2505
2521
2511
2504
2526
4833
48f3
4874
4829
486f
4824
480f
da8
##3190
##3199
2757
2768
2771
2743
2798
2761
2734
2745
2765
27058
46d2
4691
466c
46d1
46ea
46fd
46bc
4612
4616
4665
4673
461d
##3801
##3860
##6199
##5171
##3fbc
##3249
##3219
##720b
##079b
##5232
##5230
4435
4493
44da
4443
4475
4453
4342
43e8
4344
43c9
##6061
##5900
##5992
##3001
##5071
28a
2801
##36d8
4cfa
4cfb
4c96
4c54
4cdc
4cab
4c71
4c59
4cd0
4c49
4c15
4cb3
4cc3
3281
49d6
4997
49e0
49bc
##ee9a
##f0b7
##d73c
##5cb7
2446
2492
##9b00
##f568
##0210
##b070
##a6e2
##28a
9849
985e
##70e
00064
00073
##69f
##76f
4f30
4f3b
4afa
4a27
4ae2
4a02
4a60
92e9
4d46
4dde
4ee8
4e50
4ef4
4e5d
91b8
##5360
404a
9c96
b1f
##1c6
95e8
95ae
96fe
ac4
0015
00104
##17e
abb1
2569
a13
879c
2683
9995
9994
9be1
932c
8d46
2580
9a78
2713
4913
4977
5c6f
4354
4351
418c
437c
4372
4e84
4386
442a
4ed0
4a90
44cf
448a
4e14
2488
46c9
4d8c
4d82
427a
427d
4fa4
4d68
4d61
4587
4586
4dc3
4dc7
4312
4398
439a
4394
457c
2466
4469
4325
432f
443a
4434
4b74
4ec8
4ec0
4567
4566
4565
456e
0dd8
44d7
44df
44de
4903
4e77
4e7d
0937
494a
4eb9
4ebc
4ebe
8210
4d73
b18f
4ddf
4dd4
4953
0aa
0b7
0e1
0d0
1ed
19c
1b1
1a2
1a0
1ad
1cc
1a3
1938
2fa
2fb
3ab
3a2
3c9
4a7d
4932
4999
4f7e
4e06
4ab4
4f7a
4f2a
495f
4d0f
4ea0
4a55
464b
4ea5
4a0a
464f
4f22
4f7d
4d0d
4d5a
5a9
5fb
5d2
5a7
5a1
5fd
6db
6da
6b2
67b
60b
74d
73b
7a6
8d6
8fc4
82c2
8912
8fb4
8d09
89c3
9db
9ab
9fc
9e8
9d4
9009
9fe5
999e
9303
9b5e
a2c
afa
aac
ada
a92
a20
a075
a561
acec
a599
a675
ab2b
a025
ab1e
bfa
b27
b71
b38
b07
ba1
bb5
b16
b6e
b429
b019
b566
bd29
bd9d
cb8
cfc
c20
cc8
cb4
c13
c80
d46
dac
d3c
d5c
dc1
d06
d6d
ee2
ed1
e31
e38
ee8
e99
eb2
ecf
f6c
ff2
fa8
f66
f22
fa0
fc7
fc3
##f62
##e0c
##b36
##0100
##0190
##0160
##0120
##0170
##0119
##0189
05f
##2c35
##e4d6
##e458
##e4ef
##35ca
##3599
##9341
##9302
##937b
##9380
##938a
##a9b7
##a977
##4111
##4120
##4170
##572c
##5719
##e4ce
##ce27
##ce82
##9650
##9629
##0030
##0040
##00b1
##0021
##4641
##3901
##3911
##3949
##6250
##6269
##6280
##6289
##0800
##0810
1857
##9170
475b
47d2
474c
4736
473c
4734
4770
4716
47df
475e
476f
4782
477a
4786
478a
##78e8
##785c
##7820
##5499
##1860
##1811
##4890
##48e0
##6820
##6880
##dcd7
##4241
##4291
##4261
##4251
##4220
##3779
##3709
##2701
##2719
##9719
##e753
ad1c
4035
409c
40ec
4048
4092
40e2
40f8
40f7
40e6
40bc
40dd
4044
40d5
4045
40d4
407b
##9239
##9220
##9269
##7161
##7130
##5637
##5690
##5660
##6cc8
##8870
26446
26051
##9551
##95ad
##9580
##0541
##4341
##4320
##433a
##0260
##0240
##0220
##5848
##5827
##5858
##5810
##5869
##f135
##f164
##f1d8
##6459
2242
2298
2231
2261
4b01
4b54
4b18
4b48
4bfe
4bfd
4bc1
4bb4
4bbd
4b23
4bcd
4195
4132
41e1
4177
41f9
411d
##ca6b
##d1a2
##9801
##9841
42a
42b8
424c
4218
4295
42e2
4238
4261
42b2
42a5
4228
421a
4500
45ac
4502
45de
45a8
4511
45a6
45a3
452a
452d
2534
25977
48a1
48d5
4869
4876
4804
480a
480d
48c6
da2
##31f2
##3159
2792
2774
2753
46b
46f1
4631
46f0
465c
4674
12b
##3831
##3840
##3870
2301
2337
23387
##6168
##6110
##6120
##5101
##5141
##5191
##5178
##5190
##5199
##5120
##5129
4fb8
##eafa
##3200
##3210
##7260
##0778
##0740
##5220
44d2
44b8
4491
449b
44a5
44e3
4479
4409
4473
44ba
43ce
43a4
4308
4327
4302
43e1
433c
43e0
43cb
##fc18
##6790
##6740
##30fb
##3091
##5099
##4708
##4750
##4779
##f7f2
##4091
##4061
51c
2842
2828
2804
##3600
##3639
##3642
##3671
4c41
4cac
4c22
4cbc
4c55
4c04
4c86
4c85
##eb1c
4935
4993
49a9
49ab
4990
49e8
49f7
##eeec
##3331
##3361
##3330
##21d
##f491
##f4e2
##5cf8
2437
2497
07f
##9bc7
##fdf1
##2281
##b07c
0992
36e
##ff6c
##dde7
##d09b9
##f90c
##28f
##c80
00065
00063
4ffb
4f58
4f67
4ad2
4a68
4a64
4aea
4af3
4a3a
##b900
4d2c
4d3d
4d90
4d98
4d38
4d07
4d50
4d99
4d33
4dff
4df9
4d4f
81dc
8158
4ee7
4efd
4e66
b86
b8e9
a895
a87e
##16b
9140
82f4
##04a
9cb2
b13c
b262
80a9
##19f
bcb9
bc73
8cd7
9690
##0300
ac10
a7e9
a66c
a6d0
00120
##15f
a196
a138
a1cc
904b
90a3
bb31
bbaf
##c5a
a0ac
a091
9ba1
869b
8e59
8ef7
94d6
94e9
85a9
85e0
8d39
##2300
b9b8
842c
84ec
be93
beec
af9c
afeb
ae78
9e36
4917
401f
dcb6
4f8d
4fcb
4350
435a
4983
4187
4374
437e
4383
438f
4969
4965
4ed4
6b91
44ca
44c4
4481
4088
408c
408f
4084
2487
4277
4a17
4a1a
4a15
4a14
4a1e
4004
400d
4dca
4317
0f079b
4682
4684
432a
4887
4888
4d26
4d2f
4ec7
743d52
4e75
4d1a
4a25
4a22
0966
4a79
4947
494b
4f0d
4da8
40c1
8528
828b
4e2a
875f
953f
0008891
bcfbd09b9
0008900
f3fb720b
0f079bdd
743d5247
bcfbd09b9d6d
f3fb720b483c
0b8
0b4
0482
1ce
1da
1ab
1f7
1ef
2da
2f1
2f6
2c7
3d6
3f8
33b
3fe
4e3
4920
4f28
4f10
4f11
4ca1
42cc
4fdf
4f4b
4f2b
4e6f
495c
4fdd
4e63
4f5a
4a82
4e6b
5fc
5b1
5021
5c7
6ed
6fa
6d8
64b
6df
7ec
7e1
7d8
79f
7e81
8f1
83c
8a6
8d9
8c2
8521
85b1
8f25
8720
8d1a
8bb6
84b6
8ec5
8ed9
89b4
9ac
9ee
9ad
9ae
9510
9399
9436
95b0
9404
9e49
9ea2
9f04
9e15
9926
9edd
9bbc
90cd
95d9
a2c4
ab0
a51
afd
a73
aabc
afa8
a93e
a382
a3df
a51f
b2c
b43
b31
bb3
b920
b610
b612
be4a
bd7d
b922
bdb7
bbc2
b3d0
bbb2
bf0b
bddf
b4c3
b553
b413
cfa
cb7
ce1
cff
c3f
c19
c0f
cc6
dce
d32
de1
d14
d29
dc7
ee1
e3c
ed9
f2c
fa9
fed
f46
f68
f38
fd8
f34
ffad
##33c
##f38
##b2c
##b22
##0131
##0150
##0199
##0179
0527
##3541
##3539
##3559
##3510
##3580
##dbe1
##db0e
##9361
##93b2
##9309
##93c3
##edab
1008
##3d81
##fad6
##4100
##4130
##4179
##2c49
##5b48
##5b06
##d63d
##d6b2
##d6bd
##a43d
##a402
##9691
##9630
##9681
##aad7
##0099
##0079
##4671
##463c
##4621
##4679
##d268
0846
2573
##9319
##9311
##3940
##3999
##b7e1
##ecfd
##6241
##6239
##6261
##6260
##6249
##0820
##0819
##91b5
##9129
47a4
4751
4732
47f2
4760
4740
479b
47a6
47c1
47b9
47bd
47b3
47cf
##7801
##7872
##7870
##7881
##5431
##5440
##4c62
##4cf6
##1842
##1849
##4801
##4871
##4821
##4820
##4809
##4881
##6871
##6859
##6830
##dc48
##dc14
##4299
##4270
##3739
##3721
##3720
##2741
##2731
##2749
##9770
##e7f2
##e7e3
##e70f
ad9
ad35
ad94
ad36
adf5
ad1d
40e4
40d2
40b7
4052
40e1
4099
40f6
40fe
40f3
403f
40bd
407e
##9261
##9259
##9281
##7171
##7104
##5671
##5661
##5650
##5679
26021
26371
##9550
##9509
##0559
##0599
##0521
##0510
##0520
##0580
usr
##4340
##e26c
##e22b
##9401
##9441
##9490
##9451
##9409
##0239
##0258
##0221
##5870
##5819
##f1a7
2235
2227
2234
2287
4b97
4bab
4b56
4b31
4b52
4b30
4b3b
4b36
4bf0
4bd7
4be6
4bb5
4b16
4b53
4b65
4b9e
4bc7
4bb3
4b4e
4bc5
4bc0
41d
4101
41aa
4100
4146
4139
4162
4191
4137
416c
4138
4152
4167
41f5
41d3
4163
41be
41b3
41cb
417f
##ca10
##d117
##9040
##9896
##9890
##9831
##9860
##9811
##deac
423d
42a4
4262
4202
4260
4230
4250
425c
4234
425d
42af
4206
42ba
4281
4284
4501
452c
45a7
4592
4531
45f4
45fd
45f9
4529
459d
2553
2517
484c
4827
4871
4895
4860
48e3
48b6
4865
489e
4826
48c7
4813
482b
487d
2103
##3101
##3110
2794
2772
2767
2733
2766
2744
2773
2763
46e4
46b0
46b7
4632
46bb
46f5
46a6
46b5
4679
46be
46bd
4617
##38ce
##3854
##3850
##3817
2307
23a2
2328
2369
23369
##6101
##6150
##5130
##5117
4fb3
##eadf
##3209
##3289
##7201
##7200
##7218
##7290
##728d
##0769
##f8fb
##5261
##5289
4478
44e2
4452
4440
44f5
4477
4406
449e
4335
4341
4348
4332
4333
4366
4369
4309
430b
43c6
##67fa
##6742
##6759
##6080
##e8bc
##3049
##5039
##5091
##5060
##5030
##4741
##4760
##4740
##f7ca
##40a4
##4031
##4030
##9991
516c
2800
2808
2816
2817
##3601
##3638
##3651
##3c4b
##3c2b
4c2
4c35
4c34
4c9b
4c06
4cc2
4c3f
4c9a
4c5f
4cc6
49f0
49a5
49e5
##f60c
##ee5b
##d767
##b1ac
##b17c
##f442
##f497
##5cda
##5c34
35d
2471
2495
2451
2447
##a25b
19f
57b
##f55b
##f5d5
##66eb
##5d02
##e6d2
0941
3652
##bc43
##bc9e
##b28b
##77f
##77e
##thon
##ff30
##dde2
##d03a
##a53b
8830
88bf
98d1
9874
##e592
##3af2
##7400
##e9a5
4f96
4f00
4fec
4fe2
4ff2
4f33
4a35
4aed
4a41
4a57
4afb
4a37
4a58
4ad8
4a3b
4a33
4ae6
4aef
1918
##e3ce
92d9
4d96
4daa
4d4c
4d88
4d02
4df1
4d44
81b
4e01
4e93
4e68
4e27
4e31
4ee1
4e30
4e34
b8a
b8c8
b8c7
##d3a9
a8c
a8a1
a8a5
##ae2c
##ae90
##16d
91b
915d
8202
8298
825f
##d472
404f
##3f58
7821
b1b6
b1b9
##6596
a2f0
a24b
a2b3
##1c05
68ff
80b
95fb
9568
9537
8c50
8c9d
965c
96a6
ac7
ac00
acda
a739
a636
a6a0
b0de
b031
b0b4
0013
0018
00112
97f7
9799
97eb
b7e0
##bafd
ab27
ab36
26276
a135
a1e3
a1d3
##4f35
873b
bbad
##2550
a0ab
a0f9
b638
b5ff
b5ef
8671
##823
8ece
8be7
8b95
8b69
94b0
f85
8d4c
bf57
bfd6
bf27
bae4
bd08
b9d8
9aec
8fd6
2715
c8c
f09b
a534
9d0c
aee2
ae50
b361
9e35
9e97
e8b
c12c
cc65
491b
8ae5
497d
497b
4013
4017
4014
441c
4412
27808
4357
4358
498c
4982
49c9
49c0
437a
e69c
4a4a
4e89
4628
4385
4424
4a96
4a9f
44c3
4e10
4e1e
4081
46cb
4d8e
26597
4a10
65ee
431d
468e
2462
4ac8
2311
4326
4881
4d27
8b88
4ce8
4ce6
4b76
4ecb
2276
2477
2474
4933
4936
493b
4909
4de0
4e76
2fd2
4d1d
2427
45bd
2371
0936
4eb2
4ebb
bf85
4da3
928e
878c
912d
4aa0
c9f9
8574
5604
0009000
931b
9776
4ca6
4ca5
9d86
862d
8547
939d
0007870
b68e
a21b
b44a
9c16
0008290
python
0f0
0f10
0ac8
0abb
0d77
0e0a
0e80
1fa
1dc
1e6
1cf
1564
2e4
2ac
26c
2f4
2ba
2f74
2ac6
2aaa
3db
3ed
35b
3b0
3a7
33c
3dd
3c1
4dba
42c4
457f
4a8
4938
4950
4d55
4f13
4f49
43d5
43dd
4649
4ca8
4a06
4f74
4f2e
4fd0
4ff9
4a5e
495a
42cf
4fef
43df
4a8b
4d0a
5d1
5f8
5e8
5abc
5f8b
5fb5
5721
5fb2
6e4
69c
6fc
65c
6bc
67a
6028
6e12
7da
7c1
7c7
71b
71d
7a60
7eee
7a5a
8e4
8a9
85b
8da
8e1
8050
8f17
862e
8a69
8a89
8406
8204
8d80
8d65
8a4c
8e1b
830b
8b70
8fdd
84d1
83d7
864a
8ec2
8e6e
8e8b
8e3e
8ac5
83a3
8b2a
92c
9aa
9d1
9f2
9bb
95c
9fe
9a6
9e5
9d5
9a86
9d0b
9d1a
9ad9
9520
92cc
9fad
9934
9a76
9f75
9322
9682
95be
9aaa
9fa3
9a5a
9bbe
9c12
9d9a
File
a0c
a96
a43
af1
ae5
a358
ae87
a971
af7b
a5b2
a56c
aa40
a907
a012
a316
aa42
af8e
ae7d
aa7e
a888
aa96
a3be
ab06
a583
abcf
a09f
b01
bfb
b62
bac0
b6c
be2
bd1
b3b
bbb
ba5
be9
ba3
b928
b938
b918
b082
b2c7
bb17
be0f
bd55
bde0
b509
b414
be22
ba4c
bdad
b38b
b085
bdae
ba25
be2f
b45e
b75e
b384
b72d
ced
c54
c51
ceb
cb1
c21
ca2
cbc
c10
c74
cd3
c53
cf3e
c216
db0
d68
dde
d38
d50
d36
d44
dcc
d04
dbf
d1b
d560
db29
d566
e93
e41
eb8
e68
e27
ee7
e32
ea5
ec1
eaf
e3f
e9e
e5a
e2b
e5b9
e303
ebcd
f42
f61
f67
f3c
fff
f12
f19
f81
f36d
fdbc
f16a
f04f
pack
##388
##ab7
##fd6
##4370
##d88
##edb
##e9c
##ee1
##ne
##ning
##0137
##0130
##0109
##0129
##e4ab
##3518
##3502
##3521
##3549
##35b9
##3529
##dbb1
##db20
##9339
##93da
##9399
##9349
##9379
##9381
##a94d
##edc2
##ed85
11de
1161
##0ce4
##0ced
1362
##fae7
##fae2
##4142
##4159
##41b5
##4129
##5741
##573d3
##5739
##5758
##5751
##5711
##5769
##571c
##a9e1
##2c42
##fbf9
##9c4a
##d658
##d617
##a4fb
##a49b
##9641
##9699
##9669
##9679
##aab0
##aa6b
##aa1d
##aac0
##0028
##4691
##4650
##4699
##4620
##d222
08d
08e
08b
5507
31a
317c
##ac57
##ac12
##ac591
##3990
##3951
##3921
##3919
##b7fe
##b74f
##b70a
##ages
line
##b821
##6230
##6270
##6229
##0897
1868
18d9
##9190
##9159
##9150
##9111
##9181
##9183
470c
4748
4742
4797
47a8
47bb
47f3
47a5
47e3
47d9
4709
476b
474f
477e
478d
##7860
##7806
##7817
##78b3
##7886
##5401
##5408
##5452
##5459
##5430
##5450
##1862
##1891
##4800
##48eb
##4870
##6841
##6851
##6810
##68ae
##6889
0076
##4201
##42f9
##4249
##3731
##3751
##3730
##3799
##37d7
##375c
##37c1
##3773
##3729
##2771
##9718
##9737
##9764
##9710
##9720
##9763
##e7ce
##e7a5
ad0b
ad8a
01dc
01d9
038a
40ac
40b0
407c
4029
407a
407d
##a720
##a76a
##9221
##ac0d8
##abd1
##7140
##5630
##5640
##56b1
##5611
##5609
##6c73
##6c81
##8893
##8850
##8840
##8822
##88d9
26aa
2669
26418
26581
26431
26468
26967
26544
26524
##95a2
##9520
##9519
##9529
##05a1
##052a
##4348
##436c
##e2e7
##e2eb
##e2e0
##94db
##0200
##0292
##0244
##5801
##5891
##5871
##5890
##5809
##5815
##f1fb
##f171
##f166
2278
2265
4b6
4b2c
4b57
4b46
4bda
4b91
4b42
4b27
4bea
4bfc
4b3c
4b5c
4bff
4bd9
4bae
4b19
4bbe
4b5a
4b1b
4bcb
4b2b
4b1f
2036
413d
41dc
4159
4130
41ee
4133
4121
41f4
41d5
4106
4165
415a
417a
41cd
412f
##9031
##9061
##9063
##9800
##9820
##9876
##9819
42b
4235
42aa
4200
4291
4242
42f2
4299
42a8
4211
4244
42b4
4263
429d
4203
420a
425f
428e
4505
4558
4532
4522
45cc
45c2
450a
450b
452b
451e
2518
2513
25928
25952
25561
25682
48ed
4857
4846
4839
48b8
4862
48dc
4842
4897
48e7
48ab
4805
48de
4867
483c
48fe
48fd
48e0
4844
48d3
487c
485e
480e
4815
484a
##3130
##3150
##3129
##316d
##317d
2797
2790
2759
2770
2724
27488
462c
4693
4641
464d
4664
46de
4672
4666
46e0
46ff
46d5
46b4
466b
4614
469f
467f
467d
1200
##3862
##3891
##3890
##3861
##3851
##3859
##3820
##3879
##3829
##387d
2396
2305
##61a9
##6131
##6160
##611e
##5161
##5111
##eade
##3291
##3261
##3232
##3230
##3240
##3269
##3224
##7210
##0701
##0756
##0790
##0760
##0799
##07dd
##f86c
##f816
##f85e
##f87a
##5290
##52bc
##5285
4400
4446
44ac
4442
4492
4498
44fc
44f2
4499
44a6
4449
447e
447d
439c
4339
43ec
43b1
434b
43be
43c4
##fc79
##fcbd
##fc8b
15f1
##f2d6
##f205
##f223
##602c
##6091
##6060
##6040
##5901
##e829
##3092
##4701
##4700
##4731
##4751
##4770
##d8a4
##9901
##9999
2848
2895
2802
2806
2809
##369f
4c7
4cc
4ca4
4c07
4c30
4c47
4c3c
4c5c
4c66
4cc8
4c69
4c7c
4c9d
4c26
4c87
4c7e
4c1f
4c2e
##a8e1
##eb62
49b
49fb
49aa
4900
4992
49eb
49fe
49f9
49e9
49e3
##a1bb
##a106
##a109
##a17b
##ee54
##f09e
##d7db
##3339
##3344
##b1b3
##2140
##5c4a
35dd
f7c
f793
f7a2
2400
2448
2402
2498
2453
##a225
144c
##3439
##3405
##3440
##fe58
1954
0762
##9b63
##4469
##4460
##fd97
##f507
##66da
dist
##e66c
##e6f8
##e6b1
##a66c
##a6f2
##b26b
##773
##77a
##775
##77b
##ff52
##d078
##4400
##104
##10b
##2071
##287d
##4908
8871
8894
9801
98aa
98ab
981d
##4b61
##e518
00079
##4539
##4591
##4532
##4530
##3aa9
##74f8
##e941
4f2c
4f35
4f18
4f37
4f97
4feb
4ae
4a54
4ae5
4ad4
##12f
##ad90
##b9ee5
92e0
92ff
92d3
##af6c
4ddb
4d41
4dce
4d36
4d49
4d3a
8166
8155
819a
4eb0
4eec
4e97
4e88
4e64
4e98
4e59
4e99
4e5c
4ef5
b8af
b8c3
a89
a8b2
a8d5
##09d
913d
91d7
91cd
82b0
82bd
824f
##b491
##3f4c
9c4
9c46
9c58
9c90
b171
b159
b1c5
##7c9
##7c35
a246
a2e7
b2d
b2ed
b2a4
b290
##1c7
##1c9
##1c0
68c
80ef
##632c
##6327
bc9b
95a4
9546
##be37
##be6c
##be59
96d
9693
ac97
ac90
a7a7
a759
a7e8
a7eb
a7ef
a69c
a646
##5e05
b0b
b093
0017
00122
00128
00117
##6e05
97fb
b7fb
b754
##ba5b
##b3f5
ab92
ab43
26228
a1a
a1b
a149
90a8
8768
87c1
bbf2
bbff
##87f
a0ee
a0ae
99dc
9992
9b57
9bde
b6ac
b591
b518
b551
b550
b5a8
##5af0
8661
8634
8e27
8be4
8b39
93a0
8531
85f3
8d4d
8d33
9fd6
9fec
9f95
9ffe
9ffd
bffb
bf39
ba3a
bdd6
bd39
bd05
bdde
89d7
9ab0
83e1
8ffa
8f43
b4e2
b440
c86
c896
a3ce
a327
beab
be64
bee8
befd
afdc
af97
af64
a5e9
a95b
a9b1
a9a6
##c097
9da9
9d43
2543
2540
b3e4
b3b0
6cb8
e8c
e708
e795
6162
61c1
3c97
##1e78
4919
491d
8aec
8a6c
4973
773c
26137
fc73
4419
4414
441e
4fc0
2783
2786
2785
f63f
604c
4352
4984
4981
49ca
437d
e631
4a4c
4a4e
4e86
d0d7
4db9
4db2
4dbe
4421
4968
4eda
4edf
4a92
4a91
4489
4e1a
4087
408d
2482
2481
46c8
46c4
46cd
4d87
4d84
4279
4faa
4d6c
4dc5
4dcc
431a
4315
4311
439b
4540
4544
454d
454b
3ba0
3bd9
468b
4576
457a
2465
4ac7
4acd
2319
4460
446f
4323
4432
488b
0912
e3ce
4b70
4b71
8965
4ec4
4569
4564
0d3d
0dfe
74ad
8617
2272
0008910
0008180
44d3
44d9
4b87
4b80
4b8c
4b8b
0ae8
db91
79fc
##2180
4906
490b
4de9
4deb
4de1
0007310
4e71
##361f
4d1c
4d12
4a23
45b7
45bf
941d
b4d8
dda4
4924
4a70
4f03
4eb3
4eba
4eb5
9515
4da0
##46130
9220
8524
4e9f
##42100
0922
fe33
812f
4aab
bdcd
ab79
a46a
0009050
042b
18435
8289
931f
4e23
4e29
4e2e
8585
9333
ab8f
7b74
e889
ac13
944a
608f
6515
867a
8bc4
b77a
0007830
0009120
bbc1
0008130
9c15
0008240
0008759
a7be
0008650
##unning
python2
packages
0db
0fa
0b0
0ec
0f2
0a8
0a0
0dd
0a5
0b9
0bd
0c0
0930
0968
0ee5
0ab4
0f3f
0e81
0a98
0e6e
1fb
1f8
1f2
1f6
1b2
1b9
1bd
1f4e
1d23
1a8f
1d24
1cc7
2a9
2ed
24c
2e2
2f8
2d7
2887
2051
2ac4
29c7
2eee
2f6f
2b6a
3d2
3ac
34c
3d8
3021
3a0
3961
3018
3567
395a
3365
3dc8
3ab9
4ac0
4e0
4a8c
42c7
4f44
43d4
4ea8
4ea6
4fd9
42c9
4640
4f7c
4ca2
4e3f
4ddd
4d0e
4f16
4f76
42c5
4f2f
495e
4fe0
4f3f
4e6d
4f3e
4fd5
43d6
4fd4
4e03
4ab5
4abf
4a85
52c
59c
55b
5d6
5a4
5ec
5e7
5e2
5ca
5de
5d8
5f6
5e6
5b5
5cc
5d3
5d9
5c5
5cb
5db1
5bbc
6f1
6d1
6e1
69b
65d
6c1
63a
6e9
67c
6cb
62b
65b0
630b
6db8
66cd
6eb9
6ce2
675e
6b0e
73d
75b
7d2
7ab
7d1
7e8
7cc
7c2
77b
72e
77f
7ebb
709e
8dc
8e7
8b6
8ef
89e
86a
8420
8938
8a8c
85b9
8fb1
85b5
8469
8024
8052
8fc8
8f74
8357
83b2
851c
8eba
872e
8d28
805d
8f65
8a65
8ea5
89bc
8a2e
89cd
9e4
9b7
94c
9eb7
9a2
9fd
9a0
9cc
9d3
9bd
95df
9949
9ce9
954e
9de8
9372
9f1e
95cb
99be
9e5e
9b24
Running
a57
a5b
a54
aa7
a6c
a38
a32
a67
aud
a59
a36
afa1
acti
abf
a418
a580
a918
ad60
a2c7
ae0b
aa3e
a56f
ae1b
a280
ace8
a325
a524
a383
acc2
ad6e
a71e
acef
a724
ab2f
a07d2
a27f
b2c4
bce
b5b
b96
b92
b95
b05
b58
b40
b99
b3c
bdf
b6d
b011
b00e
b680
bd27
b469
bdbe
b059
bfe0
ba2b
b9b5
b58b
bb75
b71c
b52b
bb16
bb8e
b286
ba1c
bde6
b98e
b3b5
cdb
c3d
cd6
cda
cf1
c31
c5b4
c36
cf4
c3e
c14
cbd
c4f
c2d
c7f
c514
c05e
c9bf
c46d
ca76
ca55
c5ba
c59a
c27d
cf6e
cf81
c08f
ddb
d41
d39
d27
d20
d80
d7a
d7e
d1a
d644
d488
ddbf
dc8e
db10
dd13
ece
ea4
e91
e48
e98
e03
e4a
ec9
e008
e2c5
ef03
e09e
e053
eb2d
e314
e21e
ffb
fd2
fac
fda
f78
fa7
f95
f58
f07
ff0
f33
fa2
fe6
f28
fc1
f4b
fa3
f3e
f17
fcf
f209
ff2d
f9c7
ff75
fe14
fe7f
##a01
##a78
##f9c
##f51
##ff2
##fe8
##daa
##e50
##in
##0139
##0151
##2cf0
##2ccb
16c
16bd
##e422
##e46d
##3562
##3591
##3531
##3511
##3520
##3569
##350b
##db46
##db6c
##dbf1
##db5a
##9360
##9330
##93e6
##9320
##933a
##93bb3
##9326f
##a94b
##a965
##a926
##a98f
##edea
##ed34
##ede6
1001
1073
##3d01
##3d96
112f
##0c14
##0ccd
13c
1316
##fa58
##fa3a
##fab5
##4191
##4171
##5762
##5759
##5730
##5740
##5710
##57ae
##5781
##5789
545a
##fbcd
##ceba
##ce9a
##9ca2
##9c9d
##5bf1
##5b1f
##d69b
##d680
##d647f
##a40c
##a4ab
##a421
##9631
##9659
##aa35
##aad2
##aa3c
##0041
##0039
##0071
##0059
##0050
##0020
##0081
##0080
##4662
##4661
##4651
##d2bb
##d234
0842
0856
5378
534b
25752
55d7
5513
31d0
##ac20
##ac406
##b0d6
##b0e7
##b0bd
##b089
##b086
2000
##3959
##3920
##3915
##b722
##ec1c
##ec8f
##b8a9
##b8bb
##6227
##6232
##62bb
##0801
##08aa
##0849
##0880
18d
1896
1854
1827
1856
1888
##9141
##9105
##9131
472c
47a9
47fb
479c
4746
47ac
47b0
47b8
4718
4768
4788
4794
4758
47d1
4752
4767
47f7
47fd
475d
4749
47e5
47cc
47b6
4775
4773
4729
4717
479a
4787
4713
4789
47cd
472e
##7898
##78f4
##7819
##5400
##5429
##4c16
##4c0d
##1801
##1888
##4831
##4811
##4849
##48c2
##4829
##4889
##6891
##6890
##68c0
0027
0022
##4290
##4230
##4280
##3738
##37b9
04b
##27a4
##2791
##2711
5853
581c
##9741
##9739
##9752
##9760
##9730
##9721
##9711
##9769
##973f
##e712
##e7517
ad7
ad46
adf2
0171
015a
0250
0342
03ea
0324
031f
400c
40fa
4041
40da
406c
40fc
4059
40b5
4075
4055
40ae
40bf
40be
405a
06d3
##a764
##a76d
##8689
##9211
a486
a484
##ab96
##ab1b
##7100
##7131
##7121
##6c46
##6cfc
##6c8e
##88f4
##8828
26d
26e
26a4
26dc
26788
26511
26982
26002
26357
26087
##9541
##9552
##9511
##0512
##0509
usage
##439c
##433b
##4349
##4389
##43420
##e263
##9471
##9459
##0251
##02ea
##0259
##0280
##58cb
##f198
##f1f2
##f17c
##f11f
##f1272
##64e4
##6439
##6448
##6450
##64ecf
229c
2291
2248
2237
2294
2289
4bc
4b5b
4b6c
4bca
4b90
4b51
4b60
4ba8
4bee
4b49
4b4b
4bd5
4bdf
4b26
4b17
4b1d
20e8
20df
41f
412c
419c
4196
41ac
41ec
4178
4194
4158
41de
413c
419b
41e6
41ff
4149
41e5
41bf
4119
41bd
412b
41c6
##ca59
##90fa
##905b
##9069
##906f
##98ac
##9878
##9840
##983c
##9879
##de08
42f
42e4
4246
42da
42a7
4294
4258
4251
423b
42a1
42dd
42f3
42bf
42ef
4214
4229
420f
421e
45db
450c
459c
45d2
4518
4538
45ea
4599
453b
45f6
45a2
45f5
45e0
45ff
45ad
4506
4503
4523
451f
45a18
2507
2520
25d9
25960
25050
25937
25211
25504
4835
48a9
485b
48d2
48ec
4848
4837
4892
4894
4858
48fc
48e8
48f6
48ee
485c
489b
48ff
484b
48e9
4879
4873
486a
482a
485a
485f
48c4
481e
211c
217a
##3100
##3191
##31a7
##3151
##3140
##3111
##31328
27c
2749
27418
27468
27276
4635
46a9
46fb
4696
46ac
46b8
4643
4652
4667
46d7
46b2
4677
46e9
46a3
467c
466a
460a
##3898
##3811
2318
2327
2302
2332
##61aa
##6162
##6112
##61af
##6119
##6129
##617f
##5151
##51f3
4fbd
##eae9
##ea2f
##3fb7
##3241
##3231
##32e1
##3211
##3220
##32aa2
##7259
##7220
##7280
##720d
##0741
##0718
##0761
##5201
##5299
##5234
##5211
44b
442c
4441
44d6
44b7
4408
44a7
44ab
4405
44a1
445c
44a2
44e0
44a0
44f3
4445
44ad
44b5
44af
447b
449d
440b
432c
43a7
43ab
4338
4361
43f8
4334
43ff
4349
4345
43cc
43ef
43bd
4303
430e
434a
43c5
43cd
15f0
##6751
##6799
##67715
##e147
##e123
##6001
##6099
##6036
##60da1
##5948
##59f8
##3041
##3061
##3030
##5061
##4739
##4730
##d892
##d8f8
##f736
##4041
##4040
##403c
##4034
##4045
##9941
##9908
##3b5b
##3bf1
##3bbc
##3b1a
3849
51d8
51c9
2854
2822
2810
2812
2815
2825
##3632
##36bc
##3c00
##3cd1
##3cbd
4ced
4cd6
4cd2
4cb0
4cb8
4c42
4c64
4cd1
4c60
4cd8
4c99
4cdd
4cd9
4c3e
4c63
4cbd
4c6d
4c4e
4c81
4c1b
4c2d
4cc9
4c1e
4c8e
4c84
dee6
32b
32b5
32b4
##eb21
490c
4957
49b0
49b7
49dc
49a7
49d8
49fd
49a6
49ad
49bd
49ba
##a1dc
##f6e6
##ee58
##f078
##f04d
##f069
##f0ba
50dd
5065
##33ad
##b1d1
##2196
##2150
##f4e4
##bbf53
##5c01
##5c61
30b5
f70
2401
2457
24eb
37d6
3746
14a9
##3401
##fe05
1935
1902
19f7
0775
##9b3d
##6601
##6691
##2252
##225e
##114
##11a6
##119a
##fa17
##e6924
0908
0942
0997
09e3
##a0ee
56d6
56f8
##ff98
##ff07
3445
3453
##4441
##4458
##4450
##4447
##44f3
##44a5
##1091
##f998
29f9
##a5ed
##a5e1
##283
##4978
##49f6
##c1a
##c142
##c195
88f6
8812
88c5
##c8a
9856
9831
98e8
983b
9811
9869
9816
98df
##70a
##4baf
3378
334c
##d5a0
00069
##4541
##4588
##6905
##7459
##e998
##7650
4fa9
4f39
4f56
4f95
4f05
4f43
4fca
4ff7
4a2c
4a93
4aa9
4ada
4af1
4ad1
4a31
4a59
4aeb
4ad7
4af5
4a66
4af9
4a3e
##12b
##b5a1
##e3ca
92f5
##755
4de4
4d00
4dac
4d08
4d95
4d43
4d51
4df8
4d52
4df2
4d5c
4d45
4d3f
4d3e
4e05
4e02
4efe
4e9b
b87
b893
b8d2
b8dc
b8ab
b863
b829
##06a
##0641
##0671
a800
a8ff
a8e5
a8c9
##55f8
##ae30
##09b7
9147
91cb
##5340
8299
82a5
825a
##d4a1
##0471
9cb
9c62
9c07
9cf5
b1de
b133
b1b1
##7c34
##3e38
a25
a2ff
b2f
b2b
b2e9
b253
##df30
##1cf7
##ef917
68ee
6817
80a
##6300
bc6
bc5
bc41
bc98
bcc8
8c9c
8cbf
8c4e
9668
##032c
##2600
ac6
a705
a6ce
a691
a668
a672
a6e6
a6a6
b027
##0ee2
0016
9707
b7b8
b718
b727
b760
##9aff
ab97
ab31
abff
26256
26221
a1fe
a1ae
##4f32
9096
87b5
bbfb
bbce
bb00
bbd8
bbf6
##2590
##8190a
a093
##2ae0
2689
990c
99d6
9b59
b6e5
b500
b533
b5ad
aa07
aa3a
8693
86f5
##2450
8e3a
8b51
94aa
9440
f86
f8e4
f8f6
##0d92
8508
8536
8d57
8df0
9f4c
9ff5
bf97
bf43
bf30
ba64
ba34
bd9c
bdaa
bd5c
b9a1
8ff4
1c9
84f7
d518
c8ec
c8b2
a318
be37
be3c
a505
a99c
a9da
71a6
9de7
2544
ae3d
ae3b
b337
b3a7
b3f2
9e58
9e67
c7e6
6c35
72b3
e8e8
e8d3
ecf3
26691
3c05
cc32
2cd8
2c4e
8a5d
cb2c
6408
2bad
dc42
5cf7
fcbd
4f86
4410
4411
4fc3
2780
2782
f65d
f1e8
4980
4182
1f48
4379
0c0b
1b36
4a47
4a4b
4625
4624
6247
d7a6
d749
438c
4428
442f
442d
4963
4961
4ed1
6be5
44c2
4488
4484
4e1d
4e49
4e41
4083
408e
408b
f342
2485
2484
e2b2
46c6
46c5
46c2
4272
427f
4fa6
4fab
ff42
4003
4000
4005
4002
400e
4585
458c
4dcf
##84ce
431c
e5e8
e5ff
##f1bf2
4397
439d
4689
4686
4570
4575
457d
4571
d408
d437
d459
6d93
e901
2460
4acb
e4b8
2313
2310
446c
4329
4322
4431
3A54
3A05
3A55
3A04
3A14
4d2a
4d22
4d24
cd08
4b72
4b7b
2e00
ef91
ef88
4ec9
4ec2
0daa
ca78
fb56
0008640
4b84
f9f7
0af3
7559
db4ca
4937
4934
d9d7
1922
0007529
4e70
4e7a
4d19
4d10
4a29
4a2f
4a2b
2dd62
2426
2379
c42c
dd47
ea41
492d
4a7f
1a35
7a3a
2356
494f
4f0f
9974
4ebd
bf8d
1971
##ed336
2386
6aa4
6af6
40c9
40c0
40c2
##02069
5e97
##54bea
1937
4d74
878e
810a
feb8
9888
4aaf
4aad
4aae
4a6f
c9a9
##01318
##68671
a419
##36638
0009351
##7899c
##68735
9669
##05c6c
##35757
##f7558
##464a5
##e1b52
4e24
##fe0d1
##62f38
##31678
##3c618
##fa233
5005
975e
b484
##962db
4e5a
4e55
##30340
9c85
84ba
bc1d
##a0e3d
4dd5
946a
ac1c
##f58c
##365e8
3344
9445
##ea53a
##a9bfe
9933
8674
890f
b212
b7c6
##fd4f3
0007811
999a
be7a
##59e31
##e3ee8
9714
499f
##d0d32
0009151
##b8498
##5d9fb
dec0
##98f05
##d5f43
0007281
9f09
97c5
a114
becc
a17f
0008030
a76d
34e60
a19a
##463c50
audit
action
0a9
0ac
0ab
0d8
0f6
0bb
09b
0ba
0961
0904
0920
0950
0959
0d7d
0688
0379
0907
0d70
0de8
068f
09bc
0ed07
0f03f
1b8
1ea
1d8
1f4
1bc
1b6
1d4
1921
1ab4
1cec
1f20
1e19
1b5a
1a2f
1fae
1a2e
1e592
2dba
2b0
2de
2e1
2021
2bc
2d0
2e5
2a3
2ef
2c5
2c6
2438
2951
2358
2fb1
240a
20c2
2a94
2aa6
2eb2
2b5e
2d3ca
29bc7
32c
3fb
39c
3b7
3e2
3fc
3b1
39b
3d5
3351
3f7e
3fb1
3fe0
30c8
3a04
3bbd
43d3
4f0c
4ea
43fb
4f5
4fa1
4f25
4958
4f6b
40cf
4aa1
4f5f
4ca0
42c8
42c0
43d8
42c1
4647
43de
4eae
4a0f
42c6
4ead
4a8d
4ee6
4ab9
4f9e
4ea3
4a04
4e0e
4d03
4f70c
5db
53d
5ac
5b0
5f1
5ea
5bc
5dd
5f3
5e9
5ad
5be
5028
5f28
535d
5972
5bbb
5bbf
5a26
5b0d
6ce
64c
673d
6f8
6f7
6a1
6d7
6f4
6a0
63e
69f
6670
6382
699e
6f82
6da8
6d5d1
6ec01
662f38
7fb
7a4
7ac
7ea
7eb
7f0
7b1
75d
7e6
7b2
7d0
7f9
7c8
76b
71c
75f
72d
7c6
7f79
7389
72c1
7b29
7b5a
7b5e
760a
79be
84c
8ca
8fc
8a8
8a2
89b
8f9
8e5
85a
83d1
8f28
8081
8ea6
836f
8fe5
8272
8dbf
8489
83c7
8f2e
8382
8d70
8b1b
8187
8a44
8aa0
8086
895c
8d12
8d81
8e5a
859d
8a10
8cc2
8b26
8ead
8fc6
8a5f
84d0
8c82
8b7c
89b3
83c5
8b900
9f6
9a5
9b6
9c2
9df
99a
99f
9058
9411
9431
9e1c
9617
92c3
9de1
9606
9f3a
9924
9f3e
992a
9eb6
9ce5
943c
9def
9e73
9b4f
9bcb
aa9
adba
aa4
a95
a05
a90
a72
af7
a3b
abb
abc
aa0
ab6
a55
a3f
a15
a309
a461
a181
aea1
afbc
a272
a46d
a055
a787
a32a
a386
ab9f
a354
ae72
a433
a18c
a59a
adc7
af0d
a2c6
ae48
ae7c1
a6c9
a72b
aa8d
a525
ae9e
afc1
abb4
af73
ab6f
a9bd
ab24
a94e
a58a
a68a
ae9a
a365e8
b91
b78
b88
b98
bde
bea
bd71
bfc
bd7
be0
bd0
b45
b3a
b03
bf1b
b0c5
b970
b980
b958
bd60
bf6b
b271
b079
b917
b406
bede
b912
b681
b982
b9c0
b37b
bda5
bb79
b35b
bfa6
bab6
b02f
b086
b92b
bd24
bcc3
b02e
b6c7
bab2
bfa3
bd67
b64a
b61a
b964
bf73
bc2b
bbb9
b083
b374
b074
b46c
bb23
b7bfc4
b555
bcc7
ba62c
b04e
b3708
c00
c46
c27
cab
c6c
c52
cf2
c47
cd7
c5c
cc1
c70
c79
cb9
c06
c55
c7b
c26
cc5
c23
c2b
c1f
c004
ce7c
c922
ce1b
c72f
caba
c72e
ceb9
c566
c91e
c675
cfc1
cb2b
c80d
ce828
cb63
ca9bb
c41dc
c2c49
dd2
d18
d97
d71
dfc
de8
dd7
dbc
d49
dd9
d03
d0e
d6e
d15
d4e
d0a
d0d
d23
d2b
d075
da95
d024
d275
d61c
d5bb
d0c9
df69
d38a
d06f
daa0b
d47e
d79a
dcecd
d3d52
d4069
dca10
d30340
e0c
e54
e18
eed5
e47
ebb
e22
ea6
edd
e28
ee5
ed5
ebf
e7c
e26
e6f
e23
e1f
e2f
e0c5
e082
e720
e5c3
e715
ef2a
e084
e3c7
eda1
ebbb
ee7e
e506
ebb5
e215
e3be
ea72
e306
edca
edc59
e51a
e0f95
e9680
e3112
e05d7
e9160
f0c
fce
f64
fea
fe8
f3b
f21
fbb
f5c
f9b
fa6
fb2
fd0
fd5
fb4
f65
f1c
f9d
fc5
f82
f5f
f2b
fcec
f912
f0ce
fa9c
f07e
f18e
f78b
f91a
f4d8
f64e
ff66
f117
fd9f
fb88
fa1a
f0f4d
##36c
##7540
##7976
##795ad
##80137
##ae8
##a782
##550
##c51c
##fo
##fed
##ff4
##f96e
##f434b
##498
##4faf
##dec
##d91
##d98
##d3a
##e62
##e54
##eeb7
##e52
##e30
##eed8
##1b086
##ken
##01fa
##0168
##0198
##0159
##0111
##0169
##01cef
05ca
05a6
##2c3d
##2c3908
##2c1b
##2c641
##2c3bd
##2cd20
##2ca25
##2cfc5
##2c88d9
##2cee54
1658
16c7
1687
165110
201c
##e4b2
##e40b
##e42ce6
##3508
##3578
##35f1
##3590
##3570
##3581
##3589
##35cd
##3584
##35f4a
##353e1
##35470
##35a92
##35a295
##3546a9
##db123
##9301
##9348
##9340
##9324
##93ed4
##9368c
##93777
##a917
##a98b
##a9f75
##a921a
##a9bc43
##ed46
##ed6c
##ed31
##edf7
##ed386
10b
10ee
10d7
1063
##3dd3
##3d5b0
##3d4dd
##3d785c
##3d6c73
##3d2cee54
11b
1178
11f0
1144
114f
11917
115902
11b1b3
##0c10
##0c8b
##0cd6b
##0ca1a
##0cea53a
1366
##fa5a
##fa682
##fae24
##faf568
##4139
##4188
##4131
##4152
##4119
##416596
##4142100
##57aa
##5791
##5761
##5721
##5749
##5779
##5729
##a9e19
54d
54e1
54c1
54d3e
##dba43
##dba8d
##2c40
##2c42d
##2c4b2c
##2c46905
##fbf6
##fbf5
##fba79
##fbce2
##ceee
##cef9
##ce16
##ce14
##cef3f
##9c69
##9c600
##9c60a
##9ca106
##5b6b
##5bc1e
##d642
##d6af
##d6b998
##d646130
##a4ed
##a4c2
##a481
##a4971
##a4a75
##a4d25
##a4924
##a4af72
##a4a5e1
##9601
##9692
##966c
##96e2
##9661
##9610
##9612
##9619
##96520
##96f20
##96e7e3
##962c46905
##aa71
##aadc1
##0001
##0000
##0068
##0098
##00e0
##0049
##0089
##00b97
##00688
##4600
##46b8
##4668
##4622
##46b2
##4615
##4681
##4689
##46353
##46953
##46a0ee
##467c34
##d2e7
##d2a84
##d267d
0841
0898
0886
088d
0890d
08e9e
53c
53af5
##3d3ab
##a4015f
31b
3179e
314532
31a4d25
##ac91
##ac97
##ac98a
##acd7d
##acdbe
##acf49
##b032
##b0d3e
##3971
##3988
##399f
##3989
##39a80
##3940d
##3988d8
##39d472
##b7a5
##b71b
##b7f507
##ecbc
##ec7d
##ec5cf
##ecfae
##ec8822
##b838
##b80c1
##b8ff30
##6201
##6297
##6231
##6259
##6299
##6219
##62309
##62db1
##6244f
##0841
##0839
##0871
##0890
##0861
##0850
##0870
##08fb7
##08a14
##da02
##daeca
##daa90
##da116
18b
1837
1849
1879
1863
1803
18c7
1882
1824
18a0c
##9101
##9196
##9100
##9118
##9171
##916c
##9121
##9169
47ed
47ec
47da
4737
4727
4792
4705
4738
4772
47e8
47ee
47e0
47bc
4728
47d3
47ae
47d4
477c
47ef
477b
47c7
470b
471f
47c0
47de5
47bcc9
##78d6
##7891
##7871
##7838
##7859
##7849
##78880
##78783
##7836a
##78aab0
##5439
##54d1
##5451
##54a1
##5421
##5470
##5489
##5405d
##54d24
##549810
##54f1d8
##4caf
##4c3bf
##1830
##18b2
##1870
##1879
##18312
##185409
##180f4d
##4891
##4838
##4851
##4899
##48a2d
##4805c
##68bc
##6819
##6829
##68d1b
##dc54f
##dc883
0025
002cc
0039b
00edea
##4246
##4239
##4238
##4272
##4259
##42f5a
##4228d
##3791
##3737
##3771
##3750
##3766
##3749
##377b
##3719
##37a0f
##376493
##2751
##2710
##2720
##27369
5862
588a
583cd1
##9731
##97f2
##97d2e
##974d1
##9779d
##97da116
##e718
##e7f7
##e71c
##e7faa
##e7cef
##e75799
##e7c408
##e7e458
ad72
ad9a
adf88
ad8893
010c
01f6
016493
02f
02b
02e518
022180
0227a4
03e
03c7
03eb1
03c61
##eb7d9
4001
403d
40a4
4096
4091
4068
40dc
4071
4056
404d
4043
40d8
4040
40a8
4066
40e0
4069
4074
40e3
4065
405e
409a
4024
40415
40a14
40a58
##57eb5
##57e280
##b0909
06433a
##a76c
##868e
##9201
##9288
##9250
##92bc
##92fb8
##924c7
##92da7
a488
##abf1
##abe0
##aba3
##ab65
##abd2b
##abc29
##abebc
##7139
##7170
##7179
##7109
##71bb4
##71f8fb
##563d
##5641
##5667
##56d3
##56ef
##5619
##562cd
##56a19
##5664ecf
##6c004
##6c4cf
##6cf5d
##6c38a
##6c1862
##4d715
##4d373
##4d90a
17b
179b
##8801
##8890
##8851
##882d
##88e625
26ea
26940
26521
26932
26391
26058
26310
26510
26610
26485
26461
26428
26421
26628
26688
26422
26711
26923
26627
26be0
26a9b7
##95d6
##9591
##95c2
##959d
##95a17
##95ab1
##95365
##0501
##05ed
##0539
##0531
##0552
##0530
##0550
##0519
##05005
##43fb
##4302
##4330
##43a1
##43a47
##4378c
##e246
##e2a69
##e2f82
##e26760
##e24b61
##9498
##944c0
##9409a
##02a9
##0248
##0231
##0230
##023c
##0229
##026a
##0289
##02ed7
##58ac
##5861
##58916
##58a3c
##586be
##f1adc
##f1d6a
##f1632c
##f1b0e7
##6401
##64f2
##64b3b
##64fb6
##6437c
##64b5f
##64573d3
2241
2257
2246
2218
2297
2292
2256
2251
2267
2221
22a3
2253
2217
229a
2281
2282
2286
2231d
22a6e
4b5
4ba9
4b41
4bd2
4b62
4ba1
4b21
4b9b
4b22
4b11
4ba6
4b10
4b20
4be9
4b3f
4bef
4b63
4b5e
4b9a
4b4f
4b25
4bc9
4bce8
2061
20e9
209b5
410c
4141
41e0
41c8
413a
41ae
4116
4114
416e
41ba
410b
417e
411f
413bf
##ca3fb
##d154
##d1f3
##d129
##d1e4b
##d179f
##9092
##9099
##9049
##909c7
##9808
##9851
##9832
##984e
##98fb7
##982c42
##de03
##de786
##defb62
42d
42d2
42f1
42e1
42f4
42fe
42e6
42a0
42f9
42d5
42d3
423f
4265
421c
420e
426e
424e
4280
421d
4285
45ed
45fa
4541
45ca
4598
45a0
4520
4509
453f
451c
45cd
45c0
25c
2502
25f2
2530
2533
2503
25c9
25958
25581
25358
25981
25681
25688
25972
25985
25911
25517
25582
25888
4801
482c
48a4
4896
4808
4818
48f1
4851
48ea
4807
48f2
48d8
48a8
48bb
4822
48bc
4810
4870
4816
486b
48be
4825
481b
48cf
48522
489b3
da23
da2d
daefd
dae1d
21c
2199
2133
214a
21abc29
##312c4
##3168
##3171
##3132
##3120
##3149
##312c6
##31aa8
2793
2736
2779
27028
27411
27781
279c4a
27db5a
463d
4657
46aa
4678
4654
4618
4694
4638
4659
46f7
46fe
465d
46ae
46d4
46bf
46df
467b
469d
4603
466d
4613
460b
461e
4677c
12626
12a3f
##38d6
##3800
##3802
##3821
##3810
##382c9
##38a1a
##384151
##383dd3
23b
2300
2338
2361
2360
2322
2323
2307a
token
##6141
##6191
##6171
##6169
##61a0d
##61412
##6107a
##61916
##515b
##5100
##5102
##5158
##5159
##5140
##51d9
##51572
##51ec9
4fb0
##ea6c
##eaf2
##eafa1
##ead4
##eada1
##ea0897
##d71e
##d71b78
##3239
##3208
##3252
##3260
##3259
##32ff
##32880
##323ef
86c3630
##7241
##7261
##7251
##7240
##7249
##7269
##7229
##7211b
##7296e4
##72ac12
##0759
##07611
##07f86
##f83b
##f8eb
##f866
##f809
##f8786
##f8fad6
##f8ee58
##5241
##5200
##5249
##525b2
##52275
##52a9f
##52d6a
44db
4457
444c
44dc
4495
4407
44e1
44f7
44f9
44b9
4404
4403
44b8f
4450e
43b
43a9
430c
43b8
4318
4337
43fc
4330
43fd
43f3
43af
436b
##fc68
##fc8e
##fc91b
##fc673
1508b
##f23d
##f2b7
##f250
##f2e0
##f217
##f2a4c
##f231c
##6771
##6733
##67b0bd
##e1dd
##e17d
##e1322
##e19241
##6088
##60806
##6069
##60ad
##604f
##60b2b
##57f5
##59aa33
##59bafd
##e811
##e8ac5b
##e8a53b
##3048
##30ec8f
##3097da116
##5001
##5090
##5072
##5040
##5049
##50ea8
##502ce6
##4791
##4790
##47dc9
##47e1a
##d8b8
##d8dd
##d8a8c
##d8129
##f73e
##f7325
##f7c2a
##f730fb
##f76c81
##f77c35
##f7f7558
e976244f
##4001
##4039
##4090
##4099
##403e
##9935
##9900
##99904
##99e1e
##99be59
3eaa
3e3b
3ebf
##3b68
##3bea3
##3b282
38c1
3832d
3859b
51f6
51ee
51f054
516b3
2827
2831
2872
2807
2821
2870
2845
2814
2824
28eb4c
##3668
##3690
##3659
##36e0f
##36052
##36789
##36fef
##3cdc
##3c3f
##3cd66
##3ca44
##3c9b63
##95d7d
4c8
4c5
4c93
4c3d
4c78
4c95
4c58
4c90
4cf2
4c67
4c50
4cfd
4c79
4cb9
4c75
4cdf
4c03
4c4f
4c25
4c0a
4c0b
4c0f
4c0d
4ccd
4c7f
4c007
dee7
##a8b7
##a8d7
##a81c
##a846f
##a86c7
##a836b
##a8f90c
##a85405d
3251
3267
3250
323d0
3258f
32d5f
3282e
##ebd0
##ebd6d
##ebede6
##eb549810
49ed
4996
49b8
49de
49a8
49f6
49b1
49d5
49a3
49e1f
##a1d6
##a1e7
##a1b1
##a1a17
##f661
##f6e06
##f60cd
##ee391
##ee079
##eef53
##f093
##f0d2
##f091
##f0e7
##f0d0b
##f0421
##f0b14
##f054c
##f041a
##f03af
##f001c
##d70c
##d757f
##d70f
##d75df
50ec
50b9
5032f
50350b
##3340
##3349
##33b08
##33415
##33486
##33a6e2
##3347e1a
##b1b1
##b135b
##b1a98f
##2159
##21ab1
##21e4f
##214f32
##f4ed
##f459
##f4e8
##f49d
##f4082
##f4e28
##f4f822
##f4e7f2
##bb5c
##bbc7
##bba5e
##bbdcd7
##bbf4e2
##bb62bb
##5c352
##5cd7d
##5cfb7
##5c42e
##5c11a6
305bf1
35f
f772
2496
24da
2456
2458
2499
24904
24722
24d234
##a26d
##a284
##a2a9b
##a2dcc
##a2eda
##a2a49
37b
37ac20
14e
14a4
14e6
14b4
##3471
##3402
##3451
##3459
##3499
##34ed4
##345af0
##fe3cd
##fe785
##fef2f
19b
1941
19b3
57c3
0730
0774
074045
##9b90
##9b68b
##fddd
##fd56f
##fd43b
##fd9063
##f52c
##f5e2
##f5ac4
##f5ce5
##f5ca5
##f52718
##66d8c
##2240
##2209
##1120
##11a69
##114d373
##fa1287d
##5dfb7
##5d96b
##5dd8d
##a7d50b
##f1d3
##e0e2
##e6a1
##e6e48
5296
529041
529700
52b36
52f60c
52fcbd
52dba43
0957
0943
09d8
##a696
##a69f
##a6b97
##a6430
##a6617
##a678e
##a6d42
##a6e86
##a6eae9
##a65c01
36d6
36ee
36af
##bcbb4
##a068
##a0ab65
56b4
##b245e
##77d
##7730
##fff69
##ff0250
##dd966
34f
##d092
##d047
##4439
##4407c
##447886
##44e8ac5b
##f3ed
##f3ca
##f30105
##f3375c
##f9b1
##f9a42
##f94c9
##2099
##20a6
29f
2901
29a43
290261
##a5316d
##2841
##2850
##28bc3
##49ee0
##49e53
##c128bc3
8837
8892
88d1
8840
883b
8820
88c8
88bd
88fb1
880c9
##c8c
##c8b
##c8b0a
##c86c9
98de
9830
##70fc1
##4bd64c
##4be5
##4b5e
##e591
##e5e10
##e5a926
##e5ed34
3330a
33a895
592c
##d535
##d590
##d55f
##d5380
1243d5b0
0009999
##4500
##4518
##4551
##45572c
##45f85e
##3ad5
##3ad28
##3a2cf
##69a8f
##74f
##7471
##e9d2
##e9ec4
##e990e
##762c5
4f5b
4f90
4f72
4f40
4fee
4ff0
4ad6
4aa4
4a07
4a21
4ae3
4ad9
4adf
1917
##12567
##e3b0
##ccfd8
##ccac0d8
##b6058
##b6b26b
##b6ee079
##b9dc
##b9a45
##b9d55f
92ab
9238
9266
92b2
9269
92bd
92a74
92436c
923c9b63
##af99e
##af31d
##aff0b7
4d0c
4dd6
4d78
4ddc
4d92
4d56
4d94
4df7
4df6
4df4
81fb
8196
8198
8160
8130
8147
81ee
81c2
81de3
##a3b821
4ece
4e9c
4e39
4ee2
4e90
4e32
4ef6
4e94f
4ea74
b82
b864
b8f8
b821
b822
b820
b876
b8e3
b853
b8bf
b84a
b8ab1
##d9422
##d99c7
a8a
a86c
a814
a82e
a85782
a8f135
a8b7e1
a8a4af72
##5500
##5551
##55d6f
##553c2b
##ae31
##ae571
##ae3d4
##ae517
##aeb89
##16f
##16f52
##c244
##c23915
9160
91a2
91704
##5331
##53ee
##5301e
8258
82a0
82d5
824a
82d48
##b4da1
##b49cc
##b4586
##d4f58
##3f3d9
##3f7899c
##bf54
##bfea2
##bf98b
9c93
9c4d
9cca
9cf8
9cc1
9c5e
9c0d
9c312
780770
78185409
b1b
b196
b142
b1f5
b15e
b17ef
b178e8
b1e75799
##7c5d
##3e934
##3e9ba
##3e3cb
a2b
a2e4
a294
a2d7
a2d0
a249
a29e
a26f
a26a
a25f
b25b
b2fc
b245
b2be
b2acc
##df78f
##6bedf
##6ba6eae9
##ef97a
80d
805b
8078
80a83
80a14
##19a
##19b87
##6341
##63ab
##63f6b
##63427
##63a80
bca4
bc52
bc76
bc7c
bc0d
bcc87
##9e9b2
9501
95e4
9597
95ea
953c
95eb
8c0
8c98
8c3c
8c0d
8c40d
8c48c2
##1439
##1440
##2990
##29ff52
##be9be
9678
964c
9697
969b
96f9
963d7
9641b7
96a17b
##bd462
##bde70
##0330
##03e13
##26bf
##26782
acfb
ac60
ac47
acf5
ac49d
ac212
a732
a740
a7ad
a6f3
a655
a691a
b0a
b0e4
b094
##0ee1d
##0e611e
00110
00116
00113
##6d970
97e0
9745
97c2
97d5380
b758
b7bb
b7c2
##bafb
##bae29
##17f
##17d
##1701
##9ab070
##b3fad
##b34cb
##b364573d3
abda
ab3a
25610
##6f647
##6fead
##6f07611
26211
26286
a1a4
a148
a1de
a107
a166
a1024
##9f6451
##4f714
##4ad8
##4af55
90b
9095
90f4
90af
9039e
87a9
8727
874d
8731
875c
87d86
bbb8
bb91
bb90
bbfd
bbdd
bbdb5
bbe4d6
##813
##81a
a0e8
a0fd
a0bf
a071f
##6a05e
##6a583
##2a64f
26811
26873
26882
9935
9993
99b8
99d3
9b27
9be2
9bad
9bd53
9baa7b
##13ed4
a42c
a45b
a4dc
a456
b661
b652
b63c
b6b4
b6fe5
b6e7a
b5a4
b5f1
b590
b5f2
b5a1
b5d1a
b5e15
aa33
aaf7f2
##0a380
##5a052
733fd56f
86a4
86bb
##5fc2c
##5f913
##24e1c
##0bd5a0
8ef1
8e61
8e345
8e90b
8b31
8b5d
8baf
8ba3
9308
9348
93f6
940c
945b
9451
f83
f8c
f854
f8cc
f87cf
##0df8
##0dfd4
##0dec5cf
855b
8518
8594
85d8
85d7
##7e02
##cb39b
##cbf5ac4
8dd6
8daa
8de2
##2331
9fdc
9f71
9ff1
9f07
9f47
9fd7
bf38
bf52
bff14
##2baf
##2b60b2b
baed
bab8
bade
bae3
ba0110
bafc8b
##cfebd
bda9
b9ad
8978
89487
89f223
9a54
9a38
9a3c
9af6
9af13
9a5b48
83db
8388
8f30
8ff001c
1c91b
1c21c
##cd99
840c
8400
84e3
84963
840c58
b4a9
b408
b443
b458
d5d1a2
c8c8
c8e49
c828d
a3b7
a3a1
a3a0
f03509
f078b3
be35
be5b
be39
be50
be9b2
aff6
affdf1
a501
a527
a502
a536
a53c1
a588d8
a5d8a4
a9b7
a905
a9d1
c2b2
##c6f4e28
71f8
71a0
71edf
##c9e147
9d5b
9d18
9d082
9d312
9d589b
ae35c
##2fdbfb
b30172
b3f7ca
c697
c6d4e
c62c4b2c
c6eafa1
9e00
9e07
9efb7
9e5cc
c73a
c732e1
c7cef3f
c7b1a98f
c7c8b0a
6c32
6c74
6c51e
6c6e05
72b8b
e86
e84
e8d
e8dd5
e830a2
67b1
67366
673405
67e66c
70ea
7038b
70b2d
ec62
ec11d
##866c
##86a8a
##86a03
e732
c196
c15758
c1225e
613c
61ad
6144a5
61a3b821
d8bc
63ceee
636cf5d
3c3642
3c214f32
cc6d
cc0b
ccaa3c
2c0c
2c64
2c6c7
2ca4d
2c66a
7cf7
7c9876
7c416596
4918
4919409a
8afa
8a57
8a68
8a52
8a59
497c
660c
66b65
779331
cb5b4b
cbf166
64bc8
64a6d42
d2e26
d233e
d264fb6
d2fd9063
2b31
2b59
4012
dc88
dc70
dc09
dca764
5c7831
5c37b9
5c62db1
fcb71
fc503
fc9f6451
4f8a
4fc8
4fc2
4fc4
278b22
f6bb5c
6030
609c52
604bd64c
f1b9
e0fa5
e09c2
e0d5f
e04435
e0962db
d1b0
d156
d14d9
d1dde7
1fda0
1f18e1
4375
76ac3
76bc4
76f6e6
##8ad658
0c02
0c36
0c41c
0cb74
0c71f8fb
0b371
e6d77
1bac
1be9
1bd3
4a46
4a4e8c
4e8b
4e894e7
4622
625b
6258
62a2b
d7e9
4387
438e
43833486
d0be37
4dbc
4427
4426
442b
##85985
##8568d
496b0a
496b6058
ebb8
eb52
ebf70
ebe7517
eb99904
6bfc
6bf809
d60c2
d6ce27
d65cda
4a99
44cc
4480
4e40
4e42
2486
e25b1f
e2e1b52
4d89
4d85
4274
4271
4fae
f2417
4d66
4d60
4d62
4a11
ff628
fff4e7f2
400b
4003b1
458f
4dcb
##8493c3
##84ae3d4
65d80
431e
e5a2
e533a6e2
##f1b47c
4390
4391
##78046b
##370b4586
3b22
733bd
7342f5a
0f51
0f007
0ff069
4688
4681
4579
457b
4573546a9
d4b7b
d4f1a7
6dacdbe
e9014
e99896
2468
d33862
d3ff0250
2703e9ba
4ac5
e4f6
2314
4462
432e
432bde70
7bd6c
4438
4430
443b
1461b086
7e5b
7e5071
##932d0
3A35
3A34
3A44
3A45
3A15
3A25
3A24
4d23
4d20
0916
0910
3a02b
3a67b
3a3b5
c3ca59
##0c5564
##000e1
##00032880
cdacb
cd449
4ce5
##928b8ff30
##08078
4b7a6617
##6411
2e5d96b
efdc
eff73
ed38
ed438
eddc1
##38099
8964
0d45572c
##90443
##904f205
caf1b47c
26318
745b2
74e733
7459aa33
fb4c
fb4d1
fba9bfe
fbfba79
8612
##369df
0008581
0008020
0008721
0008211
0008349
2479
2476
2470
6e5d02
4b8d
7f688
7f473
cf40
f9ac8
0aa9
0a0c5564
3ffcc
dbd2
dbf8
7978
ce93
ce64
##97636
##600f3
##8873e934
##218a
##2181
9077
##f4aa4
c0431
c0d257
d92c88d9
##644a5
##644ae571
6997
f5ff
f558cb
##f9d3c
4de6
0007989
0007670
c5981
c5faf568
##abc6e
151fc673
##918f7c2a
17886a03
##a000bd5a0
##010b8
##db234
4e72
##019788
1ef4
1e180f4d
2ff82
2f019788
##62e0191
##952f11f
##951f0d0b
4d16
4d15
4d1e
9584
##410ae
7d33
##4cd39d472
4a2d
##781d12
##78131a
2d5b
2428
5ad6
##358058
2397
2398
fd47
fd3d2
fdfd9
fd9c7
fd5c42e
45b6
45b0
45bc
##018a4
##f2dec
941b
c4a0
##f4401
##431986
4925
492f
0932cf0
4b02
##6c0b6
4a77
4a7c
4a72
##5b95b
352b7f507
##5c33df
##4889d
1a215
1aeeec
5f08b
5f51f3
7ae2
7afe5
##60b312
f4b70
2357
2355
2182
494e
##ea6d3f5
##a0de4ce
4f0a
9213
##989b74
4ebf
bf8be6c
##31e525b2
##ad9fd
##5969
##ed3e3f
0e66d8c
2382
4da2
4dab
4da1
##548f13
##f7e39
##a4b33
92811a69
##430d6
195f434b
40c6
##2cc4034
##436fe
##35c7c3
##edfd2a84
##d06f4
##d0653
##d06b9dc
5e00
801d
##f8b38
##fbf46
##e1cf5
938f
938ecfd
##dbc55e
##9713638
##6cf0128
4d70
4d7e
4d7b
##ede5b95b
##fa82c
##91296
878c9b
1673c4b
##a95ea
##421e28
##974fff69
0925
##2cdf76
##ed8b1b
##fbc882d
##fbcbba5e
##628109
301795ad
810f17c
##d23e41
##617e3ce
##511e8
fef5d5
##f2060
282f86c
##415ca
0029e9b2
2266c1862
##36e50
##e0b370
##d2fa9bb
972bbdcd7
##f7c18
8665
812e
##482e6
##272a6e86
##f1f94
##de032
##de0b4da1
165982c42
1124407c
##983e990e
ab71
##bb6db
##bb6960
621deb
9474
##01342
##4226b8
##d115827
##d11e26760
4f66
4f6f
##564a5
##5bc0f
##055fc79
##3ccff
##a7c4c
8775
a46c
a46abd1
2ad8
a372c1b
##0c2db1
##a75abe
##e2256
b223
b22a
##fb8aa
0009940
0009561
208b
83774f8
##a9c43
##382464
870e1b
##a4cb6
##789f8
8711
##a91ec
##da1604f
##05cdad
##e2667
##f2fed85
189e2a69
##fd0ad9fd
5d93
5dd1e4b
b6be
##925abebc
121ecfae
##ebe5cfb7
##93f93
##a4f64f
##f79ee
##f79fe
##9c8428
##9c865a
##b8336
##b8331c
##68da9
##68dfae4
0b19
0b1f38
0b16c004
0b136789
372b80c1
5715cf8
##e7727
35603e13
##a20fe
754b9ee5
01054f1d8
##606e1d
0006959
0006371
0006430
##01ee7727
##aa6f1bf2
##00aeb
##61cd4
##61c7c0
##a2896e7e3
4e28
4e2b
##4b4a7d50b
##aaf3c
596dbe1
721bd7
952e
##9ca5d
##46fe73
##72f37a0f
##5d0a1
##5d0e7f7
367a000bd5a0
858c
85899be59
62280137
622e7cef
933a
9494c3bf
##e79f231c
##e8a30ec8f
##f83f6
##711e5
##711e25
7906448
##57405
##5824f35
209933a
##fc7ad
b48f79fe
##a9f91296
##d164c
##07ef2dec
526db234
##073a4a5e1
##077ac
847a67
8475e05
##274a8
##32f88
08870fc1
##182f66
##18249ee0
##519ec
##5193584
##669dbc55e
976f
##fb0ae
##ac6a0ab65
##92b6733
615e5e10
##eae61aa
##3c82cfc5
##fd8304
##e44fd97
08260b312
##90318
##90343
335e5ed34
4caf
##a81c142
374fbf46
8275c08
84be
##40b18312
4dd33c
##9c9d767
31852d
##08e78aab0
##da2d9
##71d3c
706531
70636638
85171bb4
##f1e51
6774370
8889
888b
9704
970d99c7
b35c195
fde3224
##db767
##ed643
##783384
##18e608
##3dc9c
286db123
##eb3f6
##9b554
##9b5f0d
609b8331c
79326f
793ef917
93731aa8
ca8d11e26760
##54ced
##54c5360
##926f77c35
710421e28
ac15
05307f86
##ac9a2
##b0407f
##98794
##98cab
##47c6cc8
##ebc5c11a6
##f6e9326f
##9c6bb6960
44099e1e
##d81acd7d
955f0421
95364b5f
b12a
##3d6b4
##3d6aac0
313a678e
##ab24a
757ccfd8
##dae92da7
##4c8d7
##51bac3
##f8295a2
95441a
##383010b8
##e5a78
397424
397a9c43
##e47ac
##fa33894
##50ad2
611c51c
af5fb0ae
##41d40b4
0dc52d6a
751a5316d
##78f90343
78595d7d
8bcc
##61ee2
##3b698
##3b6ea36
659ebd6d
808f
808ac97
##a74ee
59892fb8
##96a0ac9a2
35337c
89546953
b21e
b21d8129
##b803f58
##37c77
##37c918
##37cb28
##71c93
1c8f054c
60157eb5
657d68
545f041a
##5c7f20
##5c7ca6b
##d9f5c33df
##58f48eb
##f1a07
##64a21
##d86b7
##d86f164
##a8d909c7
5c86bedf
6926f647
638aff0b7
638b8336
930369df
705119a
be73b97
##426b245e
##525ae90
##60a5d
795ed643
850388
850e1cf5
##fa0d1
##9c5077ac
##d7f96
78162309
768ec8822
8555
aa15fc2c
##9c2517f
450b364573d3
445a668
##f5a3ccff
##b4a3b
7723aa9
83533b08
839e7c408
##e2ba109
##bbc9e
##bbcf0ba
0008841
0008881
d3795ab1
##96caa
312a4f64f
025aeb89
##58457
057a1a17
06631678
066f60cd
##3336c38a
9863bf
##76ba3
876d88
b47d
b47e
b10e
ef66a583
580ed8b1b
814e3ee8
##165f5ce5
c015dfb7
c013e3cb
d2c8ad658
##b7aee
##a03fe3cd
4a6cd6bd
6939c60a
916d71b78
e57d
##e5796b
##dbdfa233
##dc23c
##5c9931
4ace5cd7d
1c145a
80478783
974b803f58
c776bd
052f2fed85
##4d0d8b8
##945333
073f87a
07752bc
##2289d
5283d6aac0
##763ea
##40d98f05
81935a92
819a9bc43
787a2eda
59519b87
cacc9e147
##a45d8ae
467382c9
##34a5df50
##34a7836a
900b7fe
bda001ee7727
##41bf3375c
81502ed7
dd863427
f88b
##915e1
047a284
5113d6b4
eb776ba3
##ecf48
##3340756
076e2f82
bbc511e8
##dca0c
##ad23f
531ccac0d8
##78a394
##98b326
6c2e47ac
763e5a78
c0cd9f5c33df
e0793b2
e16711e25
##c1c99
82229b00
82226227
be1d
##37435f4a
##973ea
##98f5b
##5163d6c73
0009360
49667296e4
d5796e2
e466a05e
##5c04226b8
##b2aecf48
f8afe0d1
1ecdaeca
e13e829
47c018a4
97c9
a88fa33894
d28d2fa9bb
bd41e733
e42fd43b
##d80b4b5e
3e4345af0
9d6b4baf
a4ffbce2
c609ca5d
##cb127
##01d54d24
##cc0e3
a5c2e6b1
a224
a3d4a2a9b
e723097da116
0008140
83a70d92
##9ca0f2d6
##612cdca0c
##ea5300aeb
##e8ed41
b0da9f75
6c6de712
ec6e983c
6c447dc9
9c1e
a11d
becbf98b
##98e5117
##282945333
924502ce6
b26695365
##7a27e4e
d6e2fa5a
##b2505cdad
##e7556d3
##56b9f7c18
2606ede5b95b
0009260
0007730
1a197d2e
1a1d757f
d77f62
b66a
##67fd267d
##09f482e6
416b9c865a
0010149
3f6aadc1
3f6b49cc
ed848a2d
0007141
76cb6ee079
a17d
a17a8f90c
3e9abc6e
4d67918f7c2a
1a9b4a3b
4e20f1fb
9b155a
cd8763ea
##517f42f9
##bc6e6
0009720
0009091
0009069
0fc93777
74b000e1
c4bac406
8cb61a9
8cb4c8d7
0e0669dbc55e
b394b4a7d50b
bb65815
fae95a17
58b5c7ca6b
3e14378c
73c4142100
8adfd4f3
fe1bc6e6
##4c7a31
0008330
2dfeb62
a7ba1bb
a35d9718
e1c7540
e1c41bf3375c
##46fccec
##3827720d
36ffc7ad
a8b68bc
b7e9c9d767
63f59e31
7a100688
7a15c04226b8
aaafa82c
c5b78880
c5b928b8ff30
5147a782
34de5796b
a18a2a49
backing
bac45f85e
ce098e5117
d9cd0d32
d4251ec9
e56ae30
##0cb4b068
##58774e
89e8d23e41
6ee29763
0e7b6168
1b5312c6
e923f3d9
e920dfd4
f649bbf4e2
4217eed8
##ea6217
3211728d
b7a337cb28
1d65f913
1d690318
3c8926f77c35
7aaa6430
7f1f03af
7f1cfebd
73ffa0d1
73925c34
9a83d4dd
9d16515b
a9c7ae517
c449d1e3
d4c282945333
ad8c6f4e28
07caa1d
0008590
662c3d2cee54
77a4e7ce
2a2a8e1
b0816f52
d17e9ec4
ad0e24b61
##6100ec81
bc7073a4a5e1
876c32ff
1e8600f3
72cac6a0ab65
9e64889d
ab16c4cf
b3dd4f58
babd8a8c
b324c62
bfde7faa
bfdf4aa4
cb06f07611
c879ca106
d8193f93
ef112567
##41094cf6
##fb627201
4b14228d
4135eb549810
07ba81c142
2277b28b
0ef617e3ce
0ef96a0ac9a2
2e09b554
5e0f9d3c
6a985985
8f6789f8
a4cf1272
a56932d0
afc3988d8
ab2ea5300aeb
ba8b0909
de43940d
efa36052
f57ca3fb
f089368c
##4690aa
4972f730fb
1a74d715
5dc86a8a
6dca86c7
6e847c6cc8
6fe9713638
83bdde2
96cb089
9a17d1f3
e7157e280
ea160a5d
fe4bb62bb
f960dec5cf
f36ebc5c11a6
fe0fef2f
##010198
##86886d970
48d754fb
4df3e4ef
1d1eada1
1bb54ced
2dc8190a
5e4b135b
8d805005
9fb26782
a3537c77
a683b698
af06fead
b75fc91b
b569f9a42
cd098f5b
d0c63a80
e90274a8
ff7962c46905
##b48a91ec
##01055848
da0b5a1
46f43d785c
44cef58c
0006659
4ddad6b998
b19e2667
aae24ad8
2b1a836b
2cc5664ecf
2cf353e1
3cc71c93
5ce21e4f
5e5ed336
7ededab
7e02cd20
7b558a3c
9b3a6b97
a3d08a14
a304cd39d472
a6b9779d
a9d54bea
bf2bbc9e
ba29c6bb6960
b7ba74ee
b9e64b3b
c08cc0e3
c56974d1
d35abd2b
da9af31d
e029b5f0d
f4ca95ea
fc839a80
13bf79ee
58b751d9
4c6e46d
98c69a8f
98b64b9
##d3ca2cd8
f89fae24
0d24f714
1eeb0d3e
2aab9a45
3a8f8ee58
3b255d6f
6ca612cdca0c
8b046fe73
9b072ac12
a98240d98f05
b416cf0128
b0c2f5a3ccff
cfb96f20
cea1e78
c5f61412
c68601cef
d5b562cd
d08a7c4c
d91a2896e7e3
d473bea3
dd067715
d12b722
efb7211b
e082b60b2b
ef23cd66
ea0447886
e190292
e2ae8a30ec8f
e0ad06f4
##0c3c0641
1817376493
1815f76c81
##71663c1
17c32aa2
##3fbc56ef
28a5c4a
3281f96e
49bcaa6b
##ee9ad03a
##28aa4971
92e9a49b
b1fa9e19
95ae64e4
ac4af99e
a137806
9be12a64f
4913a8d7
5c6ff6e9326f
4d82383dd3
4567f09e
4e77a2dcc
0aa71d3c
1a2430d6
1a0f8295a2
1ad46a0ee
1a34805c
1938b6b26b
2faf0b14
3abcb39b
3a2d179f
3c9e2e0
5d2ee391
6dbf078
7a6ff07
82c24708
8d0988f4
9abd5f43
9d4a76a
999ea402
afab2505cdad
a20b0d6
bfa84ae3d4
b3801318
b073f4c
ba1a4a75
c2036e0f
cb4b8498
c13f4082
d5c68d1b
d6d32f88
e9986886d970
ecf382464
fa8606e1d
f66de032
f22410ae
fa0369f
fc3e42ce6
05f43a47
##35cad6a
##938aa4b33
##a97769
##ce8244a
##00b14ace
##48e0f1d3
##56373bf1
##58589c4
4261bae29
487678f90343
##31f2906f
12bf2060
##eafa611
##07780c4
##fc18cd99
07f711e5
##b07c7c5d
0992951f0d0b
36e60da1
81dc272a6e86
b86323ef
9140ae2c
85a97e02
84ec868e
dcb63ffa
6b91a6f2
4a79d9422
0b45d0a1
1f7d7f96
2f6ea0897
5021b48a91ec
6edcbf5ac4
6df9c600
7e813741
8a693ed4
8d9e2ba109
8d1a937b
9ad08078
9ae93da
9bbcfbf9
b610e5a926
be4a31e525b2
cff3ad28
c3f61a0d
ed9db767
f343d3ab
0527eb21
##d6b278a
##a43dd53
##aad7f5
##184296c
##e70f78e
ad9f7325
##e22b188
41d08e78aab0
##38ce68735
##3854b09
##3817ac
23a2a1d6
##67fa06
##e8bcc097
##5091d20
##40a476b
516cdbdfa233
##f497af6c
35d0ca1a
##a25b0d
57be2256
##f55b3fb7
##e9a5a2a
b8a938aa4b33
91ba20fe
782190fa
b1b697f2
68ff01d54d24
80b966c
96a660806
9799bcc9
a1e3eb7d9
b5fffa17
8eceb862
94b063f6b
bfd649e53
b3617459
e8b50ad2
560407ef2dec
9d863827720d
0ac8c244
0abbfab5
0d77426b245e
1cf5163d6c73
1564a4924
2f749c5077ac
2aaa3d62
3ddd0653
5abc983e990e
5f8be2e7
5fb5d647f
5721a8d909c7
5fb26bd3
67a6c46
7a60d81acd7d
7a5a3b1a
8f172cdf76
8406fbf5
8d65de0b4da1
9aa13ed4
9ad9f1b0e7
a35838a1a
a971b7a5
a90740b18312
bac07976
bbb5a052
b0824cc6
b509a03fe3cd
ba4cd7db
cede19241
cd36437c
c53a921a
c216d6af
dcc59bafd
db29ead4
d56618e1
e9e586be
fdbc28aa4971
##35b9ed4
11de9105
##fae7bb5
##fae2984e
08d50ea8
08e3b6ea36
55073360
##ac59139
##7817fb
0076ed3e3f
##9737c8
01dc0c3c0641
038a3a2cf
##a720d047
26aad71e
##05a19670
##e2eb2ce2
##07ddaaa
##5285d222
15f1fc18cd99
4c796caa
35dd09b7
0762dd966
887140b4
98aa781d12
82b034a5df50
9c4ab24a
a246ab96
##ba5be7
ab92032c
ab430290
a1aea6d3f5
bbff9170
999294db
8b392fdbfb
9fecdae92da7
bdd65c08
c89626bf
a3276100ec81
6cb89589
e79584ce
61c19aff
773c93c1
fc73eae7
604c31328
3ba0d3ca2cd8
3bd9e79f231c
0d3ddf30
0dfef55b3fb7
74adf171
db91aa6f1bf2
79fc63ab
dda448f8
042b0cb4b068
18435eef53
8289a66c
931fee5b
e88978f4
0ee518249ee0
29c7f8eb
2eee0c14
301809f482e6
3567a1b1
3dc8a5ed
5db141094cf6
5bbc05a19670
62bd646130
65b0383010b8
6eb90161
8fc86ba6eae9
99bea9f91296
ae1b317d
a07d2bb2
bb8e8828
c5b47104
c46df52718
c27d78131a
cf81a26d
d20b3fad
ddbf48e0f1d3
db10b2aecf48
dd13a76d
e053b8bb
e3149ca0f2d6
facc1c99
ff2d9c52
f9c736bc
fe14dc54f
fe7fd75df
##a965dc48
##3d01418
112fea6c
##0ccd32e
1316b1ac
545a517f42f9
##aad21e
53782ae0
551337435f4a
31d09752
ad738ce68735
017144e8ac5b
0342d80b4b5e
03ea3121
031f61af
06d3abe0
26e38099
26a4866c
20e8a225
41f56b9f7c18
45a18868
25d9b1d1
25050406
##617fe486
##ea2ffe6
##60369a
##d8925799
##99086bd
51c9b17c
dee63950
32b5a42d
32b400b14ace
50dd4af55
50650ced
##5c61d4
24ebf497af6c
37d6f6e06
077536fef
##e6924e8
09e300032880
3445370b4586
9816fd0ad9fd
98df67fd267d
334c602c
b8ab3344
##3e3864a
6817e6e48
80a64a21
##0ee2a14
9707683d
bbce34a7836a
bbd83449
8df066eb
1c998cab
6c353e39
e8e8617fe486
e8d335757
cc323773
2cd84978
64080df8
2bad1871
5cf772f37a0f
0c0b9b90
d749ad90
ff42d63d
e5e801055848
e5ff51bac3
cd08e2eb2ce2
ef9105c6c
ca786327
fb56ee9ad03a
f9f757ae
db4cafae7bb5
2dd62fbb
1a35165f5ce5
7a3a5285d222
6aa44908
c9a9abd7
34e60e72
0d7d46353
0379ebe5cfb7
0d70f250
0de849f6
068fe8bcc097
09bcd4a1
0ed07ce8244a
0f03f966
1ab4e8a53b
1a2f2740
1fae9060
1a2e974fff69
1e59291b
2dbad8ae
240a35a295
2aa6387d
2eb25c352
2d3cae9a5a2a
29bc7ce7
335135f1
30c8deac
3a045bc1e
4f70c33a
5bbb2c3908
5a26e1322
5b0d31f2906f
667068ae
6382ff6c
699eeadf
6d5d1a98
6ec01391
662f3837c918
7b29f442
8081bfea2
8eadedfd2a84
8b90041d40b4
ae7c1466
a9bda965dc48
a365e849
bcc3a65c01
bc2be17d
b7bfc49737c8
ba62cdc883
b37080ca
c00498e9
ce7c3ad5
c922a720d047
caba644ae571
ce8284d3
cb63aa35
ca9bb28e
c41dcc7d
c2c49053
da953fbc56ef
d5bb91b5
df6900b97
daa0b59d
d79aeb1c
dcecd783
d3d52bbcf0ba
d406900e0
dca102cb
d30340a97769
e0c5fae2984e
ef2a3336c38a
e084d268
e3c7467c34
eda12c35
ebbbb74f
e506fbcbba5e
e2158873e934
ea729c9d
edc5946fccec
e0f950ee2a14
e9680f1d6a
e3112d7d
e05d7005
e9160569
fcec052a
f0ce925abebc
f18eac57
f78be422
f64e0c2db1
ff663c82cfc5
f1175234
fd9ffb627201
fa1af83b
f0f4d573
05ca571c
##2c6414c
##2ca2541
1651109ab070
10eea920
119173854b09
11590228
11b1b347
##0cd6b93
1366b07c7c5d
54d3eaba
##96520f8d
0890d2c6414c
08e9ef7a
53af5525ae90
3179e54e
31453286
31a4d25f2a4c
##daa90a2
18a0c3340756
47de5daa90a2
47bcc9e7
002ccbb3
0039b5824f35
00edea182f66
##27369f7
583cd178a394
adf883d4
ad889385
0164936f
02e51865
022180384151
0227a40d
03eb1f1f
03c617a27e4e
40415055fc79
40a14510
40a58aa8
06433a783384
##924c738
##56a19ef
179ba9f8
26ea56373bf1
26be0a43dd53
26a9b774
2231dac3
22a6e34b
4bce83c9
209b5ea2ffe6
413bf977
25f238d6
48522a91
489b339b
da2dd8925799
daefd58589c4
dae1df94c9
214a93e6
21abc29f1adc
279c4a3b
27db5add
4677c3d01418
12626ac59139
12a3feafa611
2307a62e0191
##5157259
86c36306c4cd
##52275de
44b8f911
4450e54c5360
1508bf7f7558
38c1cadf
3832da9b
3859b45a
51eedbb1
51f054a25b0d
516b32cc4034
28eb4c8493c3
4c007008
323d040a476b
3258f952f11f
32d5f56a19ef
3282e68dfae4
49e1f94b
5032f54d
50350b31
305bf129ff52
24d2349c8428
37ac20fd8304
##fe78507
19b396520f8d
07404558774e
##9b68b0c
##f5ca5ea
##5dd8d98
529041d6
52970052
52b36a0de4ce
52f60c7a
52fcbd989b74
52dba438568d
56b47218
29a43184296c
29026197
88fb192b6733
880c9951
##c86c935
3330a3347e1a
33a8953817ac
92a74b8a
92436cb0407f
81de3e70f78e
4e94fe72
4ea7471663c1
b8ab19c3
a85782ba5be7
a8f135ebede6
a8b7e125
a8a4af72b998
9170472a
82d4864f
9c312f1c
7807706f
b17efd115827
b178e8b5
b2accb0d
80a83a40
80a14e43
bcc87c86c935
8c40d43e
8c48c2ff
963d7936
9641b7f30105
96a17ba4
ac49d545
ac2125193584
a691ad77
97d538035470
a102407780c4
9039e573
87d8618c
bbdb55157259
bbe4d6628109
a071f889
9bd53b82
9baa7b35c7c3
b6fe5a95
b6e7a276
b5d1a542
b5e153d6
aaf7f2b8
8e345a45d8ae
8e90b3c3
f87cfec2
bff14f87
ba011060369a
bafc8b39
89487920
89f223ea
9af132ca2541
9a5b48c0
8ff001ca4cb6
1c91bda5
1c21c511
8496360e
840c58010198
d5d1a2b9
c8e4927369f7
c828d07ddaaa
f03509f3
f078b3f4f822
be9b2e55
affdf142
a53c1eae61aa
a588d8ea6217
a5d8a4defb62
71edf51c
9d08264e
9d31235b9ed4
9d589b4d
ae35c183
b301726d
b3f7ca35
c6d4eab2
c6eafa1cb127
9efb7e9e
9e5cc081
c732e1a5
c7cef3f36e50
c7c8b0a52a9f
6c51e887
6c6e05f8fad6
72b8b357
e8dd5465
e830a288e625
67366d06b9dc
673405e0b370
67e66c60
7038b5d0e7f7
70b2d924c738
ec11d788
c15758af
c1225efd
6144a555
63ceee7817fb
636cf5df1f94
3c364278046b
3c214f323d81
ccaa3cc23915
2c6c799086bd
2ca4d0cea53a
2c66a35b
7c98765b
66b65e4d
77933139
cb5b4b58
cbf166a75abe
64bc8645
64a6d4261ee2
d2e2652275de
d233e5091d20
d264fb63b282
dca764ae
5c78315e
5c37b9da
5c62db1d86b7
fcb71b25
fc503fdd
278b224a
f6bb5c463c50
609c52da
e0fa5d6b278a
e09c236e
e0d5fda1604f
e04435fa
e0962dbfb8aa
d14d94d0d8b8
d1dde701
1fda060b
1f18e1f7
76ac3fa1287d
76bc4fbc882d
76f6e65e
0c41ce44fd97
0cb745dd8d98
0b3719b68b0c
e6d77c128bc3
4a4e8c548f13
4e894e7f4401
62a2bf5ca5ea
d0be3718e608
496b0a67fa06
ebf70ec5
ebe7517ef97a
eb99904564a5
6bf809aad7f5
d60c2e7556d3
d6ce275c61d4
d65cda0e611e
e25b1f431986
e2e1b5268671
f24179c2517f
ff6284d1
fff4e7f26cfc
4003b1e8ed41
65d8035cad6a
733bd371
7342f5ade786
0f007964
0ff069f3
4573546a9680
d4b7be2d
d4f1a7e9
6dacdbe02069
e901497e
e99896b9d55f
d3386267b0bd
7bd6c114d373
7e507161c7c0
3a02bd86f164
3a67bfe78507
3a3b5f8f
c3ca594c
cdacba2f
cd449d63
2e5d96bacf49
eff734cc
ed438e6924e8
eddc1da1
0d45572c1cf7
caf1b47cbc9e
745b249e
74e73305
fb4d13e3864a
fba9bfe519ec
fbfba79944c0
6e5d02e1
7f68896e
7f473e22b188
f9ac858f48eb
3ffcc3f7899c
c04314d8
c0d257d9
d92c88d99878
f558cbf1632c
c5981f5e
2ff82f25
2f019788db0e
fd3d2a85405d
fdfd9fa7
fd9c70cd6b93
fd5c42eac98a
0932cf0915e1
352b7f507028
1a215936
1aeeecbf
5f08b904f205
5f51f3a1
7afe50ccd32e
f4b700c0
bf8be6cf1a07
0e66d8c312c4
938ecfdd164c
878c9b553c2b
1673c4b436fe
810f17c2289d
fef5d54690aa
282f86c3c618
0029e9b2a439
2266c186266d
972bbdcd727b
165982c42434
621deb4c7a31
a46abd12c3bd
a372c1beb3f6
83774f8dc23c
870e1bd0
5dd1e4b90443
0b1f3863
0b16c004933c
372b80c14c16
5715cf8b34cb
35603e13ff98
01054f1d8b9a
596dbe1b7aee
721bd7f8
85899be5997d
622801372baf
79064480a380
209933adba8d
847a6705
8475e05f8b38
08260b31201e
335e5ed34455
8275c0898fb7
4dd33caad21e
31852d3a
706531b1
6774370be9be
970d99c7d73c
b35c19598794
fde3224f7e39
609b8331c944
79326f9b
710421e28ecb
05307f865b06
44099e1ece9a
95441aa4015f
3974245c9931
611c51cf1e51
751a5316de47
808ac97aaf3c
59892fb82c40
35337c358058
89546953a7d4
657d686a
5c86bedff491
6926f64744f3
638aff0b7d27
705119a644a5
be73b9721ab1
85038898b326
768ec8822944
445a668da2d9
7723aa9a0e3d
83533b08b3f5
839e7c40826a
d3795ab155f8
312a4f64fdab
9863bfeb
876d8866
580ed8b1bede
c015dfb7439c
d2c8ad658d64
916d71b7892d
4ace5cd7d513
1c145ad0
80478783a8b7
974b803f586e
c776bd5c7f20
052f2fed8592
073f87a08fb7
07752bcbd462
5283d6aac066
819a9bc43e20
787a2eda2196
cacc9e147953
467382c9fa3a
900b7fe6c0b6
047a28443420
531ccac0d86f
e0793b268da9
e16711e2535f
82229b009324
49667296e456
d5796e23dc9c
e13e829ad23f
a88fa33894b4
d28d2fa9bbaf
3e4345af00c5
a4ffbce2b70a
a3d4a2a9be2d
6c447dc9fbcd
924502ce6fb1
b26695365a44
d77f62b4
416b9c865af4
76cb6ee079d9
a17a8f90cec1
9b155ae7e458
0fc9377736d8
8cb61a95bc0f
bb658153ca44
fae95a17e6f8
58b5c7ca6b2c
73c414210082
2dfeb62464a5
a7ba1bb97636
e1c7540973ea
a8b68bc762c5
b7e9c9d76738
7a100688ceba
34de5796b31e
a18a2a49a94b
bac45f85e952
ce098e5117e7
e56ae3057405
89e8d23e41ae
1b5312c6973f
e923f3d9e7a5
e920dfd42ccb
f649bbf4e260
4217eed84be5
b7a337cb28ff
7aaa6430403c
7f1cfebd94e7
9a83d4dd3af2
a9c7ae517b9a
ad8c6f4e28bd
07caa1d33415
77a4e7ce3894
2a2a8e1a846f
ad0e24b61b65
876c32ff9310
babd8a8c20a6
b324c62f83f6
cb06f0761143
c879ca10697a
4b14228d4c0d
07ba81c142b3
0ef617e3ce12
a4cf127260ad
afc3988d87ef
de43940d30d3
f089368cd160
4972f730fbef
5dc86a8a66da
6dca86c7a42d
6e847c6cc820
6fe971363824
83bdde25d9fb
96cb089fa682
e7157e280e20
fe4bb62bb25f
f960dec5cf4d
5e4b135be753
b569f9a424bd
d0c63a80e4ab
da0b5a161cd4
46f43d785c29
4ddad6b99842
2cc5664ecf67
7ededab5301e
7e02cd20aba3
a3d08a149183
a9d54bea1c05
d35abd2bd092
e029b5f0d982
4c6e46d34ed4
98c69a8f37d7
98b64b94d90a
f89fae24d69b
3a8f8ee58e55
3b255d6f6c8e
8b046fe73a77
9b072ac125b9
b416cf0128aa
cea1e78bb6db
c68601cefda8
dd067715db20
d12b722df78f
e082b60b2b01
ef23cd66e123
ea0447886e6a
e19029224e1c
1817376493c6
1815f76c81e1
28a5c4aed386
b1fa9e1946b8
ac4af99ef1f2
a137806f8786
9be12a64f075
4d82383dd3aa
4e77a2dccf53
1a0f8295a288
1ad46a0eeea2
1938b6b26b3b
3c9e2e061916
6dbf07801342
7a6ff070ee1d
9d4a76a58457
a20b0d6bcbb4
bfa84ae3d496
b38013184458
b073f4c6107a
ecf38246437f
fa8606e1d9b9
fa0369f415ca
fc3e42ce650f
4261bae29428
36e60da141b5
6b91a6f202ea
4a79d9422bb9
2f6ea089722f
6edcbf5ac4e8
6df9c6004faf
8a693ed4e26c
8d9e2ba109d2
9ae93dabbf53
b610e5a92695
cff3ad2853ee
f343d3abfa7b
80b966c93bb3
96a660806a49
a1e3eb7d9d22
94b063f6b687
bfd649e53aba
1564a4924a86
5fb5d647fa99
67a6c462c42d
7a5a3b1a33ad
8f172cdf7690
9ad9f1b0e7a6
a35838a1a309
bac079760244
bbb5a052ab1b
ba4cd7db361f
cede192416ba
cd36437c68c0
dcc59bafd915
08e3b6ea369f
0076ed3e3f51
038a3a2cf5c9
0762dd966e0f
98aa781d12fb
a246ab96d0ac
a1aea6d3f507
8b392fdbfbd5
604c31328fc7
18435eef5347
3567a1b1dc14
62bd646130b2
bb8e8828d078
c46df527181d
c27d78131af8
dd13a76d9649
e053b8bb218a
f9c736bc54d1
fe14dc54f930
fe7fd75df962
031f61af9764
50dd4af55521
37d6f6e06a04
077536fef54f
6817e6e485df
e8d335757abf
e5ff51bac3e2
ef9105c6c97a
0d7d46353428
1ab4e8a53b53
240a35a29595
2eb25c3522c9
3a045bc1e387
5bbb2c3908bd
5a26e1322dc8
8081bfea235c
bcc3a65c01cd
bc2be17dacf6
ba62cdc883ec
df6900b97357
d406900e0ea8
e3c7467c344c
e9680f1d6a64
f64e0c2db1d0
dae1df94c9d5
02c
03d
0f1
0f5
0bc
0d3
0bf
0cb
0940
0938
0971
0b14
1e4
1aa
1b7
14d
1f1
1fc
1fe
1df
1c7
1cb
1932
1011
1970
1949
1958
1d7d
1f1e
2868
2ab
2ea
2fd
2dd
2f9
2b6
2b9
2bf
2b3
2370
2418
2392
2387
2d7e
30c
3e8
3bb
35c
3d0
3af
3a3
3d3
3d9
3b4
3b3
3670
3e26
4ab
44c5
4f7
4e6
4ff
4940
40c5
4f17
42cb
4aa7
4a8a
4d7d
4ee0
4f20
4d5e
4e0a
4ee9
4aba
4abe
43dc
4eaf
4f15
499b
43d7
4f77
4d09
4f19
4abd
50c
5aa
5fe
5a6
5f9
5c2
5bf
5df
5bd
5cf
5f87
5075
5081
65b
6a4
6ac
64d
6eb
6a2
6e6
6a5
6e5
6af
69d
60e
6c7
6ba
66f
65a
61b
60f
61f
61a
6720
6711
634b
6dcb
7a7
7ca
7f2
7f6
7ee
7bb
7a0
7dd
73a
7b6
7af
7d3
79e
7c5
77a
7c3
7c9
7f17
7e45
89c
8a4
8aa
8d2
8ec
8f0c
8e2
8f2
8ee
8bb
8f3
8b5
8af
84a
8320
8391
8051
8431
807c
8088
8485
8d7d
8880
8461
8ac8
8f8b
827b
8947
8567
8e3f
807f
84c6
8972
8d6b
8002
8da1
8e76
83da
89c8
8b9f
899e
8e0a
8f04
8a2b
8b2d
8cc3
84d8
8e29
83b6
80cb
891b
872b
8d7e
8fa0
8dcb
8f81
8b16
8b28
8b65
8003
8eef
84c3
8fcb
85c0
89bd
8b6b
8c2e
9a9
9fa
9dc
9ac0
9f1
9ca
9d71
9b2
9d0
9f9
96b
90e
9a47
9390
9980
9a69
997c
9371
9a89
9309
9880
9029
9328
927b
9008
9b4e
9f20
9d2f
9f7c
9379
946d
940a
9d65
9e22
9f7f
9789
9689
9f84
910f
9e76
9ebe
9377
9d19
9aac
9b71
94c4
9d28
9053
92cf
9783
959b
93d6
96c3
9e5a
9bc2
9b75
9ead
9bc8
9f1a
9ed2
93df
9e2b
9abf
95c9
9b7c
9aa5
9a4e
95c0
9eb4
99cd
9dd9
aed5
aac0
af0c
abb0
a4d
a61
a3c
af6
aff
a44
af3
ab9
a75
aae
ac2
ab3
a0c5
a000
a928
a980
a609
a387
a510
a326
a088
a670
af4b
a2c8
a969
a967
a686
a345
a69e
a059
a512
a275
a95e
aa28
a0c3
af26
aed7
afcc
a3c6
af23
aa5e
ac14
af86
a9cc
a3c8
aaaa
aa81
a977
af24
aac9
a277
aea5
ae47
ad6c
ae28
aed2
ab15
a08b
a49a
a4ca
a712
a27a
ae6e
ab16
acc5
a00d
a9cf
ab12
a10e
a915
ab4f
ab2a
a90e
a714
a7b3
a35a
a44e
bdb
b9c
ba4
b97
bb09
b02
b60
bf6
b34
b9b
bf5
b79
bd3
bae
b53
bbf
b6a
b887
babc
b719
b4cd
b6c0
b07c
b785
b319
ba89
bf4e
bfac
b5b5
bfbc
b511
b480
be6f
b934
b398
b54e
bf7f
bfb5
b2c5
b34f
bbbb
bb9f
bdb1
b389
b5b7
b72f
bfd3
be8a
bb87
ba44
baa0
bea2
bc14
b274
b616
b504
b6cc
bd1d
bd12
b210
b926
ba98
b91a
b6c3
b4c8
bb72
b5bd
bda8
b61e
be1a
bebf
b58f
bee6
be2b
b96c
b725
be83
be9e
b5c5
b0c8
bd5a
b3cb
b20a
bb7e
bd1c
bb24
b91d
bcea
bb8a
ba19
b523
b57d
b753
c57
ca4
c96
c91
c97
c05
ce2
c02
c64
con
cd1
c38
c67
c99
c3b
c3c
c33
c9b
cfd
c66
c5d
ce6
ca0
cd5
c3a
cb5
cb6
c75
cae
c7c
c73
c9a
c4a
c82
c7a
c1b
c0b
c1a
db7
dda
df1
d30
df6
df0
db1
df4
dbb
d5d
d3a
dc2
d1c
d73
dbd
dba
d9a
dc5
d6a
d24
d86
d414
dd5e
de41
d96d
eed
eaa
eb0
e39
e95
e67
ef7
e40
e36
eeb
e21
e5c
e34
efe
e9b
ef5
ef9
e3a
eb5
e9d
e6e
e4f
e82
e24
e89
ed7c
f00
fb7
fb8
f48
f92
fab
f71
fe2
f52
ffe
f5d
fa5
f04
f9e
f14
f9f
f25
f80
f2f
f1a
ffa8
fe81
f214
is
pa
qem
se
##34c
##701
##9080
##631
##a3d
##a88
##a50
##ad0
##ae5
##5e5
##f96
##f64
##f67
##feb
##450
##4e0
##de4
##d05
##dd1
##eed
##e00
##e78
##e18
##e98
##e07
##e3b
##e9b
##lf
##lid
##0162
##01d1
##0121
##018c
05d
##2cd2
##2c9b
##2cb9
##2c03
##2c2e
16e
##e49c
##e446
##e447
##e4f4
##e426
##3579
##dbd6
##db99
##dbeb
##db76
##9362
##9368
##9392
##9372
##93f2
##93ad
##9329
##93bd
##930a
##9389
##a961
##a95d
##a96b
##a980
##edfb
##ed8e
10c
105b
1039
1027
1002
10b5
1065
##3dec
##3d59
##3d70
##3dc2
##3dc6
11d
11fc
11c1
##0c35
##0cf1
##0c31
##0ceb
##0cad
##0ce3
138c
##fa0c
##faca
##fa40
##fa25
##414d
##4194
##4138
##4161
##4172
##41f5
##4128
##4169
##4189
##570c
##5757
##5768
##5702
##5772
##5734
##577a
##571e
##a9e7
##a9e8
5471
5445
##e4c2
##dba4
##2c48
##fbe4
##fb61
##fbbc
##ce57
##ce18
##ceeb
##cec6
##9c28
##9cb5
##9c1d
##5b92
##5b11
##5b12
##d660
##d606
##d62b
##d6c0
##d68e
##a42f
##9694
##9698
##9609
##9689
##aab1
##aadf
##0097
##0051
##0052
##0060
##0022
##4601
##4693
##469c
##4631
##4611
##d211
0891
0868
0871
0895
0887
0883
53b
53f7
##c2c9
25728
##ac98
##b05b
##b044
##b028
##9312
2006
2002
##3991
##3997
##39fc
##39b1
##3979
##394e
##3981
##b7e2
##b767
##b7c2
##ece4
##ec4c
##ec58
##ec40
##eca1
##ec22
##ec2d
##ec2e
##b8b2
##b8cc
##62d6
##6200
##62ab
##6290
##6209
##086c
##0888
##0831
##0867
##08e5
##da57
##da07
##dae1
##da60
##da74
##da12
##dab9
##da7b
##da7a
1835
1800
1843
1802
1838
1861
1850
1822
1876
1875
1881
1883
##9195
##9110
##9163
47b
47db
4793
47ce
4700
4754
47a7
476c
4730
47e6
47ff
47c8
479f
4780
470f
470d
47cb
4783
478e
4784
##783d
##7841
##7808
##7861
##7851
##78f2
##78e9
##5491
##5442
##5472
##5483
##4cd0
##4cbf
##1800
##1890
##1851
##1880
##4839
##4861
##4832
##4869
##6839
##6808
##6898
##6861
##6860
##6899
##68a1
##6849
##6809
##689d
0031
0032
0021
0029
0023
##4228
##4212
##4255
##426d
##4287
##428e
##3748
##3792
##376c
##3761
##3722
##3769
##37ad
##37c2
##37bf
##371a
img
##2739
##2772
##2769
##2709
##9792
##9771
##97e2
##9790
##9761
##9751
##97a1
##9776
##9709
##9729
##97be
ad9c
ad37
ad71
add1
ad30
adff
ad3a
add4
ad19
ad15
ad82
ad8d
01b
0143
03f
03c5
##eb78
40db
40fb
405b
4078
4064
40ea
4067
4050
403c
40b1
40a2
405d
409e
402d
##57e5
06c
06d
06b
##a757
##a7b7
##a732
##a7c7
##a7c4
##9262
##9237
##9292
##92fc
##9228
##9219
##9229
##928c
a487
##abce
##ab46
##ab91
##abc6
##7118
##7190
##7159
##7149
##7129
##56db
##56d6
##5631
##5659
##569e
##6c62
##6c6d
17e
1762
1791
1754
1756
1743
##8839
##8872
##8810
##8869
##8829
26931
26961
26350
26050
26011
26380
26938
26438
26958
26351
26010
26910
26481
26082
26381
26561
26312
26467
26412
26480
26681
26398
26444
26055
26728
26787
26385
26611
26386
26372
26572
26417
26504
26466
26578
26975
26587
26016
26712
26003
26317
26416
##9559
##953b
##951c
##9515
##9581
##9582
##0502
##05d1
##0551
##05a2
##0514
##43e4
##4362
##4308
##4361
##4321
##4369
##4381
##4382
##e297
##e26b
##9439
##9492
##9472
##9450
##0201
##02b7
##0202
##02b6
##0253
##5852
##5840
##5820
##5879
##f197
##f1e2
##f1de
##f145
##f106
##f17e
##6441
##6400
##6490
2200
2262
2208
2254
2288
2205
2243
2202
2258
2232
2252
2299
2222
2220
2228
2245
2206
2255
2229
2226
2225
2280
2284
4bd
4be4
4bed
4b00
4b39
4b68
4b43
4bf1
4bf8
4b50
4bf7
4beb
4bf4
4ba0
4b45
4bd3
4bd4
4b3e
4b9d
4b2f
20f
41c
4193
41a9
41fb
41ce
41d6
41a4
41b8
41a7
4143
41f1
4161
41e8
41f7
41a1
41fe
4166
41bc
4170
41ad
41b9
413e
4113
415f
4124
411a
##d172
##90f5
##90bc
##9044
##9839
##9892
##98e1
##9850
##98f6
##98f5
##98d0
##9828
##98c2
##9829
42fb
4296
42ec
4297
426c
42ea
4207
4259
42a2
429b
424b
4209
422b
45a
4588
4595
45d1
45e8
4533
45dd
4528
4555
459e
45cf
45c9
452f
451a
2501
25fb
25a2
2510
25921
25411
25976
25680
25968
25628
25922
25983
484d
4843
48d1
485d
48a6
48a0
4820
48c1
48e5
4855
483f
48df
484f
487e
21b
2178
2137
2198
2161
2151
2159
2166
2112
##312c
##3141
##3102
##3122
##316f
27e
27b
27446
2776
27560
27082
27051
27018
27470
27088
27428
27008
27681
27366
27466
46ed
46fa
4662
4697
46e7
4695
4658
4661
4660
46e8
46d8
46a8
46b1
4634
4655
463e
46b3
465f
460d
12d
##3892
##3871
##3899
##3877
##3828
##38b6
2362
2378
2388
2343
2330
2321
2326
2324
##6192
##6159
##6140
##6149
##5139
##51ec
##5131
##5121
##5179
##514f
4fb7
4fb9
##eae8
##3201
##3262
##3218
##3298
##3222
##3228
##3229
86c2
##7254
##7209
##079c
##0708
##0730
##07bc
##0779
##f8e4
##f843
##f898
##f85c
##f855
##f8bd
##f84a
##f86a
##529c
##5251
##5260
##5250
##5240
##5209
44f
440c
44fa
44b0
4497
4456
4458
44ea
44f6
44b1
44bb
44e5
4455
445e
449f
445f
440f
440d
43f
4396
4364
43f7
43f6
43f5
43bc
43f9
43c1
43b4
##fccc
##fc06
15c
15d
15e
##f2ac
##f21c
##67ab
##6770
##6709
##e16c
##e1cc
##6082
##6041
##6071
##6032
##6049
##5991
##e8fa
##e870
##30db
##3078
##30a1
##3069
##5041
##5068
##5098
##5047
##4771
##47e8
##47b1
##d8e4
##d8ce
##d8ab
##d8ea
##f790
##f75d
##f7c7
##f7cf
##4078
##4071
##40d1
##4049
##3bde
38c
28c
2846
2862
2897
2871
2851
2833
28021
28a5
2865
2826
##36b0
##3697
##3643
##3698
##3661
##369e
##36ba
##3cd0
##3c9a
##3c2e
4c9
4c4
4cd
4c00
4c39
4c62
4c68
4c27
4c6c
4c31
4cb1
4c21
4cff
4c70
4cd5
4c3a
4c12
4cb6
4c65
4c9e
4c29
4cbe
4c13
4c2f
4c1a
4c8d
4c7d
##a8d8
##ebd2
##ebb7
##ebd3
492c
4941
4946
4954
4956
4995
49e2
49d1
49b6
49b4
49ef
49b3
##f664
##f6d9
##f66f
##f057
##f068
##f032
##f0e1
##f0fe
##f0ef
##d7b7
##3362
##333c
##33e6
##b198
##b167
##2109
##2119
##f4da
##f494
##f402
##bb5b
##bb21
##bb4e
##5cdb
##5c45
f73
f79
2472
2450
2455
##a2b1
14f
##3400
##fe08
##fea7
##fef6
##fe5e
1993
1900
1946
1991
1948
1905
19e8
##9b97
##9bf4
##9b66
##9bd0
##9ba3
##fd88
##fd52
##fd0d
##f59c
##f562
##f5fc
##6661
##6632
##6659
##6699
##6655
##0215
##0211
##2200
##2221
##2280
##11f
##1139
##5d01
##e048
##e0b1
##e648
##e668
5227
0935
0946
0991
0905
0902
0998
##a6b7
##a662
##a034
56b
##7771
##7749
##ffda
##ff61
##d0f3
##f33d
##f39c
##2040
##2069
29d
2902
##a590
##2801
##2842
##2831
##4991
##4990
##4998
8835
8893
88ec
8895
8851
88d7
88fe
88ff
8865
886d
885a
##c8f
98d
98b8
9827
98e7
9861
98f7
98a6
98bc
9877
9820
98a5
98e3
98b6
9806
986f
##7030
##e530
##e5a0
33f
59a
59f7
##d5e4
##d50c
##d53b
##45e2
##4559
##7490
##765
##7635
4f01
4f41
4f9c
4f48
4ff1
4f07
4f52
4f50
4f5c
4ffe
4f9b
4a3
4a61
4afc
4a30
4a50
4a36
4af4
4a5c
4ad5
4ae9
4a3f
##124
##12d
##adec
##ad58
##b5fd
##e3e2
##e340
##e3f6
##e3a0
##7941
##7991
##7990
##cc54
92b
92a9
9248
924d
92d0
##af71
##aff7
4da4
4de2
4d31
4d32
4d9b
4d4b
8135
81e7
8171
81f1
8164
81ea
81a6
81dd
81e5
81ae
81c7
817e
##a3fa
##a3ec
##a3e8
4efa
4e92
4eab
4e56
4e60
4e33
4eff
b83
b8e
b8b
b896
b8da
b858
b867
b8a2
b8fd
b825
b82e
##d3e2
##06e
##d990
a8fb
a8d2
a839
a84c
a802
a8d1
a8f6
a866
a85d
a8e9
a826
a8c7
a89a
a84f
a8c6
##5501
##1601
##1600
##1639
##1631
##0900
912c
91db
9100
9195
9158
91eb
91bb
9144
9128
91e5
917c
91ef
##5348
##5361
##5330
82d
82db
82fb
829c
82de
8238
82af
8255
8265
##0400
##0490
##0459
##0440
9c9
9cdb
9cfd
9c09
9c6f
9c00f
78f
7897
b17
b1fa
b1da
b1ab
b147
b1a0
b1c1
b175
##3efc
##6562
##6551
##6550
a26
a2d
a2ed
a248
a237
a2a7
a256
a205
a2a6
a2f9
a2a5
a2e9
b26
b246
b2e2
b2d1
b2ea
b221
b2f4
b2d0
b2d4
b265
b29f
##df39
##ef38
##7be
##7bd1
68a
80e1
8047
8066
80b6
##1991
##1990
##7300
bcb
bcfa
bc42
bcab
bc64
bcfc
bcf0
bc66
bc28
bc70
bc75
bcd9
bc6b
bc4a
9550
95f6
95a2
95af
8c94
8c4b
8cb6
8c6a
8c0a
##1499
96fa
96e2
9652
96e0
96b5
96b6
96ae
96df
##0301
acb
ac01
acac
acd9
ac6b
a7f
a75b
a7d2
a7f2
a760
a7e0
a7bc
a7ff
a7e5
a601
a6a9
a6a7
a695
a661
a630
a6b1
b0b8
b04c
b0ab
b072
b0fc
b0a8
b0fe
b0d0
b0d5
0012500
97a9
97a4
9796
9708
97b2
973e
b793
b741
b746
b756
b794
b7ca
b7ff
b7af
##1751
##1760
##1500
##1530
##9af2
ab96
ab40
abae
26270
a1ce
a108
a142
a1a0
a1e9
##9fe2
##4f30
90a
90d6
90f1
90e1
9099
90ee
90f0
90ef
87d6
8700
8746
87a7
8705
87f1
8760
8750
87a8
87fd
87e3
bbdb
bb96
bb4d
bba8
bba5
bbd5
bb45
bbd4
##2591
##8150
a0db
a027
a0de
a0b1
a049
a0e5
a0b9
a0ef
a0b3
9578
##2ae5
26821
26812
26887
99ac
99f7
99fd
99ef
9bdd
9b49
9be9
##1331
##1360
a4a9
a4e1
a45c
b697
b656
b6ea
b6fc
b6f6
b6fd
b5a
b5da
b527
b507
b5e1
b5f6
b5e0
aace
aaa4
aa88
aa02
aa64
aa3b
aae5
2967
##8091
862c
860c
864c
8690
86f8
86dd
86d3
##824
##8201
##8230
##5fe1
##5f9b
##2471
##0be2
8e0c
8ea4
8e30
1903
8bed
8b38
8beb
8ba1
8b33
8be5
8bd5
9305
94ac
9448
9471
9407
94a8
94a6
94e5
f8b
8588
85d1
8590
85f2
##7ef5
8d93
8d56
8d43
8d32
8d3b
8d45
##2340
9f41
9f56
9f43
9fe2
9f52
9ffc
9fe1
9ff4
bf96
bfe7
bf31
bf51
bf36
bff0
25808
ba37
baf2
bae8
ba5c
bad0
bd96
bd4c
bd9b
b997
b998
b9f7
b9e9
89db
8993
8941
89ac
89b0
8905
9adc
9a27
9a88
9a02
9afc
83ab
8340
833c
83f6
83f3
8fed
8ffb
8f4c
8fd1
8fe1
1c6
1cac
1c4f
##8990
8497
844d
8440
b4fc
b4e8
b450
b4eb
b4bb
a30c
a34c
a342
a340
a33c
be3d
afdb
af46
afda
af98
a5a7
a956
a9f6
a9e3
7196
9d4d
9d52
9d50
9d3b
9df0
9d33
9dfe
aeed
ae3c
ae5c
ae66
b302
b3f1
b332
6ca9
e8e6
7056
70a1
d83
d85
d854
26642
491a
491c
4912
491f
4911
8a5b
8a54
8ad1
8a66
4979
4976
4975
6662
2b47
4015
401b
26177
dc58
5cf6
4f85
4f82
4fc6
2787
2784
f6a1
498f
49c3
4189
4180
4a48
62eb
4380
4db0
4db1
4429
ebe6
4ed6
4a98
44c1
4486
448e
4e16
4e43
4082
46cf
4d8f
4273
4fa0
4faf
2652750
4a19
4006
458a
4313
4310
4542
d4b2
2463
2464
4aca
4468
446a
4465
446e
432d
4321
443f
7e54
488a
4885
4d2d
0918
c3a9
4ce7
4b73
4b7a
ed01
25121
2271
0008070
0008919
0008481
0008399
0008271
0008430
0008528
44d5
db22
9076
493f
1925
0007460
0007620
0007520
2880
1786
4d1b
868e
4a26
4a24
fded
fdd6
45b9
45b5
ddf7
1549
dffb
492b
0934
0969
0965
0984
4b0f
4a76
4a7a
9344
##f68b
##61250
901e
2412
9210
921b
##98901
4eb4
bf86
bf8e
9516
1972
4daf
4dad
4dae
6ab8
8223
3611
1953
40c4
40ce
922d
821b
1965
938a
4d7a
990e
9126
810b
988d
972a
866f
8129
4aa6
4a6b
bdc9
9479
4f63
4f6e
8777
a41f
a372
b182
0009959
0009570
0009480
2089
8115
828a
8285
bd84
9315
0945
977f
8c12
8c1d
8475
806a
840e
9c80
0010011
4dd0
9506
9d8d
970b
9964
996d
937d
ac80
b123
b12d
b12b
bc8a
bc81
849e
8083
8955
b21d
6184
8074
807d
918a
0007839
0007861
0007880
841f
4955
0008850
0008819
891d
b10d
##e57fc
499d
0009170
0009129
a4ba
cache
a124
97b3
97ba
bbc3
a214
0009370
a526
0009608
0009651
0009620
b613
0007241
0007260
969f
3c5a
a22b
0008171
a113
0009251
0007701
0008700
0008750
0009451
0009499
8c83
accb
a287
0009511
0009041
0010290
0010259
a06d
c17d
0007401
1cc7d50c
##589160c
path
qemu
self
9c00f589160c
0fb
0d6
0ca
0a2
0f9
0e5
0ad
0e3
0b6
0a3
0c4
0921
0928
0980
0958
0951
0acc
0ec7
0947
0fbd
0a29
15b
1b0
1fd
1f5
1c2
1b3
1968
1b9e
1f0a
14ca
29c
2ee
2f5
2a5
2ad
2af
2d4
2c0
2350
2411
2920
2351
2081
2952
2352
2381
2922
2936
2d77
2dc6
2b74
33d
3fa
3931
3e7
33fb
3f5
3b6
3ae
3ba
3780
3529
3f6b
3088
3c12
4e4c
4f9
4f7b
4f6d
4fe5
4ab1
4e22
4f79
4f29
4f26
4e04
4a0e
4a80
4f24
464e
4a87
4e6e
4eef
4f73
4f5d
4a0b
5b8
5a8
5a5
5a3
5cd
5c3
5c4
5c0
5d5e
5023
593a
5f82
5d68
5e55
62c
6fb
6a7
66c
65b4
6f6
6ee
6e0
6a6
6d5
6d4
66b
69a
60d
6c0
62f
6ee5
6aa7
7e4c
7ce
79c
7d6
7de
7f4
7fe
7fd
7a3
72a
70d
71f
7c4
7a00
7329
7ac7
734f
74c2
75b6
7ab2
82c
8db
8ed5
8d1
83fb
8f8
857f
8e8
8e2d
8eb
8a1
8d7
8b1
8f4
8446
8fd
8a0
8d4
8bf
8df
86b
8be
86e
8928
8460
8429
8075
8f10
8209
8781
8358
8510
8999
8981
8acc
831e
8569
8e06
8e0f
8fb6
8f5f
835c
8dab
8e82
8409
893e
8a16
8e65
8628
8a12
8f2b
8881
8f13
8482
856c
83d5
8189
8db6
8549
8f76
8e42
8729
8fb5
8e26
834f
8cc6
8a94
8925
8ebe
8354
8275
8b79
8f29
8321
80c0
8353
8f3f
89cb
8aba
8a9f
83de
8022
8aac
8b71
8924
8b5a
8349
8fa7
8da6
8eb9
8fa5
834b
8b5e
8a0a
8a99
8d6f
8e89
800b
85cd
80c6
8a7f
8e63
8f8f
8aae
8465
8b15
85b3
8ec9
8e03
8caf
8a77
89ba
8bbc
85bf
8d89
83af
8b5f
8d0d
8b53
8d5a
83cb
8a73
8bbe
84dd
8f8d
8a53
8b19
8d2d
8d5f
8ab3
8b6a
8b23
86be
8b7d
8ecc
8b2e
8b77
8cad
9c2c
9a7
95b4
9f4
99b
9b5
9e3
9b4
99d
94a
9f1b
9070
9887
9418
9019
9d60
9082
9387
94cd
9909
9acd
9d27
9548
9fd9
9dbc
9468
9428
9ee0
9ede
9024
9b14
994b
9ecd
936e
943e
9ca2
9983
9f16
9427
9509
9a11
9e4d
9a7c
9649
9a06
905c
9ea0
99c0
948c
9ce6
9b81
93da
99c8
9e77
9db9
976a
92c1
9e41
99ca
9ed7
9e84
9647
9fa6
99cb
9a44
9aba
964b
9ce8
9eca
978e
9b5a
93c8
9a0e
9a80
9f65
90cc
9325
9d7c
9a2f
9b04
93c9
9f0d
9e43
9f80
9f06
94d1
9de5
961b
9fba
9f0a
900b
9b80
971c
9ce2
9e4f
908b
9bb5
9ad3
9d68
9a87
9ab5
9e2f
9b16
96ca
9e55
9b7a
94c3
9ed0
99bc
9b2b
979e
9b85
9f9e
965f
9f8d
9a04
94be
9b0e
96c6
9b2f
93ef
96c4
9e9f
9a6e
9b25
9bc1
96c5
9cc7
9dd3
a93
a00
a3d3
a91
a78
a42
a27c
a94
a02
aca
a5b4
a60
a50
a99
afe
a66
a021
af1d
af9
a45
a69
ab4
a63
a0e
a960
a050
aa86
a390
a958
a010
adc1
a680
a930
a781
a352
a979
a6c0
a270
aaa7
aa0d
ae4a
a3d9
af11
a548
aa4b
ace1
a355
a029
a328
ae82
a421
a2cd
ab14
a004
a511
a567
a881
ae3f
af49
a013
adc3
a509
a549
aab1
a5b0
aa75
ae42
a972
aa48
a789
a2c5
a4cc
a3d8
ab81
aebb
a9c8
a38c
a606
a187
aa71
a0c0
a9ca
aceb
aec8
ae0a
a076
afa2
a582
acc9
a07e
afc0
a077
a229
a22a
a6cd
ae04
afb0
a903
aeb9
aa80
aed6
aa79
a473
a926
ae86
a6c7
a3b3
aaa3
a6c3
a51b
aeb6
a3d0
a02d
a61e
a07b
afb2
af8f
a9b2
a57b
a676
ae03
adcb
acaf
a9c2
a3ba
aab5
ae2b
acc4
ae55
aa5f
ab5f
a01c
a945
aeda
aa45
a96d
abb9
aa85
aecf
adca
a67c
a083
a913
a515
aa2e
ae45
a074
ae6b
aaef
a185
a97e
a44b
a6c5
a613
a60e
a49e
a61f
a753
a68e
a55f
a75a
be4
bdba
baa
b00
bb8
bbb0
b94
b52
be2d
b36
b95d
bf0
b5c
be6
bdd
b55
b9f
bf25
b080
b391
b390
b058
b644
bdb2
beb1
b788
ba69
b720
b309
bfd9
b436
b679
b468
bfa8
bd1b
be0b
b969
ba3e
bf7a
bddd
b3d5
b055
ba11
be4d
bb86
b787
bab1
be42
b687
b985
b385
b6cb
b357
bea0
bd5e
b279
b014
b9c8
bf9a
b721
b94f
bd77
b59f
bec8
b626
b08d
bf3f
bfa2
bf23
b572
baba
baac
bb71
b433
be40
bd28
b56d
b56e
be44
b726
b40b
bfe9
b2ca
b432
bfa5
b466
bd21
ba26
bd9e
b5b6
b54a
be29
b41d
b43c
b61b
bd20
b00b
bf66
bbb3
bec6
b916
bf77
bf22
b49a
bec2
bb7f
bcc5
baa8
b38d
b52e
b5cc
bb7a
b3be
b01c
bd4f
beda
b71e
bdd4
b306
b30f
b65f
bf69
be5e
bb19
ba29
b503
bd79
b01d
bab3
ba2a
bdd0
b09f
ba23
ba6f
b5c6
b453
bdea
b363
bc2a
be9a
b76f
b04a
co
c2c
c4c
c18
c6b8
cbb
c34
c22
ca5
c45
ce9
c76
cd9
c04
cdf
c29
cbe
c5e
c0e
c15
c0a
cc4
c22d
c52a
d62
d78
d92
d95
d72
d52
d40
d34
df1d
db2
d55
d53
db4
d6b
d19
d9d
d4a
d1d
dc6
d2e
da4b
d382
dff9
daa0
d42b
d98c
d015
dfc5
d3cb
e9c
ed2
e62
e4d
ede
efc
ef4
ed0
e70
e4b
e69
e74
e75
ea3
e55
ed4
e65
eef
ebd
e0e
e17
e9f
e6a
e80
e7e
ec6
e1a
e1e
e209
ee8f
eabb
ef8e
e376
e006
e553
e666
ee0e
faa
f39
f62
f54
f4d
ff1
fd1
f51
f72
ffc
f30
fd7
ff5
fdd
f10
fe5
f45
fd4
f3f
fdf
fbd
f6e
f4f
f4a
f2a
fcb
fe87
f428
f024
fa48
fb81
f386
f926
f4c3
f228
fb06
fb89
f5c6
f20b
va
##341
##39c
##3aa
##3a7
##3390
##771
##630
##a6c
##a34
##a5d
##500
##532
##5979
##f41
##f56
##f05
##f07
##ff0
##439
##ddb
##dce
##dac
##d58
##d38
##df7
##e35
##ef4
##b67
##xt
##0141
##0108
##0171
##01ca
##0152
##015a
##011f
##011e
05c
05f2
0569
051e
##2ce4
##2c41
##2cfb
##2cb7
##2cd1
##2cb1
##2cd3
##2c87
##2c0f
##2c2f
##2c1e
16da
1649
2018
2016
2011
##e4fa
##e496
##e478
##e4a7
##e464
##e4d7
##e477
##e41c
##e415
##3501
##352c
##3596
##3592
##3512
##359d
##356d
##35ba
##3582
##350d
##db91
##db68
##dbca
##db61
##dbf7
##dbb2
##dbdf
##db6b
##db29
##db5e
##db9a
##dbc6
##93b0
##9342
##934d
##9338
##93a2
##934b
##93cc
##93d3
##93ba
##93c4
##93220
##a9d6
##a9f1
##a947
##a9a2
##a99b
##a9b2
##a929
##a99a
##eded
##ed27
##edf1
##ed36
##eda1
##edd7
##edc1
##edad
##ed4a
##ed2a
##edcf
##edc9
##ed86
##ed7d
1062
1056
1031
1032
1036
1021
##3ded
##3dac
##3d56
##3d88
##3d72
##3df5
##3de0
##3d10
##3d16
##3d1b
##3dcf
##3d86
1128
11c4
##text
##0c3d
##0c62
##0cdc
##0c51
##0c50
##0c99
##0c76
##0c1c
##0c7e
##0c1d
##0c1f
##0cc3
##0c8f
13ec
1384
##fa54
##fade
##fa21
##fae0
##fab2
##fa77
##fa73
##fa87
##4162
##4178
##4192
##41ab
##4199
##4121
##411d
##412f
##5701
##57b7
##5742
##5792
##5771
##5788
##57f8
##57fc
##57b2
##57d9
##5717
##5725
##5784
54b
##e4c8
##2c44
##fb0c
##fb41
##fba4
##fbb7
##fb91
##fb6c
##fb72
##fb40
##fba2
##fb5d
##fb69
##fbd4
##fb9d
##fb6e
##fb9a
##fb81
##fb8c
##ceb7
##cee7
##ceab
##ce67
##cef5
##ceb5
##cea3
##ce0d
##9cac
##9cb7
##9cd1
##9c38
##9cfd
##9cf5
##9cb6
##9cd3
##9c7c
##9c6b
##9c1c
##9c2b
##9ccf
##9cc3
##9cc0
##9c8f
##5ba9
##5bd6
##5b42
##5b27
##5b02
##5bf2
##5b30
##5beb
##5b77
##5b0a
##5b1b
##5b2d
##5b2f
##d6b8
##d6fc
##d628
##d6c8
##d670
##d66d
##d683
##a400
##a44c
##a431
##a4fc
##a467
##a447
##a4a8
##a4b1
##a428
##a4bd
##9678
##9618
##9642
##9638
##96f8
##9652
##96e1
##9622
##9606
##96c2
##961c
##9603
##968b
info
##aaac
##aab8
##aa50
##aa28
##aad4
##aa6d
##aacb
##aac9
##0093
##00a9
##00ed
##0078
##0037
##0061
##0072
##005c
##0069
##00bd
##0024
##46fa
##4639
##4642
##46e7
##4656
##4632
##4677
##4628
##46c8
##4669
##4612
##46ad
##46b9
##4609
##4619
##4673
##4626
##4682
##4686
##d293
##d25b
##d264
##d2a8
##d2eb
##d221
##d210
##d24a
##d280
##d27a
##d22f
0896
0854
0892
08ea
0872
0867
0850
0879
0806
0809
0865
0817
0884
53a
53b0
##c2c6
25716
25717
55c
55e
31c
31f
31d2
3162
3151
31e3
##acce
##ac18
##ac48
##ac31
##acd8
##ac36
##acf0
##acd7
##ac33
##ac6b
##b0dc
##b051
##b021
##b0b2
##9318
##9316
2004
##39a9
##39ab
##3972
##39fd
##39b9
##3906
##3982
##b73a
##b7d3
##b77c
##b77e
##b72b
##ec42
##ec43
##ec13
##b8a6
##b816
##b8c2
##b88b
##6262
##6218
##62e7
##62d7
##6233
##6211
##62a0
##6212
##6279
##6253
##621c
##0898
##08f2
##0899
##0811
##0889
##082d
##da3d
##da31
##da7f
18a
1841
1895
1898
1851
1807
18c3
18561
##9198
##9161
##91f7
##91eb
##9179
##91df
##9119
##911d
##912d
47e
47e4
4735
4708
4743
47ca
4798
47de
47f8
47fc
47f4
4722
4720
4769
47ad
4706
47b4
47ba
4781
475a
471e
##7839
##7818
##7842
##7837
##7888
##7852
##78a8
##78c1
##7869
##78cc
##7855
##78b4
##7829
##78cd
##788e
##5496
##5492
##5471
##544d
##5488
##5494
##54a0
##5428
##5479
##54cc
##5481
##542a
##54c4
##4c3d
##4cfa
##4c6c
##4c94
##4cc8
##4c7b
##4c73
##4c6e
##4c8c
##1841
##1839
##1861
##1872
##1850
##1840
##1899
##1810
##1809
##1819
##1889
##188c
##4878
##4868
##4888
##48f1
##4822
##48c8
##4879
##48a3
##4853
##488f
##685b
##6800
##6846
##6862
##6868
##68a7
##68e2
##6852
##6821
##683a
##682f
##dce4
##dcb7
##dc78
##dc27
##dcab
##dc88
##dc51
##dcd8
##dcf4
##dc77
##dcd5
##dc74
##dc29
##dc2a
##dccd
00f
00e8
00271
00228
##4232
##42fd
##427a
##4289
##372c
##3762
##3768
##3797
##37e7
##37e2
##3702
##3740
##375e
04e
0478
##27e4
##2762
##2761
##2732
##2759
##27e8
##27b1
##27f5
##2722
##2779
##277a
58c
5838
##97db
##97fa
##9795
##9759
##9799
##97a8
##9749
##e7e4
##e7d6
##e762
##e756
##e738
##e73b
##e7eb
##e7f9
##e776
##e7cc
##e76d
##e77f
ad5
adce
ad96
ad54
ad02
ad31
ad07
ad52
ad3b
ad44
ade9
ad55
addf
ad4e
ad81
ad1b
ad0f
01f
02d
03a
03b
0311
0304
038c
##eb7a
40a
4046
40f1
4090
4038
40f2
4030
40f4
4028
4049
403e
406b
40b3
406f
402a
##ed58
##b090
06f
06e
06b0
06f1
069f
##a758
##a730
##a7a8
##a711
##a7e5
##8681
##92a9
##92ac
##9295
##92d1
##9260
##92d8
##92a2
##9222
##9284
##f0c0
##f0ca
##bb0a
##bb04
a483
##abaa
##ab32
##aba1
##ab20
##abc8
##abc9
##7141
##7150
##7111
##7120
##7169
##7176
##5693
##5600
##56b7
##5662
##5668
##5605
##5651
##5636
##56a8
##569b
##5649
##56c8
##5665
##567b
##565e
##6c02
##6cde
##6c30
##6c36
##6c09
##6c2a
##6c5a
##4d93
##4df9
17a
17f
1738
1799
1753
1726
17958
##880c
##8848
##8892
##886c
##8860
##8899
##8811
##8879
##8887
##8880
##8882
265f
26780
26028
26542
26949
26976
26460
26392
26644
26918
26571
26387
26781
26358
26909
26720
26488
26785
26981
26319
26397
26912
26947
26640
26084
26366
26972
26911
26464
26512
26606
26017
26574
26582
26023
26786
26462
26726
26977
26432
26677
26188
26522
26622
26676
26584
26725
26434
26945
26455
26663
26704
##950c
##95fa
##9539
##9592
##9588
##95f1
##9538
##9532
##9507
##95f8
##9521
##0562
##0508
##0588
##0594
##0538
##05e8
##0533
##0526
##059a
##0581
##055f
##05c0
##058d
##4301
##4393
##43ed
##4368
##4327
##4332
##43a8
##4329
##e2b7
##e208
##e2a7
##e252
##e2b1
##e2b2
##e210
##e25a
##e21d
##e21a
##94fa
##9402
##9449
##94b3
##0262
##02dc
##0232
##0299
##025c
##0228
##02e5
##023a
##0226
##02ba
##024f
##020f
##5841
##5851
##5859
##58b1
##5821
##5849
##58d9
##5829
##f141
##f162
##f107
##f1c8
##f1bd
##f1c9
##6491
##6402
##6498
##6472
##64e8
##64eb
##64576
2259
2230
2250
2247
2233
2266
2244
2210
2216
2213
222b
2283
22542
4b3
4b96
4be2
4b5d
4bb2
4bf9
4b6f
4bc3
4bc6
2062
2071
2094
2065
207b
41fa
4148
41ea
4172
41fc
4150
4134
41a0
41d0
4176
41b5
413f
410f
410d
41c0
##d1a9
##d1aa
##d127
##d147
##d1b1
##d1b3
##d11b
##9039
##90a1
##90a0
##9802
##9898
##9852
##9859
##9899
##9849
##9865
##9814
##deb8
##de78
##dea7
##de07
##de5c
##de9a
42ed
4208
4278
42ab
4290
42fc
4236
42f6
42f0
4221
42fd
42bc
4245
423a
4253
4226
428d
4283
45d
4557
4546
45e7
4507
45f2
455c
45d0
45c1
45d9
45ae
4514
455e
4517
45c5
25931
25868
25021
2509
2519
2524
25961
25940
25070
25542
25018
25548
25912
25974
25967
25907
25354
25528
25574
25962
25926
25522
25587
25966
25964
25228
25915
25885
48c
48b
4800
48ca
4898
4836
48f4
48a2
48f5
4849
48b9
48b4
48bf
4819
484e
da6
da5
dad2
daf0
2101
2196
2139
2191
2197
2156
21de
2147
2170
2174
21921
##31dc
##3142
##3138
##3109
##31c7
##31c5
##315a
##31cb
##31c0
27608
275f
27011
27380
27392
27010
27352
27561
27728
27002
27624
27614
27187
27721
27372
27303
27188
27577
27966
27487
27384
27184
27214
27704
46f
46ec
4671
4676
46e3
46ba
123f
##3841
##3848
##3805
##3852
##3869
##3819
##3873
##387a
2341
2347
2340
2334
2320
2365
23386
##6108
##6190
##61fc
##6121
##6109
##51ed
##5108
##51b1
##5109
##517b
4fb5
4fbc
##ea58
##eae0
##ea06
##ea0f
##5b4a
##3fb8
##3fb6
##3fb4
##4c5c
##32db
##32a9
##3268
##3242
##3292
##32d7
##325c
##324b
##3217
##3281
##73d2
86c8
86c9
86c6
86ca
86c5
86cc
86cd
##7288
##7250
##7281
##7282
##7289
##0739
##0762
##0742
##07ab
##0771
##0798
##0738
##07e1
##07f9
##0755
##076e
##07cb
##07c6
##f856
##f8de
##f851
##f847
##f8a8
##f8f6
##f8d5
##f83e
##f89d
##f86e
##f824
##f81b
##f823
##5262
##5218
##523b
##5244
##5228
##5269
##5229
##5282
44e
4401
44e4
4496
4471
4402
44f1
4451
44f8
4459
44fd
444b
44e9
44ae
444e
440a
43c
43db
43fa
436c
4360
43a8
43eb
43a6
43a3
4306
43ae
##fcfb
##fcd6
##fc58
##fcd8
##fc9f
##fc80
##fc82
15a
1532
15c7
##f235
##f293
##f200
##f218
##f2a7
##f258
##f2d1
##f207
##f2fc
##f25c
##f2ae
##f204
##f2bd
##f25a
##f21e
##6778
##6768
##676c
##6731
##6769
##e157
##e1e7
##e1eb
##e15c
##e12e
##6081
##6b88
##6b8c
##6b81
##60db
##60a9
##6090
##6098
##6072
##60a0
##606b
##57f0
##5941
##59aa
##5908
##5997
##59f4
##59ad
##e8ac
##e843
##e860
##e821
##e83e
##e815
##e80b
##305b
##30ac
##30b8
##3071
##3047
##30a5
##30ef
##505b
##5094
##506d
##47da
##4798
##4738
##4761
##4732
##4752
##4799
##4749
##479a
##d801
##d8ed
##d831
##d874
##d814
##d817
##f741
##f7fb
##f794
##f73b
##f7ae
##f7bf
##f77e
##9978
##9942
##9992
##9998
##99b1
##99b6
3e3
3e6
3e5
3ef
3e3c
##3baa
##3b92
##3bfe
##3b2a
##3bc3
##3b2e
38a
3801
385b
38dc
3842
3847
51f
516d
51ba
2841
2857
2878
2805
2843
2861
2832
2852
2836
2866
2877
2844
2849
28e9
2829
2813
##36e4
##3641
##36d6
##3662
##363b
##36e6
##3c97
##3c05
##3c61
##3c22
##3c77
4c01
4c92
4cfc
4cf9
4cb5
4c09
4c24
4cc4
deb
##a85b
##a8da
3290
##eb00
##eb4d
##eb66
##eb63
##uld
499c
494d
4902
49f4
49f5
49ff
49d4
##a172
##a1f2
##a199
##a136
##a1a8
##a1fd
##a19f
##f693
##f63d
##f6d2
##f6b0
##f690
##f672
##f659
##f6a8
##f6eb
##f634
##f63a
##f6d4
##ee57
##ee68
##ee51
##eef5
##ee09
##f0ed
##f00c
##f0aa
##f0b6
##f0b4
##d75b
##d768
##d732
##d736
##d7c1
##d769
50ea
##33b7
##33ec
##33b8
##3378
##3368
##3302
##3332
##33f8
##33e1
##33a0
##33e9
##33fa4
##b135
##b140
##b136
##b16a
##2141
##2110
##f452
##f4e1
##f4a1
##f4f6
##f449
##f4bd
##bbab
##5c27
##5c71
##5c73
##5c26
##5cb3
30e
3591
35ee
f77
f74
f7b
f764
2435
2439
2405
2440
24958
24787
24984
##a23d
##a2fb
##a2f8
##a269
##a2b6
##a29e
37a
3791
3731
14b
14db
##3491
##3497
##3443
##34ba
##fe93
##fe57
##feec
##fe62
##fe97
##fee2
##fe38
##fe36
##fe55
##fe53
##fe6d
##fe0a
19d2
1992
1988
1943
1990
1998
19e5
19df
57a
57c
57ec
##9b9d
##fd96
##fd54
##fd59
##fd5d
##fd04
##fd9e
##f5dd
##6671
##6695
##6602
##6630
##669e
##0212
##2290
##2260
##226e
##11e
##1159
##1170
##5d96
##5d08
##5de7
##5df1
##5d3c
##5d5a
##a7d0
##e0ac
##e0b8
##e06c
52d
525b
0993
0978
0927
0990
09461
##a65b
3648
3695
3690
363b
##bc37
##bc98
##bc9a
##bc1b
##a001
##a0fb
##a096
##a094
##a0fc
##a03e
##b2bc
##7761
##7760
##7740
##7769
##ffdb
##ff39
##ffe2
##ff58
##ff3b
##dd97
##dd9b
34f9
##d0af
##d06d
##4401
##4491
##4448
##4492
##4498
##4459
##4499
##1098
##f32c
##f308
##f3a8
##f3f4
##f3e5
##f9db
##f9d6
##f9b7
##f9a7
##f9e8
##f9a0
##2078
##2090
##2061
##2030
29a
29e
2942
2927
2905
##a59c
##a5d8
##2810
##2870
##49fc
##c1b0
##c197
882c
88aa
88b8
8852
8867
883c
88a1
88bb
8845
8874
88b9
8816
8873
889a
88b3
8825
8823
98f
9835
9893
985b
98d2
98a7
9890
9851
9872
9867
98b1
9821
98e6
984b
9875
989e
9817
98b3
980a
##7061
##7049
##4be2
##4b3b
##4b4f
##e5d8
##e5fd
##e53e
39f
0007191
0007660
0009310
##4501
##4502
##4531
##3aa4
##3a78
##3a64
##3a32
##69a1
##7451
##74ea
##e9da
##e978
##e9f1
##e9e6
##e9a0
##7691
4fed
4f08
4fda
4f88
4f64
4f98
4f51
4f60
4f3c
4ff5
4ad
4a5b
4aec
4a88
4a38
4af7
4ad3
1913
1919
1911
##1200
##adfa
##e3a4
##e302
##b6f0
##b9b7
##b9ef
92ed
920c
9257
9246
9227
92e7
9258
92f1
92d1
92f2
92f7
92bb
92af
929d
926a
##7531
##7551
##af54
##afd1
4d37
4d05
4d47
81c
81b7
8142
8137
81fc
81e1
813b
81eb
8121
81bb
81b6
816d
814f
81c5
81cf
##a396
##a318
##a33c
##a3a0
4e2c
4ee4
4e3d
4e78
4e38
4ef2
4e36
b80
b81
b85b
b800
b8ac
b891
b84c
b847
b8e0
b8a6
b810
b845
b879
b8d9
b8ef
b89a
b8b3
b80b
b82d
b8c4
##d342
##0600
##0618
##0690
##0699
a84
a8e
a801
a8a9
a80c
a896
a818
a805
a890
a8eb
a8bb
a8e6
a8a6
a8d0
a844
a849
a8c2
a83e
a873
a86f
a82b
a81f
a82d
##5541
##5518
##5559
##55f5
##555d
##ae91
##ae64
##1699
91f
9141
919c
9139
9192
91e2
919b
91fd
91f5
9122
91c1
91c8
91d3
9155
913e
91c6
##5301
##5341
##5308
##534d
##5336
82b
822c
82e4
82b7
8208
8297
824d
8261
824b
82b6
82b4
823f
82ba
824e
##b44d
##d49c
##d4d6
##d4a6
##3ff0
##bf43
25781
2578280
9c01
9ce4
9ced
9c00
9cf1
9c38
9c51
9c32
9cd8
9c36
9cd7
9cb1
9cdd
9cd0
9c70
9c7c
9c9a
9c7e
78d
7851
78e0
b1d
b12c
b141
b19c
b1d6
b139
b154
b168
b14d
b198
b107
b1fc
b1f0
b15c
b1ff
b1f9
b1a5
b1e5
b179
b1df
a291
a24c
a2f1
a264
a2d1
a2fd
a2e0
a2bc
a2b2
a244
a2f3
a2b5
a2bf
a265
a29a
a24a
b24
b2e4
b296
b218
b237
b2f1
b264
b261
b2f8
b260
b2a2
b2ff
b24b
b25e
##1cf
##ef51
##efea
##ef47
967c
68f
68b
683d
68e8
68b1
80f
802c
8093
800c
8048
8042
8056
80d1
80f8
803b
80a8
80f6
80f4
8034
80e6
80bc
80e3
##7308
##6330
##6340
##63a8
bc0
bc3d
bc9c
bc27
bc56
bc95
bcde
bcd7
bcfe
bcbc
bcb2
bc65
##9e95
9541
9557
9518
9588
9595
9552
9530
95a0
8c7
8c6
8cd
8c78
8c18
8c71
8cca
8c36
8cbc
8cdd
8c69
8c7c
8c7b
8c7e
##1400
##2901
962c
969c
96a7
96ea
9632
96eb
96f4
96bb
965d
96bc
96b4
96d4
96bf
##bdfc
##0338
##0360
##26d
##2659
aca4
ac68
ac37
ac27
ac05
ac43
ac64
ac98
ac51
ac59
ac21
acd0
ac44
ac70
ac0f
a793
a7ac
a762
a74c
a7ab
a74d
a795
a790
a707
a767
a7d7
a7fd
a7d0
a7d5
a745
a7bf
a6ed
a60c
a6a4
a697
a664
a6de
a652
a634
a6ff
a6d5
a6b6
##5e38
##5ee8
b035
b00c
b096
b0d2
b078
b054
b092
b0f8
b0d8
b033
b0b1
b0e6
b044
b0f9
b0e5
0019
00126
00115
0010340
0010331
0012300
##c7f
97d
97db
9700
9746
97d2
9756
9794
97f1
9738
97ea
97e8
97d8
97f0
97a2
97e6
97d4
b7a
b75b
b7d6
b739
b7ab
b790
b7de
b7ea
b7eb
b734
b7fd
b766
b7df
b7ef
##ba2c
##bae3
##17a
##1758
##1730
##1740
##1749
##b3f75
ab62
abe7
ab59
abfe
abf5
abf3
ab49
abe3
aba3
ab3e
26285
2626030
2629299
a1ec
a1b8
a192
a1f1
a13b
a121
a176
a153
a1df
##9f5b
9056
9090
90d8
903c
90f6
90a5
90d9
90bf
872c
87ce
87ab
87ea
8732
87fc
8767
87e8
87eb
87a1
87dd
874b
87e9
87ae
bb2c
bbfa
bb46
bb39
bbb7
bb42
bb98
bb38
bb61
bbe1
bb33
bb21
bbfe
bb22
##4e35
9625
##81b
2022
##8739
a02c
a041
a0d6
a0a4
a039
a0b8
a0e7
a090
a0f8
a067
a0f7
a045
a0e3
a0d4
9575
99da
9942
99f1
99e8
99eb
99f0
99e6
99a0
99a3
99ae
99df
9bed
9b5b
9bb7
9b48
9ba7
9bea
9b32
9b30
9beb
9bee
9b5c
9b9b
9be0
9bf3
9b3f
a435
a478
a454
a4a7
a471
a498
a459
a4fd
a4e0
a4a6
b6a9
b6aa
b600
b648
b6dc
b692
b6ab
b64d
b643
b6e2
b6d8
b65c
b6e0
b6a6
b6d0
b6ad
b6b5
b593
b539
b562
b5e2
b558
b531
b5a2
b5a0
aa2c
aadb
aa5b
aad2
aab7
aab8
aa05
aaf2
aad8
aa3c
aadd
##80b
##8099
##5ae8
865b
86b0
8639
8664
8651
86a8
86fe
86b2
863a
86b5
86e3
8653
86bf
##82f
##5f48
##2490
##2459
##1bab
##0bf4
8e78
8e92
8eab
8e56
8e90
8efc
8ee8
8ba9
8b5b
8bec
8b18
8b97
8b94
8bf2
8bd8
8b99
8b3b
8bf0
8bff
8be3
9341
93b8
93f0
93e0
93e6
93f9
94db
9496
94da
9492
9494
94fc
94e1
94f4
94a2
945d
94ff
f8d
853d
85fb
8595
85fc
85a1
85ee
85f0
85f5
855d
85ef
8d0c
8dfb
8d5b
8df1
8df8
8d9b
8d5d
9fdb
9f00
9fd2
9f08
9fda
9f4d
9f88
9f05
9ff7
bfe4
bfed
bfce
bf08
bf4c
bf48
bf68
bf42
bff8
bf60
bf3b
25811
2580249
ba2c
ba0c
bafb
ba51
ba36
baf6
bad7
baff
baf3
bd93
bd57
bd5b
bd58
bd51
bd32
bd3c
bdf0
bdd7
bdf9
b9fb
b9ce
b9b7
b908
b978
b94c
b927
b9f1
b9eb
b9f4
b9bb
b9a0
b9e3
8957
89d6
8991
89ab
8995
89fc
89e1
89fe
89e3
89d3
9aa9
9a3d
9afa
9a39
9af7
9a3b
9aeb
9ae0
9aff
9ad0
9ae5
9a3a
8301
8335
83aa
8346
8362
834c
8327
836c
83ca
8361
83e8
83f7
83f0
83fd
8f39
8f78
8f27
8f92
8f98
8f32
8ffc
8f50
8f3b
8f3c
8435
84a9
843d
84fa
8491
84e1
84e8
84f6
84a6
84f9
84a5
84af
b42c
b435
b441
b44c
b44d
b495
b494
b459
b4f7
b4f6
b4bc
b4a3
2715330
d550
d5ee
d5af
a346
a339
a337
a3e7
a331
a3f7
a3f3
f0aa
f03e
be01
beac
be08
bee7
be31
be36
be5c
af01
afe4
af3d
affb
af27
af72
af30
af50
af40
aff0
a5ed
a5fa
[...]
