[PAD]
[UNK]
[CLS]
[SEP]
[MASK]
"
%
&
'
(
)
,
-
.
/
0
1
2
3
4
5
6
7
8
9
:
=
?
A
B
C
D
E
F
G
H
I
L
M
N
O
P
R
S
T
U
V
W
[
]
_
a
b
c
d
e
f
g
h
i
j
k
l
m
n
o
p
q
r
s
t
u
v
w
x
y
z
##5
##4
##6
##b
##f
##0
##1
##9
##a
##8
##2
##7
##e
##c
##3
##d
##n
##l
##i
##m
##t
##g
##h
##o
##s
##v
##r
##p
##u
##G
##B
##w
##y
##k
##A
##R
##N
##I
##x
##L
##T
##M
##z
##O
##S
##P
##C
##U
##F
##E
##q
##01
no
##er
##va
##2c
nova
05
##ta
201
16
##e4
##35
2017
##93
##db
##a9
##ed
11
10
##3d
##te
##0c
##pu
00
13
##om
com
##pute
compute
##41
##fa
lo
##57
##a9e
log
IN
##FO
INFO
re
##ver
##pi
54
##2c4
##e4c
##dba
##9335
##e40c
##35a9e
##db41
##ed9335
##fadb41
54fadb41
##2c4e40c
##e4c35a9e
##dbaed9335
54fadb412c4e40c
##dbaed9335e4c35a9e
54fadb412c4e40cdbaed9335e4c35a9e
ser
server
req
##fb
##ce
##9c
##en
##sta
##5b
##a4
##96
##d6
##im
in
08
##nce
##stance
##d2
##00
##aa
##46
instance
53
##3a9
##c2c
api
##01fb
##2cc2c
113d
##3da4
##9c3da4
##5b96
##d62cc2c
##aa5b96
##3a99c3da4
##01fbd62cc2c
113d3a99c3da4
##aa5b96d2
##01fbd62cc2caa5b96d2
113d3a99c3da401fbd62cc2caa5b96d2
257
sta
55
31
##us
HT
ws
##gi
##TP
HTTP
wsgi
stat
##eta
len
tim
status
time
##ac
##39
##ET
##931
##b0
##il
200
2931
GET
##rt
##b7
##irt
##ag
os
li
lib
##ec
##62
v2
##api
osapi
25746
servers
##b8
deta
detail
##91
18
##54
##4c
##da
##08
##78
##48
##as
##dc
##74
##18
47
##27
##68
im
imag
##ng
##ase
1893
base
##0e
##ing
##he
##ar
##37
58
virt
##97
##virt
libvirt
##dc18
ad
##a7
##b09
instances
##eb7
##ed5
b57
2ed5
##b8b09
##54eb7
4778
5854eb7
##dc1839
addc1839
b57e
5854eb7b8b09
##or
var
a48
##71
06
04
##ab
##9c8
##64
##68f
##88
##742
##bb0
##c91
##3908
##93b7
##0c37
##ecac
##ac0e
##6227
##da93b7
imagecac
a489c8
##68f0c37
##bb03908
##c91bb03908
##ac0e742
##6227c91bb03908
##da93b76227c91bb03908
imagecache
a489c868f0c37
##da93b76227c91bb03908ac0e742
a489c868f0c37da93b76227c91bb03908ac0e742
40
meta
12
##56
17
21
##is
##4d
##es
ma
##43
us
##05
##d1
##f1
##c4
##lo
##nag
manag
manager
##95
##2d
4b
##21
##ea
##98
##ca
41
##36
01
##on
26
##le
##94
##3b
##ent
##38
##la
##f8
##fe
25
##vent
09
07
##ck
14
##laim
20
on
##data
metadata
##51
##de
86
fil
03
48
da
claim
##e7
data
op
##58
##ensta
opensta
openstack
th
##f4
image
##99
##e8
##fbb
42
##52
to
##07
##d8
##if
##3fb
##4c5
##4c6
##66
##04
##33
##3ac
claims
##11
##d71
067
##e45b
34c5
4fbb
##3dd71
##623fb
40623fb
86c4
0673dd71
##e45b4
40623fbe45b4
To
at
##ea4
##ting
this
02
##06
##9b
##47
##82
##92
##32
##ud
##31
##a76
27
##59
9e
##f7
##f56
##e1
e97
##bc
##wn
##loud
45
##f2
##d0
##574c6
##57f56
##a9e88
##4697
##b8a9e88
##3ac574c6
##a7608
e974697
##57f56a7608
##b8a9e8857f56a7608
##3ac574c6b8a9e8857f56a7608
e9746973ac574c6b8a9e8857f56a7608
4c
##ur
files
##fc
895
the
##4d94
3ea4
##5a
##d64c
04d64c
##052c
4b64
9e2d
895d
##4d94ab
3ea4052c
04d64c4d94ab
sp
##26
##ti
##bb
vc
##ul
vcpu
f7
2013
##f5
de
##a8
##76
##cc
##em
51
##02
##67
##it
15
##d4
##eb
Event
Lif
VM
##fd
##cle
##ycle
##ecycle
Lifecycle
event
##90
##tal
used
37
dr
##iver
driver
##na
MB
##69
##e2
##imit
93
##f6
##a5
##cb
loca
##b07
local
46
js
##30
json
for
##a1
##c6
node
##6b
92
dis
res
disk
##5c
##f9
##ee
##ve
##24
##our
resour
resource
##446
##61
sec
##72
##34
##d5
##d4d
##fa1
4f
##awn
##end
spawn
ex
##b1
##a0
##ds
##ok
##0ca7
##b8d1
##43b07
##f1d4d
##21fb
##onds
Took
##d021fb
f7b8d1
##44643b07
seconds
##fa10ca7
##f1d4d44643b07
f7b8d1f1d4d44643b07
##fa10ca7d021fb
f7b8d1f1d4d44643b07fa10ca7d021fb
##3f
##st
ch
##28
##age
29
Ac
ot
st
sh
##ae
##des
##her
##king
nodes
##ecking
##aring
##orage
use
##tive
checking
Active
other
storage
sharing
vcpus
##14
##nal
98
ba
##5d
##0b
Total
38
44
191
##bd
28
49
##3c
63
78
b5
##50
##b2
b6
##79
##df
30
##44
##cce
22
cp
cloud
pg
slo
tc
uta
##lab
##m1
##vm1
##wvm1
cloudlab
pg0
slowvm1
tcloud
utah
124
la
##ful
##ss
##ucce
##ssful
##uccessful
##20
##ro
successful
##ter
##test
events
exter
latest
external
454
PO
##ST
POST
35
4e
91
GB
limit
mem
##PU
##62e
##ory
memory
24
##d9
##ly
19
39
43
57
tr
##86
##c8
##ker
##acker
file
tracker
94
b7
cb
85
##2f
##ef
88
96
4d
##7b
##f0
##nc
50
##c1
84
Rem
ae
sy
##5e
##c7
Remo
sync
49c
##60
##c5
95
9b
In
##19
##2a
##77
##e9
Instance
##rea
##fe1
d6
not
1910
##1d
b3
##am
##29
404
##tion
93b
Res
hy
po
vend
##4b
##med
##vis
##per
##umed
##wer
##960
25743
state
successfully
Resumed
hyper
power
vendor
##visor
hypervisor
23
432
Crea
Dur
Sk
des
has
ne
pend
tas
##16
##ip
##tw
##tro
##ork
##76a
spawning
Creating
During
Skip
destro
netw
pending
task
destroy
network
127
80
De
VC
bd
un
##40
##3e
##limit
##ied
##ice
##vice
##faul
##ecd
##ecif
1759
specif
del
defaul
Dele
VCPU
unlimit
specified
defaulting
unlimited
##a6
157
33
##9e
##ad
##917
32
##362
264
4a
7c
8b
967
f0
59
641
81
##55
172
49cc
239
45b
443
56
a41
ff
##03
##17
##llo
##914
##9b6
64172
##lloca
97
933
b1
##d7
##ted
##ec1
##da7
##f14
##049
##042
3a
436
4fe
d96
##b5d
##2e
##32d
##d35
##mi
##a9d
##fbf
##d27
##000
##b87
##647
##ea8
##69a
34
4aa
8d1
988
##6f
##a3
##a62
##c66
##aa1
##ea2
##3b4
##38e
##f8c
##51e
##e7c
##e89
##11b
074
158
3ca
3cb
61
b8
be7
##fc4
##ff8
##900
##9dc
##a51
##a11
##2b
##75
##774
##3a1
##54b
##dcc
##a7c
##a757
##71f
##d1a
##f4a
##824d
##a84
4433
a41e
001
4d2
44c6
4ea2
70c
7e7c
WA
bf8c
c59
e3d
##6cb
##09
##171
##9f
##e6
##ou
##RN
##NG
##ING
##edfc
##ac7
1866
##54f1
##273d
##f10
##f87
##f4f2
##d83b
##8262e
##cc3
##0b6
853f
f099
45bb
3ca0
##a7578262e
WARN
bf8c824d
e3da7578262e
WARNING
2f87
2cc3
36
4914
4da7
63b
70b6
9c6
9049
Un
a1
af5
b76a
b647
bdcc
bf4a
c62
c98
c11b
eec1
f5a
fecd
or
ph
ram
sw
##4a84
##ble
##9ea4
##ap
##afe1
##79b6
##d960
##no
##GB
##ys
##kno
##MB
##015c
##vable
##2c9dc
05fc4
##35f2
##93e89
##0cc66
##a4a51
##9605
##392
##39b1
##b7bd
##b7774
##4c64
##78a5
##dc1847
049b
##able
##abcc
##88ea8
##c42f
4b2a
##cadf
41f6
0193
##f8f1
48ae
##e769a
##e846
4298
total
##d89ea4
##0452
##3ac51e
##924c64
##f738e
##f7392
4c88
4c82
f7d4
##f5ff8
512
513ac51e
##fdd89ea4
##e23b4
9336
93000
9235
9239b1
##d5a9
4f0e
4f99
##a0d960
2943
##1471f
982c
ba2d
63b7774
63a0d960
78dc1847
b5e4
b562e
b6d1
b606
4549
4548
4e07
94fe
b7ee
cbf4
8848
96abcc
4d91
ae3a1
Removable
959605
d6b7bd
b300
93b1
432042
127e769a
804c
##917273d
17288ea8
239afe1
fffdd89ea4
933e
4363
4fe6
d96a11
##32d54f1
##d2735f2
##b87e23b4
8d1f
9884
##a624a84
1583
3cb9
be793e89
4d20cc66
70c171
7e7cc42f
c59d83b
##6cba4a51
##edfcfbf
18666cba4a51
##f4f25
853fd2735f2
491478a5
63b917273d
9c6a624a84
Unkno
af5f7392
c62f4f25
c98924c64
f5a32d54f1
fecdd5a9
phys
swap
##79b6a7c
##2c9dcf
05fc479b6a7c
4b2ab87e23b4
513ac51e0452
93000edfcfbf
9239b12c9dcf
63b7774f738e
b562ef10
96abccce
ae3a1b5d
95960536
d6b7bd36
43204226
239afe1f5ff8
fffdd89ea40e
d96a117b
4d20cc66e846
70c1714b
c59d83b1471f
853fd2735f29
491478a5cadf
63b917273d1d
9c6a624a84bc
Unknown
c98924c64aa1
f5a32d54f1c5
2d1a
52
a015c
d54b
##ff
##4824
a48d
4156
ba6b
##44eb
84bb
7c4824
##d35f8f1
4aa2
074d35f8f1
##ac7a9d
a015cf14
d54b44eb
7c4824ac7a9d
074d35f8f12c
##af
##22
blo
fa
##70
##ppi
mappi
202
203
##58f
device
block
mapping
8e
957
962
##12
##94c
##25
204
296
4e1
87
##6d
##10
##1c
##e0
1916
268
256
733
b0
fr
##e88
##0600
380
bd52
a6
##53
##42
##b9
##ba
##73
##c9
##d3
##nd
000
##74ea
211
##3bc6
93f4
##f974ea
cba5
3a3bc6
faf974ea
4e1b
##06006f
3a3bc606006f
135
4e8
DE
Pa
Sta
Ter
bu
fou
pl
vif
##23
##gg
##ugg
##LET
2012
##350
139
132
25776
##used
##ild
##rted
##d1d
258
##nating
spawned
destroyed
##minating
DELET
Paused
Started
Terminating
build
found
plugg
DELETE
plugged
141
68
8f
90
At
Claim
CPU
No
St
an
dea
of
##49
##63
##be
##a2
##mp
##op
##ving
##ped
##ple
##ption
##temp
comple
##ception
25799
##0564
2048
thro
##fd7
exception
Removing
Deleting
Deletion
##llocate
95746
96258
free
Attemp
Stop
any
deallocate
complete
thrown
Attempting
Stopped
1e88
262
a7
b900
fe1
ho
##65
##b5
##f3
2578
409b
129
176
user
##b294c
##79d
b8cc
1e88b294c
b9000564
fe1a
host
1e88b294cd1d
60
ava
be
##501
##ebc
##ch
##dd
134
##460
1874
##785
1708
429
avail
0b
435
427
e6
##4e
##b4
##fce
##80
##c2
##c3
##3a
25778
25788
416b
##d40
271
4e4
9d
aa
b2
##b6
##e5
138
142
3b
328
40e
4c4
9c
968
afb
a07
ca
##9e8
##89
##739
137
##969
140
##929
143
526
811
9bb
Aud
Com
Fi
af
a98
alloca
b4
bb
b41
nam
pc
up
vi
##5f
##f57
##15
##793
##ew
##cor
##d57
##iting
119
004
0008
recor
service
stats
##dated
##371
123
usable
266
##333
##bb6
15GB
locally
resources
##b16
##c8f
64172MB
available
Auditing
Compute
Final
allocated
name
pci
updated
view
record
441
868
95a
ace
b56
bde
b31
c8
d4
d82
sch
##45
##6c
##654
##0d
##81
##218
##d2c
##938
##edul
136
130
133
##577
##d26
##d21
25793
25790
##4c4
##a7d
126
##ea6
##eaf
##384
259
##dee
##e81
##d86
##eff
##e9d
25783
schedul
scheduler
2d6
274
2fc
4a4
814
9dee
a9
a8
a2
ac
d38
df6
eae
##6c8
##1b
##a02
25786
25777
3169
4719
##a79
##ab6
41f0
267
48fa
##e70
##e72
4241
##475d
4535
##a148
##24bc
49e1
b7a3
##2b48
bde8
1a148
254
3f1
3d26
421
4eb
5c8f
6a76
6f9
676a
6e72
7eff
72b48
8a
8c
83
8e81
99
9a
9c7
9ea6
a5
a68f
ami
bfbb
beb
b4c4
c5
d2
dbb6
dab6
f362
##0f
##0b0
##8eaf
##cd
##2c501
##93c1
##a9785
1162
0007
##fab16
##57dc
##57bc
##fbad
##9cdb
##9c5b
##d247
##aab7
25797
25795
5526
##ac654
##3905
##b058f
##b7d9
##ec218
##910
##9116
189116
##4cd9
##085d
##dc5a
##18475d
##0ea8
##9717
049e
##abae
##561
##4dd5
4b32
4b4dd5
##986b
##cafa
416d
414e
##365e
01d57
263
26d8
##3818
##3803
##de9
##dee9d
4838
48e2
481c
##58d2c
##f479d
##e8fd
42f7
4269
##52bd
##07e8fd
##474cd9
##bc3d
45d86
4c9f
##fc5
##eb3818
3735
373c
##e278
##a5460
##b07969
4611
##5c9e8
##61d247
##a09cdb
29a09cdb
98474cd9
##bdd40
63fe1
78a7
7861d247
##b23905
91793
9118475d
39d1
##86362
##5ee70
##c75c9e8
49c7
9bdc
9bf9
9b9e
d6986b
93b5
##ecdfe
1575
##36286362
4afe
8bd1
97fce
61e1
8e3c
b095
4e8d
9074
##fd7dc5a
60f8
429fd7dc5a
0ba7d
435e
4276
e6b7d9
3bf2
4c40
9688
afb5ee70
a07ac654
caeb3818
52607e8fd
8113
9bb9
a98abae
##f57bdd40
004aab7
##3339c5b
868a5460
95a5
aceb23905
b562c501
b31e
d82fab16
##938db
##577b058f
##d2157bc
2d658d2c
2fc3339c5b
4a42
814e
d38f479d
df6e
eaefbad
##6c847
##a0224bc
1a148a0224bc
3f1c75c9e8
3d26bc3d
5c8f52bd
6a763803
6f9ecdfe
676a577b058f
72b4858f
9c7ec218
beb938db
f362f57bdd40
##93c1929
1162e278
##57dcd6
552636286362
189116b07969
##085d739
##9717de9
4b4dd551
01d570b0
45d86085d739
63fe193c1929
7861d247cafa
91793d2157bc
d6986b54
97fcea79
429fd7dc5a3f
0ba7d9717de9
e6b7d957dcd6
52607e8fd350
a98abae6c847
004aab7a9785
aceb23905ebc
b562c5018eaf
2fc3339c5b5b
eaefbaddee9d
3f1c75c9e874
9c7ec218365e
095
1b
4ed
79
89
a3
c4
pla
##7f
##7d
##ment
##cement
##004
##008
##466
25775
261
##922
276
placement
091
71
8b0
a4
ab
bc
##bf
##9f7
##01c
##0c2
##951
##316
##590
##280
2560
093
178
243
247
457
4dc
497
464
452
4d8
5c
500
67
898
Base
b68
f1
f8
you
##4a
##668
##638
##f01
##f02
##0a
##1a
##8a
##87
##246
##e3
##c0
##mo
131
##fad
remo
##fb1
##469
25774
##0e1
066
##21a
260
269
##940
252
20GB
too
##661
##061
##9bc
272
372
##20d
242
2560MB
young
remove
0e
048
2aa
278
231
3f
367
448
447
434
4df
5e
65
72
806
8b2
c6
d7
e1
ec
ea1
f3
ro
##4f
##6e
##b3
##9a
##9d
##8c
##e61
##3e4
##341
##ot
##936
114
117
##6217
##74a
##275
##a77
##ab2
##567
##2dec
##211
##ea3
265
##f82
##517
##e7c1
##f42
##d8c
275
##d45
370
##cb6
4e84
4e46
40e7
4eb1
root
0f
195
1e1
237
297
298
282
224
371
366
392
302
324
408
437
495
451
4e7
430
4fc5
5e0
611
602
74
7b
77
818
993
998
a6b
b3d
bac
bbb
b61
c1
eb
e8
e3
f6
fb
f2
fc
##65a
##927
##2ab
##798
##378
##d3c
##ts
##011
161
##dbfb
##410
##fa8
##5b8
##961
##00e
25791
##390
185
188
##540
##786
4761
47c2
582
125
120
##950
##2d9
##9876
##38b
251
145
##d80
##d8ea
##040
277
##028
373
##f65
##0b3
280
303
##25f
a6d0
a7e9
be64
b413
25998
4ed4
094
0GB
1d
197
171
190
2f
2d
241
227
221
236
292
232
226
228
3A
321
351
358
352
3fb1
493
446
44c
418
456
494
4f8
433
4960
4fd7
4384
474a
571
569
64
6c
676
6f82
75
74b
82
8d
826
844
8c9
89bc
9f
996
918
927
999
a14
ae7c1
b86
b384
cf
c004
c922
db
d8
dd
d47
d3f
d2e
e5
ea
ee
e008
fd
fe4
f36
##6a
##602
##bfe
##13
##1ec
##948
##291
##231
##7c
##730
##e0ea8
##eab2
16c7
##e4927
##db8
118
11917
100
##0c5
##fae
54e1
545a
##fb8
##fb3
##ce8
##a47
##a4cb6
08d5
##000e1
##46fe
##3a921a
25779
319
31d0
3145
##acc
##391
##392f
##62bb
186
182
##54b09
##da2d9
##689
588a
##9752
##9779d
##97602
##a70d
##a720d
##9c865a
##888
##88d8ea
4077
128
122
121ec
170
179
##430
##431
##05c
##052ab
##2d8
##98e9
4112
##369f7
##949
##3bea3
##380
##3854b09
##f8786
255
250
253
092
09e7
09d8
076
144
14a4
##510
4806
##580
420
428
422e
##52275
##07ef
##0797602
##66d8c
##047
##0407ef
##111
##11a6
##06900
##06f8786
##3286
##312c4
##f28
4c86
##fc63
##5a668
##5a052ab
##2652275
##bb62bb
##020
##029
##67bfe
##ity
##d4eab2
##a5d
4637
##5c11a6
##f9d3c
##28aa
98e8
ba25
381
445a668
4368
945b
853
##f001c
##60a5d
95fb
b3e4
432b
bddf
7c9876
8b392f
81f2
560407ef
b1be
3a67bfe
a107
a1378
512MB
##73a77
8f74
8ff001c
##ebc5c11a6
##78507
416b9c865a
4e4e
aaea
bb31
b416c
441a
c8e4927
d406900
ac97
83a70d
9a78
a588d8ea
c53a921a
d20b3
79fc63
c4a0
8b046fe
##31678
5005
67b1
b680
##6387d
##f0128aa
##f0250
06631678
0e66d8c
2aa6387d
4df3e4
8b2a
c6d4eab2
ea160a5d
##517f42
1e19
5e0f9d3c
a6b9779d
b3d0
bac0797602
bbb5a052ab
b612
##dbfbd5
74b000e1
8c9d
a149
ae7c1466
b863
c00498e9
c922a720d
d473bea3
d3ff0250
d2e2652275
fe4bb62bb
f36ebc5c11a6
119173854b09
545a517f42
08d50ea8
31d09752
31453286
121ecfae
445a668da2d9
7c98765b
8b392fdbfbd5
560407ef2dec
3a67bfe78507
a137806f8786
8ff001ca4cb6
416b9c865af4
b416cf0128aa
c8e4927369f7
d406900e0ea8
83a70d92
a588d8ea6217
d20b3fad
79fc63ab
8b046fe73a77
0e66d8c312c4
4df3e4ef
bac079760244
bbb5a052ab1b
c922a720d047
d2e2652275de
fe4bb62bb25f
545a517f42f9
1f
1c
193
196
198
2b
2a
2e
290
244
3e
3c
339
394
338
496
44d
498
458
499
4e2
5b
5a
518
6a
601
635
678
621
614
778
771
745
893
846
92c
935
937
936
994
9a8
914
Re
The
a27
acc
bf
c7
crea
di
e4
e7
its
##4e8
##b0c
##f99
##1f
##956
##7e
##ef5
##cf
##339
##d41
##tch
##Lis
##018
##01e
162
##e4d
##351
##a91
115
116
111
112
105
0006
##571
##579
547
##a4b
##967
##d68
080
537
318
317
##620
##621
##911
181
##4ca
##080
##081
##780
##789
##78e
##480
##481
##749
##743
##271
##681
##0e3
049
##880
214
match
##438
##050
##c4f
##215
##210
##980
##98a
##361
012
2646
2608
##386
##387
075
##511
##de67
033
482
##e77
425
424
##070
##928
##32a
##314
2735
##e15
##bb1
##f50
##a8f
##f9a
##34f
##349
225
222
249
577
503
InstanceLis
##16a
563
##e6a
25784
created
did
InstanceList
0c
096
0b8
097
021
101
146
148
156
192
235
246
208
248
218
294
230
301
300
368
337
388
304
306
347
382
359
3bb
376
369
330
320
401
4ac
4b8
4da
4ab
488
4d1
4ca
459
467
4a1
5d
557
562
578
505
572
528
646
6b8
618
697
664
699
634
629
616
673
76
701
757
718
797
792
731
772
714
777
710
742
878
836
858
852
831
859
8a1
872
820
946
991
997
9f8
906
947
992
931
9bc
976
979
977
a0
a08
b35
b08
b280
ce
d5
dc
d16a
e0
e2
ea4
eb2
id
zon
##554
##531
##5f7
##5fc
##f93
##f3d
##f54
##f07
##f06
##037
##0f7
##2b7
##250
##220
##768
##721
##7e1
##e91
##e64
##300
##321
##338
##me
##2cb
##2c1
165
163
##930
##93c
##dbb
##db1
##a94
113
103
##0cb
0009
##41b
##411
##419
##fa2
546
##e4cb9
##fba
##fbe
##a40
##a4e
081
538
##c2ce
550
551
312
313
##ac9
##398
##ility
##b76
##b78
##912
184
##dca
##189
473
##273
##0e8
##370
584
581
##971
##a71
##710
##719
##71d
044
##ability
##645
##649
40d2
##560
173
215
217
##051
##d12
##959
##958
##217
##981
##989
##982
##987
417
##36c
2600
2648
2634
##94b
##3ba
##fe98a
2597
2582
073
##51a
861
##589
##999
##e8b
##523
##075
##660
##332
##069
##920
##320
##328
##f24
##f20
##f2e
##fc1
##fc7
##265
##261
##f55
##f5c
513
153
##d49
377
##name
##e2a47
##f6f
##a53b
##cb3
##309
##c6d
923
##eef
##ee00e
##a0b
##0be
385
284
287
355
912
945
949
##600c5
##e9e
##1d7
##29d
##409
##a63
325
##2e5
349
610
0010
689
hostname
availability
##3419
4e7f
4f81
d16a600c5
zone
##e4cb9743
##fe98aee00e
##e2a47fe98aee00e
d16a600c5e2a47fe98aee00e
d16a600c5e2a47fe98aee00ee4cb9743
0a
0d
041
046
0b7
038
0ba
199
293
288
299
2c6
393
362
374
327
356
395
329
4db
4a9
40c
4fa
4ce
4d6
491
4f1
43b
466
492
4f7
4a8
4d4
490
469
4590
541
508
599
566
504
567
524
561
529
6b
6f
69
62
693
691
627
637
671
605
698
636
638
658
633
647
692
667
630
650
6c8
603
642
623
649
7a
735
793
754
708
774
727
705
736
7fe
766
706
767
734
750
779
720
740
775
801
835
85b
8d6
800
848
8dc
874
837
864
843
847
892
802
8e2
834
8d5
850
879
819
82a
816
9ed
954
908
978
964
956
94d
905
951
958
952
96b
961
944
97b
969a
9029
a2c
a9c
ad2
a82
aa8
ac6
a72
ab4
b9
b01
bce
b96
bec
b62
b54
bab
b67
bd4
b6b
bb1
bd9
ba4b
cc
cac
cfe
c82
c90
ca1
c86
d0
d9
ddb
d67
e9
ebc
f5
f9
fed
fb8
f33
ip
##5e4
##5d6
##591
##521
##598
##559
##439
##4b7
##408
##65b
##658
##69b
##bb7
##b36
##f48
##f88
##f51
##1e
##9ed
##943
##9f1
##a35
##a3b
##a34
##a2f
##8aa
##235
##200
##799
##732
##eaa
##e56
##e2d
##c9b
##307
##3cb
##d95
##df4
##d52
##d07
##d9b
##d7b
##v4
##019
##erva
##2c7
050
052
166
169
168
167
##e48
##e4a7
##359
##357
##dbc
##a90
##ed6
##ed1
##ede
##edc
##ede4
##3d1
002
##412
##fab
##576
##570
540
549
##fb6
##fb0
##fb9
##fbd
##ce7
##9c0
##9c69
##a4f
##962
##9629
##d63
089
088
##d23
##462
2577
25740
558
315
##ac5
##395
##b0b
##b0f
##b0a
##b86
##b8a
##918
180
189
187
##543
##4cc
##da1
##088
##08d
##78d
##482
##dc1
475
470
471
477
##27b
##270
##279
##68a
##0ef
##0ee
587
##a72
##716
##712
064
##642
407
##56c8
177
219
##4d0
##43a
##0514
##0520
##d16
##d19
##d1e
##f17
##c45
##9552
##9550
##2d5
##2df
4b38
4bde
##2100
##2150
##ead8
##9861
416
410
411
419
2641
2697
2671
2611
2676
2661
2672
2665
##94a
##3b6
##3b9
##389
##3830
##f86
##fef
##fee
2596
2556
2594
2558
2517
079
077
147
207
##de51
865
863
484
4846
483e
##e73
##f45
42fe
##520
##522
##072
##07e61
##d8b
##d8f
##334
##330
022
##9ba
##9b3
##476
##47c
##826
##828
##3159
279
2708
2748
2727
2707
2732
2722
##f72
##e17
##e13
##bc8
##bc7
455
450
453
##d02
##fc8
##fc2
##fcd
##5ae
##a85
##cc7
514
510
##02a
##670
150
##d4a
##fd5
930
469c
##c60
##c6c
925
920
929
922
reserva
##f9f
##345
##a0a
985
981
389
383
##3c1
789
##440
220
223
910
2491
##c87
942
885
963
4d59
##f00c
##c1c
840
##c53
##19e
##19ff
##775
322
323
8171
##553
##030c
615
##e65
365
from
00094
00092
2717
441c
2747
713
4979
464a
4d81
5cf6
4d14
ipv4
reservation
0931
071
0e2
0a1
0b1
0acc
1a
1ce
154
1ab
152
159
1b1
1c3
1c4f
2c
2B
2d2
2b0
291
2742
205
2f1
238
2df
2466
2e15
335
357
346
378
397
305
3e7
307
332
3bc
326
3e2
361
334
350
3d9
3c7
360
3a6
3e88
3be
3fa8
3fb6
43d
4b0
4ec
462
478
468
4de
431
4f2
4d0
43f
4ae
4647
4d1a
4350
4561
4951
4398
4f5c
4389
4fc8
5f
5ce
591
574
568
595
521
5de
507
506
5f7
590
579
560
5ad
5e5
5a53b
6e
6ed
600
608
656
643
695
694
652
607
6d8
606
632
659
626
6cc
60b
679
620
655
609
622
663
665
6246
6db8
70
7d
741
700
739
762
7da
768
764
788
798
794
738
751
752
7d8
711
776
702
761
744
7c8
760
716
712
773
723
765
7f48
7ede4
8fa
857
8ce
896
8d2
8ec
808
897
8a7
856
821
894
851
8de
8e7
807
882
832
8a8
828
8d7
8049
8e89
875
825
8211
8f65
82e5
827b
939
948
974
9ab
943
938
911
926
9cc
902
95c
972
903
9c9
99bc
9215
9dbc
Successful
Tr
al
a0c
a46
ab0
ada
a71
a06
afc
a5a
aeb
a69
ae2
aa5
ab2
ac8
a7b
ac1
a22
a70
a951
a567
a928
a68a
af86
afee
be4
bdb
b0c
b9c
b37
b97
ba7
b88
b43
bf1
b3b
b9b
b92
bf7
be2
b24
bae
bb5d
bd27
bff8
b9f7
b480
b1d7
b2d5
c0
c2
c3d
c3a9
c78
c4d
cc4
cf8
c58
ca8
ceb
c34
cd5
c94c
c5f
cbb6
c93c
dd6
db8
d68
d4d
d04
d69
d30
d34
d86
d914
dc0
dc60
ed
e78
e48
ef1
eca
eee
e23
e1b
ef2e
e265
f2c
f4c
f74
f68
fea
f11
f86
fc1
ffb8
gro
si
ten
##593
##5fa
##557
##5aa
##5a7
##53b
##551
##532
##5d4
##530
##5a4b
##42c
##496
##400
##491
##451
##4fc
##4f5
##4ef
##4f0
##49e
##42b
##4e77
##60c
##600
##6b8
##637
##651
##6e7
##630
##6a0
##65d
##6df
##6ef
##6f0
##ba4
##bac
##ba7
##b64
##b99
##bf2
##ba3
##b65
##bfa8
##ffa
##f4d
##f31
##ffb3
##f9861
##0aa
##0f1
##038
##09b6
##1ac
##197
##1c4
##9db
##9a9
##941
##957
##95b
##9d2
##9b0
##908
##9fd
##an
##afa
##ab7
##a68
##ang
##a0e
##a64
##a07
##a59
##a30
##a29
##afc7
##84
##8f4
##819
##241
##2ac
##239
##208
##256
##206
##259
##290
##2ee
##796
##748
##771
##726
##779
##7070
##e9c
##ea7
##e05
##eea
##e52
##e32
##e5a
##e26
##ebb
##ef9
##c41
##cb0
##c54
##c56
##c33
##c5a
##cde67
##c93c
##301
##3b7
##388
##3ca
##311
##3fd
##3a3
##3430
##3649
##3476
##dd6
##dd2
##d00
##daa
##d46
##d98
##df7
##d5a
##d3f
##dd9
##dfc2
##ps
##ue
##unc
##ups
##T05
##014
##01a
##012
##0172
##0120
##0110
054
051
059
160
169552
16T05
##e44
##e4fa
##35a
##358
##35e
##353
##35d
##354c
##3560
##3580
##939
##937
##9300
##9339
##9391
##9348
##9370
##93d5a
##db7
##db2b
##db4b7
##a9c
##a95a
##ed0
110
104
109
102
1065
##3da
##3de
##3dd
##3d97
##3d31
##0cf
##0ca
##0ce
##0c88
##0c7e
006
003
0005
1332
13cf
##41a
##4191
##41f6
##4130
##4161
##4120
##415fc
##faf
##572
##57c
##5739
##5768
##5726
##5760
543
543e
##fb2
##fba4
##fbab
##fb31
##fbc93c
##ce2d
##9c5
##9c1
##9cdd
##5b6
##5b7
##5be
##5bf9a
##5bb0f
##5b19ff
##a48
##a402
##a45e
##96d
##9657
##96fb
##9691
##9611
##9689
##d66
##d6a
##d67
##d6d
##d6e6
##d6206
inde
084
086
08c8
##d2d6
##00f
##00a
##aa6
##aab
##aa8
##aa64
##aad4
##4664
##46cc
534
539
532
533
2571
554
556
553
314
311
31bd
##acf
##ac82
##399
##39e
##39d5
##b0af
##b7b
##b71
##b77
##b71b
##ec7
##ec43
##ec716
##629
##624c
##6251
##6253
##b80
##b83
##b838
##b89f
##916
##91f
##9151
##9129
##91431
18c3
##549
##542
##5452
##4c1
##4c7
##da0
##da8
##da2
##da3
##0800
##0891
##781
##788
##782
##783f
##7832d
##489
##487
##48a3
##48b5
##484f
##745
##744
##740
##7474
##7440
##74aad4
##18b
##180
##181
476
4762
4751
4752
4707
47d0
4726
47c1
47a6
47e6
4753
47ba
##276
##27d
##2700
##2762
##2721
##279b
##680
##6841
##68b0
##6851
##68469
##0e11
##0e34
##0e7f
##379
##37c1
##37d40
583
##97b
##97f
##979
##979f
##9712
adf3
##a7a
##a7e1
##71b
##713
##7130
##71b6
040
##390838b
40b7
4091
4038
4052
##569
##56b9
216
210
212
##43f5
##4380
##058
##05e
##053
##0500
##d17
##d1ead8
##f1f
##c44
##c40
##c4a
##955
##953
##9530
##2dd0
4b35
4bdb
4b91
4bbc
4bee
4b28
4b20
4bd7
4b1c
4b23
##2139
##210f
##ea0
##eae
##984
##9801
##ca2d8
415
414
413
4154
4192
4131
4102
41cb
41c6
4170
410f
##366
##36f7
##36e6
016
01451
2657
2639
2654
2618
2605
2694
2652
2633
2659
2630
2614
26333
2691431
##94f
##9471
##3bb
##3b58
##381
##382c
##3891
##f8f
##f81
##f89
##f8d
##f8f6
##f81c
##feb
##fefce
2508
2598
2551
2555
25567
0901
0926
072
149
20d8
##5102
##51395
##deb
866
860
867
034
032
031e
033d97
480
489
487
489c
48b7
484c
480e
48c4
482b
48af
48b5
48c3
##e7b
##e7fa
##e766
##e77b
##58b
##581
##582
##58d
##5810
##58210
##f4e
##f437
##99e8
##e856b9
426
423
4201
42b0
4234
420b
42af
4287
##526
##52910
##07f
##079
##07a
##d81
##66b
##044
##331
##33a
##33e
##3396
##3340
##33371
##119
##ea4c
020
##065
##06a
##067
##9bb
##472
##477
##82b
##829
##9268
##9269
##325
##3209
##32e5
##31f8f6
270
273
2796
2762
2774
2718
2733
2706
2726
2790
2755
2775
2753
##59484f
##f70
##e15c
450c
4556
45f1
455a
45a5
##f2b
##d0bb
4c30
4cc6
4cbe
4c81
4c8a
4c87
4c5a4b
##urity
##fc82
##fc6b
##5a3419
##2619
##bbb
##bbd
##bba35
##bbe15c
##f5f
##f5ec
de51a
dedb4b7
##a8b
##a8e
##a8f6f
##765
##760
##762cb
516
##6790
##67f00c
##d4967
##d4210f
##ebd
##fdf
##fd9
##90bc
##9090
##e2a
##e2d19
932c
##f6b
##f6ab
##f6fe1
##cb1
##cb9
##cbe
##cbd
461
463
46e4
4641
46d2
46b8
464c
46f8
4631
4610
46b5
##30db
##a1e
##c65
924
##5c8
##5c2
##5c3
##249
##61739
security
##725
##7290
##34b
##340
##34e
##d5e
4f95
4fea
4f36
4f3b
##b12
##b1d
##a068
##3f9b
##3ff99
##3f955
chang
##28f9f
29b89f
##1439
986
989
ba54
##0bf
##0b44
##0ba1e
384
387
3858
445
44a4
4448
4421
4406
44fc
44a5
44f0
44b9
##bd7
##bdd
285
286
281
2857
2895
2832
2809
4948
4997
49a5
##3c5
##3c7
781
7871
##509
##503
##b29
##b22
##b23
309
3021
##4422
2296
2254
2238
2292
launc
##2031
4e96
4e21
4e98
4e66
917
91c5
240
2451
##d9f
4346
43a1
570
9452
8521
##ef51
889
887
960
96bc
96ee
4dd4
##c1f
##c13
849
8401
ae34
ae3c
##c7c
synced
953
9b5c
##19f
##19a
##2a3
##773
d6e9c
b327
b3ab
##1631
8093
bd08
bd3c
bddd
##3e5
##3e6
##a69b
1572
##addf4
4afb
4ad9
8b5b
8ba71
f0d7b
812
813
813d
8179
565
56390838b
fff6fe1
##9149
##9b6987
975
9756
975ae
9334
933a
b139
b14d
b199
b179
##d741f6
##d7c13
##f145
d96d
##2e3ff99
##64797b
345
612
613
b8c7
00101
00105
##0941
363
a12a
##af937
8e5a
8e64797b
873
8791
87e8
87e5
##6d48b5
2688
a63d
a6f6
a6c5
##4207e61
##c9d2
00062
00064
00090
0009151
25858
683d
90f6
##4901
##49ae
##a2a8
26266
26204
a7bc
##65387
##f3a
##f3e1
60f50
435a
##3a28f9f
9d41
9d18
9d79
b2fc
40e1
4c49
9cf7
##89d
9bbb
af37
a9831f8f6
b459
b42e
b4a3
##d571
26618
4418
b566
d4fbc93c
##6cdc
##0d3f955
##d26d35
a8ff
a237c1
26726
26776
8a5b19ff
8a37d40
8c36e6
99d8
9a74aad4
c5a4
26308
89a
a364
##008030c
7159484f
abf5
##bf0514
##0c20c
4579
4dca
4dc3
4dcd
8986
##1ae2
##24627
##0e14d
25290
27241
##20ded6
3ffd
4345
4342
434e
4dff
72bc7
806a
8b23
f34ca
f3a7e1
##3412f
##d45e2d19
297ec716
282888
366a
437c
611a
74354c
9933
998c
c1c1
e3c6c
fb99
fbae
f228
fc5a3419
##79818
5825bf9a
2fd26d35
3A00
4939
44c7
44c3
44c8f4
8265
8445
9183
927b
e54664
eadb
##05cc2ce
##51068
428b
3eb0
496a
44d8
498b
4586
4e23
6a67
8465
92c3
9a8de67
a27d0bb
a27af937
acc5bb0f
##4e8a53b
##b0cad
##34f36f7
0b851395
24864
4acd
4da6
4ab4
467c
699eea
7420e34
820a
a0893d5a
b086
b083419
ea4d9b
eb29cdd
##f54dc
##f06f
##2b75e
##7e1bb
##3329c69
##069d7c13
0b7fefce
0bace2d
2c6f
4db5
4fa0
4903
6f00
69e4
6c809b6
7fe0
85b3
8d6f
8372
9ed2
94d3
97b9
a825
ac6e
ab451068
b677
cfe8
c823
d0d1ead8
d6799e8
ebcd741f6
fed0e14d
##8aa71b6
##3b906
##de517832d
##e17cb
5cf6a402
0e22e3ff99
1ab4e8a53b
1b14207e61
2B00
2b0e5a
2f1a8f6f
2dfde517832d
3e22b75e
3e88afc7
3be0ba1e
3fa8a45e
4f22
5ceaa64
5f705cc2ce
5a53b008030c
6cc8aa71b6
6246e77b
7ede40d3f955
8ec5
8a73
95c0
Successfully
True
all
ab2e766
ac8b
a567979f
afee069d7c13
b9cd4210f
bb5df4d
b9f7dfc2
c7820ded6
c4d0c20c
c94cf9861
c5f46cc
c93c67f00c
dc0bbe15c
eee9
e265ea4c
f1165387
ffb8f145
groups
since
tenan
##a2993
1695526d
##9370645
543e2dd0
##d620633
index
##6253a8b
4707d45e2d19
47c1f81c
4beefba4
01451338
033d97b9
4c5a4bf8
de51ad620633
dedb4b73
changes
29b89f9b6987
launch
d6e9cfb8
##addf40
8ba713a28f9f
f0d7b9370645
56390838beef
fff6fe1a
975ae6253a8b
60f50a9d
a9831f8f6d41
d4fbc93c48a3
a237c1a8
8a37d40f54dc
8c36e637
9a74aad4e4fa
72bc73329c69
f34ca27d
f3a7e1addf40
2828889b
74354c38
e3c6c34f36f7
44c8f4e856b9
e54664bf0514
9a8de673412f
a27d0bb52910
699eeadf
7420e34e17cb
b083419d4967
ea4d9b17
eb29cdd762cb
0bace2d3b906
6c809b6cde67
d6799e8bba35
ebcd741f6fbf
0e22e3ff995b
1ab4e8a53b53
1b14207e6129
2b0e5a6d48b5
5ceaa6424627
5f705cc2ce6b
6cc8aa71b618
6246e77bc2ce
ab2e766f
b9cd4210f3ba
bb5df4d7e1bb
b9f7dfc2f6ab
c7820ded6511
c94cf986171d
c5f46cc79818
c93c67f00c73
dc0bbe15c936
tenants
035
0db
0ed
0fa
039
062
078
018
027
068
037
0ed5
0ab
02d
098
0f4
0bb
0a8
0d5
0df
0c8
0c1
0b9
0350
0d2c
0fad
0d3c
0961
0f28
0e6a
02c1
0fba
0c6d
078d
0fcd
00ce
0a48
0ea0
0f3a
1e
1db
1fa
1a9e
19335
1d6
1da
174
1b09
1d1
194
151
1d8
14c5
1f2
1c1
1960
1f8c
1ff
14c4
1cd
1f02
14ca
1a40
1b76
1f20
1fc1
19c0
1f17
1a85
1c87
1c53
1b77
1ea0
1f89
1e7b
1a8e
1b23
22c
23d
2e4c
2fb
2ce
25b
24c
2a7
2d1
2e8
233
2a8
2e2
2a5
2a1
2446
234
2c8
2c7
2ad
2ac7
2b9
2d3
2be
2a2
2f3
2c3
2b6
2b16
2eff
2922
2bf
2469
2275
2386
20e8
2332
2f55
2c1c
2f5f
2bd7
23c5
32c
3e4
3db
30c
341
3ce
3a4
3b7
3b8
391
354
308
348
3a7
3ab
364
343
3d1
32d
33b
3f8
399
3d8
33fb
333
331
3e1
3fc
3f5
390
3a0
340
33e
3042
3c3
3eff
3910
3940
3661
3f65
3ce8
3579
398a
3e15
3dca
3f24
3f6f
30be
3d7b
3a90
3d4a
3d98
3d5e
3b12
3c1f
4a9e
4dba
4c2c
4ea4
4f5
4f6
4b07
43c
462e
4a6
4a9d
4fbf
4b87
438e
451e
4460
4d40
4929
4371
4ab6
4910
4004
40c2
4316
4fad
4469
4661
4d45
4fb3
4ce8
4689
4f28
4d68
4749
4386
4314
4a8f
4b76
4a71
4fc7
4fb0
4f45
4f9f
400a
439e
4b7b
49bb
4d9f
52c
535
593
5ed
596
5d6
5b0
5da
5dc
527
50e
597
564
5f1
594
511
592
5e1
576
502
56b
5ee
520
5c8
5ef
5c7
5e9
5d7
52b
5e6
5ff
5d3
5e81
5fad
5211
5950
5681
5f93
5fba
5fbe
5217
5bc8
5fc6b
5ebd
5fdf
5cbd
5f3e1
66
6e4
6a9
60c
69c
6d6
639
654
674
668
60e
688
693b7
6d1
62d
6fe
6e8
604
682
65a
6d4
690
669
661
672
6b1
628
6df
686
62f
6ef
660
619
62a
677
61d
640
69e
675
670
625
6e88
653
6350
6dd
6004
64a
6e61
6d8c
665a
6948
6fb3
6f28
6d41
6b76
694b
6c6d
60be
6a63
6d07
6fd5
619e
6fb2
65b6
6aab
6c4a
7db
75b
746
73a9
7b7
7b8
748
7dc
737
7ab
79c8
756
743
7f1
795
721
7ca
7de
758
799
707
704
79b
747
782
732
7bc
7f2
726
7fd
790
769
730
7ee
724
7a0
7df
77b
7c7
7e9
71d
703
7f14
7042
709
7ff
770
725
7e88
753
7d3
763
7dd
715
7e61
73e4
7888
7510
7f28
7ef5
7980
7a40
7a4e
7cb3
7c6d
73cb
7e26
8e4
8db
841
89c
839
862
891
871
8742
8ea
8ca
8fe
899
8d8
84c5
833
89b
8f7
8f2
8d0
876
8d4
8eb
8fd
890
830
8c6
824
8a0
83f
8d9
886
8c1
829
82e
8a51
8f4a
8e6
8cc3
8ff
870
8fd7
8d57
84c4
8475d
8fc5
8008
8fb1
80e1
821a
820d
8936
8d45
805c
8029
801e
84ca
8215
8f9a
8349
8b78
8075
8320
8eef
8edc
83d1
8b8a
84cc
80ee
8712
84d0
8c45
82d5
8fef
8d02
8cc7
8c1c
83de
80cf
8ac82
8b7b
8b83
8044
8bbb
8cb1
80bf
8bdd
8c7c
901
9e4
90c
9fa
9fb
900
9ac
9b7
9a7
971
995
921
9fe
9e7
907
9d8
982
932
9f7
9d0
9fc
990
969
9a5
9cb
9a1
9d5
9b1
9ae
90b
9cce
9c8
9f0
95e
9c5
9a6
9ad
9ea8
9a62
9aa1
9a51
9a7c
9edfc
979d
9c2
9f57
9b16
9590
921a
9d8c
9d45
9390
9d80
9510
9018
9d68
9481
9438
9f50
9f9a
941b
9ac9
971d
9265
9f55
90be
94cc
9da1
9fef
9fcd
9a9c
99c5
95b7
9d67
9b80
9c44
9f437
9fd9
9d9f
Ru
Wh
ae4
adb
aed
afa
a57
a96
a4c
a18
a4d
a05
aca
a94
a38
a51
a52
a04
aud
a31
a59
af7
ae1
af2
a76
a67
acb
aee
ab1
aa0
a3f
aae
a5d
abd
a44
a20
aef
af0
a5e
a60
ac5
afe1
a960
a16
a55
a17
a38e
a9dc
a75
a58f
and
a49
ac3
a9e8
a89
ab16
aea6
ae70
a910
a280
a061
a275
a38b
a028
a0c5
a2d8
a789
a387
a314
abb1
a34f
a0cb
aac9
a189
a0e8
a36c
a320
a2e5
aed1
a543
a78d
a56c8
a334
af72
aa0a
af00c
a35a
aaa6
a629
a91f
ac40
a3bb
a33a
abbd
a340
a19a
a2a3
b2c
b93
bed
b00
bb0
bb7
bb8
b91
b78
b18
b27
b9c8
b4d
bd1
bc4
bca
b38
bf4
bd8
b04
b47
be1
bfc
b26
bf5
ba8
bcc
b90
bcb
b30
bee
bd5
bb2
b79
b20
b2f
b16
b40
b049
ba9d
b3b4
be89
b2b
ba84
b22
b94c
b42
bc9
b79d
bfce
bb6
b910
bfc5
b466
b922
b469
bd45
b390
b38b
bd80
b25f
bce8
b431
b956
be4d
b743
b271
b438
b16a
be6a
b2cb
bdca
bd12
be8b
bf24
bcb3
be9e
b29d
bfb6
bb8a
b0ef
bd19
bd8b
b828
be13
ba85
b02a
b19e
be65
ba9c
b5be
bd67
b399
b4c1
bda8
b745
b058
b06a
bf2b
b5c3
b725
b34e
b3c7
b19f
b2a3
c3
ca9e
cfb
c5b
caa
cb8
c91
c54
cdc
c37
cab
cc91
c56
cfbb
c52
c92
c32
c31
c26
c67
cf6
cc6
c6b
cdf
c5e
c19
c77
c16
c03
c17
cd7
cb87
caa1
ce6
c10
c73
ca2
cf3
c9e8
cd86
c2b48
ce3
c2d9
cf65
cfb8
c0e3
cc4f
c0f7
c273
c51a
ce9e
cd52
c43a
c9ba
cc53
c9a9
cdb7
cfaf
cda0
c745
c953
ce7b
cbdd
cb29
c3e5
d1
d3
dd2
db0
dec
d91
dda
d08
ddc
d74
deb7
d56
d43
d95
d21
dfe
dde
de8
d52
d07
d66
de1
dbc
dd0
df5
dcc
dfd
d5c
d28
d14
ddf
dc1
dc7
d3b4
d2b
d75
d09
d70
d1c
db9
d49
dbe
db4
dc2
db6
d81
d008
dd80
d13
dfb3
df99
d01e
d215
d989
d94b
dfc1
d3d1
db0a
d4cc
d334
dbc8
dd02
d18b
d97f
d065
d765
dd5e
d1ae2
e2c
efb
e96
e46
eb0
eb7
eda
edc
e0e
e9c8
e36
e38
efe
e58
ee8
e66
e06
e92
ef7
ee1
ed0
ea8
e67
ecb
e30
ec6
e6b
e5c
e446
ea0
e28
ec8
e7b
e5e
e2a
e1d
e4b
e16
e3e
e03
e2e
e000
ea3
e54b
e42
edd
e89
e81
ed2c
e246
ee61
e948
e291
e05c
e018
e78e
e0e3
e314
ef07
e930
e0cb
e959
e412
eac5
eb86
e56c8
effa
e5726
e82b
ec9d2
fe
fdb
f41
fce
f96
f00
f78
f48
fdc
f0e
f64
ff1
f95
f98
fla
ffe
fe8
f9b
f47
f31
f59
ff7
fbb
fd4
feb
fa5
f30
f61
f5e
f19
f29
f914
fd7
ff14
fc3
f9e8
fbb6
f6c
f466
f956
f78e
f32a
fdb1
f981
fe8b
ff55
fcb3
fe9e
f29d
f408
ffb9
fd63
fb0b
f0ef
f2df
fd4a
fa0a
f553
f4f5
f0ca
fec7
f71b
f82b
f32e5
fcb9
f5c3
f0bf
f509
fb22
pu
##535
##55b
##546
##539
##5dc
##5ed5
##536
##5fe
##5de
##5e7
##5e8
##5d8
##504
##506
##5e1
##5d0
##502
##5eb
##5fd
##5c6
##53f
##50b
##5350
##5590
##500e
##5390
##5540
##50c5
##5081
##5f20
##5309
##5270
##5d8f
##5ec43
##5f81
##5582
##5f2b
##5f6b
##5340
##401
##441
##4a4
##4ac
##4b0
##4ec
##40e
##497
##452
##447
##492
##4ee
##428
##4b2
##4e9
##4af
##4e0
##4501
##4e4d
##4081
##40cb
##4999
##4249
##6e4
##63d
##696
##6ec
##618
##6742
##6d1
##6ca
##606
##659
##6bc
##6f5
##6a8
##676
##6eb
##6f6
##6a1
##6c6
##63e
##6000
##6ea2
##6eaf
##6061
##6571
##6e6a
##6051
##6e8b
##6f6f
##6c1c
##bl
##b01
##b2c
##ba9
##b41
##b57
##bd6
##base
##b37
##b97
##beb7
##b4d
##b38
##b58
##be8
##ba5
##b6b
##bee
##bd5
##ba0
##b28
##bae
##b5e
##ba6
##b6f
##b6cb
##b015c
##b49
##b951
##bacc
##b928
##b982
##b576
##be7fa
##fe4
##f0c
##fdba
##f96
##fd6
##f46
##fec
##f68
##f97
##ff1
##f2d
##fca
##f36
##fd8
##f66
##fd71
##ff56
##f5a
##f67
##f3f
##fea8
##f0c2
##f961
##ff65
##f621
##f749
##f980
##f928
##ffbd
##fd23
##f712
##f94a
##f279b
##f382c
##093
##041
##0ec
##0b8
##078
##0a7
##071
##021
##0d8
##031
##0d0
##0a8
##0f6
##0a5
##03f
##03c
##0a3
##0ff
##0af
##0969
##0d80
##0acc
##0430
##0438
##0dbb
##0912
##0719
##0560
##0217
##0989
##0999
##0330
##00172
##0624c
##101
##193
##191
##195
##121
##151
##1d0
##1a0
##1ae
##129
##103
##1a3
##158f
##1501
##13a
##1e9d
##1561
##15b8
##1390
##1510
##1029
##1620
##1419
##1398
##1051
##1328
##1270
##1f5ec
##901
##935
##9a4
##996
##991
##9da
##974
##997
##988
##94d
##9d1
##9ea
##9de
##9d0
##9fc
##9a8
##9f9
##9ee
##9d35
##9061
##9080
##9789
##978e
##9971
##aa9
##a5b
##aa4
##ad6
##ad2
##aec
##ab8
##a78
##adc
##a74
##a27
##a88
##a05
##af1
##a36
##af8
##afe
##a58
##af4
##ad8
##a66
##a31
##ae1
##af2
##ad0
##a26
##aeb
##a6b
##afa1
##a3f
##adf
##ad9
##ada7
##a2b
##ad40
##a371
##ad80
##a888
##a880
##aa40
##aa90
##a412
##ab0a
##afc2
##a0c88
##a4120
##a00a
##ae7fa
##83
##8d
##835
##8da
##821
##898
##8e8
##859
##8fc
##890
##872
##83f
##8c8
##8e9
##840
##8a3
##809
##810
##8b5
##8fce
##8371
##8590
##8391
##8430
##8d41
##8081
##8e91
##8b0af
##8180
##85fe
##201
##22c
##23d
##2d2
##262
##2b8
##24c
##278
##227
##298
##251
##2f4
##299
##204
##29b
##2e1
##2f2
##202
##2eb
##2fd
##2b07
##230
##22a
##2951
##2280
##2e7c1
##2689
##2080
##2081
##2789
##2511
##2070
##2971
##2309
##243f5
##258b
##7a
##7e4
##754
##718
##797
##7742
##736
##738
##7fe
##751
##7de
##7d4
##790
##7a5
##7a1
##7d4d
##7c1
##709
##7e72
##7cd
##7940
##7661
##7410
##7351
##7967
##7660
##7ce7
##7330
##7c60
##7a59
##7faf
##7b838
##e2c
##e35
##e93
##e5b
##e96
##e00
##eec
##eb8
##e78
##e0e
##e71
##e94
##e38
##efe
##e51
##ee7
##e33
##ee45b
##e06
##e9b
##e31
##ea76
##ee1
##ef2
##efc
##eeb
##e69
##e5c
##e3f
##e0b
##e3c
##e042
##ef8c
##e371
##ee81
##e922
##e01c
##e749
##ebb1
##ece7
##ef72
##e030c
##eed0
##e0c7e
##c01
##c62
##cb8
##cda
##c08
##cdc
##c74
##c37
##cc4
##c2d
##c36
##c94
##cf8
##c58
##cd8
##cfc
##c76
##c02
##c72
##c28
##c3c
##c20
##cd9
##cf0
##c900
##cd83b
##ca47
##cfee
##c0ce
##ca7a
##c503
##335
##3db
##396
##33a9
##337
##364
##343
##336
##33b
##3f8
##3e7
##3f4
##3e8
##3f56
##3a8
##3a0
##3ae
##3af
##30c2
##3011
##3888
##3271
##3880
##3189
##3c6d
##3b8a
##302a
##3c4a
##3a69b
##d93
##d3d
##dac
##d4c
##d0e
##d37
##d97
##deb7
##d88
##decac
##df1
##dea
##d3b
##d38
##d51
##dde
##dd8
##d31
##d90
##d5c
##dd7
##dfc5
##d38b
##d580
##d928
##dfba
##d370
##d3b6
##d014
##dfeb
##nn
##ic
##iz
##hr
##vor
##010
##01d2
##0108
##0168
##010e
##0164
##0111
##0147
##0159
##01f2
##01c6
##0161
##0128
##0144
##0160
##013e
##01a6
##01ad
##0189
##0181
##01280
##01936
##01a0b
##01591
##01b65
##01df7
##01f382c
##01364
##2c8
##2c2
##2cd
##2c18
##2c71
##2c3b
##2c9b
##2c19
##2ce9
##2cad
##2cd7
##2c25
##2cb9
##2c89
##2c6c
##2c1a
##2c8a
##2c6e
##2ca72
##2c3c1
##2c0e7f
##2c996
##2caa9
056
053
0539
05f7
05bc
0524
0550
054a
057c
05732
0502a
05bac
20138
2011390
164
16e4
16b7
1664
16e7
1602
16eb
167b
16cd
164a
16da8
16984
##e46
##e41
##e446
##e464
##e443
##e405
##e4f8
##e458
##e402
##e477
##e4218
##e4577
##e4384
##e4316
##e44a
##e4387
##e4b36
##e4e13
##e40af
##e4a88
##35d2
##3539
##35ec
##3518
##3571
##3536
##3599
##35e8
##3547
##35fc
##3569
##3561
##35b1
##353f
##35c7
##3519
##3509
##3522
##3542
##3573
##35dd
##357d
##35540
##35e15
##35598
##352c7
##35462
##35d6d
##3543f5
##354ec
##35262
##352c8
2017291
##93f
##93a
##932
##933d
##93b8
##93b09
##93d1
##932d
##933b
##9338
##9382
##9392
##9331
##9330
##9379
##9360
##9309
##93af
##93d3
##93460
##9380
##93028
##93911
##93019
##93a72
##932df
##93d66
##93b951
##db3
##db98
##db47
##dbd0
##dbb1
##dbb2
##db60
##db9dc
##db6d
##dbb4
##db638
##db2d8
##db9f1
##dbf17
##db94a
##db9c5
##a96
##a99
##a957
##a9ac
##a974
##a968
##a9a7
##a943
##a9ca
##a911
##a99b
##a947
##a9d0
##a95c
##a92f
##a9c3
##a99e8
##a98c
##a97e
##a9a63
##a9c9b
##a99a9
##a985fe
##a92070
##ed9
##ed7
##edce
##ed46
##ed27
##edca
##ed36
##ed07
##ed26
##ed14
##eddf
##edc8
##edec1
##ed42
##ed361
##ed200
##ed576
##ed642
##edf86
##edda2
##ed8a3
11fa
11a4
11d6
1146
11f1
112d
11fc
1134
110b
11bd
117b
1155
1175
1170
110e3
11d49
11c5a
11d00
11f5ec
106
100c
1000
1091
1043
1033
1072
1034
10a0
1055
10042
102e
109f
10d3
10246
10345
10637
100e11
##3d4
##3d6
##3d0
##3d9
##3d27
##3dc4
##3d98
##3d9b
##3d69
##3da0
##3d15
##3da91
##3d521
##3d08d
##3d3b6
##3d748
##3dc33
##3d3ca
##3dda3
##3da99
##0c6
##0c96
##0c00
##0c46
##0c78
##0c27
##0c9b
##0ca8
##0c90
##0cbd
##0cc1
##0c3e
##0c9f
009
008
0032
0086
0029
0040
007c1
1306
139b
1367
131b
13cbe
##413
##41b7
##41b8
##4171
##4121
##4136
##4147
##4131
##415c
##41b2
##4160
##41c5
##4119
##4116
##413e
##411c
##4163
##4181
##41ea6
##41590
##41730
##41020
##41210
##415ae
##4189d
##41790
##4101a6
##fa5
##fa7
##face
##fab0
##fa48
##fad1
##fa21
##fae7
##fa66
##fa11
##fad4
##fa7b
##faf0
##fa73
##faf82
##fae15
##faa34
##57f
##578
##57d
##572c
##5700
##5791
##57ea
##57d8
##5766
##5711
##5759
##57f2
##5769
##5730
##57d9
##577b
##5740
##5712
##5710
##5749
##5780
##5701e
##57271
##57681
##57719
##57981
##57409
##57549
##575f6b
##a9e02
548
542
5493
5438
5402
54f6
5420
54d9
5475
5442
544a
54b838
54ffbd
543561
##2c4ba
##e4c5a
##dba61
##dba89d
##dba7faf
##fb62
##fb05
##fb04
##fb49
##fba2
##fbc3
##fb798
##fb291
##fb4130
##fb477
##fb546
##fb0c46
##ce0
##cec
##ceab
##ce94
##cea5
##cee32
##ce0cf
##ce325
##ce34e
##ce33b
##ce5712
##9cb
##9c71
##9c11
##9c32
##9cd0
##9c6b
##9c14
##9c3e
##9cd3
##9c3a
##9cf42
##9c409
##9c5e4
##9c49e
##9c6a0
##9c95b
##9ca64
##9c0110
##9c783f
##9c63d
##9cedca
##5bb
##5b2
##5bab
##5b56
##5be1
##5b5c
##5bae
##5b22
##5b53
##5b81
##5b1b
##5b411
##5bb76
##5b828
##5b593
##5b9b0
##5b536
##5baf1
##a4c
##a462
##a461
##a43c
##a4ef
##a4ff
##a4b6
##a49ed
##a465d
##a4daa
##a45452
##a4477
##a45c2
##a44249
##a4eddf
##966
##963
##9639
##9638
##9651
##9659
##965a
##9690
##9630
##9672
##9679
##9620
##96ff
##96739
##96431
##96e4a7
##96c54
##d696
##d651
##d661
##d6c7
##d642
##d6dd
##d64e
##d636c
##d6ba7
##d6984
##d6195
##d694d
##d6e0e
##d6cf8
085
082
0839
08b7
0897
0836
0847
0892
0867
0890
085d
0886
08ef
08d7
0875
0870
08798
08351
08311
0833371
087742
##d24
##d28
##d2e
##d241
##d23b
##d211
##d2f7
##d2bb
##d2fe1
##d29e
##d2b5
##d245
##d29d
##d2e77
##d21d7
##d2ba4
##d25c2
##d22b07
##006
##0041
##0000
##00b0
##0054
##0058
##00f4
##00d4
##0030
##00ee
##00d9
##0060
##0040
##0051e
##009f
##0065
##00231
##00210
##00554
##0094b
##00670
##aa7
##aae
##aae8
##aa61
##aa5e
##aad7
##aa531
##aaf51
##aa3830
##aa258b
##aad29e
##465
##46b
##461
##467
##46e
##464c
##4671
##4621
##4651
##4633
##4659
##46bd
##4650
##4660
##4619
##462a
##4640
##46ad
##46567
##46689
##46359
##464ef
##46119
##468e91
##46c36
##46337
530
531
53f7
53a1
53a0
533e
539e
530160
5341210
##3a94
##3a90c6
##c2c33
25748
25768
25771
25751
25752
25707
25704
25706
25782
25702
2576b
257638
257943
2575760
2576051
2570438
2575791
552c
55c4
5536
5533
55d9
55ff
554e
55c0
55339
55fb0
55ebb1
55db2d8
555bb76
316
310
3156
3158
31e8
3131
3167
3161
31b1
315f
31c0
31689
31037
31a94
31826
31b99
31e71
31e4b36
##ac62
##acc6
##ac28
##accce
##acd7
##acc66
##ac80
##acc2
##ac371
##ac580
##ac496
##ac197
##ac898
##ac2f2
##ac5b9b0
##3978
##3997
##3911
##3982
##3992
##395a
##39f5
##3990
##3920
##39ad
##39a3
##3980
##390f
##39b3
##3996fb
##39a957
##39d6195
##9319
##9312
##93190
##93179
##b06
##b0db
##b048
##b074
##b0b9
##b089
##b0d95
##b0d07
##b049e
##b0b1d
##b09c63d
##ile
2009c409
##b72
##b7e
##b7c
##b7d6
##b7dc
##b756
##b7e7
##b733
##b7e1
##b7c6c
##b7d66
##b7093
##b7a66
##b73f56
##b72c1a
##ecb
##ecf
##eca
##ec2
##ecda
##ec68
##ec37
##ec98
##ec38
##ec58
##ec99
##ec31
##ec7f
##eca48
##ecf06f
##eccc4
##628
##62931
##6238
##6266
##62bc
##62a1
##62ad
##6210
##62460
##62079
##62aa40
##620164
##62415ae
##b81
##b8a9
##b84c
##b864
##b888
##b8eb
##b8c7
##b8c0
##b8571
##b8c56
##b858d
##b89a8
##b88da
##b8a4ef
##91c
##9139
##9127
##9168
##914d
##912d
##9111
##9131
##9159
##9190
##9130
##91b1
##912e
##91050
##91b36
##91593
##91e52
##91c33
##913476
##91da0
##91ba0
183
18ec
1878
1848
1856
184d
1894
1882
18d4
18a0
18d9
1886
189e
1875
1815
18922
18111
18438
18387
18959
184160
1896c54
##54e
##5400
##5408
##5499
##54d8
##5492
##54f7
##545a
##5490
##54e2
##5430
##5429
##5440
##54d3
##5480
##54341
##544ca
##54c45
##54779
##54c54
##545d8f
##548c8
##54ca47
##54933d
##540c90
##54aae
##4cb
##4c74
##4c68
##4c21
##4c98
##4cd8
##4c11
##4c92
##4cc6
##4c24
##4c77
##4c1c
##4c0a
##4c8c
##4cb0c
##4c9ba
##4c256
##4c624c
##4cd17
##4ce402
##4ced07
##4c0c3e
##da35
##da68
##da21
##dad8
##da66
##daef
##da60
##daba
##da80
##da87
##dadd6
##da19a
##085
##084
##08b
##08e
##0841
##0808
##0871
##082d
##0847
##0886
##08c7
##0860
##089e
##08b9
##08c0
##08029
##08621
##08235
##082762
##086eaf
##08fe4
##08901
##7801
##78eb7
##7871
##78ab
##7898
##78cc
##7890
##7830
##783c
##7879
##7860
##7819
##7829
##7840
##78900
##7870
##7825
##7873
##78b4
##78371
##78940
##789d
##78726
##78744
##78d211
##485
##4841
##4839
##48b8
##48f8
##4867
##4828
##48c7
##4860
##4829
##4825
##486d
##4880
##4881
##48826
##48553
##48d00
##483e6
##48fd71
##48ee1
##48d37
##4801c6
##482cd
##48ce5712
##4808c7
##dcdc
##dc36
##dc26
##dcb1
##dc824d
##dcb6
##dc0d
##dc13
##dca91
##dc088
##dc7cd
##74f
##74b8
##7471
##7447
##74f6
##7450
##74a757
##7449
##74949
##74037
##747e1
##74320
##747c60
##74dfc5
##7401f382c
##743542
##1841
##18d2
##180e
##1871
##1843
##1894
##18d8
##1804
##1830
##1861
##1814
##1850
##18c5
##1809
##1870
##18c3
##18211
##18307
##18dbc
##18c45
##18301
##182139
##185de
##18a74
##18cd8
##18d014
##18b8a9
##1878744
479
4735
4793
47db
4741
4757
47fb
47ec
4756
47c4
4721
4798
47ca
47e8
47d8
4704
47f2
47f5
47cc
4702
47eb
47e2
4730
47a1
47c6
47ee
47b1
47b2
4779
47d9
471d
4716
47d7
4722
476d
47b9
47d3
4723
4763
47dd
47e5
4715
47cd
477f
47b3
47b64
##272
##2701
##27ec
##2727
##27ab
##27d1
##2794
##27cc
##2790
##275d
##2750
##2779
##27a6
##2770
##27661
##27291
##27220
##27e91
##27658
##27a68
##27a2a8
##27f0c2
##27c503
##68b
##688
##68e
##68c
##6871
##6899
##68d8
##6847
##6826
##6828
##6886
##68ad
##68a62
##6863
##68a2
##6889
##6824bc
##68341
##68920
##681d7
##68409
##688aa
##686ef
##68ebb
##6833e
##68760
##686ec
##687410
##68302a
images
##0e9
##0e2
##0e88
##0e9b
##0e61
##0e2b
##0ea84
##0ee6
##0eff
##0e1c
##0e9b3
##0e366
##0ead0
##37e
##37b7
##3768
##3794
##37fe
##3751
##3731
##37e1
##375a
##3761
##37bd
##3777
##37e9
##379f
##3770
##37ba
##37654
##37280
##37a8f
##37e64
##37520
##37cc7
##37551
##37259
##3771b
##37fdf
##37cb8
##373c4a
##37aa5e
585
586
5869
5877
586f
5825
58cf
##970
##97db
##97ed
##9757
##9796
##97d2
##9762
##97e8
##9792
##9776
##9790
##9750
##9719
##9729
##9710
##9763
##97b5
##971a
##97469
##97211
##97040
##97958
##972df
##97a07
##97504
##97afe
##97cd9
##97d4c
##97b7d66
##974c77
ad01
ada9
ad9c
ad00
ade1
add4
ad34
ad3c
add9
adef
ade9
ad15
ad81
ad1a
adf07
ad038
aded0
ad0e7f
ad83
ad089e
##a7b
##a774
##a711
##a75d
##a7bd
##a7460
##a7cb6
##a7db8
##a7e4a7
##a73d748
##a754d3
##b090acc
##ed59
##ed5386
b575
a48b
a48a
a48835
##7141
##7100
##7178
##7148
##7164
##7121
##7131
##71a8
##716b
##71f0
##7112
##71be
##7115
##71713
##71067
##71932d
065
060
061
069
064c
065e
06c7
06d3
06501
063a
0674a
06a0e
06fea8
06c76
045
042
047
044c
04dc
04d4
04d5
04afc2
##abb
##abf
##abd
##ab93
##abf4
##abd0
##abc6
##aba34
##ab6cdc
##aba2993
##ab401
##9c84
##9c8e
##9c8a59
##9c8572c
##64a
##64e
##6439
##6494
##6407
##6447
##6490
##645c
##64a6
##6449
##64d86
##64936
##6405c
##64912
##640f1
##64509
##643e5
##6435b1
##640cbd
##64aad7
##640e1c
##885
##887
##88ee
##88b1
##8820
##8870
##8880
##884e77
##886e8b
##8862ad
##8837aa5e
##88a711
##8864a
##7428
##bb06
##bb0f4
##bb0bd
##bb053f
##c91c72
405
409
402
403
4093
40ed
400c
40ec
4043
4095
4098
4058
40f4
4031
405a
40a1
4072
40b2
40f0
40d7
402e
4022
40ba
40b5
40dd
40b4
40333
40721
40de51
40239
402c6e
4048c7
12a9
1260
1217
129bc
12db2b
1239a3
##56b
##5678
##5668
##56f1
##5636
##5699
##56bc
##5602
##56eb
##5669
##5661
##5679
##56960
##5609
##5658f
##5610
##56dca
##56971
##563ba
##56c41
##563ca
##56a78
##56d28
175
1767
17d9
17ef
17dcc
1773
17ebc
177f
17540
17967
17c87
17b49
17ee81
1771f0
1756bc
213
21fe
2131
21bb
21a0
213c
21917
21d7
212b
21061
21579
21438
21581
2161739
21a0c88
2141590
2108901
##4d1
##4d9
##4d7
##4d9c
##4d95
##4de8
##4d40
##4d1c
##4d89
##4d0e3
##4d5f7
##4d40e
##43f
##43e
##4368
##433b
##4382
##4332
##4369
##4360
##43af
##43b6
##436a
##43cc7
##4342b
##43600
##4327c503
usage
##0541
##05fa
##0591
##0588
##05f1
##0521
##0511
##05cc
##052a
##0555
##05d1a
##0510
##051a
##059a
##05cb6
##055d4
##05e2a
##055c8
##055408
##05ab401
##d13
##d159
##d1bc
##d1a1
##d150
##d13e
##d19f
##d1f87
##d170
##d13a
##d15f
##d1ce8
##d17e1
##d1f31
##d14b0
##d197ed
##f15
##f137
##f1de
##f1f7
##f1bb
##f130
##f1a1
##f1b1
##f114
##f17b
##f160
##f12a
##f155
##f1e0
##f15fc
##f1fc1
##f1e2d
##f1bc7
##f13b7
##f11ae2
##f16f5
##f157ea
##f1dc7cd
##f1d13a
##c4b
##c47
##c478
##c4b2
##c420
##c4fd5
##c4773
##c4935
##c4eeb
##95a
##9539
##9551
##9511
##9555
##95a3
##9509
##95f8f1
##9512
##9510
##95c2
##9589
##9515
##959d
##95961
##95d80
##95f3d
##95072
##95ab7
##952e7c1
##95e2c
##9546b
##9508b
##9537fe
##95f15fc
##2d96
##2d5d
##2d0b
##2dd3
##2d0f
##2df01
##2df8f
##2de51
##2dd88
##2d0147
##2d00ee
##2dda87
##2d4d95
4bfa
4b57
4bce
4b9c
4bac
4bb8
4b48
4bdc
4b18
4bab
4b43
4bc4
4b21
4b98
4b52
4b66
4b47
4b31
4bd0
4bfc
4b26
4b67
4beb
4bf6
4b6b
4b61
4bd5
4b3f
4bae
4b5d
4bdf
4bc1
4b5e
4b4b
4b6f
4be6
4baf
4b12
4bc9
4bdd
4bb4
4b3a
4b5f
4b15
4b1a
4bb3
4b6a
4b1f
4b4147
##216
##21d
##2136
##2194
##2106
##2131
##2190
##21a1
##210b
##219e
##2155
##219f
##2112
##2165
##21b6
##214a
##21730
##21431
##2136c
##21e2d
##214fc
##21290
##21b015c
##212f4
##2162415ae
##ea0e
##ea28
##ea14
##ea16
##eae0
##eae5
##ea0f
##ea314
##ea276
##ea526
##ea193
##eadd8
##98c
##983
##9896
##9891
##9836
##98fe
##9858
##985a
##9830
##9872
##98bd
##9820
##9871f
##9870
##9812
##98a2
##980a
##98e3
##98958
##985d4
##98651
##98c56
##98f980
##989796
##98d150
##989512
##ca6
##ca62
##ca6b
##cae05
##ca859
##cadde
##ca57d9
##caf1d13a
412
415b
41ac
41b0
414c
4108
41d1
412d
4136
41e7
4166
4104
4133
4132
4159
41f2
415a
4176
4190
41d5
41b1
410b
41c8
41ef
41c5
4119
41ad
412e
4109
419f
41e6
41af
4110
41c9
4163
41b5
41b4
41c3
41b6
41e5
4145
416c
41bf
41e3
414f
416e
41b3
413e4
416a
41fb8
412cb
41d2d6
41c58
414101a6
##3601
##3600
##3639
##36b7
##36cc
##365d
##36e9
##36a6
##36900
##36938
##366e
##36e91
##36d12
##36f20
##36530
##36bf2
##36dd9
##36c7c
015
011
019
013
0162
0154
01f2
013e
0123
0149
01793
01f437
010217
##oniz
2638
2651
2699
2607
2692
2631
26a8
2669
2650
26c8
2660
2617
2612
2673
2663
26b5
26b4
26d40
26910
26316
26590
26567
26786
26391
26949
26380
26911
26357
26781
267474
266851
26366
2658210
2635262
2693460
2696431
2693179
2662079
2678900
2668920
2664509
2695961
2636530
##942
##9401
##94a7
##9498
##94f6
##9428
##9479
##9440
##9470
##9423
##94577
##94798
##94554
##94200
##3be
##3bd0
##3be3
##3bdb8
##3b34f
##3bac9
##3bf88
##3b395
##3bd8b
##3be17
##3bfd5
##3b35d
##3b13a
##3b2951
##3bc28
##3b01d2
##3bec68
##3808
##383b
##3859
##38eb
##3850
##3879
##3860
##3877
##38ad
##3817
##38f3
##38e9d
##389a
##38040
##38080
##38982
##38462
##380ee
##38fcd
##3853b
##38f94a
##38c74
##f84
##f8b
##f8a
##f899
##f832
##f8f9
##f879
##f8ef
##f8da7
##f812
##f8ba
##f8dd
##f8e5
##f84f
##f8789
##f80172
##f8526
##f80a3
##f86863
##f8ca6
##fe9
##fece
##fe52
##fe66
##febb
##fef6
##febd
##fe55
##fe03
##fe371
##fe0a
##fe959
##fe9ed
##fe6d1
##fe357d
##fea968
##fefab0
##fe78d211
##fea774
##fe36c7c
25ac
250e
2507
2511
2592
2531
2559
2524
2586
25c1
25917
2512
2523
2515
25384
25561
25d45
259876
25391
25911
25361
25273
25958
25a63
250514
25358
25916
25fdba
2501280
2593911
25a9ac
2557549
2500231
2591050
2527661
2568409
2564912
2536900
2538040
090
09b5
09561
09261
09991
09ad2
0935540
0908029
0927291
0921431
07bc
076f
077c
07e05
07be7fa
07c0ce
07d51
0757271
0793190
0768a62
07972df
14fb
1451
206
2096
2032
2029
206a
2061739
2041020
##519
##512
##5118
##51f4
##5159
##51c6
##5120
##51e9
##5129
##51c0
##51949
##51719
##51fab
##51f45
##51ba4
##51f621
##51c2d
##51face
##51ac580
##5162bc
##51970
##defc
##de69
##de7b
##debb7
##de60c
##de6bc
##de3d69
869c
8664
86bb
86d5
86ae
86c5
86a6
869f
86b6
8615
86cd
869d
866a
86058
863f9b
86997
86686ef
8695f8f1
031
0304
0331
03cc
03a05
03db9f1
0327658
485
486
483
48ed
4896
48d6
48ec
4808
4848
4868
4871
4805
4898
4804
4833
489b
4892
48f2
48a5
48d5
483f
48df
4844
48d9
48c8
48c5
4877
4840
4855
482e
486f
4875
4825
48e0
4853
48ba
48d3
4865
48b4
485f
4845
487f
487d
484f
4813
487c
481f
481e
48640f1
4895c2
da74
da8b5
da2fd
##e7a8
##e7d3
##e7c8f
##e7bb1
##e7ad40
##e735fc
##e739ad
##e754c45
##e737259
database
##589b
##58c6
##5861
##5834
##5840
##581a
##58231
##58645
##58200
##584e77
##586e7
##58569
##58fc82
##584189d
##584825
##58059a
##582d0b
##f47
##f44d
##f4e1
##f402
##f450
##f477
##f4f57
##f400e
##f47c
##f4f45
##f449ae
##f43d98
##990
##992
##99b0
##9991
##9999
##999b
##9990
##9903
##992b
##99e5
##99231
##99acc
##992ac
##e816
##e840
##e8af
##e863
##e8523
##e8ac371
##e84c0c3e
##fbb9da
##fbb230
##fbb97e8
4293
42ed
420c
42a4
4248
4268
42a7
42d1
4251
4204
429b
42e1
4202
4290
426b
4250
4260
42ad
42da7
42d27
42f3
424e
4280
42b6
42bf
426e
4224c
4256971
##52e
##5292
##525a
##52fd
##52f6
##5230
##525c
##5244
##524e
##5281
##52520
##52415fc
##52eae
##52a8e
##5293f
##5218d2
##07c
##0791
##07ea
##07de
##0799
##07fc
##07f5
##07fd
##0769
##0730
##0761
##07a6
##07a3
##0701a
##07d370
##d82f
##d8a7d
##d87d
##d87940
##d83ae
##d83d15
##d85b53
##3fb8
##3fb3a
##3fb4ac
##4c5c
##4c5c478
##4c6b5
##6691
##6690
##665c
##6609
##6670
##66943
##66180
##66da68
##66f155
##664c6b5
##0441
##0404
##0420
##04930
##04999
##04482
##0447c
##04b71b
##042762
##04472
##045d8
##04b576
##042c71
##33f4
##3311
##33a8
##3302
##3319
##3309
##33e5
##3339d5
##33e4e13
##3393af
##33379f
##3364e
##333bf88
##3acb7093
##114
##114c
##11eb
##11f6
##1140
##11501
##1115
##11e52
##d71dd
##ea4219f
024
029
02a9
0231
028d41
##0601
##0671
##0699
##06bc
##0630
##06f9
##0619
##06da7
##0653
##063a
##06589
##06309
##063b7
##062c18
##06acd7
##9baf
##9b49
##9bb4
##9beaa
##9bdd6
##9b96d
##9bf67
##9b101
##9b411c
##9bb8eb
##9b182139
##9b68e
##9bea16
##9bfece
##9b11f6
##479
##4708
##4768
##4779
##475e
##47fe1
##4729
##4703
##47d7
##47ea2
##47f99
##47a30
##47decac
##8291
##8281
##828c
##8227ec
##92f
##92a
##9259
##9230
##9240
##924a
##92273
##920cc1
##92d6cf8
##92b858d
##9227ab
##92974c77
##3291
##3258
##3299
##32f2
##3290
##32f6
##3230
##3261
##3260
##3249
##32929
##32940
##32349
##32645
##32e2d
##329ba
##3247c
##322ee
##32db9c5
##32a4b6
##310
##319
##312
##31d
##3148
##3168
##3143
##3102
##3161
##3150
##3179
##31c5
##3149
##316c8
##31561
##31328
##313cb
##319b0
##3191f
##31a99e8
##31082d
##3178b4
##319757
##314d9c
##3194a7
##31063b7
##a76fa
##a76b64
##a76796
27f7
2776
2702
2769
2724
2772
2734
2728
2779
2777
27960
27774
2709
27218
27910
27004
27316
27936
27571
27620
27780
27271
27314
27037
27e91
27300
27075
27716
27522
274191
2768469
2758210
27e33
272cd7
2741730
2700670
2754779
277164
2756960
27d1f87
27ca6b
2738080
2751970
27525a
2704930
##59d8ea
##590c27
9e35
9e18
9e0e
9e51
9e67
9e2f
9e29
9e9f
9e63
9eb36
9e6e6a
9ea9ca
9e9792
9e9830
##f767
##f7c6
##f7b1
##f7c5
##f73e
##f79b6
##f7d7
##f723
##f72e5
##f7bb7
##f7a2f
##f76b8
##f75c6
##f7cfee
##f7d642
##f70555
##f565d0
##f56606
##e16
##e1f
##e1c
##e10c
##e1c9
##e1e3
##e19a
##e17e
##e1768
##e1419
##e1e69
##e1f15
##e1983
e97b12
##bcfc
##bc76
##bc90
##bc5d
##bc948
##bc321
##bc307
##bc357
##bc482
##bc071
##bc103
##bc204
##bc11eb
4501
459c
45a4
45d2
4546
4539
45ec
4554
4568
4564
45ca
4538
4551
45de
45e8
4531
4559
45f7
45e1
45cc
45d4
453c
455e
45a6
45ad
45d7
45e6
45e0
45e5
45554
450e8
45f80172
4532349
##f267
##f2eb
##f2be
##f2b5
##f287
##f269b
##f2389
##f26df
##f2413
##f26609
##f2312
##d0a4
##d0d3
##d057d
##d0bc357
4cac
4cb0
4c54
4c4c
4c78
4c74
4c56
4c4d
4c3b
4c07
4cd8
4c04
4c33
4cfd
4c90
4cb1
4c3f
4c5d
4c3c
4c50
4cb2
4c79
4cdf
4cd9
4cf0
4cc1
4c29
4c16
4cd7
4c2e
4c2b
4cff
4c1c
4cdd
4cc2
4c3a
4ccd
4c246
4c9d
4c1a0
4c7a
4cc08
4ce4f8
4cbc5d
##fc62
##fcfe
##fcb2
##fcc7
##fc2a
##fcdcc
##fcc9
##fc23
##fc29d
##fc600
##fc957
##fca754d3
##fcabf
##fc58645
##fc3fb8
895531
##4d94a
##5a6
##5a8
##5ad
##5af2
##5ae6
##5a554
##5adc1
##5a2100
##5a532
##5a30c2
##5a3509
##5ab8c56
##5a78ab
##2601
##2659
##26011
##269f1
##26732
##26fa66
##2691b36
##2674b8
##bbeb
##bbb1
##bb28
##bbdf
##bb19
##bba94
##bb5e4
##bba7a
##bb9de
##bbb72
##bb36b7
f705
f73e
f75f
f7fa2
f7783f
f791b1
##f5e
##f5d
##f53c
##f5d35
##f5fbe
##f5ac9
##f5e26
##f5d241
##f5468e91
##f59c8e
##f5884e77
##f556eb
##f5d19f
##f5ea314
##f53bd0
deb9
de53b
de6c1c
de9d35
de9c32
##a83
##a8dc
##a805
##a87b
##a855
##a812
##a8668
##a841b
##a8987
##a8a068
##a8a26
##a8c3c
##a8465
##a898958
##a8999b
##761
##761c
##76f3f
##7652e
##ccf
##cc90
##cc3c
##ccb2
##cc250
##ccd07
##ccbfa8
##cc725
##cc5b2
##cc4cb
515
519
517
5128
51589
5126011
##02f
##0278
##0268
##0288
##0299
##0290
##0250
##0240
##0249
##0281
##02911
##02e922
##02f47
##679
##673
##67d
##67f1
##6794
##6799
##677d4d
##679cb
1552
15ed46
15f26609
##d456
##d404
##d426
##d4ad
##d4d23
##d44422
##d4ce94
##d4ec2
##d4f1de
##eb2d
##ebf2
##eb01c
##ebea3
##eb332
##eb598
##eb943
##eb4fc
##ebe31
##eb41b7
##ebec7f
##ebe737259
##fdfa1
##fd50
##fd749
##fd5f7
##fddf4
##fdd1e
##fd072
##fdf6b
##fd3b8a
##fd2caa9
##fddb3
##fd74f
##fdf84
##fd5162bc
##fd47a30
##fdf7d7
##909
##9001
##905b
##9062
##9066
##90b6
##90927
##90710
##90b09c63d
##90d85b53
375
37d6
3746
37a1
3728
3722
3723
37be
37d41
37988
37686ec
3751ba4
3706589
##69fa
##69b8
##e24
##e2e
##e2a8
##e2f6
##e22b
##e2f4a
##e20d
##e2e6a
##e25a7
##e2535
##e2201
##e2dcb1
##e2bb5e4
934
930c
93b0
93ea
93f8
93fe
9311
93c8
93b87
93aa1
93e0
93fa2
93cb0
93ec43
933997
93ebec7f
##f6e
##f6d
##f6a8
##f6af
##f6ba
##f6a77
##f6353
##f6da66
##f6bb06
##f633f4
##a5cb
##a5501
##a5a4e
##a5f31
##a5ec58
##a52794
##a506acd7
##a5e10c
##cb918
##cb41c5
##cb0030
##cba855
##b07b28
##b07da80
460
4635
4693
460c
46fb
46ac
46b7
4654
4608
46dc
4668
4605
46d1
46fe
4699
46d8
46bc
46f6
465c
4634
46c8
46ef
46c5
46ad
4655
46d7
4609
465f
4615
460d
460a
46b3
4668469
4657719
4633379f
##30d6
##3068
##3099
##30d9
##30d68
##30a2f
##30a5b
##30dac
##30ec37
##3036f20
##309b96d
##a1c
##a1d1
##a17f
##a13a3
##a118b
##a1713
##a1577b
##a1d6ba7
##a1fbb97e8
##c61
##c614
##c6bd
##c6ef
##c6db1
##c6a8987
##6bed1
##6b95b
##6bea7
##6bdeb
##6b6ea2
##6bf961
##6b3dc33
##6b679cb
928
9246
9256
92e8
9266
9232
92f9
92bd
92a2
92bf
920a
929a
92b6f
920159
9257d8
92a8a068
##5c1
##5cf4
##5c2f
##5c23
##5cd1d
##5c41b
##5c502
##5ced27
##5c62a1
##5c7471
##5c1814
##5c365d
##5c30d9
##f9db
##f9ee
##f9e6
##f9dd
##f9fb9
##f9d651
##f90541
##f9a76b64
##eebb0
##eeef5
##eee6a
##ee65b
##ee69b
##ee5b5c
##ee08235
##ee0e2
##245
##244
##2459
##2455
##24561
##24a3b
##24a4f
##24f70
##240999
##2493a
##243770
##44679
##610
##61db
##6100
##6139
##6198
##61a5
##6150
##619d
##6142c
##61f06f
##61dd7
##6158c6
##720
##729
##7231
##7250
##7280
##72580
##7284
##723dd
##72ad8
##7222a
##720ea84
##72952e7c1
##3400
##3491
##3421
##3498
##3490
##3420
##3455
##34900
##34350
##34b0b
##345be
##342e1
##34db638
##34edec1
##34fc58645
##d5f2d
##d5c6bd
##d4d1
4f93
4fdb
4f39
4f54
4f08
4fdc
4f68
4f37
4f21
4f98
4fca
4ffe
4f52
4f5a
4ff6
4f34
4ffeb
4f325
4f0d80
##b1ef
##b1f1f
##b14e4d
##b1e371
##b10886
##a0d2
##a0be
##a03290
##a0fcfe
##3f99
##3f3da
##3f18c3
##3f37cb8
##281
##2898
##28e8
##2890
##2879
##28b4
##28780
##28eaa
##28522
##283de
##2858b
29e9
29049
29e61
2935462
297447
2927220
2904482
##ae3a
##ae0ee
##ae65d
##aef96
##ae628
##aebbdf
##14bd6
##14f9dd
984
980
987
983
98b8
9827
9868
9836
98e7
983f
98df
981d
984b
9875
9842
9863
98be
986a
98075
98dbd0
badb
baa9
bab8
ba31
bad0
ba5a
baff
ba23
ba2971
bafa21
bab7dc
ba64936
##5d3c
##5dd25c2
##5d475e
##0b9
##0bdc
##0b92
##0b0c2
##0b217
##0bd580
##0b5679
##0bc4b
##0bea526
##0bf8526
##0b524e
##0b5a8
##0b6b679cb
##0b245
386
38fe
38ad
38328
384161
386824bc
386447
3852520
38319757
386bf961
38720ea84
3834350
444
442
4401
4493
44fa
44d2
4408
4474
440e
4437
44a7
4405
44f1
442d
4451
4458
449b
4447
4459
44e1
44f2
44a8
44e2
44f6
445c
44b2
4444
442f
4409
4425
44ba
44e5
44948
44974
4456a78
191956
191726
1915350
1911871
##bd94554
##bd045d8
289
283
2896
2811
2872
280b
2850
28f0
281d
2855
2812
28350
2863
28371
28561
28011
285b8
28967
28334
2897f
2833371
2835598
2800210
2846689
28b756
2808621
2878940
2837551
2866180
4935
49db
490c
4900
49b8
4954
49a7
49ab
4988
49fe
49f4
49e8
49d8
49a8
4902
49eb
49f6
49d5
49a0
49ef
49a6
49ff
49d3
49a2
49e3
49f812
##3c93
##3c57
##3c26
##3cdf
##3c09
##3c3a
##3c87
##3ced1
##3c8fc
##3c0065
##3cb0b9
##3c88b1
63dbb4
785
786
783
78b7
7890
78f9
7817
7810
78c44
78eed0
78acc2
782106
b596
b562
b5da
b564
b521
b598
b507
b5e1
b5e2
b5e0
b55f
b5fb546
##50f
##50d
##5039
##500c2
##50d3f
##502cb9
##50edda2
##50dc36
##509c84
##b20e8
##b2eaa
##b208e
##b2ed59
##b2f47c
b690
b6c6
b65c
b6d9
b6ef
b63e
b6d3
b65f
b6a4f
b6d4a
b6efe
##7993
##7941
##df8837aa5e
##df677d4d
30350
3046119
##442
##4450
##4420
##4429
##44f3
##44e8b
##44fe36c7c
##ccecb1
229
2255
2222
22940
22028
22231
22576
224161
22582
2257981
2278371
2243600
222136
2251949
2206309
2231328
2234900
2228522
##2091
##2099
##209a4
##20abb
##2034db638
454e
454c
353
3535
3594
3521b6
35ea28
4e01
4eed
4eec
4eb8
4e78
4e88
4eea
4e94
4e3b
4ef8
4efe
4ee7
4e99
4e52
4e33
4e06
4e59
4ebb
4ef5
4e67
4e90
4e5d
4e5e
4e03
4e6d
915
916
919
913
91a9
91dc
9171
9198
9192
91fc
9124
9150
91c1
9103
912b
9175
91d3
91c3
916e
91b3
91380
91265
9135d
91ba6
91d928
91545d8f
9174a757
91f43d98
##62e6f6f
245
24a0
24940
249a
24948
24571
24980
24037
24912
24261
245e4
24557
24f749
2493019
2457409
2474949
2497211
2495072
2421730
2498651
2458200
2426732
2402911
##d948
##d9b074
##d902f
194c
19ae
19d7
19561
19028
19db8
19958
19fd23
1901591
19e4218
1996739
1946359
19e7ad40
3948
39d4
39af
39b88da
394c24
3997040
39f4f45
39f9e6
4301
4335
43a4
4300
4308
4318
4388
43f1
432d
4336
4307
43f7
43a6
43e0
43e3
4362931
43fcb2
575
57f1
57e0
57bf
573476
57180e
5768d8
##860
##86d8b
##c8a2
##c8793
##c8e56
##c89db
##c896d
940c
9439
949b
94ae
94e9
94a6
949e
9453
94580
94ad6
b7db
b741
b7ce
b7a4
b7d6
b739
b7b7
b74c
b7eb
b7a1
b7ff
b7e0
b7b4
b77e
b7cfc
b73a8
cbfe
cb67
cb40
cb466
cb018
cbac197
855
85ed
859c
85aa
8554
8508
85dc
8527
85a7
8595
8551
8506
859b
85ee
85d5
8553
85f3
8593b8
##2f3a0
##ef43
##eff72
##ef1894
##ef38ad
##effe66
884
880
881
883d
88b0
88fe
88f4
8807
8804
8811
88fc
88a1
889e
88b9
889d
88f88
88b99
88ee45b
88051a
965
96d2
96b0
96ea
96e8
9607
96f6
96a5
96ff
96c3
96c9b
96dfeb
96fefab0
9611e52
96bb28
96502cb9
4d2c
4de4
4ded
4d3d
4dfb
4d9c
4dd2
4dec
4d48
4d18
4dd1
4d38
4d51
4d33
4d9b
4d76
4d90
4d30
4dd9
4dfa7b
##7b3c
##7b276
##7bd159
##f093
##f027
##f0f5
##f0951
##f0956
##f0e458
##f0436a
##f0905b
509
503a
505be1
5068a2
##c118
##c12b
##c1e4d
##c107f
842
8435
849c
8474
8426
84a8
840b
84e0
84b9
84ba
84a148
840a
84a068
845c62a1
aeed
ae9c
aeaa
ae38
ae58
ae33
ae6b
ae3f
ae6f
ae9f
ae6e
ae0f7
ae557
ae0a7
ae94798
ae99e5
aef59c8e
##5e74
##5e65b
##5e676
##5e8864a
##5ee735fc
##c7732
##c76841
##c703c
##c7512
synchr
49cb
##6041
##6021
##60a2
##605b6
##603c09
##c5962
##c5f5d35
##c5f0951
955
9501
95d6
95de
95eb
953f
953e
959552
95aa61
956847
95cb0030
9ba7
9b98
9bf4
9b26
9ba1
9bee
9b24
9b5e
9baf
9b49
9bfa48
##19d
##19a11
##2a78
##2ad95
##2af137
##7741
##7748
##7759
##7772
##77c65
##77caf1d13a
##e9e1
##e9a0
##e9d21
##e998a2
##fe12ee
d691
d618
d6d29d
##1df9
##1dd3
##1da96
##1d4116
##1dfd47a30
b3ce
b34c
b306
b3dbb
b3ead8
##29ff56
##29aec
4045
4049
93b6d
93bb982
##4b9
##4b3
##9609
##960fd7
states
2378
23004
23111
23351
23370
23ece7
230161
2374320
2318211
2368760
2337520
2336938
4325
4326
432a
4323
4324191
4322081
##1639
##1699
##16e44
##1692d6cf8
##76a256
127f
1271f5ec
127a13a3
809
80da
8068
80d1
8092
80df
80ad
80dc1
80d1e
bd9c
bd0e
bd07
bd76
bd90
bdd0d3
##4071
##4021
##4094
##40956
##40ac5
##3e3f
##3e03
##3e6f
##3e38e
##3e642
##3e9657
##3e93d3
##3eeb2d
##3e90927
##3e69b8
##3e5dd25c2
##a6950
##a6e77
##a651a
##a6e78
##a646e
##a64cd8
##a66886
##a6a0be
33f8
33ef
33469
33b07da80
##9e0
##9e6eb
##9e00d9
##ad7
##ad90
##ad370
##ad91da0
##adfebb
##9170
3254
3268
3236
323b9
32ecf06f
32b14e4d
3250dc36
##3626
##3629
##362d97
2649550
2642100
2645810
2644901
2645309
2644999
2640989
2642689
2640181
2643571
2640860
2642131
2643161
2640278
2643099
2647748
4aa9
4a57
4ace
4ad6
4ad2
4adc
4a18
4a0e
4a37
4a21
4ae7
4ae8
4af2
4a69
4af6
4a61
4a20
4a2f
4af0
4a2e
4a56c8
4a886e8b
7c2d
7c24
7cb80
8b96
8bb7
8bb8
8b43
8b38
8b26
8b67
8beb
8b30
8bd5
8b50
8b4e
8be5
8b5f
8be93
8b68341
967a
9677
f03d
f03e
f0f3
f0300
f0b73f56
59da
59a7
59a1
59de67
59b0af
59fbb9da
815
810
817
81e4
8162
8164
8158
81fd
8169
81cb
81d5
81df
81f0
815e
81a97e
81ec99
815218d2
8147d7
81ee08235
813c88b1
##55f
##5550
##55aab
##55ec31
##551843
1721809
239908
2399080
2398081
2397351
45b5
45b1
45ba
45bc
45b3
443a
443c
5693
a41f
a41c
a413dd
a4141b8
ff62
ff74
ff014
ffc91c72
##0301
##0308
##03afa
##03ada7
##033bfd5
##170
##1701
##1771
##17f6d
##914ef72
##9b6a68
970
9735
973d
97a4
9796
972d
97ea
9794
9776
97fd
97a3
97c9
97a8f
97f55
97a943
97f723
9333
b196
b1d6
b136
b147
b132
b1fc
b15a
b190
b1d5
b150
b1c1
b1e9
b1c9
b123
b1cd
b10a
b1c0
b1e65
b1b01
b19871f
b1a8c3c
##d75b
##d7d3
##d7d81
##d7d38b
##d7e41
##d75700
##d70e88
##ec1ca
##ec136c
##ec1daef
##ec1dca91
##da7500e
##f14f0
##0422
3a32
3af3
3a411
3a0ead0
3adf677d4d
436b
4367
4367440
4feb
4fef
4fe9
4fee
d962ab
d969d2
##b5d70
##b5d768
##2e63e
##32d472
##d358
##a9df287
##fbf5b22
##d27e32
##000a4120
##b87fb0
##ea8f
##ea8a
##69a6142c
4aab
4aa0
4aaa
4aae
8d14
8d13
8d1380ee
9889
988d
98851fab
##6f052a
##6ff6af
##a3ab2
##a3c6a8987
##a62e4316
##3b4fc82
##51e26fa66
##e7c2e
##11b0c37
##11b661
##11b9e00d9
158d16
1580f1
3ca3cb0b9
3cb42c
3cb3fd
61ce
6100
61de
6122
6132a
61ab7
61b29
612c8a
617401f382c
b896
b891
b8dc
b827
b804
b85e
b875
b853
b80f7
b8b37
be79
be718301
##fc4b7e
##a11572
##2bfb49
##2bf4e1
##75f3d
##7749
##3a108d
##3a1548c8
##54b6f0
##54bea276
##71ffd
0015
00122
00112
00125
0012150
00184
0013649
0013340
0012619
0011439
0010941
0011051
0013db
0013518
0014119
0019679
0015490
0011861
0013261
0010281
0015550
4d246567
70cff65
7e7cfc23
c59f
##9f43f
##9f95a
##e696
##e6415fc
##e63982
##e668ad
##e60bdc
##ac7acc66
1866481
##54f135c7
##273dce
##f1041ea6
##0b63e
363b
3604
36567
36481
36ede
36cda
3658569
36bbeb
36f6bb06
36a64cd8
a135
a1d2
a1da
a197
a156
a1c6
a1f9
a172
a1a0
a1be
a1517
a1ef5
a1ede
a1ff1
a1b8571
a1e816
522
523
52f5
52aa8
5295ab7
523acb7093
525a532
52240999
##fffa
##ffeaf
##fff1f
##ffca62
##2239
##2250
##2229
##22e9e
fad4
fa3580
fa32e5
fac2c33
2029319
2030520
8ece
8eac
8eab
8ee8
8e06
8efc
8eeb
8ee2
8e3e
8e316c8
9575
9571
##1235ec
##12e7a8
##94c1d
##94c9ea
##94cf879
2042511
2040591
296754
2966871
2967250
4e16
4e19
87e4
879c
87d2
87ea
87d4
87fd
87cb
87b1
870b
87df
87fb31
87e35
87cd83b
874c0a
87de60c
87ec1dca91
##6dd3d
##1021
##10fd9
##1c2
##e0fce
##e0a4f
##e0f66
##e02691b36
1916969
26865
268246
2689090
2684422
2681561
2682309
2687330
2685769
2683980
2685480
2681870
2686439
2688880
2685661
2688291
2680290
2686100
2687280
2682898
2687941
256948
256300
2569268
2561631
2566571
2561328
2567871
2567449
2563808
2563319
2563291
2567652e
2567759
b0aa
b0a1
b0d5
b0b1
b0a0
b0ae
b0ff
b06217
b066b
b001df7
b0e44a
b03036f20
a696
a6da
a6bc
a6e2
a65d
a655
a6c3
a6c0
a6d2fe1
a632db9c5
##53a2
##53070
##53e44
##534120
##53a5cb
##4246
##4256
##4250
##42e16
##b9ac
##b9a2
##ba3ba
##bae73
##ba6b3dc33
##7311
##73885
##c9f0
##c94d40e
##c9216
##c9a812
##c9f6ba
##d3785
##d307a
0009611
0009689
0007141
0009539
0009999
0006690
0009170
2119691
1354
1357c
135542
4e85
4e83da
##23eb41b7
##350bb1
2577691
##d1d32
258a0b
2587070
2580891
2587440
2587130
2589149
2585540
2581029
2580168
2583978
2586210
2584841
2583311
2583179
2580249
2585039
2584429
685
684
680
681
687
68a9
6899
685a
68cf
68b928
68adf
68d64e
68e17e
68a0fcfe
6855ec31
8ffa
8ffb
8fce
8fd1
8fd8
8f929
8f382c
8fed200
8f2d0147
90ed
905b
90a4
9096
904c
90f4
90d3
##4908fe4
##6321
##63a77
##be3f
##be5c1
##a296
##a2065
##a252fd
##a2a1c
##fd7fc5
2627070
2629149
2625270
2620330
2621419
2629061
2626150
2623498
2621701
2627749
2621021
2627311
a7ec
a7da
a737
a7c4
a738
a732
a731
a7f2
a7a8
a7cd
a72df01
##65c4b2
##6533e4e13
##b5ca
##b5cec
##b59515
##b598bd
##f3af
##f301ad
##f33d0
2578111
603e
60df1
60ac28
604ce402
6090b6
be96
be97
be95
be33
be9b
be31
be5c
be5e
be55
becee32
be7112
be61f06f
##5015e7
429a
0b6d
0bf93
0bfe959
0b9b11f6
0b3194a7
0b5ced27
4355
435d
4272
4277
e6f7
e6edc
e6afa1
e6e405
e60c96
e6509c84
##b447
##b43d9b
##b4d6e0e
##b4912e
##fce2f
##80d
##8090
##c2e4a7
##c23830
##c2aa6
##c25c502
##c22493a
##c341b
##3a2f
##3a57c
2719712
2715590
2710969
2711270
271e9b
2719719
2716691
2719259
2714450
2717772
2711699
4e45
4e4a
4e47
9d46
9d88
9d52
9df7
9d90
9d78e
9d2c1
9dd170
9dfe357d
9d30a2f
9d3a1548c8
aace
aa05
aad1
aa21
aae8
aa07
aa24
aa2f
aa2e
aad2bb
aa3b01d2
b262
b208
b278
b288
b243
b2d1
b2f8
b2ee
b2b1
b2fc1
b2aa258b
b2640e1c
b205f1
b2fd5162bc
b2a03290
##b633a
##b6a461
##b6992ac
##b6f9ee
##e53992
3ba4
3bea
3bbc
3bfc957
3281
40e5
40eb
40ef
40e9
40ea
40e2
4c4f
4c42
9ce4
9c9c
9cd6
9c48
9c36
9cf8
9cde
9c32
9c90
9c25
9c3e6
9cfb291
9c375a
9cf301ad
968b
9681
afb7
afbe
afbc
afb01936
a072
a07e
a07c
a07c9d2
caf9
ca0058
ca2bf4e1
ca350bb1
##8941
##89d8
1375293f
137d902f
5269bdd6
8117222a
9bba2b
af01
afed
af41
affa
af4c
af74
af27
af64
afea
af69
afd1bc
af3b2951
af33e5
a98d
b4a4
b4d6
b452
b45c
b424
b422
b4f88
b40b44
b42d00ee
bb35
bb5b
bbfe
bbde
bba8
bb3b395
bb58231
bb9b182139
bbfc3fb8
b410
b412
##5f36
##5f333bf88
##f57c
##159c8572c
##155244
##15eb943
##7932
0008931
0008900
0008950
0008481
0008359
0008440
0008819
0008290
0008781
0008659
0008872
0008299
0008578
0008519
0008729
##371ef51
2669339
2665739
2669530
2663522
2669392
2664881
2669790
2663860
2661140
2660699
##c8f313cb
4419
4417
8689
95a2
95ad
ace9
acea4ff
bde9
b31f
b319ee
c8b0
c816
c840
c83a
c8028
c893d1
c8743542
c8ccbfa8
d4353
d4f8d
d47115
d4f13b7
d4989512
d45c30d9
d822
d82f8da7
##6ca75d
##654f
##0d72ad8
##8199
##81daba
##938f6da66
136a1713
2590120
2599471
2594640
2598870
##dee338
2d69546b
2740800
2745810
2740719
2740111
2747879
2749891
2747231
2fc69a6142c
4a47b276
814a
a9ce
a95b
a996
a9b0
a9b8
a90e
a9d1
a9f9
a9a6
a9fc7
a9b72c1a
a978cc
a9f11ae2
a801
a82c
a8aa
a8ab
a852
a816
a8c9
a8be
a83a
a87f
a8e00
a2a4
a200
a24c
a278
a264
a24d
a236
a2e1
a2bc
a20847
a20bd580
aca9
ac95
acca
acf5
ac28
ac940
ac21e2d
d38220
df6910
eae0a
##1b3d6
##a022b7
3169ebb
##a7994a
2673891
2670941
2679651
2675440
2679729
2677131
2675610
2675118
4535b71b
b7a3a805
254f
254d
2545b8
2543209
2544081
2540560
2540510
2549498
2543302
2544250
4214
421b
4213
421d
4219470
4212601
4eb9
4eb3
4ebd
4ebfef
8afa
8aec
8a32
8a5a
8a34
8a22
8a3543f5
8adc0d
8cd6
8c54
8c18
8c21
8c3b
8cf7
8c90
8c34
8cdf
8c309b96d
8388
83c4
83f4
83ca2d8
83cb41c5
9993
99a9
99ac
99b8
990e
99eb
99af
9921a
9a0e
9a07
9a66
9a06
a535
a5ed
a504
a559
a5f0
a55a554
c597
c53817
c530a5b
c55c1814
d22e
d25b8
d2dc1
d207f
d29551
d230ec37
##0f621
##0f0e61
##cd51c6
0007501
0007410
0007291
0007689
0007789
0007050
0007560
0007999
0007591
0007021
0007932
0007679
##5613d3ca
2633560
2639382
2630000
2632701
2634368
2630441
2634768
##fc5d16
0959971
095809
0954659
0951850
0958090
1bfb
1bda
1b97
1b43
1bf8
1b922
1b951
1b3a3
1b487
1bb8c7
1bf449ae
4ed0
4eda
4ede
4ed3
79a5
79d1ce8
792dd88
89d6
89b0
8978
8998
89f0
894d0
89545a
89ec1daef
a3aa
a339
a3f1
a336
a338
a3f9
a3b733
a3055c8
a3fe9ed
c4b2
c4a2f
c4aa3830
c49836
c4fe12ee
##7f963
##7d36
2615452
2610891
2619801
2613189
2615430
2617428
2619240
2613258
2616799
2760520
2763519
2769639
2769511
2763309
091d
091321
0919530
0918391
0913880
0912890
71b7
71cc
719cedca
8b06
8b0a
8b02
8b0e
a4a9
a400
a4dc
a490
a4f9
a45f
a40c78
a4e8ac371
a4ae0ee
a450edda2
ab18
ab47
aba8
ab40
ab3e
ab9f
abaf
ab6ff6af
bca9
bc9c
bc21
bcfe
bcde
bc52
bcd7
bc09
bc2d4d95
bc51e9
##bf27
##bfeadd8
##9f7b59515
##01c9c1
##01c067
##0c231
##9514671
2560370
093db94a
0934131
0934021
178e4577
1789858
243447
2438371
2432280
2430041
243b1f1f
2475102
2472031
2472789
2477829
4574
457c
457d
45715b8
4dc5
4dc6
4dc0
4972
497e
4973
464b
464f
4649
4643
452f
452a
4528
4523
4522619
4d8f
4d80
4d8a
4d8c
4d87d4
4d8212f4
5cf5
5cd5
5c5d
5cb84c
5c5129
5c0b217
500e
5000288
6755
675d3c
67a9df287
898a
898d
b681
b683
b6883f
f157
f199
f1390
f1a9d0
f1971a
f1f8ba
f152f6
f13c3a
f1603c09
f8fb
f821
f853
f8409
f8584e77
f8bd94554
f8df8837aa5e
f894c9ea
f8e53992
##4a61
##668bd
##668e2e
##6386e4
##f011
##f011ac
##f024c256
##f024b3
##0afd
##879c8
##2462c25
##e3b7c
##fb152
066e2f4a
2609611
2603891
2604880
2607100
2605669
2604382
2690120
2695768
2692139
2694650
2697830
2692790
2690799
2522721
2529991
2524779
2528281
2522879
##661ba
##061d6
2723920
2729750
2720761
2723150
242354ec
2428820
2420769
2429230
0e06bc
0ef565d0
048f93
0481a3
0482ad95
2aa798
2aa71067
2783649
2789471
2781398
278d90
2785730
2789159
27843cc7
231571
2319629
2316251
2317870
2319870
2313168
2314420
3f43
3f52
3feca48
3fdad8
3f4867
3f6833e
3673830
3674121
4485
4484
4482
4487
448e
4475
4476
447b
4472
447d
44701b65
44728780
434a
434ba9
5e95
5e55
5e9c11
5e914d
5ef157ea
5e98f980
5e38f94a
5ef90541
65e4
65a9
65fd
65523
65069
653be17
6554b6f0
65371ef51
7228
7235e8
72b8a4ef
7278726
72a5e10c
806e
c6a7460
c632929
d7f5
d7a2
d7f4e
d77290
d724a3b
d7500c2
d7e60bdc
d7c8f313cb
e1b0
e191
e150
e12a
e133e
e1e06
e1ed14
e101c9c1
ec0e
ecd4
ecd9
ec29
ec23
ecfa8
ec90bc
ec4801c6
ea13
ea1c900
f3e8
f302
f34c1
f3f26df
##4f51
##4fed7
##6e55
##6e570
##b302
##9a56
##9a22
##9de464
##8c97d2
##8c56c41
##8c92b858d
##e6192a
##9360c
##936e668ad
##6217a
##ab24c21
##567a4
##2dec8
##2dec2
##21192
##ea3fa7
2659712
2654181
2652750
2652190
2653639
2659440
2650268
##f82ea
##e7c1dd
2755768
2756851
2754171
2750871
2752779
2753420
##d451878744
370681d7
0f46
0f21
0f3e
0f3396
0f35e15
0f3393af
0f32e2d
1951439
1953011
1959360
195dc088
1959479
1955159
1e15
2376790
237f279b
2370040
237bbb72
2973
2973430
2970b44
2973850
2983
298721
298d46
282b
2825699
2826021
2249861
2245400
2247450
2249990
22455aab
3666670
3925b7
392e4a88
3924651
3029fc
3028941
408f
408a
4087
408beb7
408a6a0be
4370
4377
437ba7
4959
495e
4953768
4511
4512
4513
451d
4e7b
4e79
4e7e
430f
430aaf51
4303629
5e00108
6119672
74f8
74e7
740cb
74ee69b
7b28
7bf3
7bdba89d
7bd2f7
7bdcdc
7b37ba
7bf56606
77ca
773c
77ff
77d6a
7759d8ea
77cc3c
77cba855
8187
993b
9986
9989
a6b6
b3d1
bac6
bbb9
b61e
c199
c1a9a7
c154341
c13bec68
c1f5d19f
ebf6
ebd68
eb575f6b
eb4d1c
ebd71dd
eb2674b8
eb30dac
e801
e8ca
e8a40
e840cb
e8586e7
e8ae3a
e8da7500e
e3ea
e3fe
e3e8
e3a8
e3f6
f692
f631
f65e
f632a
f6913476
f6a1577b
f6f1041ea6
fbfbe
fb97a07
fb28eaa
f2aa
f20b
f25b81
f204b576
f2bc307
fc76
fc22
fca44249
fc64a6
fc2155
##7981
##3782d
##4103e03
##fa8e998a2
##fa8b9a2
##5b8338
##5b8c1f
##00efe
##39001
1850250
1882150
1883159
1885760
1883068
##540ec136c
##38b6d
##38bd27e32
2519629
2514729
2513149
2519062
2512250
2773159
2779312
2776449
2773421
##028f51
3730500
3734829
##f65da
##f65e8523
##0b3e7
2802150
2809131
2803490
b413cc90
0945
0940671
1dd2
1d58
1d2c4ba
1d9beaa
1dd5c6bd
1d77caf1d13a
197799
171c
1714e9
1902ca72
1909380
2f3f
2fd6c7
2f74dfc5
2fea3fa7
2d4c68
2d18307
2dfe52
2d5a3509
2d362d97
2dd451878744
2418430
2413990
2413731
227bbb
2276061
2279789
2272091
2214
2219629
2219090
2212229
2360520
2361510
2367840
2920430
2923260
23222
232591
2326000
2322080
2323599
2261620
2267661
2261841
226723dd
2267981
228f3d
2283430
2289269
2285759
2280791
3A54
3A58
3A11
3A55
3213
3519812
3524
3520ff
3529f7b59515
493775
49348d37
446a
4463
4467819
4461639
418f
418c
418d
418c107f
456f
4945
494b
494a
4947
494aad29e
4f80
4f89
4334
433a
4332
433c
4331501
5717a1
64f1
64e7
640b
64dca
6429d
64ef1894
6c9b
6c72
6c320
6cf712
6cf1a1
6cbb36b7
676b
6769
67611b9e00d9
759c
7508
7597
75f4
755d
753539
8208
82f8
829b
823c
822a
826238
8dd6
8daa
8d46
8df6
8d41b2
8dfa8b9a2
8263
826ee5b5c
82610fd9
8440
9f41
9f95
9f52
9f59
9f3e
9f9bea16
996a
9189
918c
91801364
999f
9990
cf99
cf33
cf92
cf621
cf54ca47
cf37fdf
dbce
db97
db43
db18b8a9
db3339d5
dbf0e458
d894
d8bd
d879
d855b
d85bab
d8c89db
dded
dd58
dd32
ddd0
ddda1
dd3a90c6
e5fb
e5d1
e557c
e5a947
ea93
ea00
eade
ea2f
ee9b
ee02
eee2
ee54c54
ee5c41b
eef9a76b64
fded
fd92
fdf2
fdd9
fdce325
fd90d85b53
##1306
##1302
##133877
##231a7
##7cd49
##fb3f17
##ce80588
##a47c6
##39154
1864619
1869872
1820800
##888bac
1794369
##05c24
##2d8353f
##2d8f6a77
##949210b
##380a1
2555740
2556899
2553751
2555609
2509129
2509589
2534380
2530420
0929339
##510d6
4284
428f28
##111e2dcb1
##f284e
38101a0b
853b089
853fc2a
1fa9
1f54
1f3c
1f64aad7
1ff7c6
1c01
1c3777
1cf114
1cbcfc
1c0b524e
1934071
1969190
1964839
1962459
1983159
1984708
1981771
2ba0
2be754c45
2b589b
2bf7cfee
2bad370
2a36
2a26
2a3dc4
2a21b015c
2a243770
2e68b0
2ecea5
2e0ee6
2e32a4b6
2e5c7471
2909820
2902d8353f
2449391
2449338
3e91
3e60
3e3c7
3cb0
3cb8
3ca7
3cd0
3c4808c7
39477c65
338464ef
4963
4964380
44d5
44d9
44d3573
498f
4987
4583
4581b3d6
499b
499a
4e2f
4e2a
4e2e
5bb78
5b3396
5b4163
5b329ba
5b273dce
5ab0
5ad8
5af8f9
5a07a6
5a32f6
518f54
6afa
6a27e91
6a5adc1
6358
635e
778a3f
771deb7
893e
8468
8467967
92cf
92ce
92cd
9353
935d
937b
9379
937d
9366
99450b
9a81
9a89
9a8197
914e6415fc
a27a
accb
acc9
acc2
bfec
bfea
bf66
bfe48
bf214a
c721
c7adc
c754e2
c737cc7
c792974c77
e44c
e497
e421
e45c
e4a5ec58
e751
e73c
e7dbb
e796fb
e707f5
##4e8d
##4e85dc
##4e8dbb2
##b0cc
##f992c
##1f95f15fc
##ef5d6
##ef55fd
##3398
##3398c97d2
##01ee2
##e4df65da
##a91f24
##a9124a4f
111f1dc7cd
11200554
0006561
0006940
0006950
0006189
0006461
537bc103
53762e6f6f
3185fa
318ceab
1819348
##480d0
##681ad
##050d5
##c4fd4
##c4f4633
2646050
2646649
2646151
2646890
2646010
2608390
2608051
2608440
2608259
2608740
##386f0436a
03336d12
##e7707de
425db1
4259689
4255710
4240189
424209a4
##32aeb
2735391
2735250
2735779
2735012
2735381
##bb1f3
##f503fb3a
##34f0c00
##349f8b
2253911
2250240
2222700
2225499
2225840
2495749
2499630
56339001
0c51
0c2f
0c3547
0cfdf7d7
0965390
0968180
0967801
0b8658
0b8ca7a
0977290
0975678
0970299
021a4e
101388
1011631
1012239
1480c231
1563
1929550
1929309
1925120
2359550
2357898
2354860
2462721
2463491
2089801
2088590
2087660
2485340
2187860
2186198
2186041
2188199
2944360
30036a6
368e
3373
3887ce7
3049300
306e
347b
3479111
3824501
3592770
3bb5
3bba
3bb31561
3bba6e77
3769510
376914ef72
330a4477
401a
4017
4013
4ac5
4ac8
4b84
4b8b
4b80
4b81
4dab
4dad
4abc
4abd
4885
488f
4882
4d19
4ca6
4caf
4caf07
4ca1ac
459a
459ea7
467a
4673
4a10
4a12
4a1c
4a1d5f2d
5df1
5d540c90
5d48f8
5d9b49
5579c0
56244e8b
5059
5052
5053148
5728
528ef2
5289331
5286b95b
6b84
6b8b4d
6b8f0c
6b8111e2dcb1
6187
618eec
697a
7693
7607
76ef
765726
7181
718d
7923c8fc
7142
777cc5b2
77753070
8783
878d8f
836c25c502
858c
852aef96
8315
831b
859f
8a14
8a10
8a12
8a13853b
872f
872fb05
8720bc4b
946b
9467
946e477
991e
9913cb
991eae0
9f85
9f80
9f83
9f8918
906a
906336
906ec38
9475
9479
947c
931e
9bc7
9bc9f1
9bc8b0af
9bc36dd9
9764103e03
9775
977c
97738e9d
a035
a098
a0a8
a0d5
a08b
a08c
b35f
b359
b35e
b35243f5
b28096ff
ce56
ce30
ce9c8a59
ce2165
d536
d550
d5042762
d5fd3b8a
dc0e
dcab
dc3bb
dc39a957
e034
e001a
e0ed36
e0d4ce94
e2053
e207a
e28227ec
e23e90927
ea4a36
ea48e8
eb23
eb2ffa
##5f752
##5fc6ca75d
##f3d38fcd
##f540d
##f0708
##f060d
##f06d197ed
##0f721
##2509
##250af4
##7683
##e64e9
##e6425
##e64d49
##321be3f
##2c127a6
##2c1b6f9ee
1659300
##dbb5e
##db1fb477
##a94f9a
1039391
1030841
103f400e
0009460
0009940
0009949
0009980
##fa22c2
##fa2aebbdf
546e2e6a
##fbe9c3a
08190bc
0812e63e
538510d6
3120630
##b78f
##9710110
##71032
##71d39
40d207ea
2152700
2159710
2177148
2175281
##d124c
##d123d4
##98996e4a7
##98234
##98751face
2600410
2600908
2600241
2600479
2648540
2648020
2648559
2648492
2634561
2634540
2634912
2634399
##94b95f3d
2597730
2597768
2597642
259797db
2582371
2582572
2582810
2582610
073373c4a
##52343
##0694d1
##328d70e88
##f20d4f1de
##f2e114c
##f5cf9
5130808
##d49a94
##eef5b
##a0b94
385c4fd4
2847130
2840128
2870619
355185de
9120b63e
912661ba
945d1f31
##a630404
610fdd1e
0010960
0010579
0010660
0010331
0a24
0aa90
0a61dd7
0ddc
0d584189d
0dd87940
04165c4b2
0b72ac
038a
038072
0ba05e2a
1990912
2886b8
2889762
2882659
2c6c341b
3934
3740301
3273299
395ef8c
4db4
4a95
4a9b
4a98
40c8
40c7
40c6c6
4fae63982
4cef
4ce2
4cec
4d65
4d69
4d6a
4916
4919
491d
4f16
4f11
4f19
43b5
43bb
43b1
466b
4925
4923580
4f75
4f7a
4f7e
4a8b
4a8d
4a81f95f15fc
4d44
4d4b
4d4f
4909
508a00a
5049269
567bc482
524031
5619cf42
529aa531
6b56
6bd81
6b43af
6ff0
69fa
623d521
624c74
6264d86
6913249
691a651a
6377
671e38
6984d94a
6331
6925aa
667e1983
6509c71
6c8b83
60307fc
642a43c
64997958
7a39
7a74
7a2d
79378eb7
7939509
72791ba0
705dd9
70558059a
705c94d40e
736a412
7fe775
7067
70697504
767559
734e
734525c
7504342b
750a3ab2
7209c14
8013
801d
8353
85ba
8d6c4fd5
8002
8483
8dc4
8dc6
8dc9
8377
864a
864352c7
847fd8
8925
892a
802f
8e20
8e2a
8e244fe36c7c
8d5f
8d5d
8d50d72ad8
819a
82a6
82af
82adbb1
816e73
9ed4
9542
978f
9783
964322ee
956a
94d476
905e
9512
9529
952a
96ba
96b2
96b6dd3d
9610
944b
97b24561
969a61db
a2ca
a2c60c
a2cd93
a9cb
a9ca2993
a9c75f3d
ad24
ad20
ad29
a82e
aa86
aa80
aa8c
ac6a
a729
a72e
a7234b0b
ab4a
b9b8
b9fc4b7e
b9a11572
b01f
b0194200
b011692d6cf8
bceb
bcee
bcebb9de
b96c
b9651e26fa66
b96bfeadd8
bec5
becf
beca
b624
b626
b6241790
b545
b543ced1
b54879c8
babe
babc
bababf4
b6729aec
bd4b
bd44e0
bd42eb
b6b6
b6b9
b6ba
bb12
bb1ab8
bb193d66
bd9a
bd9e
bd954933d
ba4b4d89
ccf53bd0
cc3c0065
ccffca62
cac8
cac3e642
cacb633a
cfe3f8
c825e8
c90b
c909
c90aa4
ca1343
ca1055408
ca1fce2f
c865
c860e11
c8602e922
d06435b1
d988
d9df
d991593
ddb6
ddb3
ddbf928
d67d
e90c
e9d1e
e9d2e77
ebc0
f55d
f5f0905b
f53e6f
f9dd
f9ac2f2
f9f65e8523
fedfa8e998a2
fb8227
fb8d5c
fb899231
f3308d
f334d0
f3305c24
##5d6d
##5d666
##52138
##408736
##65be3b7c
##658191
##69b992b
##f483a69b
##9ed2bfb49
##a3519d
##a3b43
##a345b536
##235c5a
##2354e8d
##e569
##e563c6d
##c9b23
##307668e2e
##d95d52
##d525f
##d9b22c
168da60
##e4832
##3574cd17
##ed657
##ede34
##edc24
##3d1fc
0023859
##412f2eb
##fab9e
##fbd5b8c1f
##9c0ecb
##9623b13a
##d63e25a7
0880730
2577350
2577920
2577181
##b0f68302a
##b0a78
##b86011
##918ccd07
1874ced07
1873600
##5434d40
##da1e13
##088b1d
##78d04
4759691
4753e5dd25c2
47727d1
##27b18
##0ef5b8338
06421a1
2199168
2197890
##43a0521
##2100b
410ed8a3
4113560
4115658f
2641511
2641079
2641821
2697911
2697551
2697771
2671440
2671530
2671990
2611339
2611539
2611251
2676780
2676511
2676129
2661371
2661309
2661738
2672410
2672291
2672279
2665620
2665081
2665989
##3b678e
2596231
2596920
2596569
2556951
2556710
2556660
2594910
2594271
2594419
2558961
2558119
2558751
2517929
2517381
07998751face
2075c365d
4846020
##07e61fcc7
##d8fde6bc
##826f42
##82857
2794621
2795429
2708280
2708540
2708549
2748721
2748799
2748618
2727931
2727580
2727239
2707460
2707939
2707181
2732439
2732630
2732208
2722960
2722361
2722521
##bc8ba
453f7a2f
##d0252
##fc897
##a85567a4
5109428
##3456407
##a0a33
981d4d23
2205780
2239330
2230601
2491391
2491531
2491281
94248553
##19e0e2b
##19fff540d
8171d3785
##5533601
0009491
0009408
0009499
0009251
0009220
0009260
2717040
2717261
2717581
2747049
2747011
2747040
713cc4cb
0931380
0931c23830
0a17
0a1c4eeb
0b14
0b1ebe31
1a086eaf
1a062c18
1ce1
1ce9cd0
1525230
1c34c9ba
1c33bdb8
2c05
2c9c783f
2d218d014
2d24fed7
2913761
2742469
2742689
2466712
24665636
35722e9e
3e79db
3e7b2eaa
3323
3bcb41
3bc17f6d
3263230
3d954aae
3d9a8668
3c7a
3c7d7e41
3a634edec1
3a6a3c6a8987
43df
43dc
4b08
4b03
4ecb
4ec9
4783
468d
4def
4de0
4317
4313569
4d0f
4d05bae
43f0
43f3
4ae5
4aef
5f3f
5ff477
5de95d80
5de0f721
5060aa
590f5a
5addb7
5ad797
5e5ecda
5e5dc26
6eeb
6e3e
6edae7fa
6edf1bc7
694f483a69b
6077e72
607c5962
6d8a
6d8d14b0
6060
6066266
63231063b7
659f79b6
60baf8
60b39154
7074
709c0ecb
7d5c2f
7d3eeb2d
7414
700389a
7dad
7dab65
768b
79805e
752e2f6
7d87
7d8b43d9b
711f
7116742
7761830
702e2535
761f
7c8e
7c8e64e9
716acf
7160b3e7
71235d2
723faf0
723f20d4f1de
7659b6a68
7f48ea193
8fa6
8faad9
857311
8575492
8cef
8ce73885
8964
896c8e56
8d2b
8d2a
8085
808c
8972
851b5cec
8de5
8de3f18c3
8e73c5
8e7a76fa
882396
832b
8a87
8a8a69b
8d7f
8d7c
8753
875ce34e
939eb332
9397f963
94827f0c2
9ab5
9abf
9433
9117
926d
9ccd
9cc159c8572c
9025
9023d31
972a
972078
903eebb0
9c9aa8
9c9d1d32
a0c7
a0cfddf4
a46b
a46cd51c6
ab06
ab030d68
adafc600
ada6bea7
a714
a711
a06b
a06fae15
afc0
afcd17e1
a5a0
a5a8
aeb6
aeb2
a69e
a692162415ae
ae28
ae221290
aa5e
aa55b411
a7b5
a7b6
ac15
ac1e
a223
a229710110
a70f
a70bb1f3
be47
be40b6b679cb
bdbf
bdbe
b0c4
b0c8e9
b376
b37b
b97e
b9718cd8
ba75
ba7f
b884
b88d307a
b43ac80
b4340956
bf1a
bf118dbc
b3bc
b3ba022b7
b9b9
b9ba8a26
b924
b92e
bf72dda87
bf7664c6b5
be2b
be2a92f
b245
b24f
bae0
baef5468e91
bff85ee735fc
bff865be3b7c
b4809623b13a
c0a6
c0a17f
c234
c22c0e7f
c3d3271
c3de19a
c3a9d694d
c3a9d75b
cc49
cc4f8ca6
cf8bc204
cf86bdeb
c58e5c
c58fdf6b
ca83
ca832645
ceb9268
cebeeef5
c34edf86
c34d22b07
cd50
cd5e40af
dd69
dd6dbb5e
db8c2aa6
db819fff540d
d68496
d68412f2eb
d4d4
d4d3
d04abd0
d04bb0bd
d69dd2
d6905cb6
d30bc321
d30bba94
d34a
d349514671
d86ac496
d860ef5b8338
eda9c9b
edac62
e78ed642
e7863a77
e48c5f5d35
e48f0708
ef1c
ef1581a
ecaf3e1
eca5f333bf88
e2337654
e234332
e1bf5ea314
e1bf6353
ef2e788
ef2e60a2
f2c8
f2c16e44
f4cb
f4cf
f74f
f74916
f683
f68c4f4633
feaebe737259
fea0b5a8
f86938f6da66
f86b0a78
fc1d
fc1da2
##5fa33
##5a7fe
##53232a
##491f3af
##4f55e65b
##4ef57
##4f09e6eb
##42be0
##6373
##6e7ccf
##6a0fd
##6efd1
##bf20500
##ba393
##bfa8e
##ffb3483e6
##0aa0
##1c42
##1c4a7bd
##9417d
##957da
##9d268
##9fdf93
##9fdd49a94
##afa4b
##a0ef2
##a644
##a0770
##a3030
##7964b9
##c410694d1
##cb0765
##3881f
##3fd72
##dd2640cbd
##daac12b
##d98b4912e
##df7cd
##0125b
##358e
##35e53
##35e92273
##93485
##db2bfc62
##a95a74
1029620
##3d31a644
##0cafb0c46
##0c88a6
0005460
0005910
##fbabe1
##fbab380a1
##fb31e7bb1
##965737b7
##d6d085
##00f34
53427a68
2571011
2571361
314a1fbb97e8
##acf08
##ac82a1d1
##39e39
##39d535
##b7135dd
##b777b
##62514f
##4c7d6
##7825c
##782f84f
##487a2
##7440c
47625eb
##279b2
##68414
##68b0d5
403846bd
4052589
2165668
##05e3b
##d1704b71b
##c405711
##ca2d8ef9
410230db
2657590
2657661
2639730
2639749
2654040
2654428
2618670
2618630
2605171
2605860
2694011
2694771
2652020
2652829
2633080
2633319
2659788
2659979
2630482
2630680
2614441
2614942
2633300
2633321
##94f5b
##3b58ba
##3b586efd1
##f81a83
##f8df4f2
2508280
2508061
2598419
2598279
2551649
2551761
2555051
2555981
2556732
25567cf0
0901439
0901799
0926321
0926709
48033a8
4872dec2
##58d3e69b8
4260600
420bab0a
4287961
##66b4c
##3340f
##9bb358e
2706490
2796621
2796719
276214bd6
2762442
2774739
2774730
2718439
2718840
2733018
2733629
2706349
2706959
2726481
2726710
2790480
2790279
2755351
2755542
2775590
2775040
2753000
2753210
##f70d9b074
450cfe03
##fc6bd3
##bbd43e
##760f5c
5169401
##6790a3030
##cb9b87fb0
##cbe517
4641f556eb
##30db03f
##5c8a8
##34b98
##34b395a
387f80a3
3858551843
44a5e5b
2863400
2857480
2857559
2832491
2832489
2809780
781b0d07
##b2293
##b23f5f
2296579
2296522
2254272
2254342e1
2238431
2238111
2292829
2292249
##20312112
2451930
2451560
43a1cc250
##ef51b5e
88946337
96bc30db03f
bd0854bea276
bd3cf46
b139f832
0010171
0010130
0010529
0010512
a12a3398
8791d87d
2688351
2688050
0006261
0006270
0006402
0006430
0009041
0009091
2585871
2585869
##4901696
##49ae99
2626600
2626660
2620471
2620499
a7bc9c5e4
##f3ade
9d415292
af37a1d6ba7
##d571d9
##d5715cd1d
2661891
2661889
b56699acc
##6cdcb
2672651
2672610
2677679
2677610
2630820
2630880
89a9360c
89a2dec8
2529092
2529030
2724118
2724142
c1c1f70555
f2287178
f228ac82a1d1
eadb918ccd07
44d87bd159
4586949
6a675cf4
6a67d7d38b
2486479
2486420
4fa03536
7fe02d8f6a77
8ec5e22b
0dbc8793
0ede02691b36
0faa8465
06221192
0ed561a5
0ab9
02daae8
0f4ba393
0bb4
0a83191f
0d55
0df5baf1
0c80f0e61
0c1b
0b9ec1ca
0350bc90
0f283f3da
0e6af9fb9
0fcdfd749
0a48ad90
0f3adb60
1e09
1dbe
1fa4f55e65b
1a9e121
1933501
1d647fe1
1da584825
1d1c4773
1516790a3030
1d8f70d9b074
14c5efc
1f2ffb3483e6
1c1fbab380a1
1960a118b
1ff36bf2
14c494b95f3d
1cd04999
1a40db47
1f2097469
1fc1761c
1f17a76796
1c87adfebb
1ea0f0f5
1f89dbfb
1e7b94f6
1b23edc8
22c39d6195
23da898958
2fbc1e4d
2cec6db1
25b1
24ca462
2a7d15f
2d1c410694d1
2e87
2a800172
2e28
2a5328d70e88
2a1f7bb7
2446721
2349129
2c81
2c7dd2640cbd
2ad3e38e
2ac72c996
2b9a5501
2d3fdf84
2bef14f0
2a207e61fcc7
2f3cc725
2c3352c8
2b6e
2b1671a8
2922ac5b9b0
2bf4c11
2469411
2275620
2386379
20e8e749
2332909
2c1c4327c503
2f5f9bb4
2bd7010e
23c5688aa
32c9130
3e488ee
3db4d5f7
30cef5d6
341d98b4912e
3cea2065
3a439e39
3b7b89a8
3b80b5679
308202
3a70d8
3ab9508b
3644130
3d1f
32d718
33bf2413
3f8eee6a
3d8133877
33fbf450
3e10a5
3fca98c
3f527a2a8
390ba6b3dc33
3a0f06d197ed
33e71032
3042688
3c33b586efd1
3910faa34
3940661
3661c420
3f659609
3ce8c6ef
3579462
3dcad21d7
3f6fa974
3d7baa90
3a90789d
3d4a0060
3b12a85567a4
3c1f3be3
4f5d8a7d
4f6c
43c3
4a6c
4316020
52c0125b
535f
5930f621
5eda
596345be
5d6828c
5b0506
5daeb01c
5dc52138
5274c7d6
50e6e570
5f1c20
5e19ca64
56b3881f
5eee7c2e
5203fb4ac
5c8fb31e7bb1
5ef03afa
5c7fbf5b22
5e9af2
5d7f0956
52b5613d3ca
5e6e042
5ff2c1b6f9ee
5d311501
5e81acc6
5fad98fe
521167
5f93f093
5fba3209
5fbedba61
52175b593
5fc6b2b8
5fdf9c6b
5f3e1ca859
6604
6e4f4f57
6a95fc6ca75d
60c3da91
69c4c624c
6d61da96
6686139
60ef3ade
688d2ba4
693b747decac
6d19b68e
62d76f3f
6fe0e366
6e866b4c
65a69b992b
6d4b4d6e0e
6b1da21
6df58d3e69b8
62ff267
6effcc9
660ffeaf
619d5715cd1d
62af7d642
61dedce
69e0e9b
67506f9
6dd4cb0c
600437e9
64a66da68
6e610a8
665a67f1
69484de8
6d417741
694b3a2f
60be2ce9
619e0308
7db91c33
75bc62
73a9f1bb
7b7a345b536
7b894c1d
7dc0054
7ab32aeb
79c8b1ef
7f1bf20500
7ca540ec136c
7de7e4
7587
707b6cb
7044901696
79b9f95a
7bc12e7a8
7f28c92b858d
7fd3da99
7909bf67
7ee56f1
7a0b0b1d
7df386f0436a
77b6a0fd
7c7fbd5b8c1f
7e9b0d95
71da45452
7f1448b8
70429066
7fff9d651
7e88582d0b
753ae1
7d3fe371
7ddd7d81
7e612509
7888f3d38fcd
7510d7d3
7f28b5ca
7ef5f130
7c6d747c60
7e26e9a0
8e476a256
8db66943
841e
89ca6e78
839bd045d8
862d
8913af
871a45c2
8ea5
8ca0
8fe5
899a49ed
8d8a
833a630404
89b2
8f756dca
8f25
8d03
876e
8d42
8eb1
8fdd
89097afe
8c63771b
824e
8a09
83ffe6d1
8d9dee338
8c1a
82e0
8a5171be
8e6482cd
8ff3
8475d9bb358e
820d3996fb
82d56826
80cf4c1c
8ac8250d
901b07b28
9e4f
90cd
9fac
9fb90b09c63d
9ac51c2d
9b75
9a79b101
971c
9fe605b6
9e76
9077
9d8d
982a
9f76
9d0a
9fcc
9a5c
9cbf
9a16
9d503ada7
9b15f752
9ae643e5
90bca57d9
9c80
9f09
95e0
9c554d8
9a6d1704b71b
9adf5fbe
9edfcaccce
9c29c95b
9b16f72e5
9d8cd0a4
9f55f8ef
90bee863
9d67db2bfc62
9f437d38
Runn
While
ae42
adb6
aed90710
afa4d0e3
a574
a96e
a4c7cd49
a18dc824d
a4de
a059
aca3
a945
a38a
a513
a528
a04f
audit
a31eb8
a59d
af7be5c1
ae19
af23
a767
a67c
acb68414
aeef024c256
ab19
aa0f
a3ff
aaefd74f
a5d3
abd9d1
a444c98
a20a3b43
aeff33d0
af0a
a5e9
a60d
ac59537fe
a163
a5562aa40
a1732940
a75a73d748
a49a
ac3f76b8
a89a
a910b888
a061d8fde6bc
a34ff5884e77
a189d358
a0e8716b
a36c9659
a56c897b7d66
af00c94cf879
a19a18d8
b2c15eb943
b93e2bb5e4
bed9ed2bfb49
b005582
bb0d
bb798c56
bb86cdcb
b91a
b784
b18f
b277
b4dd
bd1c
bc4a646e
bca155244
b385
bf44
bd84
b0472952e7c1
b47e
be1d
bfc0
b26c4935
bf5f82ea
ba8d95d52
bcc8
b90a
bcb231a7
b30936e668ad
bee0
bd5f7c5
bb238982
b7948826
b2098996e4a7
b2ffcdcc
b16e840
b40a
b2bd82f
b222
b427825
bc948fd71
bfce366e
bb6e7d3
b4692194
b25f912d
bce85102
ba8597cd9
b19efe78d211
ba9cca2d8ef9
c3fa
ca9e05ab401
cfb0b245
c5b041
caad057d
cb80cafb0c46
c911dfd47a30
c543398c97d2
cdc88a711
c37a92070
cabb0f68302a
c56d6984
c52a31
c926
c32b
c31e2201
c261235ec
c6700d4
cf63
cc6fe0a
c6b9fdd49a94
cdf307668e2e
c5eea0f
c19ea4219f
c77665c
c16ad91da0
c030511
c1795e2c
cd7b7c6c
cb87c9f0
ce6ebea3
c10d
c73cae05
ca24828
cf3effe66
cd862c89
c2b484e85dc
ce3a7cb6
cf6531c5
cfb8d696
c0f7a27
c51ad426
cd52b7e1
c43a54f135c7
d12e
d348
dd237280
db04e8dbb2
dec44f3
d9138bd27e32
ddab777b
d083d3b6
ddc5
d74ab24c21
deb750c5
d563
d43250af4
d95fcabf
d211dd3
dfef2312
dde8
de85ec43
d5237bd
d07c2e4a7
d66a
de162460
dbc1c4a7bd
dd0d
df5cb9b87fb0
dcc23d
dfd5a30c2
d5c81daba
d28f
d14563ca
ddf39b3
dc1235c5a
dc75766
d2bb7e7
d75e8af
d09fddb3
d703d08d
d1ce4c5a
db9f16f5
d49e4384
dbe000a4120
db4ae65d
dc2db9dc
db6932df
d81279b2
d008e01c
d133dda3
d94ba87b
d4cc01f2
dd5eea8f
d1ae2038
e2c35e53
efbd124c
e965c8a8
e46f1fc1
eb0452
eb734fc58645
edab38
edcdf7cd
e0e52eae
e9c83d27
e3697d4c
e3871ffd
efe668bd
e584ef57
ee8bc8ba
e666
e06b0cad
e9256d28
ef72034db638
ee142be0
ed0b58
ea8e1e3
e672
ecbd525f
e303
ec6985d4
e6b2
e5c54f7
e4466158c6
ea03
e28bae73
ec851719
e7b18c45
e5e061d6
e2afa2aebbdf
e1da47c6
e4b32d472
e1632f2
e3e042c71
e0346c36
e2e335
e0003c57
ea3a5f31
e420b0c2
edd5ae6
e89e7c8f
e813b34f
ed2c20312112
e246c01
e9483f37cb8
e2911d0
e0181115
e78e9555
e0e308c0
eac55b56
eb8635e92273
e56c8db8
e57265e8864a
ec9d2f4e
fe088b1d
fdb5
f41b090acc
fcee
f965
f00e1f15
f782858b
f486a1
fdc4a4
f0ebc071
f642cad
ff1bc11eb
f95959d
f98a7db8
flavor
ffe3e7
fe84b2
f9bed26
f47a
f313
f59ac7acc66
ff7fea968
fbbf
fd4a841b
feb6533e4e13
fa5f
f309f43f
f6148ee1
f5ece0cf
f19e6425
f29a252fd
f914db1fb477
fd70d0
ff142455
fc3464c
f6cda1e13
f9565d6d
f32a2c19
fdb1b2f47c
fe8b37e64
fe9ef402
ffb90c9b
f2df3c93
fec7ab6cdc
f32e5949210b
f0bffbc3
fb22ed42
publ
##4ee51
##6caf
##6a89
##b2c6
##ba5eb
##b6b61
##beeab93
##bae3
##bacca4e
##fd618c5
##f687b3c
##f971c2
##fcadb
##0b8b
##0dbb92
##9d037e
##9f9dc
##a58cdc
##aeb9423
##a6bb8
##8fce7
##2d2ef
##2985aa
##29b33
##7fe6df
##7de6c
##7a5fab9e
##7b83836
##e96a0d2
##ee7b78
##e3f62
##e3c80
##e0c7e953
##c37bf
##c94aa7
##388818
##d0e73
##dea6321
##d31ff
##d3b6d9
##0144a
##013e31d
##2c9b9b3
##2c6c9baf
05397a5fab9e
05bc2099
0524abc6
0573232
0502af14
05bac4af
2013841
16b789d8
16024f09e6eb
16da8660
16984fba
##e4387d0
##93028f9
##dbf175b
##a911f
##a99a9ff
11fa0afd
11a437e1
11d623eb41b7
1146111
11f1ccb2
112d8c56c41
11fcde3d69
1134f503fb3a
11bd590c27
117bf8e5
110e3c405711
11d494c5c478
11c5a3c1
11d004908fe4
11f5ecfb3f17
1000040
109150d3f
1043310
1033430
1072969
1034019
1004288
109ff6a8
1024609
1034541
1063731
100e1170
##0ca81306
0032220
008605fa
0029080
007c1773
13063d31a644
139b619d
13cbe5434d40
##413669
##415c71
##fad120
##fae7ea0e
##fa1156
##fad42f
##fa73a8
##a9e02497
54f619e0e2b
54202d96
5442920
54b8381a
54ffbd34
54356141
##fb624
##ce33bbc
##9c3e0f6
##5b1bf6e
##5b828d5
##a4daa0
##965afa
##d661d0
##d6dd32
##d636cd4
0839748
08b757f2
0897720
0836670
0847020
0892961
0867331
0890410
085df2be
0886950
08ef7873
08d7e4df65da
0870681
0879810
0835118
0831139
0877421
##d23be7c
##009f52
53a10b92
53a0a9124a4f
2574868
2576840
2577119
2575240
2570741
2570450
2570632
2578239
2570262
2576b3bc28
2576380
2579432
5533a9e02497
554e3f99
5533919
55fb03247c
55ebb1b1
55db2d8d
555bb76fb798
3158371
31312dd3
31677284
3161b8c0
3168991
310372462c25
31a940b9
31826992
31b99b97
31e71c53
31e4b360624c
##39f53f4
##b048f51
2009c409e9e1
##eccc4a4
##620164a0
##91e52a
1878400
1848371
1856170
184dfc5d16
1894400
1882880
18d453e44
18d9d9b22c
1886330
189e6373
1875880
1815979
1892228
1811130
1843870
1838732
18959debb7
1841609
1896c54a0a33
##4cc6f5
##da19a69
##486d77
##74037e
##747e1c66
##180455f
47e8d1a1
47d8fbb230
4779a62e4316
4763680
47b64d2e
##27275a
##68286f6
##379490
5869e0c7e953
586f5a78ab
adf07b6992ac
ad038d3b
aded094f
ad0e7f66f155
ad089e9b411c
a48835ba
065efef6
06c7f011ac
065015f7
0674a244
06a0ebacca4e
06fea8c7732
06c76033bfd5
04d59c69
04afc2da
##645c87
4058e0fce
405a1c42
4072819
40b49896
40333f767
4072108
40de51cd
4023941
402c6ee4
4048c7d3b6d9
1217fca754d3
129bcb0b
12db2bbc
1239a305
##56029e0
##563ba05
1767941
17d97474
17dccfff1f
17ebcdaac12b
177f6889
1754098
1796741
17c873456407
17b49aba2993
17ee8196
1771f0af
1756bc65
2131531
213c462a
2191730
21d7e739ad
2106130
2157998
2143800
2158179
21a0c88b6b61
##433be4
##43b6f5e
##05cc6a89
##055d4f
##f1f7380
##f1b1eae
##f17b9e
##f160b06
##f1e0211
##f1e2de8
4bd0747e1c66
4beb51c0
4bdf00b0
4b1f0ca81306
4b4147f6
##2136c36
##214fcb7
##ea14f
##eae591
##985a8c
413607a3
41d505cc6a89
410908b9
41e63879
413e4bc76
41fb8fbe9c3a
412cbd21
41d2d6b2ed59
41c58b20e8
##36e9f
01f26494
01793f1e0211
01f43732
010217f3
##onizing
2638359
2651579
2699261
2607520
2692339
2631681
2669740
2650018
26c8e64d49
2660620
2617211
2612560
2673008
2663469
26d40aeb9423
2691090
2631650
2659068
2656732
2678630
2639148
2694941
2638071
2691131
2635791
2678130
267474bbb1
2668512
2636631
##94577a
##3bd8b32
##38eba9
##38f3ed
##38c74ab
##f8dd917
2507980
2511380
2592661
2531900
2559950
2524278
2586780
2591708
2512300
2523489
2515070
2538400
2556121
25d4598c
2598760
2539101
2591121
2536151
2527301
2595811
25a63f1f7380
2505140
2535899
2591650
25fdbaa58cdc
25a9aca95a74
09b59776
0956130
0926130
0999198
09ad207c
07bc4660
077c3c87
07e050bea526
07be7fafc897
07c0ce5d475e
07d51491f3af
07572719c6a0
0768a622100b
07972df0447c
1451b9ac
2032580
2029028
206aa9c3
##51f4bd
##defcb8
##de7b11
86b60c9f
86058deb
863f9b53a5cb
86997220
86686ef48d00
8695f8f1980a
03cc7683
03a0519f
03db9f152a8e
0327658a
4892d245
482e36cc
48640f16bed1
4895c258
da8b5eccc4a4
da2fd52415fc
##586156
##58342d
429be84c0c3e
42e148ce5712
42da7b86
42d2756029e0
4224cd0bc357
##07fd05
028d418862ad
##065378
##4703abd
##47f99be8
##924a379
##319b082
##31082d0
2776730
2702570
2769570
2724411
2772589
2734950
2728651
2779088
2777061
2796071
2777491
2709410
2721858
2791021
2700448
2731631
2793601
2757139
2762039
2778099
2727120
2731459
2703741
27e91939
2730091
2707500
2771690
2752299
2741919
27e33f8dd917
272cd7cbe517
2771640
27d1f873a57c
27ca6bf5d241
27525a89
9eb36ce0
9e6e6ab0
9ea9caa4eddf
9e9792826f42
9e98303b58ba
##f7b10c
##f75c6a
##e1c957
e97b12fc6bd3
##bc9489c1
45d4275d
4555459
450e84703abd
##f269be6
4cb2bae3
4c24686d8b
4c1a0d75700
4cc0834b395a
4ce4f8fb
4cbc5d7964b9
895531e0
##5a21007
##bb19fd
f73e5f36
f75f4c92
f7fa2e7707de
f7783f57
f791b1b3
##f53c24
deb9d948
de53bdea6321
de6c1cd123d4
de9d35cf
de9c326d
5158941a
15ed46bc
##eb5986
##eb4fcbb
##fdfa12
##fd50b7
##fd5f79
37a1da35
37286386e4
372247f99be8
3723969
37be960fd7
37d41a3b
3798852
37686ec0144a
3751ba4eef5b
93b87e0b
93aa1075
93fa2924a379
93cb0321be3f
93ec4346
9339970e
##cb918f8
465fd6e6
460aa91f24
##c6144
92b6f68286f6
920159e6
9257d8a94f9a
##ee65bc
##3455ca
4ffeb467
4f3253c1
4f0d80b1e371
2904921
29e61e24
2974470
981d3f9b
980752c9b9b3
98dbd0a6
ba29717b
bafa2157
bab7dcd0
ba64936c6144
38328f8df4f2
3841610
386824bc1e9d
386447cd
386bf9616794
38720ea84241
4425620164a0
44948c02
44974b048f51
4456a7878d04
1919560
1917260
2855930
2812061
2835078
2863061
2837162
2856178
2801199
285b8598
2896700
2833471
2897f349
28b756a66886
49f8125c
##3cdf3
63dbb4ce
7817a506acd7
78c44eb4fcbb
78eed036
78acc268
782106415c71
b5fb546d31ff
b6a4fa91
b6d4a270
b6efeba3ba
3035021
2255361
2222931
2294021
2202821
2223170
2257652
2241619
2258282
2221360
3521b636
35ea282d
91380ad7
91265cb3
9135d880
91ba6e0f66
91d928a7994a
2494071
2494860
2457120
2498078
240372b7
2491229
2426131
245e4301
2455752
24f7495b
1956160
1902869
19db83be
1995878
19fd234cc6f5
19e4218b049e
39afd63e25a7
39b88da5
394c2491e52a
39f4f4552343
39f9e6defcb8
43e0f44d
43fcb2b23f5f
57e0bc9489c1
57bf965737b7
57347641
57180ee7c1dd
5768d800
945804d9
94ad64f0
b7cfcfab
b73a8d80
cb466503
cb018a99a9ff
cbac197fb624
8593b829ff56
88b9fae7ea0e
88f886f0
88b9956b
88ee45b5a7fe
88051a36
96c3ec98
96c9bfd618c5
96dfeb3e9657
96fefab0b302
9611e52e1768
96bb2855
4dfa7bee65bc
505be128
5068a20e
84a1485015e7
84a068e2
845c62a17d36
ae9fd2b5
ae0f7e563c6d
ae5572354e8d
ae0a7da19a69
ae94798bfa8e
ae99e5e4
##5e676b
synchronizing
959552349f8b
95aa6171
9568479e
9bfa48e0
##19a11e4
d6d29d9c0110
b3dbbd16
b3ead868b0d5
93b6d93028f9
93bb982b208e
2300491
2311139
2335150
23ece7f9
2301619
80dc15ab8c56
80d1efbd
bdd0d3f5
33469b7135dd
33b07da80a72
323b974a
3250dc367121
4a56c8687410
4a886e8be2a8
7cb80f2e114c
8be53574cd17
8be93e96a0d2
8b683414
f0300fec
59de67fbabe1
59b0af54
59fbb9dae569
81a97e64
81ec99d6d085
8147d7bb053f
81ee08235d46
813c88b1a880
2399089
a413dd760f5c
a4141b8fcadb
ff014563ba05
ffc91c724c5c
97a32c6c9baf
97a8f782f84f
97f55cb918f8
97a94302
97f723ce
b1e650c2
b1b01f160b06
b19871ff
b1a8c3ced361
3af3383b
3a411e65
3a0ead0a0770
3adf677d4d9f
d962abc9f6ba
d969d2f86863
8d1380eeb864
##6f052a2
158d16989796
1580f19fdf93
3ca3cb0b9b81
3cb42c58fc82
3cb3fdd661d0
6132a5a21007
61ab7fb1
61b292c7
612c8a52
617401f382c3
b80f7f687b3c
b8b3719a11e4
0012221
0011230
0012500
0018420
0013db4a
70cff6538462
3656721
3648129
36edee2a
36cdaf269be6
36bbeb5e676b
36a64cd83102
a1517f1b1eae
a1ef568c
a1edef1e2de8
a1ff1214fcb7
a1b8571f5e26
a1e816a985fe
52aa85533601
5295ab7c
523acb70934b
525a532e
52240999a2a8
fa3580fa22c2
fa32e5d6dd32
fac2c33c
8e316c8ea14f
2967540c88a6
87fb3150
87e35b57
87cd83be
874c0a78
87de60c4ee51
87ec1dca9133
2686541
2682462
2569480
2563009
b06217f81a83
b066b9b3
b001df794f5b
b0e44ae8
b03036f20981
a6d2fe15
a632db9c5cbd
1357c966
135542a4
4e83daf7
258a0b43
68b928fe
68adf319b082
68d64e065378
68e17e36
6855ec3130d6
8f929d23
8f382cd571d9
8fed200a0b94
8f2d0147a296
a72df015
60df1c66
60ac28f2
604ce4024a61
6090b6314d9c
becee3202f47
be711236
0bf937b83836
0bfe959dadd6
0b9b11f65e74
e6edcdbf175b
e6afa1920cc1
e6e405d0
e60c969bb8eb
271e9b3455ca
9d78e6f052a2
9d2c1d24
9dd170a7e4a7
9d30a2f01ee2
9d3a1548c852
aad2bb5d
aa3b01d2dfba
b2fc192f
b2640e1cde69
b205f1b9
b2fd5162bcba
3bfc957bb0f4
9c3e6d636cd4
9cfb2918fce7
9c375a27275a
a07c9d2957da
ca0058b598bd
ca2bf4e19001
5269bdd6dc13
9bba2bda
afd1bcb5d768
af3b2951e446
af33e530
b4f8851ac580
b40b44ea
b42d00ee2d0f
bb3b395eff72
bb582317
bb9b1821399c
acea4ff050d5
b319eebbd43e
c802891c
c893d1082762
d4353962
d4f8d0c2
d4711539d535
d4f13b7d
d4989512413e
d82f8da75c23
2fc69a6142c9
4a47b276c118
a9fc7a8f
a978ccb6a461
a8e00beeab93
a208479c
ac940fc4
ac21e2d3
d382209d037e
df6910965afa
eae0a39f53f4
3169ebb5
2545b8fd
4ebfefde7b11
8adc0dfea774
8c309b96d32d
83ca2d84
83cb41c5db6d
9921a31a99e8
a55a554c37bf
c538179bfece
c530a5bc9b23
d25b843a0521
d2dc10bf8526
d207f180455f
d29551028f51
095809a52794
1b922ef51b5e
1b9515b1bf6e
1b3a32c127a6
1b487345
1bb8c7a3
1bf449ae9a56
79d1ce871713
792dd882f3a0
894d043b6f5e
89545a1f
89ec1daeffb9
a3b733a0
a3055c898234
a3fe9ed3
c4a2f013e31d
c4983651f4bd
0913219
719cedca6e55
a40c78d6
a4e8ac3714d7
a4ae0ee3bac9
a450edda2fa5
bc51e9df
243447da
45715b8acf08
4d87d4f024b3
5cb84c28
5c5129a0
5c0b217a
675d3c38eba9
67a9df287f2e
b6883fec
f1390dba7faf
f1a9d0a3519d
f1971a67
f1f8bad1
f152f651
f13c3af17b9e
f8409217
f8584e777993
f8bd94554273
f8e539929139
0e06bc07
0ef565d09903
048f93d6
0481a374037e
2aa79807
2aa71067f9db
278d9036
23157160
3feca48ba5eb
3fdad801
3f4867ee
3f6833ea9a63
434ba9f2
5e9c11ed5386
5e914d03
5ef157eab7d6
65523c61
65069ce80588
653be17f284e
6554b6f0ad80
65371ef51485
7235e8f971c2
72b8a4ef98e3
72787269d268
c6a7460afa4b
c632929d
d7f4eacc
d7729064
d724a3bd
d7500c235d6d
d7c8f313cb46
e133e2c7
e1e06c5f0951
e1ed14e1c957
ecfa82136c36
ec90bc75
ea1c90040ac5
f34c1523
f3f26df71d39
0f33968d
0f35e15e1e69
0f3393afea8a
0f32e2d3cdf3
237f279bf011
2970b44b2293
298721cb
298d46ee7b78
3925b7f53c24
3029fcaa
408beb7b
408a6a0be215
437ba7af
5e00108a6950
61196723
740cb3b4fc82
74ee69bd
7bd2f7658191
7bdcdcb86011
7b37baa4daa0
77d6ad13
7759d8eaea76
77cc3c0e
c1a9a7e5
c154341ae628
c1f5d19ffffa
ebd68e1c
eb4d1c93b951
ebd71dd0701a
eb30dacc7512
e8a40430
e840cb3c
e8586e79
e8ae3afad120
e8da7500e084
f632ae73
f6a1577b69fa
f6f1041ea6a9
fbfbe68a
fb97a076217a
fb28eaafb152
f25b814c
f2bc3079f9dc
fca442499379
fc64a697
fc2155379490
1d2c4baee0e2
1d9beaae3f62
1977990
1714e9d2
2fd6c7c9a812
2f74dfc5fb04
2d4c68d5
2d183073
2dfe526b6ea2
2d5a3509a95c
227bbbf75c6a
2325919
228f3dc94aa7
3520ffde
493775eb
494aad29e9c8
5717a1e6192a
64dca5a6
6429d34f0c00
6c3203d9
6cf7122af137
6cf1a1d4
75353906
826238fb
8d41b2009f52
8dfa8b9a257f
826ee5b5cda3
cf6215b828d5
cf37fdf05e3b
db3339d55f20
dbf0e4581302
d855b3bd8b32
d85babef55fd
d8c89db36e91
ddda131082d0
e557cd23be7c
e5a94766
ee54c54f
ee5c41be4832
eef9a76b64aa
fdce3253364e
fd90d85b53b8
428f28af
853b0890e9b3
853fc2a05d1a
1ff7c697
1c377762514f
1cf11429
1cbcfc19
2be754c45c65
2b589ba2
2bad37034b98
2a3dc421
2a21b015c00f
2e68b02f
2ecea551f621
2e0ee6a8999b
2902d8353ff0
3e3c7c22493a
338464ef9cd3
44d3573a
5bb78d63
5b3396e6
5b4163055d4f
5b329ba18a74
5af8f9a2
5a07a611b661
5a32f601
518f5471932d
6a27e91d
6a5adc12de51
778a3f3a
771deb7a911f
84679675701e
99450b2985aa
9a81977fe6df
914e6415fc66
bfe48408736
bf214a413669
c7adc0ec
c754e29a
c737cc772580
c792974c7721
e7dbbfbb
e796fbdd
e707f5534120
111f1dc7cd93
53762e6f6f33
3185fa888bac
318ceabc9216
03336d12219e
425db137
0c3547d44422
0b865814f9dd
0b8ca7a93a72
021a4ef7b10c
1013889
30036a6a6bb8
3887ce7544ca
3049300a465d
3bba6e77f57c
376914ef72ec
4caf07985a8c
4ca1aca1
459ea7fd50b7
4a1d5f2d3143
5d48f8fa1156
5d9b49fd5f79
5579c03c
56244e8b4246
528ef2fad42f
5289331a
5286b95b0b8b
6b8b4df633f4
6b8f0c42
618eec0dbb92
76572632
7923c8fc654f
878d8f43
836c25c502ef
872fb05c703c
946e4779c49e
9913cb1d4116
991eae0f992c
9f8918c76841
9063363b678e
906ec38f2389
9bc9f1645c87
9764103e03fa
b28096ffe443
ce2165ef38ad
d50427627932
dc3bb50f
e001afd2caa9
e0ed36e7
e205311b0c37
e207a38c74ab
e23e909271ae
ea4a360f
ea48e83e93d3
eb2ffac6
08190bc9
0812e63e3da0
073373c4af50
0aa909c3e0f6
0a61dd7d4ec2
0d584189dd68
04165c4b235a
0b72aca0
038072fc
2886b8ba
395ef8c3
40c6c6d9
4fae63982e48
508a00a681ad
52403199
6bd81ce33bbc
6b43af9227ab
623d521c
624c74d8
6264d86e
671e38f1
6925aa53232a
6509c7142e16
6c8b83e2
60307fcf
642a43cf8789
79378eb77a59
7939509a0ef2
705dd9dc
70558059a68b
705c94d40e5b
736a41224f70
7fe775ef
767559d9
734525c5d666
7209c14f060d
864352c7e20d
847fd8486d77
8d50d72ad8a1
82adbb1a5a4e
816e73b8
94d476af
97b24561a888
a2c60c94
a2cd93b2
a9c75f3d4f51
b0194200ffb3
b96bfeadd80f
bababf49
b6729aec28e8
bd44e0ae
bd42eb24
bb1ab8b2
bd954933df8f
cc3c0065dcb6
cac3e642febd
cfe3f8388818
c825e8ea
c90aa4eb5986
ca134311
ca10554084c7
c860e116
c8602e922d6a
d06435b1b2c6
d9915932d2ef
ddbf9283
e9d1ee4387d0
e9d2e77a
f53e6f35
f9ac2f26
f9f65e8523ea
fb8227b10886
fb8d5cd6
f3308d3178b4
f334d0f5
168da60fc29d
1874ced07e4d
47727d10
06421a17de6c
2075c365d41a
453f7a2ff027
5109428d
8171d3785f5d
0931c23830a3
0a1c4eeb3626
0b1ebe315af2
1ce9cd0b7a66
2d218d014a8f
3e79db14
3e7b2eaab0db
3bcb41f9
3d9a86685f81
3a634edec172
4d05bae9
5ff477a1
5060aaf4
590f5a586156
5addb7fc
5ad797e1
5e5ecdaede34
5e5dc260051e
6edae7fa4094
694f483a69be
6077e720094b
607c59629638
6066266f5cf9
63231063b762
60baf898
7d5c2feae591
700389a00f34
7dab65fb4130
79805ef8
752e2f6cadde
7d8b43d9b9f7
7761830aba34
716acf433be4
71235d2b0cad
723faf03
7659b6a68386
7f48ea19367d
8faad941
8573119de464
85754923
8de3f18c3c47
8e73c538f3ed
88239694577a
8a8a69bd0e73
94827f0c2910
9023d31d
972078d5
9c9aa8fd7fc5
a46cd51c6ef9
adafc6003e3f
ada6bea727cc
afcd17e1f899
a2297101103f
b0c8e9d7
b43ac80269f1
b3ba022b70e9
b9ba8a260aa0
bf72dda87ce7
bf7664c6b59c
be2a92f487a2
baef5468e91f
c0a17f48
c3d3271ac898
c3de19a2c3c1
c3a9d694d5e1
cf8bc204a371
c58e5c9b
ca8326453c26
ceb9268e1419
c34d22b07019
db8c2aa6d404
d68496f5
d68412f2eb43
d04abd093485
d69dd2fe
d6905cb6d4ad
d3495146717f
eda9c9bc896d
edac629f
e7863a77ef43
e48c5f5d3567
ef1581a27b18
ecaf3e129b33
e234332e
e1bf5ea3149b
ef2e78868ebb
ef2e60a299b0
f74916ccecb1
f68c4f463312
fc1da207fd05
47625eb93b09
25567cf0d2d6
48033a8a2a1c
420bab0a390f
276214bd6c87
4641f556ebeb
385855184318
44a5e5b480d0
2254342e1d40
43a1cc250f36
96bc30db03f0
bd3cf46faf82
b139f832b447
8791d87dd456
a7bc9c5e4bb7
af37a1d6ba75
b56699acc006
c1c1f705552d
44d87bd159d7
6a67d7d38b4b
4fa035362c3b
02daae83
0df5baf1ebf2
0c80f0e615bb
0f283f3da54e
0e6af9fb9fe9
0fcdfd749a0b
1fa4f55e65bf
1a9e1213782d
1da5848255ad
14c5efcb
1960a118b189
1ff36bf2933b
1f2097469a7c
1f17a76796c2
1c87adfebbb8
1b23edc89a22
22c39d61951c
23da89895861
2cec6db128b4
24ca4623fd72
2a7d15fed576
2ad3e38efe55
2ac72c996398
2b9a55011df9
2b1671a84c8c
2922ac5b9b02
2bf4c115fa33
2f5f9bb45081
23c5688aa673
32c91302df8f
3e488ee5
3b7b89a80422
3b80b5679f24
308202e3
3a70d8d83d15
32d71807
3d8133877961
33fbf450d6e6
3e10a534
3fca98c283de
3f527a2a8b71
3910faa34e1f
3661c420a8dc
3dcad21d7ec7
3f6fa9745739
3c1f3be374f6
5d6828cbba7a
5b050607d370
5f1c2027
5203fb4ac0be
5ef03afab0cc
5c7fbf5b2254
5e9af23a108d
5d7f0956db98
52b5613d3ca3
5e6e042b
5fbedba613e8
52175b593775
5fdf9c6b9127
5f3e1ca859f8
69c4c624c06a
688d2ba433a9
65a69b992bed
6d4b4d6e0e20
6b1da21ed657
62ff267f
6effcc9d83ae
62af7d642a7b
61dedce20abb
69e0e9be0a4f
67506f9d
600437e9783c
64a66da68a4c
6e610a81
60be2ce9a95a
7db91c3346ad
75bc6269
73a9f1bba99b
7b7a345b5363
7dc005447ea2
7f1bf20500fa
7de7e498d150
707b6cbd
70449016967f
7bc12e7a8d3f
7ee56f12
7e9b0d955ed5
71da45452ed9
7fff9d651004
7e88582d0bb7
753ae149ae99
7c6d747c60e4
8e476a256e94
839bd045d819
8913af36
833a63040442
8c63771bfba2
8d9dee338ac5
8a5171be5f2b
820d3996fbd5
901b07b280e3
9ac51c2dd13e
9a79b10195a3
9d503ada7bd7
90bca57d9a71
9c554d8fd072
9edfcacccef0
9b16f72e5f89
9f437d384256
Running
a18dc824d5d6
a31eb8cb0765
aeef024c256d
abd9d158342d
a444c98d
ac59537fe21d
a5562aa4043a
a17329409763
a75a73d748d1
ac3f76b8158f
b2c15eb943e1
b93e2bb5e478
b00558282857
bca155244bd5
ba8d95d524b7
bd5f7c53340f
bb238982ede4
b16e8403
b2bd82f6405c
b42782557681
bc948fd71044
bb6e7d306da7
ba8597cd9982
ca9e05ab4015
c5b0416e7ccf
cdc88a711208
c37a92070a7d
c52a31aa
c31e22012a78
c261235ec80d
c6700d4f
cc6fe0a37a8f
c5eea0f38b6d
c19ea4219fed
c77665c9
c16ad91da03b
c03051136e9f
cd7b7c6cb78f
c73cae0553a2
ca24828e3c80
cf3effe66eca
c2b484e85dc8
cf6531c50564
c0f7a277825c
db04e8dbb2af
dec44f304472
d74ab24c21d3
d43250af4408
d211dd344679
de85ec43c8a2
d5237bd7440c
d07c2e4a7ba3
dbc1c4a7bd5c
dcc23dfa73a8
dfd5a30c2f8a
d5c81daba5b8
d14563ca6caf
ddf39b33b35d
dc1235c5afb2
dc75766e
d2bb7e7e030c
d75e8afd0252
d49e438497b5
dbe000a41209
d008e01c9690
d94ba87be696
d4cc01f20eff
eb045220
edab3801c067
ed0b5830
ea8e1e300efe
ec6985d42d5d
e5c54f7e9d21
e4466158c607
e4b32d472053
e1632f23d1fc
e3e042c71543
e2e335d1
edd5ae651f45
e813b34f0c7e
e246c01b5d70
e9483f37cb85
e2911d09417d
eac55b56f73e
f41b090acc76
f782858bd4d1
f486a199
fdc4a4bb19fd
f642cadd
ff1bc11eb114
f95959dedc24
flavors
ffe3e7b2
fe84b2fdfa12
f9bed26f5ac9
f59ac7acc66d
ff7fea96847c
f29a252fd887
fd70d0b5
fc3464cd
f6cda1e13ce8
fdb1b2f47c00
fe8b37e64ecf
ffb90c9b978e
fec7ab6cdc78
fb22ed4200f4
public
0524abc6f12a
11a437e1063a
11f1ccb2bf27
112d8c56c41e
11fcde3d69a8
11bd590c2711
117bf8e53a94
109150d3fe46
54f619e0e2b5
2576b3bc286f
55fb03247cd9
184dfc5d16e9
18d453e4401e
18d9d9b22c0f
18959debb717
47e8d1a1f2b5
47d8fbb230ff
586f5a78abe2
06c7f011ac6c
06fea8c77326
4058e0fceb0c
40333f767ebd
17dccfff1ffc
21d7e739ad43
413e4bc76c8f
41c58b20e80b
26c8e64d49fc
267474bbb155
4c24686d8b68
4c1a0d757007
37286386e48c
37be960fd707
460aa91f24ae
b6efeba3bad2
91ba6e0f6675
bfe484087365
